/* SPDX-License-Identifier: GPL-2.0 */
/*
 * Copyright (c) 2020 MediaTek Inc.
 *
 * Author: Ya-Wen Hsu <Ya-Wen.Hsu@mediatek.com>
 *
 */

char fdvt_kernel_bias_loop73_1_frame01[] = {
0xfd,
0xfd,
0xfb,
0x08,
0x07,
0x07,
0xff,
0xf6,
0x08,
0xff,
0xfc,
0x0c,
0x02,
0x01,
0x04,
0x09,
0x00,
0x0f,
0x0b,
0x00,
0x0d,
0x00,
0x0a,
0xfc,
0xfc,
0xfb,
0xfb,
0x08,
0xfe,
0x0d,
0xfa,
0xed,
0xf9,
0xf4,
0xf9,
0xff,
0xf4,
0xf8,
0xfa,
0xe8,
0x0c,
0xf6,
0xfd,
0x06,
0xfe,
0x00,
0x04,
0x05,
0x00,
0xf8,
0x07,
0x01,
0xfa,
0xfd,
0x17,
0xf7,
0xfc,
0xfc,
0xeb,
0x0b,
0x02,
0xfd,
0xf3,
0xee,
0xf5,
0x01,
0xed,
0x00,
0xf4,
0x06,
0x02,
0x08,
0xfd,
0x0b,
0x01,
0xf5,
0x09,
0xff,
0x07,
0xf2,
0x06,
0x02,
0xf1,
0x06,
0xff,
0xff,
0xfe,
0x0b,
0x07,
0x01,
0x06,
0x00,
0xfb,
0xf2,
0x04,
0x04,
0x00,
0x07,
0x05,
0x01,
0xf0,
0xfc,
0x0a,
0x15,
0xf0,
0x05,
0x06,
0x05,
0x00,
0x06,
0xf9,
0xfa,
0xfc,
0x04,
0xf4,
0xfe,
0x00,
0xf5,
0x04,
0xfb,
0xfc,
0xf9,
0xf9,
0x04,
0x04,
0xff,
0x00,
0xfa,
0x04,
0x02,
0x00,
0x05,
0xfb,
0xf9,
0xfa,
0xf5,
0xf3,
0xfe,
0x01,
0xf7,
0xf3,
0x02,
0x04,
0x02,
0x01,
0xfc,
0x02,
0x04,
0x06,
0x00,
0xfe,
0xfc,
0x05,
0x07,
0xf9,
0xfb,
0x06,
0x08,
0x02,
0xfd,
0x00,
0x02,
0x05,
0xff,
0x00,
0xfb,
0xfb,
0x03,
0x0c,
0xf2,
0x05,
0x08,
0xf8,
0xf4,
0xf7,
0xf5,
0x04,
0xf8,
0xf0,
0xfa,
0xf5,
0xfd,
0x00,
0x02,
0x02,
0x05,
0x0f,
0xf6,
0x05,
0x00,
0x00,
0x06,
0x03,
0x09,
0xe9,
0x05,
0x00,
0xfe,
0xfa,
0x06,
0xfd,
0xf0,
0xfe,
0x00,
0x00,
0xfe,
0xfd,
0x09,
0x04,
0xfe,
0x02,
0x01,
0x00,
0xfa,
0x03,
0xfd,
0x07,
0xf9,
0x00,
0x09,
0x09,
0xf6,
0xf2,
0x02,
0x08,
0xf9,
0x0d,
0x04,
0x06,
0x01,
0x05,
0xf8,
0xf9,
0x09,
0xfa,
0xff,
0x06,
0xfc,
0x01,
0xf1,
0x08,
0x02,
0xfe,
0xff,
0x01,
0x09,
0x1d,
0x13,
0x03,
0x00,
0xf9,
0xfa,
0xfb,
0x0e,
0x13,
0xf3,
0xfd,
0x00,
0x10,
0x07,
0x00,
0xff,
0x0a,
0xf9,
0xfc,
0x03,
0x08,
0x02,
0x04,
0xf8,
0xf5,
0x0d,
0xfe,
0x00,
0x00,
0x0a,
0x00,
0xfb,
0xf2,
0x0a,
0xfc,
0xfb,
0x01,
0xfd,
0xff,
0xfc,
0x01,
0x08,
0xff,
0x00,
0xfc,
0x08,
0xf8,
0x02,
0xf7,
0xf3,
0xf9,
0xf6,
0x01,
0x05,
0xfd,
0x00,
0x05,
0x00,
0x04,
0xf8,
0x05,
0xfd,
0x02,
0x00,
0xf8,
0x05,
0xfe,
0xf7,
0xf3,
0x05,
0x0d,
0x06,
0xfe,
0x05,
0x01,
0x03,
0xfb,
0xfc,
0xf6,
0xfe,
0x00,
0xfe,
0xfd,
0xf8,
0x09,
0x0a,
0xec,
0x05,
0x0b,
0x08,
0xfc,
0xff,
0x07,
0x03,
0xfa,
0xf5,
0xfb,
0xf4,
0xf4,
0x01,
0x0d,
0x00,
0xfd,
0x0c,
0xe9,
0x0d,
0x01,
0x02,
0x04,
0x04,
0xfc,
0xff,
0xfe,
0xfc,
0xf8,
0xf8,
0x01,
0x08,
0xf3,
0x00,
0x05,
0x0b,
0x07,
0xfb,
0xfb,
0x07,
0x0c,
0x00,
0x07,
0xed,
0xf9,
0xfa,
0xfb,
0x06,
0x01,
0xf5,
0x07,
0x00,
0x00,
0xf2,
0x12,
0x01,
0x07,
0x02,
0x02,
0xfa,
0x03,
0xfe,
0xf6,
0x05,
0xf3,
0x05,
0xfb,
0x0a,
0xff,
0x01,
0x05,
0xfb,
0xfd,
0x04,
0x09,
0xfd,
0xfa,
0xfb,
0x03,
0xfa,
0xfb,
0xf8,
0xfb,
0xff,
0xf9,
0x02,
0x05,
0x03,
0x08,
0x04,
0xf6,
0xf6,
0xf0,
0x0e,
0x04,
0xea,
0x07,
0x07,
0x06,
0xf1,
0x05,
0xfd,
0x0e,
0x04,
0x06,
0x0c,
0xfb,
0x04,
0x0a,
0x05,
0xff,
0xfc,
0x0a,
0x01,
0x00,
0xf8,
0x08,
0xff,
0xfc,
0xfa,
0xf6,
0x04,
0xfe,
0xfb,
0xfc,
0x00,
0xfb,
0x00,
0x04,
0xff,
0xfa,
0x02,
0x06,
0xf9,
0xf3,
0xfc,
0x03,
0x00,
0xfd,
0xfe,
0xfe,
0xf2,
0x0a,
0x05,
0xf0,
0x04,
0x03,
0x04,
0x06,
0xf7,
0x09,
0x05,
0xfa,
0x07,
0x09,
0xfd,
0x06,
0x06,
0x06,
0xf9,
0x03,
0x01,
0xff,
0x02,
0xfd,
0xf7,
0xf3,
0x02,
0x01,
0x03,
0xff,
0x0d,
0x09,
0xff,
0x03,
0x0e,
0x07,
0xf1,
0xfe,
0xf5,
0xf2,
0x09,
0xfe,
0x07,
0x02,
0xff,
0xfa,
0xfc,
0x19,
0x20,
0x08,
0x06,
0x2a,
0xf9,
0xfe,
0xf6,
0xf4,
0x01,
0x0e,
0xfe,
0x0f,
0xeb,
0x18,
0x02,
0x02,
0xfa,
0xfb,
0x20,
0xfa,
0x13,
0x13,
0xfa,
0xf9,
0xf9,
0x04,
0x02,
0xf0,
0x09,
0x01,
0xfe,
0x0c,
0xef,
0x00,
0x09,
0xea,
0x07,
0x10,
0x0f,
0xe9,
0xfc,
0x06,
0xfb,
0xe0,
0x01,
0xfd,
0xf2,
0x00,
0x0a,
0xf4,
0x0a,
0xea,
0xf9,
0x02,
0xf0,
0x0f,
0x19,
0x08,
0x11,
0xfd,
0xfe,
0xf5,
0xe1,
0x0a,
0xf2,
0xfd,
0xf6,
0xf8,
0x22,
0xf0,
0x07,
0xf2,
0xf1,
0xf1,
0xff,
0xfb,
0xed,
0xd9,
0xfc,
0x04,
0x2d,
0xf9,
0xf5,
0x0a,
0xf8,
0xf1,
0xfa,
0x15,
0x0a,
0x0d,
0x05,
0x07,
0x09,
0x0b,
0xf0,
0xed,
0xf8,
0xf5,
0x01,
0xf8,
0xf7,
0x00,
0xfa,
0x14,
0xf3,
0xf8,
0x0a,
0xea,
0xea,
0x1d,
0x0c,
0xf8,
0x0c,
0x01,
0x08,
0xf0,
0xef,
0xef,
0x05,
0xf1,
0x11,
0xfe,
0x05,
0x03,
0x10,
0x00,
0x0b,
0x10,
0xf4,
0xfa,
0xe9,
0x01,
0x00,
0xfd,
0x0e,
0xe9,
0xfa,
0xf1,
0x08,
0xee,
0x05,
0xed,
0x0f,
0x0c,
0xf3,
0xe2,
0xf7,
0xe3,
0x08,
0x0a,
0x00,
0x07,
0xff,
0x03,
0x05,
0xeb,
0x06,
0x05,
0x0e,
0xfc,
0xfe,
0xf7,
0xef,
0x09,
0x04,
0xfc,
0x14,
0x03,
0xf6,
0xf5,
0x09,
0x21,
0x09,
0x08,
0x0d,
0x08,
0xf9,
0xf2,
0x15,
0xef,
0xf4,
0x06,
0xf8,
0xf8,
0x19,
0x0c,
0x06,
0xf2,
0x04,
0xfa,
0xfd,
0xf2,
0xeb,
0x07,
0x04,
0xf5,
0x01,
0xe2,
0xf9,
0xe6,
0xf6,
0xef,
0x03,
0x13,
0x09,
0x05,
0x15,
0xfe,
0xec,
0xfa,
0x00,
0x0c,
0x14,
0xf0,
0x08,
0xf1,
0x17,
0x12,
0x15,
0xf1,
0xf1,
0xf9,
0x13,
0x09,
0x12,
0xf3,
0x1a,
0xe7,
0x07,
0xf8,
0x07,
0xf0,
0x00,
0xf9,
0xff,
0x0e,
0xf8,
0x05,
0xfa,
0x15,
0xf7,
0x19,
0xfa,
0xfe,
0xfa,
0x16,
0x00,
0x00,
0xfc,
0x00,
0x07,
0xfe,
0xf6,
0xfa,
0xf7,
0x08,
0xfc,
0xf6,
0x02,
0x02,
0xff,
0xeb,
0xfe,
0xff,
0x08,
0x05,
0xfe,
0x03,
0xfe,
0x00,
0x07,
0xfb,
0xfd,
0x02,
0xf0,
0xf8,
0x03,
0x04,
0x00,
0xfc,
0x0d,
0xf6,
0xfd,
0xf8,
0xf9,
0x05,
0x0d,
0xfd,
0x01,
0x05,
0xfa,
0x09,
0x0a,
0x05,
0xf7,
0xf5,
0x05,
0xf6,
0xf9,
0x02,
0x06,
0x09,
0x0b,
0xf0,
0x04,
0xf4,
0x0e,
0xfc,
0x01,
0x15,
0xfb,
0x06,
0x00,
0xff,
0xf4,
0x02,
0x01,
0xf2,
0xfb,
0x02,
0x05,
0xff,
0x13,
0xfb,
0xfb,
0xf4,
0xff,
0x0c,
0xf7,
0xf8,
0xff,
0xf9,
0xfa,
0x05,
0x0a,
0xee,
0xfc,
0xfd,
0xfa,
0x08,
0xfb,
0xfc,
0x07,
0xfe,
0xfe,
0xfc,
0x01,
0xfa,
0xf5,
0x12,
0xeb,
0x06,
0x08,
0x04,
0x08,
0x0d,
0x11,
0xf4,
0x0d,
0x08,
0x05,
0x14,
0x03,
0x06,
0x05,
0xf5,
0xf0,
0x04,
0x08,
0x05,
0xfe,
0xfc,
0xf6,
0x04,
0xfd,
0x03,
0xf8,
0xf9,
0xf3,
0xfb,
0xfa,
0x08,
0x02,
0x04,
0xfc,
0x00,
0x0c,
0xf8,
0x04,
0x05,
0xfd,
0xfd,
0x05,
0xf8,
0x09,
0x04,
0x0f,
0x03,
0xf6,
0xf9,
0xf8,
0x02,
0xf7,
0x05,
0x03,
0xf7,
0xfe,
0xfd,
0xf3,
0xfb,
0xfc,
0xff,
0x03,
0xfb,
0xfa,
0xf9,
0x05,
0x00,
0xf9,
0x06,
0xfb,
0x00,
0x02,
0xfa,
0xfa,
0xed,
0xfd,
0xfd,
0xfd,
0xff,
0x0a,
0xeb,
0x05,
0xef,
0x0c,
0xfe,
0x0a,
0xf7,
0xfd,
0x08,
0xf6,
0x02,
0x0b,
0x02,
0xff,
0xf8,
0xf5,
0x03,
0x03,
0xf8,
0xfe,
0x12,
0xfe,
0x04,
0xfb,
0xfe,
0x0b,
0x01,
0xf5,
0x04,
0xef,
0xfd,
0x05,
0xf3,
0xfb,
0xff,
0x07,
0x09,
0x0e,
0x0d,
0x10,
0xfb,
0x03,
0xf6,
0xf6,
0x07,
0x00,
0x01,
0x02,
0x02,
0xfd,
0xfb,
0xfc,
0x01,
0x0b,
0xf3,
0x00,
0x09,
0xfc,
0x1f,
0xf2,
0x0a,
0xfb,
0x1a,
0xf9,
0xfe,
0x1e,
0xfa,
0x05,
0x00,
0xfc,
0xff,
0x05,
0xf9,
0x08,
0xfb,
0x03,
0xff,
0xf8,
0x0e,
0xf7,
0x02,
0xf9,
0x03,
0x01,
0xf9,
0xfb,
0x07,
0xff,
0xff,
0xfa,
0xf7,
0xfb,
0x02,
0x06,
0x07,
0xff,
0xfa,
0xfe,
0xfc,
0xf1,
0xf7,
0x07,
0xf6,
0x07,
0xfb,
0x07,
0xfb,
0xfb,
0xf4,
0x00,
0x09,
0xfa,
0x01,
0xff,
0x04,
0x02,
0xff,
0xfb,
0xf7,
0xfa,
0x09,
0xe8,
0xfb,
0x00,
0x02,
0xfd,
0xff,
0x00,
0x04,
0xfc,
0x0d,
0xef,
0x06,
0xf8,
0x13,
0x08,
0x0b,
0xf2,
0x00,
0xf9,
0xf1,
0xf7,
0x0c,
0xfa,
0x01,
0x09,
0x03,
0xf9,
0xff,
0xfb,
0x01,
0x02,
0xfb,
0xf9,
0x09,
0xfa,
0xf6,
0xf5,
0x12,
0xf6,
0x09,
0xf2,
0xfc,
0xf7,
0xf3,
0x03,
0x03,
0x06,
0x01,
0xfe,
0x07,
0xf9,
0xfe,
0x04,
0xfa,
0xf6,
0xfc,
0xfc,
0xf9,
0xf6,
0xfe,
0x01,
0x03,
0xf5,
0x01,
0x0d,
0xfd,
0x09,
0x04,
0x05,
0xf0,
0xfb,
0x0e,
0x02,
0x0a,
0x07,
0xff,
0xfb,
0x00,
0xfc,
0xf7,
0x0b,
0x08,
0x00,
0xff,
0xfd,
0xf8,
0x01,
0xf4,
0x11,
0xfe,
0xf4,
0x06,
0x12,
0x04,
0x03,
0xfc,
0xfd,
0xfd,
0x07,
0xf9,
0x04,
0xfe,
0xf5,
0xfe,
0xfa,
0xfd,
0xfc,
0xfd,
0xf4,
0x08,
0xf8,
0xff,
0xfe,
0x04,
0xff,
0x01,
0xf9,
0xf6,
0x13,
0x00,
0xfd,
0xf7,
0x02,
0xf7,
0xef,
0x07,
0xf5,
0xf9,
0xfe,
0xf6,
0xfc,
0x07,
0xf4,
0x0a,
0x04,
0xe9,
0xfd,
0xfb,
0x04,
0xfd,
0xfe,
0x0a,
0x00,
0x08,
0x08,
0xfb,
0x03,
0x02,
0xfd,
0xfd,
0xff,
0xfa,
0xfe,
0x04,
0x02,
0xfd,
0x00,
0x01,
0x01,
0x02,
0xfb,
0xff,
0x00,
0x02,
0xff,
0xf5,
0xfc,
0x02,
0xfb,
0x0a,
0x0a,
0xfd,
0x01,
0x08,
0x06,
0xf8,
0x00,
0xfd,
0x0c,
0xfb,
0x03,
0x08,
0xf8,
0x00,
0xfb,
0xfd,
0xf9,
0xfa,
0x07,
0xff,
0xfd,
0x03,
0x08,
0x03,
0x03,
0x10,
0x0a,
0xef,
0x0a,
0xf6,
0x01,
0xfe,
0xfd,
0x0a,
0x05,
0x06,
0xfd,
0xe7,
0xf7,
0x01,
0x06,
0xfe,
0xfd,
0x41,
0xf8,
0xe3,
0x08,
0xed,
0x29,
0xe9,
0xfa,
0xea,
0xfa,
0x06,
0x03,
0x0b,
0x0c,
0x05,
0x00,
0x02,
0x01,
0xf5,
0x09,
0xe7,
0xfe,
0x05,
0x05,
0x0e,
0xfe,
0x06,
0xf0,
0xf0,
0xed,
0xf8,
0xf3,
0xed,
0xfd,
0xf0,
0xfc,
0x00,
0xf6,
0xe3,
0x1c,
0xea,
0xe6,
0x09,
0xee,
0x0a,
0x19,
0xf9,
0xf9,
0x0a,
0xfe,
0xff,
0xe8,
0x1a,
0xf8,
0xfd,
0x0e,
0xfa,
0xfc,
0xfd,
0x07,
0xed,
0xff,
0x04,
0xfc,
0xfe,
0xfb,
0x01,
0xff,
0xfc,
0x11,
0x09,
0x07,
0xf3,
0xf9,
0x1d,
0x0d,
0x00,
0xff,
0xf6,
0xf1,
0x03,
0xf3,
0x0d,
0xf7,
0x08,
0x13,
0x18,
0xe6,
0x04,
0xe9,
0xf4,
0xfe,
0x0f,
0xe4,
0x10,
0x16,
0x03,
0x17,
0x02,
0xf7,
0xe9,
0x0c,
0x0e,
0x18,
0xe8,
0xf4,
0x0b,
0x0d,
0x08,
0x0c,
0x01,
0xf7,
0x13,
0x16,
0x0c,
0x03,
0x07,
0xfe,
0x00,
0xfe,
0xf6,
0xf7,
0x01,
0x18,
0x06,
0xff,
0xf8,
0xfd,
0x19,
0x00,
0x02,
0xf6,
0xfc,
0x00,
0xf9,
0x06,
0x05,
0x00,
0x01,
0xfd,
0xff,
0xeb,
0x02,
0xfa,
0x00,
0x06,
0xf8,
0x1e,
0x02,
0xdf,
0x11,
0x03,
0xe9,
0x02,
0xfe,
0xfd,
0x0a,
0x17,
0xf8,
0xfa,
0xf7,
0x0f,
0xf7,
0x03,
0xf0,
0x20,
0xf2,
0x01,
0x01,
0xf2,
0xf7,
0x06,
0x0c,
0x04,
0x01,
0x02,
0xf8,
0x02,
0xec,
0x0a,
0xf9,
0x01,
0x03,
0x09,
0x06,
0xf2,
0xf3,
0xf1,
0x09,
0xe6,
0xf4,
0x03,
0x0d,
0x13,
0xe1,
0x0c,
0x05,
0xfd,
0xf8,
0x09,
0x02,
0xff,
0x07,
0xf6,
0xfc,
0x0a,
0x00,
0xf8,
0xfc,
0x0c,
0xf2,
0x03,
0x00,
0x0b,
0x22,
0xf7,
0xfa,
0xfc,
0x09,
0xf4,
0x03,
0x1b,
0x15,
0x01,
0x09,
0x03,
0xfd,
0xf9,
0xf4,
0x02,
0xf1,
0x19,
0x08,
0xf8,
0x0d,
0x09,
0x24,
0xf7,
0xfa,
0x00,
0x06,
0x16,
0x0e,
0xe8,
0x00,
0xfb,
0xf3,
0xfe,
0xf6,
0x00,
0xeb,
0x35,
0xfe,
0xe8,
0x06,
0x1a,
0xf2,
0xe4,
0x48,
0x0a,
0x25,
0xf9,
0x01,
0xc3,
0x26,
0x46};
