/* SPDX-License-Identifier: GPL-2.0 */
/*
 * Copyright (c) 2020 MediaTek Inc.
 *
 * Author: Ya-Wen Hsu <Ya-Wen.Hsu@mediatek.com>
 *
 */

char fdvt_kernel_bias_loop36_0_frame01[] = {
0x11,
0xe7,
0xe9,
0x12,
0x07,
0xda,
0x19,
0x10,
0xfc,
0x06,
0xfe,
0xeb,
0xf0,
0x00,
0xf3,
0xf2,
0x02,
0xfc,
0x1f,
0x09,
0xfb,
0x0b,
0x16,
0xe7,
0x2a,
0x11,
0xdc,
0xc1,
0xdc,
0x08,
0x02,
0x02,
0x0f,
0x2b,
0x04,
0x04,
0x09,
0x0c,
0x08,
0xf3,
0x03,
0xf1,
0x02,
0x0a,
0x08,
0x07,
0xfd,
0x02,
0xff,
0x04,
0x0b,
0xff,
0x02,
0xf7,
0xee,
0x13,
0x05,
0xeb,
0x09,
0x0f,
0xfa,
0xf8,
0xe6,
0xf4,
0x02,
0x05,
0x06,
0xfa,
0x01,
0xed,
0xf0,
0xf3,
0x0b,
0xf3,
0x1c,
0x19,
0x10,
0x08,
0x16,
0x0a,
0xff,
0x10,
0x04,
0xf7,
0xe9,
0xe4,
0xdc,
0xef,
0xe4,
0xee,
0xf0,
0x04,
0x0f,
0x1c,
0x09,
0x13,
0x17,
0x02,
0x04,
0x0a,
0x07,
0x07,
0xfa,
0xfe,
0xf4,
0xe9,
0xf3,
0xfd,
0xef,
0xf3,
0xe9,
0xfb,
0xf8,
0x1f,
0x04,
0x32,
0xe2,
0xdd,
0x05,
0xde,
0xf0,
0xdc,
0x02,
0x25,
0x14,
0xf2,
0xee,
0xef,
0x01,
0xfa,
0x02,
0x0a,
0x10,
0x10,
0x06,
0x02,
0x00,
0x08,
0xdd,
0x0f,
0xfb,
0x03,
0x09,
0xdc,
0x10,
0xe5,
0xfa,
0x01,
0x12,
0xe7,
0x07,
0x0f,
0x09,
0xfe,
0xee,
0xfd,
0x09,
0x0e,
0xf6,
0x00,
0xec,
0xf1,
0xd2,
0xed,
0xef,
0xfb,
0x0f,
0xe2,
0xf8,
0xe0,
0x04,
0x2e,
0xef,
0x05,
0x21,
0x22,
0xde,
0xf5,
0xe5,
0xff,
0xe4,
0xf5,
0xfa,
0xfe,
0x11,
0xff,
0xfc,
0x1a,
0x11,
0x05,
0x11,
0x3e,
0x0d,
0x07,
0x1e,
0x1c,
0x0e,
0x0f,
0x20,
0x2a,
0x08,
0xfa,
0xf9,
0x0d,
0x0e,
0x00,
0x0a,
0x1e,
0xd8,
0xf8,
0xe8,
0xd2,
0xef,
0xef,
0xfd,
0xf1,
0xf8,
0xf4,
0xdc,
0xf2,
0xeb,
0xe9,
0xe8,
0xf4,
0x16,
0x07,
0xf8,
0xfd,
0xfb,
0x0e,
0xf8,
0x09,
0x0f,
0x0c,
0x0c,
0x06,
0x07,
0x0b,
0xf0,
0x01,
0xfb,
0x06,
0x13,
0xfc,
0x04,
0x07,
0x06,
0xfd,
0xfb,
0xff,
0xf6,
0xf5,
0x06,
0xf7,
0x12,
0xeb,
0xe1,
0xee,
0x0d,
0x07,
0xf9,
0x01,
0x0c,
0x0e,
0xf7,
0x13,
0x11,
0x19,
0x0c,
0x0b,
0xff,
0x03,
0x0d,
0xf5,
0x19,
0x20,
0x20,
0x0c,
0x00,
0x15,
0xf6,
0xed,
0x13,
0x07,
0x0c,
0x07,
0x0c,
0xf9,
0x01,
0x03,
0x0c,
0xe8,
0x0a,
0xfe,
0xf7,
0xed,
0xfc,
0xf8,
0xe2,
0xdc,
0x13,
0x0b,
0xc3,
0x1b,
0xf5,
0xfd,
0xf4,
0xf2,
0xeb,
0x2c,
0x1b,
0xe8,
0x0d,
0xf3,
0xff,
0xfd,
0xff,
0xfe,
0x12,
0xf2,
0x16,
0xf9,
0xf2,
0xed,
0xeb,
0x09,
0xf5,
0x02,
0x05,
0xf3,
0xf3,
0x2c,
0x03,
0xea,
0x13,
0x11,
0xf5,
0x0c,
0x1b,
0xfe,
0x06,
0x07,
0xff,
0x07,
0x01,
0xf9,
0xfa,
0x00,
0xef,
0xf0,
0xf9,
0xfb,
0xea,
0x0c,
0x04,
0xfb,
0x08,
0x07,
0x0a,
0x12,
0x11,
0xfe,
0xfe,
0x02,
0xf5,
0x0f,
0x08,
0x0c,
0x00,
0x0d,
0xf9,
0xee,
0xf2,
0x01,
0xf3,
0x0c,
0xff,
0x1e,
0x16,
0xff,
0xf7,
0xf4,
0xfd,
0x05,
0x0c,
0x04,
0xfc,
0x04,
0x01,
0xfd,
0x02,
0xe4,
0x08,
0x02,
0xf8,
0x22,
0x0f,
0xf0,
0xff,
0x0f,
0x00,
0xfe,
0xf7,
0x10,
0xf5,
0xf9,
0xfe,
0xec,
0xe4,
0x03,
0x0e,
0x01,
0xfb,
0xf8,
0xfc,
0xf9,
0x01,
0x37,
0xfb,
0x09,
0x14,
0x00,
0x09,
0xec,
0xec,
0xdf,
0x24,
0xef,
0xfd,
0x25,
0x00,
0xfc,
0xfd,
0x02,
0x01,
0xfc,
0x02,
0xf5,
0xe7,
0xea,
0x04,
0xf8,
0x0c,
0x1b,
0xf3,
0x0f,
0x22,
0xe7,
0x01,
0xfa,
0x05,
0x01,
0x00,
0xfd,
0x04,
0xe1,
0x1f,
0x0d,
0xf6,
0x07,
0x08,
0x07,
0x10,
0xe5,
0x07,
0x0b,
0x0c,
0xff,
0x08,
0x05,
0x01,
0x10,
0xfb,
0xf7,
0x01,
0x08,
0x00,
0x11,
0x06,
0xed,
0xfc,
0x0c,
0x18,
0x12,
0x1c,
0x18,
0x0c,
0x0e,
0x0b,
0xfa,
0xff,
0xfd,
0x11,
0x27,
0x30,
0xf4,
0xfb,
0xe9,
0xf5,
0xf7,
0xde,
0xfa,
0xf8,
0xf3,
0xe8,
0xde,
0xf9,
0xf1,
0xd9,
0x2b,
0x23,
0x0f,
0xfc,
0xc9,
0x17,
0x07,
0x08,
0x06,
0x0e,
0xf2,
0xef,
0xe8,
0xf1,
0x02,
0x09,
0xfb,
0xfc,
0xf7,
0x02,
0x0d,
0xec,
0x14,
0x29,
0x10,
0x14,
0x01,
0x17,
0xf3,
0x13,
0x15,
0xe1,
0xfa,
0xed,
0xe9,
0x17,
0x05,
0xf6,
0xfe,
0xec,
0x00,
0x11,
0xe7,
0xf6,
0x01,
0xf3,
0x00,
0x09,
0xfe,
0xeb,
0xf5,
0xe7,
0xf7,
0xf5,
0x07,
0x15,
0x0d,
0x0d,
0xf5,
0x0a,
0x0b,
0xf7,
0xf9,
0xe8,
0xea,
0xec,
0xf5,
0x03,
0xf5,
0xf7,
0x04,
0x04,
0xee,
0x0c,
0xfb,
0xf1,
0xe5,
0x1e,
0x37,
0xe4,
0xf2,
0x34,
0xe1,
0x05,
0xfe,
0xfd,
0x0c,
0xe3,
0xd4,
0xfc,
0xf1,
0x1e,
0x0b,
0x08,
0x12,
0xfa,
0x09,
0x01,
0x0a,
0xee,
0xee,
0xf3,
0xeb,
0x00,
0xef,
0xff,
0x0a,
0x03,
0x04,
0xf5,
0x04,
0x0b,
0x05,
0xf1,
0x07,
0x04,
0xf4,
0xf0,
0xfe,
0xfb,
0xfb,
0xef,
0xfd,
0xfa,
0x09,
0xfb,
0x0a,
0x0a,
0x08,
0xfc,
0xfc,
0xed,
0x1b,
0x06,
0x0e,
0xfd,
0xfa,
0xfc,
0x07,
0x0d,
0x0c,
0xfd,
0x07,
0xf7,
0xee,
0xe8,
0xfa,
0x27,
0x0c,
0x04,
0xf5,
0x02,
0x11,
0xed,
0x16,
0x02,
0x1b,
0x0f,
0x03,
0x0b,
0x03,
0x09,
0x04,
0x0f,
0x07,
0x13,
0xfc,
0xfa,
0x0d,
0xfc,
0xf4,
0x17,
0x06,
0xee,
0x1e,
0x0b,
0xfa,
0x07,
0x0e,
0x14,
0x07,
0xfb,
0x18,
0xf9,
0xf7,
0x13,
0xf3,
0x05,
0x0a,
0x06,
0x1e,
0x0c,
0x04,
0x0e,
0xf0,
0xe2,
0xee,
0x0b,
0xeb,
0xec,
0x01,
0xe8,
0xf6,
0xf4,
0xfe,
0xfb,
0x0b,
0xfb,
0x08,
0x03,
0xed,
0xff,
0xf9,
0x08,
0x12,
0x01,
0xf1,
0x12,
0xfb,
0xee,
0xfc,
0x0d,
0x13,
0xef,
0xea,
0x05,
0xeb,
0xfc,
0x01,
0x12,
0x03,
0xef,
0xf7,
0xe3,
0x06,
0x28,
0xfc,
0x07,
0x24,
0x08,
0x0d,
0x15,
0x10,
0xfc,
0xfe,
0x16,
0x1d,
0x0b,
0x13,
0x0c,
0xfb,
0xfc,
0xfb,
0xfd,
0xdf,
0xfb,
0x11,
0xff,
0xea,
0xfd,
0x06,
0x04,
0xfb,
0xf4,
0xea,
0xe9,
0xf8,
0xf6,
0xfa,
0xf3,
0x00,
0x12,
0x14,
0x00,
0x20,
0x0a,
0x0e,
0xf2,
0x28,
0xf1,
0xf9,
0xf3,
0xee,
0xee,
0x03,
0xe9,
0xe6,
0xf6,
0x11,
0x0f,
0xfe,
0x04,
0x09,
0xf3,
0xf9,
0xf9,
0xf5,
0xf8,
0xf4,
0x04,
0x0e,
0x15,
0xf2,
0x0a,
0xf2,
0x07,
0x07,
0xf2,
0xeb,
0x05,
0xfd,
0xf6,
0xff,
0x16,
0xd6,
0xf8,
0xea,
0xf3,
0x15,
0xfe,
0x15,
0x13,
0x0b,
0x0f,
0x00,
0xee,
0x00,
0xf5,
0xf9,
0x00,
0x04,
0x14,
0x1d,
0xff,
0xef,
0xf7,
0x06,
0xfe,
0x03,
0xeb,
0x18,
0x08,
0x20,
0x0b,
0xff,
0xfa,
0x0d,
0xfa,
0xfd,
0x08,
0xfe,
0xfe,
0x11,
0xf7,
0xee,
0x02,
0x13,
0x1a,
0xef,
0x00,
0x17,
0xf8,
0x12,
0x0e,
0xf1,
0x11,
0x0c,
0x14,
0xfd,
0xf5,
0x19,
0xd1,
0xd4,
0xb3,
0xec,
0x26,
0x08,
0xd8,
0xdc,
0xfb,
0xfc,
0xd8,
0x0b,
0xff,
0xf6,
0xda,
0xe6,
0xf3,
0xf6,
0xe3,
0xfa,
0xfe,
0xe2,
0xe0,
0xeb,
0x14,
0x00,
0x0a,
0xe9,
0xff,
0x0d,
0x16,
0x0b,
0x1a,
0x06,
0x04,
0x10,
0x22,
0x26,
0x2d,
0x0b,
0x05,
0x17,
0x22,
0x04,
0xfb,
0x1b,
0xe7,
0x00,
0xee,
0xbf,
0xe9,
0xf8,
0xe4,
0x02,
0xec,
0xef,
0xf7,
0x00,
0xe7,
0xc3,
0xd6,
0xdd,
0xd0,
0xf3,
0xfa,
0x09,
0x03,
0x05,
0x07,
0xfa,
0x0d,
0xe8,
0xf8,
0x0e,
0x05,
0x0b,
0xe9,
0x0d,
0xf7,
0xef,
0x0d,
0x05,
0xfb,
0xf2,
0xf6,
0xfb,
0x05,
0xf5,
0xf0,
0x11,
0x1b,
0xf8,
0x07,
0x08,
0xf5,
0x01,
0xf7,
0x12,
0x12,
0x09,
0x0f,
0x0a,
0x12,
0x06,
0xf2,
0x16,
0xf2,
0x11,
0x07,
0x03,
0xed,
0xee,
0xeb,
0x03,
0xf6,
0x03,
0xe4,
0x00,
0xf7,
0xea,
0x0b,
0xe8,
0x09,
0xf5,
0x04,
0x17,
0x0b,
0xf8,
0x06,
0x0a,
0xf5,
0x06,
0x00,
0xf7,
0xfa,
0xf5,
0xfc,
0xf8,
0xee,
0x02,
0x10,
0x04,
0x07,
0x0a,
0xf5,
0xf7,
0xf1,
0xfa,
0xf8,
0xf1,
0xe5,
0x14,
0xfa,
0xf5,
0x06,
0xf5,
0x15,
0xff,
0x00,
0x04,
0xf9,
0xee,
0xfc,
0x10,
0xf2,
0xea,
0xf7,
0xef,
0xef,
0x12,
0xfa,
0xe3,
0x03,
0x01,
0x09,
0x0e,
0xf9,
0xfd,
0x03,
0xe2,
0xf9,
0x04,
0xed,
0x12,
0x18,
0xf8,
0xf1,
0xf5,
0x16,
0x03,
0xff,
0xf9,
0xe1,
0x07,
0x05,
0xff,
0xfc,
0xf0,
0xfa,
0xf3,
0xdd,
0x07,
0xed,
0xeb,
0xf6,
0x12,
0xf9,
0x03,
0xd7,
0x04,
0x04,
0xfd,
0x04,
0x03,
0x06,
0xed,
0x0e,
0xf1,
0x02,
0x10,
0xfa,
0x0d,
0xf4,
0xfb,
0xfe,
0xf6,
0xfe,
0x09,
0x07,
0xf9,
0x0b,
0xf6,
0xf0,
0xf9,
0x0d,
0x00,
0xed,
0x06,
0xe7,
0x0d,
0xf5,
0x06,
0x00,
0xf4,
0xf4,
0xfa,
0xf0,
0xf2,
0xfb,
0xea,
0x15,
0x02,
0x04,
0x12,
0x0e,
0x11,
0xf3,
0x13,
0x01,
0x16,
0xe9,
0xf3,
0xfc,
0x00,
0xf2,
0xcf,
0x15,
0xfa,
0x24,
0x1a,
0x08,
0xef,
0xfb,
0xf7,
0xfd,
0xf7,
0xee,
0x09,
0x0a,
0xed,
0x00,
0xf1,
0xe4,
0x0a,
0x10,
0xf1,
0x0d,
0x08,
0x07,
0x0b,
0x13,
0x14,
0x0e,
0x46,
0x00,
0x04,
0xcd,
0xed,
0xf5,
0x0e,
0x09,
0x05,
0x09,
0xe8,
0x0f,
0x11,
0x13,
0xee,
0xf6,
0x07,
0xfa,
0x02,
0xe9,
0x00,
0xf8,
0xfd,
0xf7,
0xe9,
0x07,
0xef,
0x04,
0x18,
0xfe,
0x00,
0xf7,
0xfd,
0xfe,
0xe6,
0xfd,
0x05,
0x08,
0x01,
0x14,
0x1b,
0x17,
0x01,
0x0b,
0x06,
0x0e,
0x0c,
0x08,
0x02,
0x00,
0xff,
0xf9,
0xea,
0x00,
0xfe,
0xeb,
0x16,
0x0d,
0xfa,
0x01,
0x04,
0x09,
0x0b,
0xfb,
0x04,
0x18,
0x0e,
0xff,
0xe9,
0xf4,
0x03,
0x04,
0x09,
0x08,
0x0c,
0xf7,
0xfb,
0x06,
0xfe,
0xf9,
0xf2,
0xf8,
0x08,
0xe5,
0xf5,
0xf6,
0xe8,
0xfa,
0xf8,
0xf5,
0x03,
0x01,
0xf2,
0xf9,
0xf8,
0x00,
0xf7,
0xf5,
0x17,
0x19,
0x0c,
0xf5,
0x01,
0xf7,
0xf5,
0x0c,
0x08,
0x0a,
0xf1,
0x0f,
0x1d,
0x05,
0x12,
0x1b,
0x19,
0x21,
0x08,
0xe4,
0x14,
0xf0,
0xd8,
0xfa,
0x06,
0xf2,
0xfb,
0x04,
0xf5,
0xec,
0xf9,
0x05,
0xed,
0x02,
0xf9,
0xf7,
0x07,
0xe2,
0xff,
0x35,
0x07,
0xed,
0xfc,
0xfa,
0xfa,
0xf5,
0xf0,
0xfa,
0x05,
0xe3,
0xfc,
0x18,
0x01,
0xf5,
0xfd,
0xfb,
0xf6,
0x25,
0x1d,
0xfd,
0xe8,
0xea,
0x06,
0xf7,
0xfb,
0x08,
0x02,
0xf6,
0x0f,
0x08,
0xee,
0x06,
0x01,
0xff,
0x05,
0xfa,
0xf7,
0xf3,
0x06,
0x01,
0xf6,
0x06,
0x07,
0x08,
0x0d,
0xe3,
0xee,
0xeb,
0xee,
0x01,
0xfd,
0xe9,
0x00,
0x0f,
0x01,
0xf5,
0xef,
0x09,
0xfc,
0xfc,
0x14,
0xf4,
0x00,
0x0a,
0x08,
0x13,
0x0a,
0x15,
0x25,
0x04,
0x11,
0x0a,
0x0a,
0xed,
0xe5,
0xfb,
0xfd,
0x01,
0xfb,
0xf5,
0x19,
0x04,
0xf1,
0x20,
0x08,
0xfe,
0x15,
0x08,
0xf5,
0xed,
0x0c,
0x0a,
0x04,
0x01,
0x0d,
0x03,
0x16,
0xf6,
0xf3,
0xf6,
0x0b,
0xe4,
0xf1,
0x09,
0xef,
0xfe,
0x01,
0x08,
0x19,
0xfb,
0x01,
0x04,
0xf2,
0xfe,
0x04,
0x15,
0xeb,
0xe8,
0x07,
0x05,
0x16,
0xee,
0xed,
0x00,
0x0f,
0x16,
0xeb,
0x0c,
0xf6,
0xf5,
0x05,
0x20,
0x04,
0xfb,
0x13,
0xfd,
0xfa,
0x0b,
0x0e,
0xff,
0xf9,
0x07,
0xf1,
0x08,
0x0f,
0x00,
0x01,
0x15,
0xf7,
0x0e,
0x28,
0xef,
0xfe,
0xea,
0x08,
0xf8,
0xf3,
0x05,
0x11,
0x11,
0xfd,
0x02,
0x17,
0x0d,
0xf9,
0x0f,
0x05,
0xf0,
0x00,
0xec,
0x02,
0xf0,
0xfb,
0x0b,
0xec,
0xff,
0xef,
0x08,
0x1c,
0x03,
0xfc,
0xfb,
0xfb,
0x01,
0x01,
0x0c,
0xec,
0xf5,
0x00,
0x11,
0xe5,
0xe2,
0x09,
0x14,
0xfa,
0x0c,
0x13,
0x01,
0x04,
0xff,
0xef,
0x02,
0xf8,
0xfc,
0x07,
0xf7,
0x06,
0x07,
0xf5,
0xf3,
0xec,
0xf1,
0xfd,
0xe4,
0xeb,
0x1d,
0xf7,
0x05,
0xf7,
0xf6,
0x17,
0xf5,
0x00,
0x16,
0x04,
0x03,
0x12,
0xec,
0x00,
0x10,
0x11,
0xf9,
0x10,
0xe0,
0x05,
0x07,
0xd9,
0x01,
0xf9,
0xfc,
0x0a,
0xed,
0xe8,
0xf8,
0xfe,
0x11,
0x1b,
0x0a,
0x06,
0x20,
0x18,
0xf9,
0xe8,
0xfd,
0xe1,
0x1f,
0x0e,
0xf5,
0xf2,
0xeb,
0x16,
0xec,
0x06,
0xfa,
0x02,
0xf0,
0xd4,
0xfc,
0xf8,
0xf9,
0x19,
0x0a,
0x0f,
0x08,
0xff,
0xf5,
0xf0,
0x06,
0xfa,
0xf0,
0xfc,
0x04,
0x19,
0xfc,
0xdc,
0x24,
0xfe,
0xd3,
0x18,
0xfd,
0x0a,
0xfb,
0xf6,
0x0b,
0xf3,
0x01,
0x0d,
0xf4,
0xfe,
0x02,
0xd6,
0xf3,
0xf3,
0xeb,
0xf1,
0x03,
0xfe,
0x0b,
0xf9,
0x00,
0xf2,
0x12,
0x04,
0xfb,
0x05,
0xfd,
0x05,
0xff,
0x05,
0x02,
0x0d,
0xf9,
0xf9,
0xe6,
0xed,
0xf2,
0xf4,
0x06,
0x19,
0x0e,
0xff,
0xfd,
0x04,
0xf2,
0xe8,
0xe9,
0xf3,
0xf9,
0xf4,
0x00,
0xfa,
0x00,
0xf5,
0x08,
0x0a,
0x0a,
0x0c,
0x00,
0x06,
0x10,
0xf4,
0xf6,
0x05,
0xfa,
0x0c,
0xf7,
0xf9,
0xfe,
0x10,
0xf1,
0xfb,
0x03,
0x1a,
0x0f,
0x00,
0x0a,
0xf4,
0xfb,
0x10,
0xe8,
0xed,
0x07,
0xf3,
0xe1,
0xfc,
0x25,
0xfa,
0x02,
0x15,
0xfe,
0x00,
0x08,
0x00,
0xfc,
0x1b,
0xeb,
0xef,
0xed,
0xf4,
0xf1,
0xde,
0xf1,
0x0d,
0xfd,
0xf7,
0x09,
0xf9,
0xf4,
0x0f,
0x03,
0xfa,
0xff,
0x18,
0x0f,
0xf3,
0xfd,
0xec,
0xe3,
0xff,
0xf4,
0xec,
0x1f,
0xf4,
0x08,
0x19,
0x1a,
0x05,
0x07,
0xfd,
0x07,
0x03,
0xef,
0x0c,
0x1c,
0xf3,
0x0b,
0xf9,
0x01,
0x16,
0xf8,
0x04,
0x0a,
0xf8,
0xef,
0xf2,
0x07,
0xed,
0xde,
0xf8,
0x0f,
0xdc,
0x09,
0xfb,
0x18,
0x0c,
0xf1,
0x01,
0x26,
0x12,
0x02,
0xf2,
0x00,
0x04,
0xf7,
0xf0,
0xf9,
0x15,
0x14,
0x00,
0x05,
0x1a,
0x11,
0xf8,
0x11,
0x10,
0x14,
0x11,
0x1c,
0x04,
0x0a,
0x0d,
0xfc,
0x10,
0x0f,
0xf3,
0xfa,
0x09,
0x03,
0x12,
0x2e,
0xf7,
0xed,
0x11,
0xf0,
0xd2,
0xf7,
0x01,
0xf5,
0xfe,
0xfe,
0xfd,
0xf0,
0x09,
0x03,
0x01,
0x0f,
0x0e,
0xf7,
0x0c,
0xfa,
0xfd,
0xf5,
0x02,
0x0f,
0xfb,
0xfb,
0xf7,
0x02,
0x00,
0x01,
0x0a,
0xfa,
0x0b,
0x02,
0xfa,
0x0c,
0x06,
0x12,
0xfb,
0x11,
0xf7,
0xf0,
0x0d,
0xf5,
0x0d,
0xfb,
0x0d,
0x02,
0xfa,
0xff,
0xfb,
0xf3,
0xf8,
0x0f,
0xf4,
0x06,
0x08,
0x05,
0x06,
0x06,
0xed,
0x00,
0xf8,
0xf8,
0xf7,
0x0a,
0x07,
0xfd,
0xf8,
0xf7,
0x01,
0xd3,
0xf8,
0xfb,
0xed,
0x15,
0xfb,
0x04,
0x04,
0x09,
0xef,
0xfd,
0xfe,
0x02,
0x09,
0x0e,
0xf3,
0xfe,
0xf5,
0xf4,
0x03,
0x10,
0x08,
0xf2,
0x08,
0xfd,
0x01,
0xf6,
0x02,
0x08,
0x04,
0xd5,
0xe3,
0x0e,
0xfc,
0x19,
0xee,
0x08,
0xfd,
0x05,
0x09,
0x09,
0x00,
0x16,
0x0d,
0x02,
0xfb,
0x0b,
0xf7,
0xf3,
0xf5,
0x09,
0x1f,
0xeb,
0xfb,
0x08,
0x0e,
0xf1,
0xe6,
0x0f,
0xfd,
0xf6,
0xe6,
0xf5,
0x06,
0xde,
0xd8,
0xf9,
0xf0,
0xef,
0xfb,
0x0b,
0x2d,
0x07,
0xf1,
0x02,
0x10,
0x16,
0x01,
0x07,
0x06,
0xf6,
0x02,
0xe8,
0x0c,
0x08,
0x1c,
0x04,
0x09,
0x11,
0xfa,
0x03,
0x2b,
0x11,
0xfe,
0x01,
0x0a,
0x04,
0x0e,
0x16,
0x16,
0x0d,
0xf9,
0xfb,
0xec,
0x04,
0xe7,
0x05,
0x03,
0x01,
0xf6,
0x07,
0x0a,
0xe7,
0xe7,
0x02,
0xe5,
0xf6,
0x0a,
0xf0,
0x10,
0x0a,
0x11,
0x24,
0x08,
0x1b,
0x19,
0x03,
0x00,
0xff,
0xe1,
0xfc,
0x0c,
0xf9,
0xf7,
0xfd,
0xec,
0x0b,
0x10,
0x0c,
0x09,
0x00,
0xed,
0xe4,
0xe6,
0x03,
0x0a,
0xf7,
0x0a,
0x0e,
0x07,
0x09,
0x10,
0xfc,
0xf9,
0x02,
0x05,
0xec,
0x0b,
0xff,
0x02,
0x12,
0x0a,
0x07,
0x06,
0x00,
0x0b,
0xf4,
0x07,
0x13,
0x0a,
0x07,
0x08,
0x0b,
0xfd,
0xeb,
0xfa,
0xfc,
0x05,
0xf9,
0xe5,
0x13,
0x09,
0x04,
0x08,
0x0f,
0x13,
0x12,
0xfe,
0xf3,
0xff,
0xff,
0x03,
0x1f,
0x18,
0xe9,
0x0a,
0xe7,
0xf9,
0x0b,
0x03,
0x08,
0x2e,
0xfd,
0xef,
0xeb,
0x16,
0x1e,
0x11,
0x0a,
0x20,
0x08,
0xfa,
0xff,
0x09,
0x17,
0x15,
0xf7,
0x03,
0xf5,
0x18,
0x0b,
0x0e,
0x14,
0xfd,
0x1b,
0xf2,
0x13,
0xfb,
0xe1,
0xf5,
0x0c,
0xec,
0xf3,
0x01,
0x06,
0xf4,
0x02,
0x00,
0x05,
0x09,
0xfc,
0xf1,
0xf4,
0xdb,
0xec,
0xf9,
0xef,
0xfc,
0xf7,
0x03,
0xff,
0x04,
0xea,
0x05,
0x09,
0xfd,
0x04,
0xfd,
0xe4,
0x02,
0x01,
0xed,
0xf0,
0xf5,
0x0d,
0xde,
0xff,
0xfc,
0xf1,
0x09,
0xff,
0x07,
0x04,
0x02,
0x02,
0x0c,
0xf4,
0xff,
0xf1,
0xf4,
0xfc,
0xf2,
0x10,
0xd7,
0xf9,
0xe8,
0xfb,
0x16,
0x1b,
0x02,
0x15,
0x0b,
0xda,
0xee,
0xe4,
0xd3,
0xfc,
0x0a,
0x08,
0xff,
0xfc,
0x13,
0xf5,
0x08,
0x10,
0x07,
0x12,
0xe2,
0xf6,
0xfd,
0xed,
0xe8,
0x12,
0xfa,
0xfb,
0x05,
0x07,
0xf7,
0xec,
0xee,
0x11,
0x06,
0x2e,
0x15,
0x1b,
0x11,
0x0a,
0x05,
0x17,
0x05,
0xe8,
0xf9,
0x07,
0x00,
0xf3,
0xf7,
0x1f,
0x21,
0xfb,
0xee,
0xed,
0x01,
0xfe,
0x0c,
0x0b,
0x16,
0xff,
0x07,
0xfd,
0x1e,
0x0b,
0x09,
0x02,
0x22,
0x25,
0xf2,
0xff,
0x17,
0xf6,
0x01,
0x0c,
0xec,
0xfb,
0xed,
0xe2,
0x01,
0x04,
0x08,
0xff,
0x02,
0xff,
0xf9,
0x02,
0x0b,
0xfc,
0x01,
0x08,
0xf5,
0x00,
0x0c,
0x03,
0x10,
0xff,
0xf9,
0x0d,
0xf4,
0xf2,
0xe7,
0xda,
0x0c,
0xf7,
0x08,
0x18,
0x14,
0x06,
0x08,
0xe4,
0x03,
0x0a,
0x05,
0xf0,
0x1a,
0xda,
0xfc,
0xfe,
0xe7,
0xf8,
0xf2,
0x0b,
0xfd,
0xe6,
0x04,
0xf9,
0xfc,
0x12,
0x08,
0xf9,
0xf2,
0xf0,
0xea,
0xfe,
0xe5,
0x0c,
0xed,
0x01,
0x14,
0xfa,
0xee,
0xef,
0x08,
0xf9,
0x03,
0x00,
0x04,
0x15,
0xee,
0x19,
0xf7,
0xef,
0x11,
0x07,
0x1b,
0xf9,
0xf1,
0xee,
0x02,
0xfc,
0x04,
0x0a,
0xe4,
0x07,
0xff,
0x0a,
0xcf,
0xfd,
0x0f,
0xfb,
0xf9,
0x0f,
0xf0,
0x21,
0x08,
0xf8,
0x06,
0xf7,
0xfb,
0xee,
0x02,
0xfc,
0xf9,
0xf9,
0x03,
0x1f,
0x30,
0xed,
0xf6,
0x12,
0x09,
0x05,
0x09,
0xf8,
0x00,
0x06,
0x17,
0x0a,
0x0b,
0x0f,
0x01,
0x0c,
0x08,
0xfa,
0x15,
0x11,
0xf3,
0xe7,
0xe8,
0x16,
0x09,
0x0a,
0xf3,
0xe7,
0x09,
0x15,
0x18,
0x11,
0x13,
0xed,
0xf5,
0x10,
0x23,
0x00,
0xfa,
0x09,
0x0d,
0x05,
0xfd,
0x28,
0xf3,
0xfe,
0x09,
0x01,
0xf1,
0x2a,
0xfa,
0x01,
0x13,
0xee,
0x03,
0x15,
0xfb,
0x0b,
0xf2,
0xf0,
0xf3,
0xdb,
0xfd,
0xfc,
0x03,
0xed,
0xfa,
0xf2,
0xfb,
0x0f,
0xfe,
0x0f,
0x1b,
0x1c,
0xf9,
0x03,
0x01,
0x10,
0x22,
0xf3,
0xe3,
0xf4,
0x10,
0x05,
0x12,
0x13,
0x03,
0x07,
0xff,
0xf6,
0x00,
0xed,
0xf3,
0x02,
0x03,
0x04,
0xfc,
0xee,
0xf2,
0xf4,
0xed,
0xf9,
0x05,
0xf5,
0xff,
0x05,
0xfc,
0x21,
0xf1,
0xd5,
0x03,
0xd6,
0xb8,
0x05,
0x18,
0xef,
0xf9,
0x06,
0x09,
0x1a,
0xef,
0xf1,
0x22,
0x0e,
0x06,
0x12,
0xf6,
0x0f,
0xf6,
0xe3,
0x1b,
0xd0,
0x19,
0xfe,
0x17,
0x07,
0x07,
0x0b,
0x13,
0xff,
0x2c,
0xd2,
0x10,
0x1b,
0x05,
0xf4,
0x08,
0x01,
0x04,
0x13,
0x08,
0x03,
0xec,
0xf3,
0x04,
0xf4,
0xfd,
0xf5,
0xef,
0x09,
0x1a,
0xef,
0xfe,
0x0b,
0xfe,
0xd8,
0xff,
0x11,
0xfb,
0x0e,
0xf8,
0xf2,
0x1d,
0x06,
0x07,
0x31,
0x22,
0x02,
0xef,
0x12,
0x20,
0xfc,
0x0b,
0xfa,
0xef,
0x06,
0x15,
0x0b,
0xea,
0xe1,
0x07,
0x03,
0x13,
0xfa,
0xf2,
0x0a,
0x08,
0x02,
0x18,
0xe8,
0x0c,
0x03,
0xdf,
0xf8,
0x0b,
0x1d,
0x06,
0xd7,
0xfd,
0xf8,
0xf6,
0x00,
0xff,
0x0a,
0x12,
0x19,
0x2b,
0x07,
0x18,
0x02,
0xfe,
0x06,
0xd4,
0xe3,
0x0d,
0x10,
0xfc,
0xfe,
0xf9,
0xf1,
0x01,
0x02,
0xd7,
0xef,
0x0f,
0xf7,
0xfa,
0xff,
0xf4,
0x09,
0x02,
0x12,
0x08,
0xf9,
0xe9,
0xe8,
0x10,
0xf9,
0x01,
0x1c,
0x2b,
0xd5,
0x07,
0xd5,
0xf6,
0xea,
0xd7,
0x13,
0x0f,
0x16,
0xe8,
0xfa,
0xfb,
0xed,
0xf4,
0xfe,
0x08,
0x0e,
0x15,
0xff,
0x06,
0x27,
0xf2,
0x0a,
0x07,
0xeb,
0xf8,
0xff,
0x0f,
0xfa,
0xfb,
0x09,
0x00,
0xf6,
0xfa,
0xf0,
0x09,
0x08,
0x11,
0x13,
0x0b,
0xf0,
0x05,
0xf5,
0x02,
0xfe,
0xed,
0xdd,
0xe7,
0x06,
0xeb,
0x09,
0x1e,
0xd7,
0x11,
0xf9,
0xf1,
0xe7,
0xd8,
0x00,
0x03,
0xcf,
0x27,
0x01,
0xd4,
0xf2,
0xfc,
0xf2,
0xec,
0xe0,
0x0d,
0xf5,
0xd4,
0x03,
0x03,
0xf0,
0x06,
0x09,
0xf8,
0xfc,
0xf3,
0xdb,
0x08,
0xd5,
0x01,
0xe1,
0xd6,
0x0e,
0xfd,
0xec,
0xe5,
0xea,
0x02,
0x2a,
0x0e,
0x00,
0x02,
0xf7,
0xf0,
0x04,
0x01,
0x12,
0x0d,
0x0c,
0xfc,
0xee,
0x03,
0xf7,
0xf9,
0x02,
0xee,
0xf3,
0xe3,
0xfc,
0xf8,
0xf2,
0x0c,
0xf9,
0x07,
0x11,
0x11,
0x02,
0xfd,
0x05,
0xee,
0xed,
0x00,
0x06,
0xfd,
0xf2,
0xf9,
0xfb,
0xe9,
0xee,
0xfe,
0xe8,
0x09,
0x03,
0xf9,
0xf1,
0x03,
0x08,
0xff,
0xfa,
0x17,
0xce,
0xf4,
0xeb,
0xee,
0xfd,
0xd8,
0xf8,
0x04,
0x1c,
0xe4,
0xfc,
0x0c,
0xfe,
0x08,
0x19,
0xec,
0xf1,
0xfd,
0xfc,
0x07,
0x07,
0x09,
0xd6,
0x1d,
0xf7,
0xd9,
0x0f,
0x0a,
0xfd,
0x18,
0xfd,
0xef,
0x27,
0x22,
0x09,
0xf1,
0x07,
0xfe,
0xec,
0xea,
0xed,
0x0d,
0xf9,
0xfd,
0x14,
0xf6,
0x01,
0xf9,
0x0a,
0x10,
0xf5,
0xfb,
0x0f,
0xfd,
0xe1,
0xdd,
0xf4,
0x04,
0x00,
0x04,
0x08,
0xe6,
0x08,
0x03,
0xf8,
0x18,
0xef,
0xe7,
0xf6,
0x00,
0x17,
0xe6,
0x0e,
0x0b,
0xee,
0xee,
0xf7,
0xef,
0xe5,
0xef,
0x01,
0xd0,
0xe6,
0x10,
0xfe,
0x24,
0x08,
0x1e,
0xf3,
0xdb,
0xe5,
0x04,
0x1d,
0x03,
0xfa,
0x03,
0xee,
0xf4,
0xe4,
0x05,
0x01,
0x08,
0xeb,
0x2a,
0x0f,
0xfd,
0xf8,
0xf4,
0x02,
0x0b,
0xfc,
0xf4,
0xe6,
0xdf,
0x01,
0xff,
0x08,
0xf9,
0x09,
0x05,
0x06,
0x12,
0xf8,
0xfb,
0x09,
0xf6,
0x01,
0x04,
0x17,
0x1a,
0x02,
0x17,
0x11,
0xe0,
0x04,
0x00,
0x03,
0x0a,
0x14,
0x06,
0xe7,
0x0d,
0xfb,
0xe6,
0x33,
0xea,
0x10,
0x09,
0xfe,
0xf2,
0x10,
0x01,
0x04,
0x0e,
0x11,
0x06,
0x00,
0x11,
0x0e,
0x01,
0x19,
0x07,
0x02,
0x0c,
0xff,
0xf3,
0xd9,
0x0a,
0xf5,
0xfb,
0x03,
0xeb,
0xe7,
0x0a,
0xf5,
0xea,
0x04,
0x0a,
0xfb,
0xff,
0xef,
0xf3,
0xf2,
0x03,
0x08,
0xf5,
0x06,
0x0d,
0x0d,
0x1a,
0x2e,
0x14,
0xda,
0x21,
0xe3,
0xc9,
0xf2,
0xee,
0x17,
0xfb,
0xfe,
0xf7,
0xfc,
0xff,
0xf5,
0x12,
0x08,
0xe6,
0xd7,
0x13,
0x0c,
0xf6,
0x07,
0x0d,
0xfb,
0x0a,
0xe8,
0xf8,
0x0d,
0x1e,
0x14,
0x05,
0xf1,
0x10,
0x09,
0xe1,
0x10,
0x18,
0x0e,
0x11,
0xfd,
0xf5,
0x0e,
0x09,
0xe4,
0x0a,
0xf6,
0x12,
0x12,
0xec,
0x07,
0xed,
0xfe,
0xf9,
0xdf,
0xfd,
0x05,
0xfe,
0x08,
0x01,
0x1a,
0x0b,
0xe5,
0xf2,
0x0d,
0xf8,
0xf7,
0x16,
0xff,
0x11,
0xf8,
0xf8,
0xfc,
0xf4,
0xf4,
0x08,
0x01,
0xfb,
0x05,
0xf4,
0x0b,
0xfc,
0xf9,
0xf4,
0xf6,
0xff,
0x10,
0xf7,
0xf7,
0xfa,
0xf7,
0xe5,
0xf2,
0xf7,
0x13,
0x00,
0x09,
0xfd,
0x04,
0xf2,
0xe5,
0xfe,
0xe9,
0xd0,
0xfb,
0x02,
0xf2,
0x0b,
0x05,
0xf7,
0x00,
0xf5,
0xe8,
0x00,
0x02,
0xf2,
0xf8,
0x00,
0xdd,
0x0f,
0xe5,
0x0a,
0x05,
0xff,
0x09,
0x01,
0xff,
0x0a,
0x0e,
0xf9,
0x0d,
0x05,
0xff,
0x10,
0x10,
0xf8,
0x09,
0x06,
0xf6,
0xf1,
0x0d,
0xfe,
0x18,
0x0c,
0x1c,
0x24,
0x00,
0x17,
0x0a,
0xff,
0x0e,
0xf1,
0xf3,
0xee,
0xfc,
0x1a,
0x1a,
0x0a,
0x0d,
0xfb,
0x05,
0x04,
0xe8,
0xe6,
0x09,
0x12,
0x07,
0x03,
0xfe,
0x05,
0x03,
0xf7,
0x00,
0x00,
0xf4,
0x03,
0xf7,
0xf6,
0x02,
0xfa,
0xf7,
0xf8,
0xeb,
0x03,
0x09,
0xf1,
0x21,
0x0e,
0x25,
0xf2,
0xce,
0xf7,
0x01,
0x14,
0x12,
0x00,
0x05,
0x03,
0xf1,
0x11,
0xf0,
0xfc,
0xfc,
0xf5,
0xfd,
0x07,
0xfa,
0xfb,
0x08,
0x03,
0x25,
0xf9,
0xff,
0x11,
0xec,
0xfb,
0x03,
0xef,
0xe8,
0xff,
0xf8,
0x0a,
0x0e,
0xff,
0x07,
0x0c,
0x09,
0x1a,
0xfa,
0xf3,
0x0b,
0x0d,
0xe2,
0x23,
0xe5,
0xeb,
0x14,
0x0b,
0x10,
0xf5,
0x01,
0xf0,
0xf3,
0x03,
0xf5,
0xf3,
0xe2,
0xe9,
0xff,
0x05,
0x0a,
0x03,
0x06,
0xfa,
0xf9,
0x16,
0x08,
0xff,
0xdf,
0xf9,
0xfb,
0x0b,
0x0c,
0xf8,
0x30,
0xe9,
0x05,
0xf8,
0x12,
0x1a,
0xf6,
0x11,
0x0e,
0xf5,
0x02,
0xf3,
0xfa,
0xc8,
0xd1,
0xf5,
0xec,
0xee,
0x06,
0xf7,
0xf4,
0xee,
0xf6,
0xff,
0x04,
0xed,
0xff,
0x03,
0x02,
0x08,
0xeb,
0xed,
0xf9,
0x05,
0x01,
0xf3,
0xf0,
0x00,
0x13,
0xe9,
0xfe,
0x1d,
0xfc,
0xf8,
0x0e,
0xff,
0xff,
0x02,
0xdb,
0x08,
0x25,
0xfc,
0xed,
0x0a,
0x04,
0x14,
0x00,
0xf9,
0xff,
0xf8,
0x11,
0x1f,
0xf6,
0xfa,
0x14,
0x0a,
0xef,
0xe5,
0x04,
0x03,
0x33,
0xe8,
0xe4,
0xf5,
0xeb,
0xe3,
0xd3,
0xf6,
0x1d,
0xef,
0x10,
0x12,
0xe8,
0x0d,
0x0c,
0x0a,
0xe7,
0x00,
0x1c,
0xe5,
0x02,
0x00,
0xfc,
0x07,
0x07,
0x03,
0xf5,
0x0c,
0x20,
0x12,
0xf8,
0x10,
0x1d,
0xf4,
0x11,
0x1f,
0xe1,
0xdc,
0x03,
0xd5,
0xdd,
0x07,
0xdf,
0x03,
0xfa,
0xe8,
0xec,
0xf4,
0xf5,
0xf5,
0xfc,
0x17,
0x0b,
0x09,
0x02,
0xea,
0x0c,
0x01,
0xea,
0x05,
0xff,
0xf6,
0xf9,
0xf7,
0x0c,
0xe9,
0xf3,
0xff,
0x10,
0xee,
0x04,
0x02,
0x02,
0xf9,
0xf9,
0x0c,
0x04,
0xf9,
0xf3,
0xf4,
0x17,
0xf8,
0xf9,
0xee,
0x17,
0x1d,
0xe5,
0x00,
0x05,
0x02,
0xf0,
0xf0,
0xf0,
0x18,
0x15,
0xfb,
0x11,
0x14,
0xef,
0xf0,
0x00,
0x03,
0xf2,
0x0c,
0xee,
0x14,
0xfe,
0xfe,
0xf7,
0x14,
0x07,
0x0d,
0x20,
0xd9,
0x02,
0x24,
0xf8,
0xf7,
0x06,
0x0a,
0x06,
0x01,
0xe5,
0xec,
0x05,
0xf0,
0xef,
0x0f,
0xff,
0xf9,
0xd1,
0x03,
0x16,
0xfa,
0xe8,
0x1c,
0x05,
0xf2,
0xff,
0xf8,
0xfc,
0xe3,
0xfd,
0xff,
0x23,
0x12,
0x0e,
0x2e,
0x0a,
0xfa,
0x19,
0xf1,
0x02,
0x1c,
0xf5,
0x0b,
0xe6,
0xfb,
0xf2,
0xf3,
0xfc,
0x18,
0xfe,
0xfd,
0x13,
0xf7,
0x09,
0x26,
0x1b,
0x01,
0xfd,
0x02,
0xfc,
0xf0,
0x06,
0xfd,
0xf8,
0xf4,
0x05,
0x0a,
0xfd,
0xed,
0xeb,
0xf2,
0xf5,
0x16,
0xf2,
0x0a,
0xfe,
0xf9,
0xfc,
0xf8,
0x03,
0xf8,
0x02,
0x21,
0xde,
0xf8,
0xee,
0xe2,
0xf7,
0xdc,
0x17,
0x0d,
0x02,
0x13,
0x04,
0x05,
0x15,
0xec,
0x02,
0xf5,
0xef,
0xff,
0xfa,
0x08,
0x03,
0xf9,
0xea,
0x19,
0x16,
0xf5,
0x0c,
0x0b,
0xf1,
0xe2,
0x12,
0xde,
0xde,
0x10,
0xf1,
0xf9,
0x0b,
0x11,
0x27,
0x16,
0xf8,
0xfc,
0xf2,
0xf5,
0x12,
0xf7,
0x0f,
0xea,
0x10,
0x0a,
0x00,
0x09,
0x02,
0x0b,
0xff,
0xe3,
0xdf,
0xe7,
0x23,
0xf3,
0xe5,
0x11,
0x16,
0xf7,
0x0b,
0xee,
0x22,
0x12,
0x12,
0x18,
0xff,
0xe9,
0xed,
0xf6,
0xf9,
0xec,
0xf6,
0xfa,
0xee,
0xf6,
0xf2,
0xc6,
0xc7,
0xec,
0x0d,
0xf2,
0x0a,
0xe8,
0x0b,
0xf7,
0x0e,
0x12,
0xf0,
0xff,
0x1a,
0x2e,
0x13,
0xf3,
0xfc,
0x07,
0x12,
0x14,
0xf6,
0x00,
0x15,
0xf7,
0x05,
0x0b,
0x20,
0x10,
0xfd,
0x16,
0xef,
0xfe,
0x10,
0xf7,
0x12,
0x07,
0x18,
0xfa,
0xfb,
0xf1,
0xef,
0x02,
0x04,
0xe8,
0xf4,
0x01,
0x1a,
0x1d,
0x09,
0x03,
0xfb,
0x0d,
0x0e,
0xee,
0x1a,
0x0b,
0xfb,
0xfe,
0xe7,
0xfa,
0xe4,
0xfb,
0x12,
0xf6,
0x07,
0x0f,
0x11,
0x13,
0x01,
0xf5,
0x12,
0x2b,
0xeb,
0xf4,
0x26,
0x18,
0xf6,
0xfc,
0xe2,
0xe7,
0xec,
0xfc,
0xfc,
0xff,
0xf8,
0x03,
0x08,
0xfb,
0x0b,
0x09,
0xfc,
0xf3,
0x0f,
0xef,
0xec,
0xf0,
0xee,
0xf0,
0x0f,
0x08,
0x0b,
0x04,
0xfc,
0xfc,
0xf8,
0xf5,
0x05,
0x09,
0x10,
0x01,
0xee,
0x0d,
0xeb,
0xf9,
0xfe,
0xee,
0xfe,
0xe1,
0xff,
0xf7,
0x04,
0xf0,
0x12,
0x57,
0xd5,
0xed,
0x16,
0xcb,
0x0b,
0x17,
0x2c,
0x02,
0x00,
0x04,
0x09,
0x07,
0xfd,
0x0b,
0x0a,
0xf5,
0x0c,
0xfe,
0xee,
0x21,
0xf9,
0xf4,
0xda,
0xf6,
0x0e,
0x01,
0x13,
0xe8,
0xe6,
0x1c,
0x04,
0xea,
0xff,
0xf8,
0xfa,
0xe2,
0xef,
0x0c,
0x02,
0x05,
0xf4,
0x08,
0x07,
0xfb,
0x06,
0x08,
0x09,
0x0b,
0x17,
0xeb,
0xd7,
0xea,
0x03,
0x14,
0x0b,
0xfa,
0x02,
0x04,
0x06,
0x0f,
0x1b,
0xff,
0xf4,
0xf4,
0xf9,
0xfb,
0x07,
0x12,
0x08,
0x07,
0x04,
0x0d,
0x18,
0x05,
0xfd,
0xf1,
0xfe,
0x0c,
0x11,
0x0a,
0xe7,
0xe5,
0x0b,
0xfe,
0xf4,
0x0e,
0xfe,
0x0b,
0x07,
0xe4,
0xff,
0x12,
0xc6,
0xee,
0x13,
0x13,
0xeb,
0xf6,
0x07,
0x0f,
0xf7,
0x01,
0x11,
0x05,
0x0e,
0x10,
0x0d,
0x0c,
0x06,
0x1b,
0x1e,
0xf1,
0x16,
0xfd,
0xf2,
0x10,
0x08,
0x22,
0x1b,
0x08,
0x1a,
0x18,
0xfa,
0xf1,
0x0e,
0xfd,
0x1c,
0x06,
0xf9,
0xfe,
0xfe,
0x14,
0x02,
0xf5,
0x02,
0xf4,
0x08,
0xfc,
0xe1,
0xfe,
0xe6,
0xf1,
0xfb,
0x25,
0xdb,
0xf4,
0x35,
0xc4,
0x0f,
0xf9,
0xea,
0xff,
0x09,
0xf7,
0xf9,
0xf0,
0xe8,
0xf5,
0x00,
0xea,
0xff,
0xf0,
0xfa,
0xe1,
0xe9,
0x1f,
0x29,
0x37,
0x13,
0xf6,
0xe1,
0x12,
0xea,
0xf1,
0x24,
0xe6,
0x00,
0xf9,
0xfb,
0x2b,
0x02,
0xf7,
0x03,
0xf6,
0x0c,
0x16,
0xfc,
0xf2,
0xff,
0x06,
0xf8,
0xf2,
0x0a,
0xfa,
0x2f,
0xef,
0x08,
0xe7,
0xfd,
0xfe,
0xfb,
0xf6,
0xe1,
0xf7,
0xfe,
0xfe,
0x14,
0x01,
0x12,
0x03,
0xf8,
0xfd,
0x04,
0x04,
0x09,
0x08,
0xf8,
0xfe,
0xf2,
0x29,
0x00,
0x0e,
0x0c,
0xea,
0xfe,
0x1f,
0xc5,
0xf6,
0x21,
0xf7,
0xe8,
0x0c,
0xfd,
0x03,
0xf6,
0xf5,
0x00,
0x12,
0x00,
0x03,
0x0d,
0xfc,
0x11,
0xf9,
0xfe,
0xfe,
0xf7,
0xfb,
0x0a,
0xf0,
0xd9,
0x06,
0x04,
0x09,
0xfe,
0x08,
0x07,
0xf6,
0x07,
0x13,
0x0c,
0xf7,
0x01,
0xf7,
0xf3,
0xf5,
0xf1,
0x0b,
0xf8,
0x08,
0x0e,
0x06,
0xc1,
0xe0,
0x0c,
0xc8,
0x18,
0x19,
0xf8,
0x32,
0xfc,
0xf1,
0xf4,
0xf5,
0xeb,
0xf9,
0x17,
0x03,
0x2b,
0x03,
0xf1,
0x12,
0x09,
0x0c,
0x06,
0x01,
0x04,
0xfb,
0x0a,
0x00,
0xf8,
0xf6,
0xef,
0x1a,
0x1d,
0x25,
0xe5,
0x2f,
0x04,
0xce,
0xd5,
0xd7,
0x04,
0xf0,
0xef,
0x01,
0x13,
0x09,
0x0c,
0x09,
0x06,
0x01,
0x10,
0x11,
0xf3,
0xf6,
0x07,
0x00,
0x03,
0xfe,
0xf2,
0xff,
0x0a,
0xf7,
0x0e,
0x04,
0x0e,
0xf9,
0x03,
0x0b,
0xfa,
0x14,
0xff,
0xf9,
0xf0,
0xee,
0xf5,
0xf8,
0xec,
0xf2,
0xfb,
0xf9,
0xfd,
0x00,
0x10,
0x0a,
0xfc,
0xfc,
0x04,
0x05,
0xfd,
0x1e,
0xfe,
0xfc,
0x15,
0xfd,
0x18,
0x13,
0xfd,
0x1c,
0xef,
0x03,
0xfc,
0xdf,
0xfc,
0x06,
0xfb,
0x0a,
0xf5,
0xfa,
0xf3,
0xf3,
0x12,
0xf8,
0x02,
0xf1,
0xfc,
0xf9,
0xf3,
0x0b,
0x0e,
0x05,
0xf2,
0x08,
0x0f,
0x03,
0xcb,
0x02,
0xfa,
0xf7,
0x06,
0xff,
0x0b,
0x3f,
0xf5,
0xf3,
0x08,
0x04,
0xf7,
0x0f,
0xf8,
0xfc,
0x15,
0x06,
0x0a,
0x07,
0xfa,
0x0b,
0xf9,
0x1b,
0xef,
0x0a,
0x0d,
0xe5,
0xfc,
0xfc,
0x02,
0xe5,
0xff,
0x17,
0xf4,
0x0c,
0xf1,
0x07,
0x14,
0xee,
0xf7,
0xfc,
0xfc,
0x07,
0x06,
0xe7,
0xfd,
0x06,
0x13,
0xf9,
0xee,
0xed,
0x14,
0x13,
0x01,
0x01,
0x11,
0x1d,
0x1c,
0xf8,
0x23,
0x01,
0x0c,
0x13,
0x17,
0x13,
0xf9,
0x05,
0x17,
0x23,
0x01,
0x11,
0xf2,
0x07,
0x17,
0xe6,
0xff,
0xfc,
0x15,
0xeb,
0xf1,
0x0e,
0xff,
0xec,
0x06,
0xed,
0x00,
0x11,
0x0c,
0x1b,
0x0b,
0x17,
0x06,
0xf8,
0x01,
0x10,
0xf2,
0x10,
0xf7,
0x01,
0x05,
0xec,
0x0a,
0x13,
0x17,
0x09,
0x0b,
0x0b,
0xe6,
0x16,
0xfd,
0xfa,
0x06,
0x0e,
0x1c,
0xff,
0x01,
0x1d,
0xec,
0xf3,
0xf0,
0x02,
0xf0,
0x02,
0xf6,
0x1c,
0x09,
0x2b,
0xe5,
0x20,
0x28,
0xef,
0xf8,
0xf5,
0x13,
0xf7,
0xf2,
0x03,
0xfb,
0x0c,
0x08,
0x13,
0xff,
0x19,
0x15,
0x08,
0xef,
0x03,
0x08,
0x00,
0xf5,
0x15,
0x12,
0x05,
0x06,
0xfd,
0xdd,
0xec,
0xfa,
0x01,
0x0c,
0x08,
0xfb,
0xf6,
0x12,
0x07,
0xfe,
0x08,
0xf5,
0xf2,
0x06,
0xf4,
0x04,
0x0b,
0x18,
0x00,
0x13,
0xfe,
0x1b,
0xfe,
0xfe,
0x00,
0x2d,
0x15,
0xfd,
0x12,
0x03,
0xf1,
0xf8,
0xf4,
0x10,
0x03,
0xf7,
0xfb,
0x0b,
0xf9,
0xfc,
0xff,
0x0b,
0xef,
0x07,
0x02,
0x16,
0x18,
0x07,
0x1c,
0x09,
0xed,
0xf9,
0xfa,
0x01,
0xeb,
0xff,
0xfb,
0xfd,
0xf4,
0xfa,
0xfd,
0x16,
0xf9,
0xf1,
0xf0,
0xef,
0xf9,
0x1c,
0xe9,
0xf7,
0xf6,
0x04,
0xf6,
0x0b,
0xe8,
0x0a,
0xfd,
0xf4,
0x08,
0xef,
0xfd,
0xff,
0xfe,
0x01,
0xfd,
0x11,
0x08,
0x12,
0x14,
0x08,
0x09,
0x09,
0x0c,
0x0b,
0xfe,
0x03,
0x06,
0xf5,
0xee,
0x00,
0x07,
0x08,
0xf2,
0x05,
0x12,
0x06,
0xe7,
0x14,
0x02,
0x08,
0xff,
0xf7,
0x17,
0x06,
0xf7,
0x07,
0x11,
0x04,
0xde,
0x13,
0x16,
0x1a,
0xf9,
0x08,
0x0d,
0xf4,
0xfa,
0x24,
0xfb,
0xf3,
0x0c,
0x40,
0xf6,
0xfc,
0x40,
0x08,
0x00,
0x15,
0x0c,
0xe2,
0x0a,
0x02,
0x05,
0xd4,
0xef,
0xf2,
0x1c,
0xfb,
0x04,
0xf9,
0xfb,
0x0b,
0x0a,
0x04,
0x04,
0xea,
0x0d,
0x03,
0x06,
0x17,
0x1d,
0xff,
0xe7,
0xdd,
0xfc,
0x23,
0xf1,
0x11,
0xfc,
0xd5,
0xee,
0x0d,
0xf8,
0xef,
0x1f,
0xe7,
0xf7,
0x0d,
0xfe,
0xfe,
0x13,
0x18,
0xfc,
0x0a,
0x13,
0xf4,
0x14,
0x12,
0xe0,
0xcb,
0xdc,
0xf6,
0xe2,
0x09,
0xeb,
0x07,
0xeb,
0xd2,
0x17,
0xf1,
0xf2,
0x08,
0xfa,
0x27,
0x1c,
0xf0,
0xdd,
0x03,
0x10,
0xf0,
0xfb,
0x10,
0xfe,
0x36,
0x4a,
0x2e,
0x14,
0x03,
0x1f,
0xf1,
0xea,
0xfd,
0xf9,
0x15,
0xf7,
0xfc,
0xf2,
0xed,
0xf9,
0xef,
0xea,
0xfa,
0xfa,
0x13,
0x1e,
0x13,
0x1e,
0x1d,
0x0c,
0x2e,
0xeb,
0x24,
0x27,
0xfb,
0x16,
0xf2,
0xe6,
0xef,
0xfc,
0xe1,
0xdf,
0xe4,
0xe6,
0xf1,
0x05,
0x00,
0x06,
0x06,
0xf0,
0xff,
0xf8,
0xfb,
0xe3,
0x03,
0xf1,
0xf0,
0xfe,
0x00,
0x11,
0x14,
0x0d,
0xf3,
0xf6,
0xe4,
0x02,
0xef,
0x04,
0xf8,
0x1b,
0x04,
0x06,
0x16,
0xf0,
0xf1,
0x0c,
0x0b,
0x0d,
0xd6,
0xf1,
0xe9,
0x0e,
0x05,
0xf3,
0x16,
0x1d,
0x11,
0x06,
0xf5,
0x02,
0xf2,
0xfc,
0x00,
0xe5,
0x0d,
0x0d,
0x01,
0xed,
0xfe,
0x0e,
0x0e,
0xf2,
0x0c,
0xf4,
0xe5,
0xf7,
0x07,
0xdb,
0xd0,
0x01,
0xf9,
0x07,
0x0e,
0x06,
0xfb,
0xe9,
0xe4,
0x01,
0xda,
0xf9,
0xf7,
0xd2,
0xe4,
0x22,
0x08,
0x08,
0x01,
0xe2,
0xfc,
0x24,
0xd6,
0xe0,
0xfd,
0xe6,
0x08,
0xea,
0x09,
0x01,
0xf1,
0x15,
0xe0,
0xe8,
0xf9,
0x08,
0x01,
0xf9,
0xff,
0x02,
0xfc,
0xfc,
0xff,
0xf6,
0x0a,
0xf3,
0x10,
0xfa,
0xeb,
0xf8,
0xf1,
0xf7,
0xf6,
0xe9,
0xef,
0xe8,
0xef,
0x00,
0x03,
0xfa,
0x08,
0x13,
0x00,
0x21,
0x09,
0xf8,
0x0e,
0xf3,
0xf9,
0x0c,
0xe8,
0x21,
0x27,
0x06,
0x0c,
0x12,
0xe6,
0x03,
0x07,
0xff,
0xe3,
0xf6,
0x27,
0x0d,
0x1c,
0x18,
0x17,
0x3f,
0x39,
0x0a,
0x16,
0x0a,
0x0b,
0x0c,
0xf7,
0xf1,
0x02,
0x07};
