/* SPDX-License-Identifier: GPL-2.0 */
/*
 * Copyright (c) 2020 MediaTek Inc.
 *
 * Author: Ya-Wen Hsu <Ya-Wen.Hsu@mediatek.com>
 *
 */
char fdvt_kernel_bias_loop29_1_frame01[] = {
0x1c,
0x25,
0x14,
0x23,
0x2a,
0xf7,
0x01,
0x10,
0xcc,
0xdd,
0xf4,
0x01,
0xff,
0xf7,
0x04,
0x04,
0x02,
0xfa,
0xf8,
0xf8,
0xe6,
0xd8,
0xfe,
0xf8,
0xf8,
0x02,
0xfc,
0x01,
0x05,
0x07,
0x03,
0x18,
0x0d,
0x26,
0xdb,
0x2c,
0xec,
0xab,
0xdf,
0x3d,
0xec,
0x3e,
0x2d,
0x0c,
0xeb,
0x24,
0x04,
0xd1,
0xe5,
0xe8,
0x13,
0x03,
0x05,
0x0d,
0x0a,
0x08,
0x07,
0xf5,
0xf4,
0x06,
0xf2,
0xef,
0x15,
0x14,
0xe1,
0xe4,
0xf3,
0xc1,
0xd1,
0x1c,
0x07,
0x2f,
0x20,
0xd7,
0xf1,
0x09,
0xe7,
0x06,
0x0d,
0xff,
0x17,
0x12,
0x19,
0x0b,
0x05,
0xf0,
0xcf,
0x0a,
0xfb,
0xf4,
0x1e,
0x15,
0x09,
0x1f,
0x25,
0x0d,
0x2f,
0x11,
0x00,
0x05,
0x00,
0xee,
0xe3,
0xea,
0xeb,
0x06,
0x14,
0xf6,
0x11,
0x26,
0xe6,
0xfe,
0x10,
0x06,
0xdb,
0xff,
0x03,
0xfe,
0x06,
0xfb,
0xf8,
0x04,
0xff,
0x04,
0xfd,
0x01,
0x06,
0xfc,
0xf0,
0xe3,
0xe9,
0xf3,
0xeb,
0xec,
0xf4,
0x07,
0x08,
0x08,
0x0b,
0x09,
0x04,
0x03,
0x08,
0x02,
0x0a,
0x0f,
0xf9,
0x08,
0x0b,
0x02,
0x09,
0x0a,
0xe9,
0xe8,
0x08,
0xe8,
0xf2,
0xf7,
0xea,
0xeb,
0x05,
0x08,
0xfb,
0xf9,
0xef,
0xe9,
0x00,
0x03,
0x01,
0x00,
0x05,
0x03,
0xf6,
0xfd,
0xf6,
0x05,
0xfe,
0x1b,
0xf4,
0x24,
0xe9,
0xdf,
0xf1,
0x0c,
0xea,
0x1f,
0x05,
0x02,
0xfe,
0x06,
0xfd,
0xf1,
0xfd,
0xfb,
0x13,
0x0f,
0x0e,
0xf4,
0xfe,
0xfc,
0x02,
0x01,
0x03,
0xfc,
0xfd,
0xfb,
0x02,
0x04,
0x00,
0x00,
0x00,
0x00,
0x00,
0x00,
0x00,
0x00,
0x00,
0x00,
0x00,
0x00,
0x00,
0x00,
0x00,
0x00,
0x00,
0x00,
0x00,
0x00,
0x00,
0x00,
0x00,
0x00,
0x00,
0x00,
0x00,
0x00,
0x00,
0x00,
0x00,
0x00};
