/* SPDX-License-Identifier: GPL-2.0 */
/*
 * Copyright (c) 2020 MediaTek Inc.
 *
 * Author: Ya-Wen Hsu <Ya-Wen.Hsu@mediatek.com>
 *
 */
char fdvt_kernel_bias_loop30_1_frame01[] = {
0x02,
0x0b,
0x05,
0x09,
0x03,
0x03,
0x00,
0xfa,
0x05,
0xf8,
0xfc,
0xf3,
0xf9,
0xf7,
0xfb,
0xf9,
0x07,
0xf4,
0xf7,
0x01,
0xfb,
0xf3,
0x00,
0x04,
0x0c,
0xf5,
0xf8,
0x00,
0xfa,
0xf7,
0xfb,
0x02,
0x0a,
0x01,
0x04,
0xf9,
0xfa,
0x0a,
0x01,
0xfb,
0x04,
0xfd,
0x03,
0xff,
0x0a,
0xfd,
0xfc,
0xf8,
0xf0,
0x07,
0xff,
0xfb,
0x01,
0x07,
0x07,
0xff,
0x06,
0x05,
0xf8,
0x01,
0xfb,
0xfb,
0x06,
0xfb,
0x08,
0x00,
0x09,
0x05,
0xfc,
0x04,
0x05,
0x00,
0x00,
0xfb,
0xe7,
0xf7,
0xf1,
0xe5,
0xf1,
0xf9,
0xec,
0xf6,
0xea,
0xfa,
0x01,
0xff,
0x00,
0x02,
0x03,
0xfc,
0x02,
0xff,
0xff,
0x02,
0xf2,
0x03,
0x0e,
0x05,
0x0d,
0x1c,
0xf0,
0xf5,
0xeb,
0xe6,
0x03,
0xf8,
0xfd,
0xf5,
0x00,
0xfd,
0x07,
0x04,
0xf2,
0xe0,
0xe7,
0xe8,
0xff,
0xf4,
0x08,
0x18,
0xf4,
0x09,
0xce,
0xfd,
0xf6,
0x10,
0xde,
0x11,
0xf7,
0xfe,
0x10,
0x02,
0xfc,
0x08,
0x0c,
0x12,
0x04,
0xef,
0xff,
0xc5,
0x0c,
0xe0,
0x0e,
0x06,
0xf0,
0xfa,
0x02,
0x02,
0xfa,
0x08,
0x03,
0xfc,
0x01,
0xff,
0xfa,
0xfd,
0xfa,
0x04,
0x0b,
0x0c,
0xfc,
0xfd,
0x04,
0x00,
0x0a,
0xfd,
0xe3,
0xee,
0xf9,
0xef,
0xdc,
0xe0,
0x0b,
0xf2,
0xea,
0x02,
0xef,
0xe7,
0x0b,
0xff,
0xf7,
0xf7,
0x08,
0x0d,
0xe7,
0x0e,
0x03,
0x0d,
0xf4,
0xe6,
0xee,
0xf0,
0xf6,
0x0b,
0xf3,
0x04,
0x04,
0x09,
0xfd,
0xfb,
0xfd,
0xed,
0xf1,
0xfd,
0xf5,
0xff,
0x17,
0x0b,
0x0e,
0x00,
0x0c,
0xf8,
0xf1,
0xf2,
0x0e,
0xf6,
0xfa,
0x07,
0x04,
0xf9,
0x08,
0x02,
0xf7,
0x07,
0x04,
0xfc,
0xf9,
0xfb,
0xfd,
0xf9,
0xfe,
0xf3,
0xec,
0xf8,
0xfb,
0xf9,
0xff,
0xe8,
0xfc,
0xe8,
0xef,
0xeb,
0xf8,
0xed,
0xf5,
0x06,
0x19,
0x23,
0x02,
0x00,
0x03,
0xfc,
0xf3,
0xfe,
0xfe,
0xfc,
0x00,
0xf4,
0xfa,
0x09,
0x03,
0x03,
0xf1,
0x08,
0x03,
0xfa,
0xec,
0x0b,
0x01,
0x02,
0x01,
0xfc,
0x05,
0xf7,
0xff,
0x04,
0xfd,
0xfd,
0x06,
0xfe,
0x06,
0x04,
0x08,
0xf9,
0xf3,
0x02,
0xf7,
0x00,
0x0b,
0x02,
0xfd,
0x00,
0x03,
0x03,
0x07,
0x02,
0x06,
0x01,
0x03,
0xf6,
0xf5,
0x01,
0xeb,
0xe9,
0xf9,
0x08,
0x01,
0xfa,
0xfe,
0xfd,
0x0b,
0x12,
0x06,
0x0b,
0x17,
0x19,
0xfc,
0xfc,
0x06,
0x08,
0xf8,
0x1b,
0xf1,
0xf4,
0x0b,
0x16,
0xe3,
0xfe,
0x0d,
0xef,
0x00,
0xf3,
0x0f,
0x0c,
0x10,
0x03,
0x03,
0x0d,
0xe9,
0x08,
0x0e,
0x06,
0x00,
0xfe,
0x07,
0x01,
0xf7,
0x05,
0xf1,
0xfc,
0xed,
0xf6,
0xf9,
0xff,
0x0a,
0xf6,
0xfa,
0x03,
0x03,
0xf0,
0xe4,
0x02,
0x07,
0x05,
0xfc,
0x05,
0x05,
0x01,
0x0b,
0x0f,
0x12,
0x1c,
0x04,
0x02,
0x03,
0x04,
0x01,
0xfe,
0x00,
0x01,
0xfa,
0xff,
0xfa,
0x03,
0x04,
0x0b,
0x0f,
0x05,
0x0d,
0xfb,
0xf4,
0xf3,
0x07,
0xf1,
0xec,
0x1a,
0x30,
0x11,
0xe9,
0xf5,
0x13,
0x21,
0x19,
0x04,
0x05,
0xfb,
0xe4,
0xe5,
0x12,
0x07,
0x1f,
0xe5,
0xf8,
0xfa,
0x0c,
0xed,
0xfa,
0x02,
0x06,
0xf9,
0x05,
0xff,
0x07,
0xf4,
0x0c,
0x18,
0x0d,
0x28,
0xff,
0x20,
0xf5,
0xeb,
0x01,
0xf4,
0x06,
0x0a,
0x07,
0xf4,
0xee,
0xf6,
0xef,
0xd5,
0xf2,
0x06,
0x05,
0xfc,
0xf9,
0xfd,
0x04,
0xfc,
0x01,
0xfb,
0xf2,
0xf5,
0xf0,
0xf5,
0xf9,
0x02,
0xf3,
0xf3,
0x18,
0x0b,
0x05,
0x16,
0x01,
0x03,
0xfd,
0x04,
0x09,
0xfc,
0x09,
0x00,
0xff,
0x00,
0x02,
0x02,
0x05,
0x03,
0x03,
0x00,
0x05,
0xfc,
0xff,
0xfd,
0xfc,
0xf4,
0xf5,
0xf9,
0xfc,
0x04,
0x03,
0x0a,
0x0c,
0x03,
0x05,
0x09,
0x04,
0xf2,
0xe9,
0x0c,
0x12,
0x03,
0x01,
0x22,
0x2d,
0x02,
0xff,
0x03,
0x04,
0x02,
0xff,
0x07,
0xeb,
0xf0,
0xe3,
0xe1,
0xfa,
0x02,
0xfc,
0xfd,
0x01,
0xff,
0x00,
0x02,
0x07,
0xff,
0x09,
0x00,
0x01,
0xef,
0xfb,
0xf2,
0xf6,
0x10,
0xf2,
0x0b,
0xfb,
0x16,
0x18,
0xf4,
0xe5,
0xd7,
0x32,
0x36,
0xda,
0xc5,
0xda,
0xf8,
0xec,
0x0d,
0x2d,
0x18,
0xf5,
0xec,
0xfc,
0x06,
0x05,
0xf8,
0x05,
0x0d,
0xfd,
0xf5,
0xea,
0xf8,
0x0c,
0xe5,
0xf2,
0x17,
0xfe,
0xe5,
0xf2,
0xe0,
0xf6,
0xdf,
0xfe,
0x1e,
0xfa,
0xf2,
0x01,
0x0e,
0x1a,
0xd8,
0xde,
0x00,
0xc3,
0xca,
0x06,
0x19,
0x0d,
0xfc,
0x0a,
0x09,
0xd7,
0xdb,
0xf1,
0xc6,
0xc1,
0xe4,
0xd7,
0xe0,
0xf3,
0x07,
0xf4,
0xf7,
0x28,
0x16,
0x0a,
0xc3,
0xf2,
0xf4,
0xff,
0x06,
0x02,
0xee,
0x0f,
0x09,
0xed,
0x05,
0xf7,
0xfa,
0xfc,
0x0f,
0xff,
0x01,
0xff,
0xf6,
0x0f,
0xf8,
0xff,
0xeb,
0xf7,
0x01,
0xf6,
0x14,
0x13,
0x14,
0x20,
0x08,
0x11,
0x11,
0x03,
0xfc,
0xf4,
0x06,
0x16,
0x17,
0xfd,
0xcf,
0xf6,
0xf9,
0xfe,
0x05,
0xf5,
0xfd,
0x07,
0xf9,
0xf2,
0x05,
0x0c,
0x05,
0x01,
0x04,
0xff,
0x00,
0xff,
0x00,
0x01,
0xfd,
0x00,
0xf8,
0x07,
0xfb,
0x04,
0xfc,
0xf3,
0x00,
0xff,
0x01,
0xfa,
0x02,
0xf4,
0xed,
0x09,
0x17,
0x0e,
0xe7,
0xf6,
0x0c,
0xe3,
0xfc,
0x0a,
0xd3,
0xc3,
0xf7,
0xfb,
0x1e,
0xe3,
0x42,
0x26,
0xdd,
0x16,
0xe0,
0x0b,
0x14,
0x05,
0x0f,
0xfe,
0xef,
0xfd,
0x0c,
0xfc,
0x04,
0xee,
0x00,
0xde,
0x08,
0x11,
0x06,
0x1a,
0xef,
0x09,
0x11,
0x0b,
0xfb,
0xfd,
0xfb,
0x00,
0xfb,
0xfe,
0xfe,
0x00,
0x04,
0xf7,
0xf8,
0xff,
0xfa,
0x05,
0xf7,
0x05,
0x05,
0xff,
0xfc,
0x06,
0xfe,
0xf7,
0x0c,
0xf7,
0xf4,
0x0a,
0xfa,
0xf2,
0xff,
0x0d,
0x12,
0x03,
0xf8,
0xfd,
0x17,
0xe0,
0xf6,
0x10,
0xeb,
0x07,
0x0a,
0xfa,
0xf7,
0xee,
0xf6,
0x1c,
0xf7,
0x00,
0x17,
0xef,
0x01,
0xee,
0xf6,
0xf7,
0xdd,
0xfe,
0xea,
0xe8,
0x05,
0xec,
0xf1,
0x21,
0x20,
0x0c,
0x16,
0x28,
0x24,
0xe8,
0xff,
0x1a,
0xeb,
0x03,
0x19,
0xea,
0x07,
0x1a,
0xe8,
0x00,
0x13,
0x18,
0x15,
0x0d,
0x03,
0x03,
0xfd,
0xe9,
0xf3,
0xfd,
0xf7,
0xfd,
0xfe,
0x0a,
0xf2,
0x21,
0x13,
0x29,
0x0d,
0x12,
0x16,
0xed,
0x06,
0xef,
0xea,
0xef,
0x11,
0x0e,
0x03,
0x04,
0x08,
0xf4,
0xfb,
0xff,
0xfb,
0x02,
0x05,
0x12,
0x05,
0xfb,
0x0e,
0x07,
0xfb,
0x10,
0xe9,
0x0f,
0x07,
0xe6,
0x1d,
0x00,
0xe3,
0x19,
0x12,
0xf1,
0xf1,
0xe7,
0xff,
0xf6,
0x0c,
0x1a,
0x15,
0x1a,
0x02,
0x05,
0xf8,
0xda,
0xfa,
0xf0,
0xfc,
0x0c,
0xf0,
0xe8,
0xf5,
0xe9,
0x00,
0x03,
0x01,
0x0c,
0x09,
0x00,
0x09,
0xff,
0x0b,
0x05,
0x13,
0xe8,
0xe5,
0x00,
0x03,
0xf1,
0xe5,
0x2a,
0x20,
0x0a,
0xf5,
0xe5,
0xfc,
0xf5,
0x07,
0x02,
0xf7,
0x04,
0x0e,
0xf9,
0x0a,
0x01,
0x01,
0xf9,
0xf3,
0xf6,
0xf6,
0x01,
0xf8,
0x03,
0xfd,
0x02,
0x02,
0xf5,
0xf9,
0xee,
0xf1,
0x03,
0xf9,
0x0c,
0x19,
0xfc,
0x05,
0x25,
0x1a,
0x06,
0xfb,
0x20,
0x1c,
0xe8,
0xed,
0x0a,
0xef,
0x05,
0x11,
0xed,
0x0a,
0x0f,
0xed,
0xfb,
0x0b,
0x03,
0x09,
0x08,
0xf8,
0x04,
0xfb,
0xf6,
0x04,
0x04,
0x08,
0x0b,
0x03,
0x03,
0x06,
0x08,
0xf8,
0xfd,
0xf5,
0xf9,
0xf7,
0xec,
0xea,
0xf9,
0xe9,
0xe2,
0x18,
0x1f,
0x0a,
0xfb,
0x06,
0x14,
0x18,
0x0d,
0x04,
0x04,
0xf8,
0xf2,
0xff,
0x01,
0x05,
0x00,
0xfc,
0xf3,
0x00,
0x0c,
0xe7,
0xf3,
0x18,
0xfa,
0xe8,
0x15,
0x06,
0xeb,
0xe9,
0xf8,
0x0e,
0x08,
0x16,
0x07,
0x12,
0x02,
0xf5,
0x00,
0xf2,
0x0f,
0xf4,
0x0c,
0x03,
0xd8,
0xf2,
0x08,
0xd5,
0xee,
0x0a,
0x0c,
0x09,
0x04,
0x01,
0x01,
0xe9,
0xf1,
0xfd,
0xe3,
0xe9,
0xf5,
0xf1,
0xe2,
0x06,
0x0b,
0xfe,
0x13,
0x15,
0x13,
0xe4,
0xf8,
0xfa,
0xfa,
0xfd,
0x01,
0xfe,
0x02,
0x09,
0x03,
0x07,
0x04,
0x09,
0xfc,
0xff,
0x04,
0xfc,
0xfe,
0x02,
0x04,
0x03,
0x07,
0xf9,
0xfa,
0x01,
0xf7,
0xff,
0x06,
0xff,
0x08,
0x0f,
0xfb,
0xff,
0xfb,
0xea,
0xd3,
0x16,
0x0c,
0xf1,
0x1f,
0x1d,
0x14,
0xfb,
0xfd,
0x07,
0xf9,
0xfc,
0x04,
0xf6,
0xf5,
0xfc,
0x01,
0x01,
0xef,
0xe7,
0xfb,
0xf4,
0xe3,
0xfb,
0x03,
0xfc,
0x0b,
0xf3,
0xfc,
0xfa,
0x33,
0x27,
0x07,
0xff,
0xff,
0xec,
0xd9,
0xd8,
0x0f,
0x14,
0x15,
0xfa,
0x00,
0x06,
0xf2,
0xf9,
0xfa,
0xfe,
0xff,
0xf9,
0xfc,
0xf7,
0x04,
0x05,
0x00,
0x05,
0x06,
0x01,
0x08,
0xf8,
0xfb,
0x04,
0x06,
0xfe,
0xfd,
0x00,
0xff,
0xfd,
0xff,
0x06,
0x04,
0x05,
0x05,
0x00,
0x01,
0x05,
0x02,
0x01,
0x00,
0x00,
0x00,
0x00,
0x00,
0x00,
0x00,
0x00,
0x00,
0x00,
0x00,
0x00,
0x00,
0x00,
0x00,
0x00};
