/* SPDX-License-Identifier: GPL-2.0 */
/*
 * Copyright (c) 2020 MediaTek Inc.
 *
 * Author: Ya-Wen Hsu <Ya-Wen.Hsu@mediatek.com>
 *
 */

char fdvt_kernel_bias_loop48_1_frame01[] = {
0x06,
0x00,
0x04,
0xff,
0x06,
0xff,
0x08,
0x01,
0x06,
0x00,
0x04,
0xfe,
0x06,
0xff,
0x07,
0xff,
0xfc,
0xfe,
0xef,
0xf5,
0x01,
0xfe,
0xf3,
0xf9,
0xfb,
0xfd,
0xed,
0xf4,
0x02,
0xfd,
0xf1,
0xf9,
0x02,
0x03,
0xe1,
0x0d,
0x06,
0x02,
0xe2,
0x0d,
0x03,
0x01,
0xe2,
0x0d,
0x06,
0x01,
0xe3,
0x0e,
0x0d,
0xfc,
0xee,
0xf6,
0xfb,
0xf9,
0xe9,
0xf2,
0x09,
0xfc,
0xe6,
0xef,
0xf8,
0xfa,
0xe5,
0xee,
0x02,
0x00,
0x0b,
0x05,
0x06,
0xff,
0x08,
0x04,
0x01,
0x04,
0x0b,
0x05,
0x08,
0x04,
0x08,
0x04,
0x01,
0x02,
0xed,
0xf5,
0x05,
0x02,
0xf2,
0xf8,
0x02,
0x02,
0xed,
0xf5,
0x05,
0x02,
0xf1,
0xf7,
0xf4,
0xfc,
0x41,
0x2e,
0x05,
0xfb,
0x39,
0x2d,
0xf3,
0xfe,
0x42,
0x2f,
0x04,
0xfd,
0x37,
0x2d,
0x05,
0x03,
0x0a,
0x06,
0x02,
0x03,
0x09,
0x06,
0x06,
0x03,
0x08,
0x06,
0x02,
0x03,
0x08,
0x06,
0x0f,
0x00,
0xf2,
0x03,
0x15,
0x00,
0x08,
0x09,
0x0f,
0x03,
0xf5,
0x05,
0x15,
0x03,
0x0c,
0x0b,
0x03,
0x00,
0xfd,
0x00,
0x01,
0xff,
0xfd,
0x00,
0x02,
0x00,
0xfc,
0x00,
0x01,
0xff,
0xfd,
0xff,
0x02,
0x02,
0xfe,
0x01,
0x03,
0x01,
0xfe,
0x01,
0x02,
0x00,
0xfd,
0x00,
0x03,
0x00,
0xfe,
0x01,
0x02,
0x07,
0xfc,
0xff,
0x04,
0x04,
0xff,
0x02,
0x00,
0x01,
0xfd,
0x02,
0x04,
0x01,
0x02,
0x04,
0xfe,
0x04,
0xfa,
0x01,
0xff,
0x04,
0xfa,
0x00,
0xfe,
0x04,
0xfa,
0x01,
0xff,
0x04,
0xfa,
0x01,
0xff,
0xf9,
0xf8,
0xfd,
0xfc,
0xfa,
0xf6,
0xfb,
0xfe,
0x00,
0x04,
0x06,
0x00,
0x00,
0xfe,
0x02,
0x04,
0x02,
0xf0,
0x0c,
0x07,
0x00,
0xef,
0x0c,
0x04,
0x03,
0xef,
0x0b,
0x05,
0x01,
0xee,
0x0b,
0x04,
0xfe,
0x00,
0x03,
0xfd,
0xfe,
0xfb,
0x00,
0x04,
0xfd,
0x00,
0x03,
0xfd,
0xfd,
0xfb,
0x00,
0xf9,
0x03,
0xdf,
0xf7,
0x0a,
0x03,
0xe6,
0xfc,
0xfa,
0x07,
0xe0,
0xf5,
0x0b,
0x09,
0xe6,
0xfa,
0xfd,
0x09,
0x1f,
0x02,
0x05,
0x09,
0x1d,
0x03,
0xfd,
0x0a,
0x1f,
0x00,
0x05,
0x0a,
0x1e,
0x01,
0xfe,
0xfd,
0x01,
0xfe,
0xff,
0xfd,
0xfe,
0xfd,
0xfe,
0xff,
0x00,
0xff,
0xff,
0xfe,
0xfd,
0xfd,
0xfa,
0xf0,
0xe5,
0xed,
0x0d,
0xf1,
0xec,
0xf2,
0xfb,
0xf9,
0xe3,
0xec,
0x0e,
0xf9,
0xeb,
0xf2,
0xf8,
0x01,
0xff,
0x0e,
0x00,
0x00,
0x00,
0x0e,
0xf5,
0xfd,
0xfe,
0x0b,
0xff,
0xfc,
0xfe,
0x0b,
0x00,
0xfd,
0x03,
0xf8,
0xfc,
0xfe,
0x06,
0xf9,
0x03,
0xfe,
0x03,
0xf8,
0xfe,
0xff,
0x07,
0xfa,
0xff,
0x26,
0xed,
0x05,
0xfa,
0x27,
0xe7,
0x04,
0x05,
0x26,
0xea,
0x00,
0xfc,
0x25,
0xe2,
0xfc,
0x07,
0x04,
0xd3,
0xd7,
0xf9,
0x05,
0xd6,
0xd7,
0x09,
0xff,
0xd1,
0xd6,
0xf7,
0x00,
0xd5,
0xd6,
0x03,
0x1c,
0x14,
0x31,
0xfb,
0x1d,
0x11,
0x2e,
0x04,
0x1a,
0x18,
0x2f,
0xfc,
0x1b,
0x16,
0x2d,
0x05,
0x02,
0x08,
0x05,
0x06,
0xfe,
0x07,
0x03,
0xfe,
0x00,
0x0a,
0x05,
0xff,
0xfc,
0x0a,
0x05,
0x04,
0xff,
0xf1,
0xf8,
0xfe,
0x00,
0xf2,
0xf8,
0x05,
0xfd,
0xf1,
0xf9,
0x00,
0xfc,
0xf2,
0xfa,
0x01,
0xfe,
0x18,
0xfc,
0x02,
0xff,
0x15,
0xfa,
0x01,
0x04,
0x19,
0xfc,
0x01,
0x04,
0x17,
0xf9,
0xef,
0x01,
0x23,
0x0f,
0xe9,
0x01,
0x20,
0x0d,
0xef,
0xfe,
0x22,
0x0f,
0xe9,
0xfd,
0x20,
0x0d,
0x04,
0xf0,
0x25,
0x07,
0x05,
0xf0,
0x24,
0x07,
0x05,
0xf1,
0x22,
0x04,
0x06,
0xf1,
0x1f,
0x03,
0xff,
0xfe,
0x18,
0xfd,
0xff,
0xff,
0x14,
0xfc,
0x00,
0x04,
0x17,
0xfd,
0x01,
0x04,
0x15,
0xfc,
0xf5,
0xfe,
0x06,
0x03,
0xef,
0xfc,
0x06,
0x05,
0xf7,
0xfc,
0x07,
0x04,
0xef,
0x00,
0x0e,
0x0f,
0x04,
0xfc,
0x07,
0x01,
0x04,
0xf9,
0x07,
0x04,
0x03,
0xfd,
0x06,
0x00,
0x03,
0xfa,
0x07,
0x04,
0xfd,
0xfe,
0xf6,
0xf3,
0x01,
0xfe,
0xf4,
0xf1,
0xfd,
0xfc,
0xf6,
0xf2,
0x02,
0xfc,
0xf3,
0xef,
0x02,
0x02,
0xeb,
0x06,
0x03,
0x01,
0xeb,
0x09,
0x02,
0x00,
0xe9,
0x03,
0x03,
0x00,
0xea,
0x08,
0x0d,
0xe9,
0xf7,
0xf9,
0xff,
0xe9,
0xf4,
0xf0,
0x0c,
0xea,
0xf4,
0xf0,
0xfe,
0xeb,
0xf2,
0xea,
0x02,
0x00,
0x05,
0x04,
0x05,
0x00,
0x05,
0x05,
0x03,
0x04,
0x03,
0x04,
0x07,
0x03,
0x04,
0x06,
0x01,
0x06,
0xf7,
0xf2,
0x06,
0x07,
0xf7,
0xf2,
0x00,
0x06,
0xf6,
0xee,
0x06,
0x07,
0xf7,
0xf0,
0xfb,
0xf7,
0x31,
0x51,
0x05,
0xf6,
0x2f,
0x4e,
0xfb,
0xfa,
0x31,
0x4f,
0x05,
0xfa,
0x2f,
0x4e,
0x04,
0x04,
0x00,
0x03,
0x02,
0x05,
0x01,
0x04,
0x04,
0x02,
0xff,
0x03,
0x02,
0x02,
0x00,
0x04,
0x09,
0xfe,
0x08,
0x0b,
0x09,
0x00,
0x0c,
0x0f,
0x08,
0x02,
0x08,
0x09,
0x08,
0x02,
0x0b,
0x0e,
0x04,
0xff,
0xfc,
0x01,
0x02,
0x00,
0xfd,
0x00,
0x04,
0xfe,
0xfb,
0x00,
0x02,
0xff,
0xfc,
0x00,
0x04,
0x00,
0xfd,
0xff,
0x03,
0x00,
0xfd,
0x00,
0x04,
0xff,
0xfc,
0xfd,
0x03,
0xff,
0xfd,
0x00,
0x02,
0x0b,
0xf4,
0x02,
0x04,
0x08,
0xf5,
0x06,
0x01,
0x03,
0xf7,
0x01,
0x02,
0x03,
0xf7,
0x03,
0xfe,
0x04,
0xfe,
0x01,
0xff,
0x03,
0xfd,
0x00,
0xfe,
0x05,
0xff,
0x02,
0xff,
0x05,
0xfe,
0x00,
0xfd,
0x0b,
0x05,
0x00,
0x02,
0x0a,
0x00,
0xfd,
0xfe,
0x0d,
0x08,
0x07,
0x06,
0x0e,
0x00,
0x01,
0x05,
0x01,
0xf4,
0x12,
0x05,
0xff,
0xf4,
0x13,
0x05,
0x01,
0xf3,
0x10,
0x05,
0xff,
0xf4,
0x12,
0x03,
0xfc,
0x03,
0x05,
0x00,
0xfd,
0x00,
0x03,
0x03,
0xfd,
0x02,
0x06,
0x00,
0xfc,
0xff,
0x04,
0xe4,
0xfa,
0xee,
0xed,
0x0b,
0xfa,
0xf9,
0xfb,
0xe4,
0xff,
0xf1,
0xe6,
0x0f,
0x02,
0xfa,
0xf5,
0x01,
0x0f,
0x18,
0x00,
0x01,
0x0e,
0x17,
0x01,
0x01,
0x0e,
0x16,
0xfe,
0x02,
0x0d,
0x15,
0xfd,
0xfd,
0xfd,
0xff,
0xff,
0xfd,
0xfe,
0xfe,
0xfc,
0xfe,
0xff,
0xfe,
0xff,
0xfe,
0xff,
0xfe,
0xfd,
0xfe,
0xef,
0xee,
0xe8,
0x0c,
0xf0,
0xef,
0xe9,
0xfc,
0xf2,
0xed,
0xee,
0x10,
0xf3,
0xef,
0xf1,
0xfa,
0xfe,
0xff,
0x0c,
0xff,
0xfb,
0xff,
0x09,
0xf9,
0xfd,
0xfe,
0x0a,
0xfc,
0xf9,
0xff,
0x08,
0x00,
0xfe,
0x03,
0xf6,
0xff,
0xff,
0x05,
0xf7,
0x01,
0xfe,
0x04,
0xf7,
0x01,
0x01,
0x05,
0xf8,
0xff,
0x36,
0x03,
0x2f,
0xfe,
0x36,
0x01,
0x2a,
0x01,
0x37,
0xff,
0x1e,
0xff,
0x36,
0xfc,
0x18,
0x04,
0x05,
0xe7,
0xce,
0xfb,
0x07,
0xe9,
0xcc,
0x03,
0xfe,
0xe8,
0xd0,
0xfa,
0xff,
0xeb,
0xcf,
0x00,
0x2a,
0x09,
0x2e,
0xfc,
0x2c,
0x08,
0x2d,
0x00,
0x25,
0x0a,
0x2e,
0xfd,
0x27,
0x0a,
0x2d,
0x08,
0x04,
0x03,
0x07,
0x05,
0x00,
0x07,
0x06,
0xfe,
0x01,
0x07,
0x09,
0xff,
0xfe,
0x09,
0x0b,
0x04,
0x02,
0xf4,
0xee,
0xfe,
0x06,
0xf3,
0xed,
0x06,
0x00,
0xf6,
0xf2,
0x01,
0x02,
0xf6,
0xf2,
0x01,
0xff,
0x0e,
0xfd,
0x01,
0xff,
0x0e,
0xfc,
0x02,
0x04,
0x10,
0xfd,
0x02,
0x04,
0x0f,
0xfc,
0xf7,
0xfd,
0x10,
0x0c,
0xf0,
0xfc,
0x0e,
0x0f,
0xf6,
0xf8,
0x0e,
0x0d,
0xf0,
0xf8,
0x0d,
0x0e,
0x00,
0xe9,
0x14,
0x01,
0x01,
0xe8,
0x15,
0x01,
0x01,
0xe8,
0x14,
0x00,
0x02,
0xe7,
0x15,
0xff,
0x00,
0x02,
0x12,
0xfe,
0xfe,
0x03,
0x12,
0xfc,
0x00,
0x08,
0x12,
0x00,
0xff,
0x08,
0x12,
0xfe,
0xf9,
0xf9,
0x03,
0x02,
0xef,
0xfb,
0x07,
0x07,
0xfa,
0xfb,
0x02,
0xfe,
0xed,
0xfc,
0x08,
0x07,
0x01,
0x07,
0x30,
0x49,
0xff,
0x07,
0x30,
0x48,
0x01,
0x03,
0x31,
0x4a,
0xff,
0x03,
0x30,
0x49};
