/* SPDX-License-Identifier: GPL-2.0 */
/*
 * Copyright (c) 2020 MediaTek Inc.
 *
 * Author: Ya-Wen Hsu <Ya-Wen.Hsu@mediatek.com>
 *
 */
char fdvt_kernel_bias_loop70_1_frame01[] = {
0x02,
0x13,
0x0e,
0x13,
0x05,
0x08,
0x07,
0xf9,
0xfc,
0xfa,
0xe5,
0x06,
0xf6,
0xf3,
0xfc,
0xfe,
0x11,
0x05,
0x01,
0xf5,
0x08,
0x01,
0x04,
0xf1,
0x12,
0x12,
0xfb,
0x0b,
0x02,
0xfa,
0x0d,
0xf6,
0xc1,
0x04,
0xf9,
0x0e,
0x16,
0x05,
0x0f,
0xfa,
0x0c,
0xfd,
0xee,
0x0b,
0xdd,
0x11,
0x14,
0xf4,
0x02,
0xf7,
0x02,
0x10,
0xfa,
0x04,
0x13,
0x04,
0x03,
0xf1,
0x05,
0xf0,
0xf6,
0x10,
0x11,
0x03,
0xf7,
0xff,
0x15,
0xf1,
0x00,
0x12,
0x03,
0xf5,
0xd8,
0x0d,
0xf3,
0xe6,
0xe7,
0xf2,
0x0f,
0xff,
0x01,
0x04,
0x07,
0x0c,
0xfd,
0x03,
0x03,
0x29,
0x04,
0xfe,
0x0c,
0xee,
0x0b,
0xf0,
0xed,
0xf1,
0xf8,
0xfc,
0xff,
0x0b,
0xed,
0xf5,
0xf8,
0xf0,
0x08,
0x0f,
0x01,
0xf7,
0x09,
0x04,
0x05,
0x06,
0xee,
0x07,
0xff,
0x08,
0x08,
0x10,
0xf7,
0xfa,
0xe9,
0x05,
0x14,
0xf9,
0xff,
0x0c,
0x01,
0x17,
0x01,
0xf4,
0x03,
0x03,
0xfb,
0xf1,
0x2c,
0xfd,
0xf4,
0xfd,
0xfb,
0xfd,
0xf5,
0x06,
0x05,
0xf3,
0xdd,
0xf8,
0x0a,
0xfc,
0xf3,
0x2c,
0xfc,
0x10,
0x01,
0x1f,
0x15,
0xfc,
0x02,
0xef,
0x09,
0x08,
0xf7,
0xf5,
0xf0,
0x01,
0x05,
0x01,
0xf7,
0x03,
0xfe,
0xfc,
0xfb,
0x0f,
0x02,
0x03,
0x05,
0xff,
0x03,
0xf8,
0xfd,
0x0e,
0x03,
0x06,
0x05,
0xff,
0xf6,
0xf8,
0x02,
0xfb,
0xec,
0x15,
0xf9,
0xff,
0xe9,
0x19,
0x07,
0xfb,
0xe5,
0xf9,
0x05,
0xdc,
0xf6,
0x02,
0x04,
0xe4,
0xe6,
0xef,
0xfd,
0x0d,
0xfc,
0x17,
0xf3,
0xf4,
0xf4,
0x1a,
0x0a,
0xfa,
0xee,
0x0a,
0x01,
0x2f,
0x02,
0x0d,
0x05,
0x00,
0xf8,
0x1d,
0xfd,
0x15,
0x14,
0xfb,
0x04,
0x03,
0x0e,
0xf2,
0x03,
0x0f,
0x04,
0x01,
0xfb,
0x0f,
0x0c,
0x02,
0x0e,
0x0f,
0xfe,
0xfc,
0xfb,
0xf2,
0xf2,
0x09,
0x0b,
0xff,
0x02,
0xf4,
0xec,
0xfb,
0x0f,
0xf6,
0xfa,
0xff,
0xef,
0x18,
0xef,
0xfb,
0xfb,
0xfc,
0xde,
0x0c,
0x0a,
0x06,
0xe5,
0xf6,
0xfd,
0xf6,
0x06,
0xf0,
0x10,
0xfa,
0xf8,
0xfa,
0x00,
0xfc,
0x0b,
0xfe,
0x08,
0xff,
0xfc,
0x1c,
0x09,
0x07,
0xfd,
0xfe,
0xf0,
0x13,
0xfb,
0xfd,
0xee,
0x03,
0x08,
0x06,
0x01,
0xe7,
0x01,
0xf8,
0xfe,
0x04,
0xe2,
0x13,
0x14,
0x10,
0xff,
0xf1,
0x06,
0x0d,
0x02,
0xf7,
0x0e,
0xfd,
0xe9,
0x09,
0x2d,
0xf9,
0xf8,
0x0d,
0xf8,
0x05,
0xf6,
0xfd,
0x08,
0xf6,
0xf8,
0xff,
0xfe,
0xf0,
0xf5,
0x17,
0xf3,
0x02,
0xf1,
0xf7,
0x0b,
0xfd,
0x0e,
0x0c,
0x06,
0xf4,
0x06,
0x0b,
0xfb,
0xfc,
0xfc,
0xf8,
0xf6,
0xfe,
0x00,
0x0c,
0xf4,
0x07,
0x18,
0xf6,
0x18,
0x0c,
0xfe,
0x00,
0xfa,
0xfb,
0xe9,
0x0f,
0x11,
0xf9,
0x16,
0xed,
0xfc,
0xfb,
0xfa,
0x1a,
0x07,
0x00,
0xfc,
0xff,
0xf7,
0x06,
0xf6,
0xff,
0x0a,
0x25,
0x02,
0xfd,
0xff,
0xea,
0x0c,
0xf5,
0x00,
0x10,
0x08,
0xea,
0x06,
0x0f,
0x01,
0x19,
0xfe,
0xf3,
0xff,
0xed,
0xee,
0x00,
0x06,
0x07,
0xef,
0xf5,
0x09,
0xf8,
0x0d,
0x09,
0xf8,
0x0e,
0x06,
0xe8,
0x00,
0x0a,
0x00,
0x08,
0xfc,
0xf0,
0xfc,
0xff,
0xfa,
0xf2,
0x01,
0x0f,
0xf5,
0xfb,
0x32,
0xea,
0xf8,
0xd2,
0xd8,
0xfa,
0xf0,
0x08,
0xff,
0x13,
0x02,
0xf4,
0xed,
0xf9,
0xfe,
0xf6,
0xf3,
0xf0,
0xfe,
0x11,
0x02,
0xf5,
0x03,
0x07,
0xf0,
0x0c,
0xf6,
0xfa,
0x0d,
0xf9,
0x14,
0x06,
0x05,
0xeb,
0x05,
0xf4,
0xf3,
0x02,
0xf7,
0x03,
0x0f,
0x12,
0xf4,
0xfb,
0x0c,
0xe9,
0x0e,
0x16,
0xf2,
0xf2,
0xfc,
0x05,
0x0f,
0x06,
0x03,
0xfd,
0xfb,
0xfa,
0x17,
0xfe,
0x00,
0x17,
0x0f,
0x09,
0xe3,
0x1f,
0xf7,
0xfb,
0xfc,
0x08,
0xf9,
0x00,
0xfb,
0xf6,
0x01,
0xef,
0xf6,
0x05,
0xf8,
0xfe,
0x00,
0x18,
0x05,
0x12,
0xf7,
0xe6,
0xec,
0xf9,
0x1b,
0x04,
0xf1,
0xfe,
0x0d,
0x08,
0xfb,
0xfc,
0x0b,
0xfc,
0x16,
0x03,
0xfd,
0xfb,
0x0c,
0xf9,
0xff,
0x0b,
0xfd,
0xf0,
0x05,
0x19,
0xff,
0xff,
0x1d,
0xe7,
0x14,
0xf6,
0xf9,
0xff,
0xfb,
0x12,
0xf8,
0x09,
0xff,
0x03,
0xf9,
0x07,
0xf5,
0xd7,
0xea,
0x03,
0xfe,
0x02,
0x0a,
0x11,
0xeb,
0x01,
0xf9,
0xea,
0xff,
0x11,
0x08,
0x0a,
0xfe,
0xeb,
0x07,
0xf0,
0x00,
0x07,
0xf0,
0x09,
0xf9,
0xec,
0xf8,
0xfc,
0xf2,
0x0d,
0x05,
0x01,
0xf0,
0xf1,
0xfc,
0xf8,
0xfd,
0xfe,
0xfd,
0xf4,
0x26,
0xff,
0x05,
0xff,
0xfc,
0x0e,
0x02,
0x02,
0xfe,
0xf7,
0xf9,
0xef,
0xff,
0xe9,
0x00,
0xe9,
0xfb,
0x0c,
0x07,
0x0a,
0xf8,
0xf1,
0x02,
0xfd,
0x06,
0x00,
0xfd,
0x09,
0xf6,
0xf2,
0x10,
0x03,
0x0a,
0xf7,
0x0d,
0xf4,
0xfd,
0x09,
0x07,
0xf2,
0xf5,
0xf8,
0xf5,
0xff,
0x06,
0x10,
0x02,
0xf2,
0xfd,
0x00,
0xf9,
0x17,
0xfa,
0xf3,
0xf9,
0xff,
0x0a,
0x08,
0xf5,
0x03,
0x17,
0xf1,
0xff,
0xfa,
0xfe,
0xef,
0x04,
0xf6,
0x10,
0xf9,
0x07,
0xfa,
0x01,
0xfe,
0x14,
0x03,
0x05,
0xfe,
0x02,
0x01,
0x00,
0xfa,
0xfd,
0xf7,
0x02,
0xff,
0x0c,
0x03,
0xf0,
0xf9,
0x0f,
0x03,
0xf9,
0x0b,
0x10,
0xe3,
0xf7,
0x0c,
0xf4,
0x10,
0x04,
0x07,
0x0a,
0xf9,
0x01,
0xfd,
0xec,
0x05,
0xe1,
0x0f,
0xf2,
0xfc,
0xf5,
0x08,
0xf3,
0xfb,
0x08,
0x06,
0xf7,
0xef,
0xe1,
0xf5,
0x00,
0x10,
0xf8,
0x00,
0xfc,
0x06,
0xfd,
0x0c,
0xec,
0xe7,
0x02,
0x0e,
0x06,
0x0c,
0xfd,
0xf5,
0xf5,
0xf5,
0x00,
0xf8,
0xf1,
0xff,
0xfd,
0x00,
0x00,
0x04,
0x06,
0x03,
0xf3,
0xfe,
0xf7,
0xfd,
0x03,
0xf3,
0x14,
0x08,
0x06,
0x03,
0x04,
0xf1,
0xeb,
0xf5,
0x01,
0xe0,
0x13,
0x0b,
0x0f,
0xf8,
0xe2,
0xf9,
0xf7,
0xec,
0xf0,
0xed,
0xf3,
0xfa,
0x0e,
0xf3,
0xfb,
0x07,
0x09,
0xeb,
0x12,
0xf6,
0xf9,
0x0f,
0xf0,
0xf0,
0xe7,
0xfd,
0x0d,
0x08,
0x04,
0x13,
0xf0,
0x0d,
0x21,
0x0b,
0x14,
0x18,
0x0b,
0x04,
0x01,
0x1d,
0xf0,
0x04,
0x1b,
0xff,
0xf6,
0x14,
0x0e,
0x07,
0x06,
0x03,
0x10,
0xf3,
0xe8,
0x04,
0x0e,
0xf9,
0x03,
0xf4,
0xfe,
0x29,
0xfc,
0x25,
0x0f,
0xe7,
0x02,
0xfd,
0x02,
0xd3,
0x0f,
0xf3,
0x15,
0xf6,
0xf9,
0x04,
0xea,
0x10,
0x08,
0x05,
0xf0,
0x16,
0xf2,
0x0a,
0xf1,
0xfc,
0x05,
0xff,
0xfb,
0x0c,
0xfe,
0x01,
0x05,
0xf0,
0xf4,
0x02,
0x09,
0x04,
0x2f,
0x07,
0xff,
0x02,
0xeb,
0xfd,
0xf0,
0xfa,
0x09,
0x04,
0x08,
0xf6,
0xe4,
0x06,
0x04,
0xf2,
0xf9,
0xf6,
0x03,
0xf2,
0x00,
0x1e,
0xfc,
0xfe,
0x1d,
0x09,
0xef,
0xfa,
0x00,
0xf1,
0xf6,
0x05,
0xfb,
0x08,
0x01,
0xfc,
0xf4,
0xf5,
0xff,
0xfd,
0x07,
0xfa,
0xfc,
0xfa,
0xf3,
0xf6,
0x03,
0xde,
0x0e,
0x08,
0x10,
0xfe,
0xfb,
0xfe,
0x07,
0x00,
0x00,
0x14,
0xfb,
0x10,
0x02,
0x0a,
0x00,
0xf4,
0x26,
0x04,
0xf8,
0x14,
0xf5,
0x08,
0x2d,
0x03,
0xec,
0x00,
0xf7,
0x08,
0xfd,
0xfb,
0x07,
0x04,
0xf8,
0xf5,
0x02,
0xea,
0xfb,
0xfb,
0xf4,
0x07,
0xed,
0x05,
0x04,
0xd5,
0xff,
0x18,
0x01,
0xff,
0xfc,
0xf3,
0x06,
0xe5,
0xf9,
0x02,
0xf8,
0x03,
0x0c,
0x04,
0xff,
0xfe,
0x03,
0xeb,
0xfe,
0xee,
0x0b,
0x0f,
0x21,
0x01,
0xf1,
0x09,
0xfc,
0xfd,
0x16,
0x09,
0x09,
0xfd,
0x00,
0x04,
0xf4,
0x18,
0x07,
0x01,
0xf0,
0x07,
0xf6,
0x09,
0x02,
0xfc,
0xfd,
0xfb,
0xff,
0xfe,
0x12,
0x09,
0x01,
0x04,
0x03,
0x07,
0xf2,
0xfd,
0x0e,
0x02,
0x08,
0xf5,
0x0b,
0xf3,
0xfe,
0x0e,
0x06,
0xfe,
0xfe,
0xf6,
0xfe,
0x05,
0xfe,
0x07,
0x29,
0x20,
0x16,
0xf6,
0x0d,
0x40,
0x1a,
0x1e,
0x0c,
0x09,
0xf9,
0x20,
0xd4,
0x1e,
0x11,
0x61};
