/* SPDX-License-Identifier: GPL-2.0 */
/*
 * Copyright (c) 2020 MediaTek Inc.
 *
 * Author: Ya-Wen Hsu <Ya-Wen.Hsu@mediatek.com>
 *
 */

char fdvt_kernel_bias_loop64_1_frame01[] = {
0xf6,
0x00,
0xef,
0xf6,
0xe7,
0x4e,
0xfc,
0xf5,
0x1e,
0x07,
0x2a,
0x0e,
0xfc,
0x13,
0xfa,
0x19,
0x02,
0x03,
0xf1,
0xd9,
0x03,
0xed,
0xeb,
0x15,
0x01,
0x1e,
0xe2,
0x1b,
0xf4,
0xee,
0x1b,
0x09,
0xf2,
0xeb,
0x01,
0xfd,
0xf6,
0xfe,
0xdf,
0xf5,
0xee,
0x08,
0xda,
0x10,
0xfd,
0xe1,
0x10,
0x05,
0x03,
0xf1,
0x02,
0x32,
0x05,
0xe3,
0xdf,
0xea,
0xc7,
0xf3,
0xff,
0x09,
0x0d,
0xc4,
0x19,
0xd6,
0x00,
0xed,
0xec,
0xf7,
0xf3,
0xd7,
0x19,
0x02,
0xee,
0x01,
0x11,
0x09,
0xfd,
0xf1,
0x07,
0x0e,
0xe8,
0xf3,
0xf2,
0xf9,
0x2f,
0x14,
0x26,
0xe4,
0xf6,
0xd8,
0xe5,
0xe6,
0xe0,
0x1d,
0xff,
0xe1,
0xef,
0xf4,
0x1c,
0xf6,
0x07,
0xfe,
0x11,
0xf4,
0x10,
0x1f,
0xef,
0x10,
0x1e,
0x10,
0x0f,
0xe6,
0x14,
0x1e,
0x0b,
0xf8,
0xfb,
0x16,
0xee,
0xf3,
0xf0,
0x1d,
0xf8,
0x06,
0xdf,
0x03,
0x15,
0xf2,
0x04,
0xe9,
0xfe,
0xf1,
0x12,
0xf3,
0xef,
0xde,
0xf4,
0x08,
0xe6,
0x04,
0xee,
0x10,
0xda,
0xe8,
0xe3,
0xf8,
0xef,
0xfc,
0x0c,
0x0d,
0x1e,
0xfd,
0xfb,
0xfd,
0xfe,
0x27,
0xfb,
0xe4,
0xe5,
0x05,
0xe7,
0xf7,
0xee,
0x04,
0x20,
0xf0,
0xee,
0xf9,
0xf4,
0xf1,
0xe4,
0x07,
0xe8,
0x21,
0x0e,
0xf4,
0xf9,
0x1e,
0x17,
0xf7,
0xfc,
0xfc,
0x07,
0xe1,
0xf1,
0x01,
0x05,
0xfb,
0xf0,
0xf0,
0x14,
0x05,
0xed,
0xd9,
0xff,
0xff,
0x03,
0x24,
0xf3,
0xe4,
0x3b,
0x24,
0xe1,
0x00,
0xff,
0x35,
0xe1,
0xef,
0x19,
0x2b,
0xe4,
0x14,
0xe2,
0xf2,
0xf5,
0x13,
0x16,
0x0e,
0x08,
0xf0,
0x08,
0xdc,
0xf1,
0xc5,
0xf0,
0x02,
0x01,
0x10,
0xfa,
0x07,
0xd9,
0xe1,
0xeb,
0xfa,
0xd6,
0x28,
0x00,
0xf9,
0xe3,
0xf6,
0x31,
0xed,
0x03,
0xff,
0xef,
0x02,
0x0a,
0xfb,
0x0f,
0xf6,
0x07,
0xf3,
0xfd,
0x00,
0x1f,
0x0b,
0x0f,
0xfb,
0xff,
0xeb,
0x07,
0x1a,
0x1d,
0x0f,
0xfa,
0x06,
0xdc,
0x14,
0xf9,
0x0b,
0x22,
0x04,
0x17,
0x19,
0xed,
0xee,
0xc9,
0xe8,
0x0a,
0x0c,
0x02,
0xfe,
0xfd,
0xf4,
0x33,
0x07,
0xec,
0x1a,
0x16,
0xfa,
0x03,
0x1d,
0x06,
0x1d,
0xf8,
0x15,
0x0e,
0xf3,
0xfd,
0xe3,
0x08,
0x1c,
0xdd,
0x24,
0xeb,
0x00,
0xf0,
0xef,
0x25,
0x07,
0xfc,
0xf6,
0xf5,
0x0c,
0xeb,
0xfd,
0x09,
0xe5,
0xee,
0xec,
0x06,
0x21,
0x1b,
0xf6,
0x1e,
0x07,
0xe8,
0xe2,
0xf4,
0xec,
0xff,
0x1e,
0xfd,
0x00,
0x12,
0x21,
0x14,
0x09,
0x36,
0x1b,
0x23,
0x0a,
0xf8,
0xf7,
0x0a,
0xfb,
0xfd,
0xd1,
0xcf,
0x1d,
0x0f,
0x09,
0x03,
0xf3,
0xf1,
0xd3,
0x02,
0xc7,
0x15,
0x28,
0x39,
0xe4,
0x14,
0xcf,
0xf5,
0x10,
0x1c,
0xf3,
0xf9,
0x0c,
0xfb,
0x26,
0x20,
0x05,
0xce,
0x07,
0xf8,
0xe9,
0xe7,
0xe1,
0x0c,
0xe0,
0xfa,
0x1a,
0xe7,
0xe1,
0x2d,
0xf8,
0xf8,
0xe2,
0x08,
0xe9,
0x14,
0xd9,
0xf0,
0x07,
0xf2,
0x32,
0x1f,
0x0c,
0xd2,
0xe7,
0xee,
0xf9,
0xda,
0x00,
0x06,
0x05,
0xdf,
0xf3,
0x05,
0xe5,
0xe1,
0xfd,
0x08,
0xf6,
0xf9,
0xfa,
0x15,
0xd8,
0x09,
0xff,
0xe1,
0xf5,
0xfb,
0x0b,
0x0f,
0x1b,
0xfa,
0xcf,
0xe5,
0x0f,
0x0d,
0x08,
0xf6,
0x06,
0xf3,
0x15,
0x05,
0x0c,
0xec,
0xd9,
0x3b,
0xf4,
0xf2,
0x16,
0xd4,
0x05,
0xfa,
0x09,
0xec,
0x07,
0xfe,
0xee,
0x1c,
0x04,
0x0b,
0xde,
0x03,
0xf9,
0x01,
0x0d,
0xf9,
0x17,
0x22,
0xf7,
0x0a,
0xdd,
0x0e,
0x03,
0x1a,
0xe5,
0x2a,
0xf3,
0x30,
0x0b,
0x18,
0xd5,
0x1d,
0x10,
0xec,
0x08,
0xf5,
0x00,
0xf1,
0x04,
0xf5,
0x01,
0x3d,
0xf2,
0x13,
0xce,
0x04,
0xf2,
0x02,
0x16,
0xf3,
0x07,
0x08,
0xf9,
0xf7,
0xf5,
0xf0,
0x18,
0x04,
0xff,
0x2d,
0x0e,
0xfc,
0x10,
0x02,
0xf7,
0xf8,
0xc7,
0x36,
0x09,
0x06,
0xfd,
0xe6,
0xfa,
0x18,
0x09,
0x12,
0x0a,
0xf6,
0xf1,
0x0d,
0x08,
0xf1,
0xf1,
0xfe,
0xe8,
0x2f,
0xd8,
0x0c,
0xfa,
0x02,
0xf6,
0x18,
0x10,
0x03,
0x0b,
0x0b,
0x0d,
0x08,
0x2a,
0xf5,
0xee,
0xed,
0x21,
0xee,
0xf8,
0xe3,
0x09,
0xee,
0xe8,
0xeb,
0x26,
0xec,
0xff,
0x08,
0x0b,
0xd0,
0x08,
0x02,
0xeb,
0x67,
0xeb,
0x11,
0x1a,
0xe1,
0xe8,
0xec,
0x25,
0x1b,
0xf7,
0x0a,
0x1e,
0xf4,
0x09,
0xf1,
0xff,
0x02,
0x0c,
0xff,
0xe9,
0x24,
0x00,
0x0b,
0xe0,
0x0b,
0x10,
0x03,
0xfa,
0xfb,
0x07,
0xf8,
0x2b,
0xf1,
0x03,
0x21,
0xec,
0xe7,
0xea,
0xea,
0x31,
0xda,
0x16,
0x0d,
0xfe,
0xfe,
0x28,
0xf6,
0x05,
0x00,
0x10,
0x00,
0x19,
0x18,
0xdd,
0xeb,
0xfb,
0x28,
0xf9,
0xe4,
0x04,
0xee,
0xee,
0xee,
0x00,
0x04,
0x07,
0x10,
0xf9,
0x30,
0xfe,
0x1a,
0xe9,
0x0b,
0xfd,
0x05,
0xf9,
0x14,
0x19,
0xf7,
0x0d,
0xf2,
0xec,
0x22,
0xe5,
0x05,
0xfb,
0x0d,
0xfc,
0x13,
0xf3,
0x02,
0x1a,
0x10,
0x16,
0x13,
0xf6,
0xdf,
0x22,
0x09,
0xd6,
0xfc,
0x11,
0xec,
0x16,
0x0d,
0x00,
0xff,
0xda,
0x3d,
0x12,
0xef,
0xe9,
0xe5,
0xd1,
0xea,
0xe8,
0xf0,
0xe4,
0xf4,
0x2e,
0xf4,
0xf4,
0xf4,
0x12,
0xd9,
0xea,
0xde,
0x14,
0xf7,
0xf0,
0xe6,
0x30,
0x33,
0x06,
0xf8,
0xf6,
0xf5,
0xf6,
0x2b,
0xfa,
0xf1,
0xd3,
0x08,
0x21,
0xfa,
0xf3,
0x13,
0xd3,
0xff,
0x17,
0xf1,
0xde,
0x0e,
0x0a,
0x00,
0x04,
0x13,
0x16,
0xd9,
0xec,
0xea,
0x13,
0xf1,
0xe4,
0x1f,
0x1a,
0xfc,
0x05,
0x18,
0xef,
0x0b,
0xda,
0x00,
0xd4,
0xfb,
0x09,
0xd4,
0x1f,
0xf5,
0x06,
0x16,
0xf3,
0xfd,
0xf1,
0xd6,
0x0c,
0xd5,
0xff,
0x02,
0x01,
0xf4,
0x1d,
0x0e,
0xde,
0x04,
0x23,
0x1d,
0xf3,
0x00,
0xf3,
0x0a,
0x02,
0x0c,
0xe3,
0xf1,
0x03,
0xfc,
0xf3,
0x04,
0xe9,
0x09,
0x2a,
0x0f,
0xf3,
0x1b,
0x0a,
0xae,
0xe6,
0xd6,
0x07,
0xe5,
0x08,
0xf1,
0x09,
0xeb,
0x0d,
0xf6,
0x17,
0x0e,
0x00,
0x03,
0xf7,
0xd7,
0x09,
0x09,
0xcb,
0x1d,
0xee,
0xd6,
0xfb,
0xe2,
0x2d,
0xf6,
0x35,
0xe0,
0xfb,
0xfe,
0x01,
0xdb,
0x09,
0x0e,
0x10,
0x03,
0xde,
0xf6,
0x15,
0x1a,
0xe7,
0xf9,
0x09,
0xef,
0xea,
0xf1,
0x1c,
0x0d,
0x2a,
0xda,
0x05,
0xe8,
0x03,
0xd3,
0xf2,
0xf2,
0xe4,
0x05,
0xf6,
0xe0,
0xfe,
0xea,
0x27,
0x28,
0x2c,
0xf9,
0x0b,
0xf2,
0x0c,
0xda,
0xde,
0x05,
0xfb,
0x15,
0xea,
0x43,
0xd1,
0x1e,
0x1d,
0xf8,
0xfb,
0x19,
0x30,
0xf6,
0x06,
0xfd,
0xfb,
0x0b,
0x02,
0xf9,
0x13,
0xea,
0xf9,
0xf5,
0xf7,
0xe4,
0xe3,
0xf4,
0xf2,
0x09,
0xf8,
0xf9,
0x04,
0x15,
0xde,
0x0c,
0x12,
0xfe,
0xfa,
0x06,
0x17,
0xf4,
0x05,
0x13,
0xf7,
0xf9,
0x08,
0x0c,
0x08,
0x10,
0x1a,
0x38,
0x03,
0x03,
0xf7,
0xf4,
0x06,
0x0a,
0x00,
0xe0,
0xfe,
0xe8,
0xe7,
0x04,
0x26,
0x05,
0xdf,
0x24,
0xbb,
0x0b,
0x00,
0xd8,
0x21,
0x0d,
0x25,
0x03,
0x14,
0xf7,
0xfb,
0xf2,
0xf6,
0xf7,
0x12,
0xfe,
0x18,
0xfe,
0xec,
0xf3,
0xef,
0xee,
0xf7,
0x12,
0x0f,
0xe3,
0xf2,
0xf3,
0x13,
0xfc,
0x03,
0xea,
0xef,
0xe9,
0x0f,
0xef,
0xf9,
0xf3,
0xf2,
0xf2,
0x01,
0x30,
0x0a,
0x11,
0x1e,
0xee,
0xef,
0xe0,
0x19,
0xff,
0x31,
0x05,
0x1f,
0xfc,
0xfc,
0x13,
0xf9,
0xfd,
0xe8,
0xe3,
0x1c,
0x0a,
0xd2,
0x06,
0x08,
0xdc,
0xe8,
0x06,
0x03,
0xf0,
0xf3,
0x24,
0xf4,
0xdc,
0xea,
0xee,
0x0c,
0xf5,
0xf1,
0x04,
0xf8,
0x04,
0xeb,
0xf0,
0xfd,
0x0d,
0xf5,
0x02,
0x18,
0x1b,
0xd8,
0xfe,
0xf7,
0xf6,
0x14,
0xe8,
0xee,
0xff,
0xdc,
0x14,
0xf9,
0x02,
0x19,
0x29,
0x24,
0x2b,
0x14,
0x4a,
0x16,
0x0a,
0x52,
0x0d,
0x38,
0x07,
0x16,
0x06,
0xc0,
0xf8,
0x1d};
