/* SPDX-License-Identifier: GPL-2.0 */
/*
 * Copyright (c) 2020 MediaTek Inc.
 *
 * Author: Ya-Wen Hsu <Ya-Wen.Hsu@mediatek.com>
 *
 */

char fdvt_kernel_bias_loop62_1_frame01[] = {
0xfd,
0x03,
0xe0,
0xee,
0xfb,
0xed,
0x07,
0x04,
0xf9,
0x02,
0xf3,
0xf9,
0xfa,
0xf8,
0x02,
0x09,
0xf9,
0x01,
0x04,
0x04,
0x0c,
0x0b,
0x01,
0x05,
0x01,
0x08,
0x14,
0x13,
0xf6,
0xf2,
0xef,
0xf2,
0x09,
0x01,
0x07,
0x11,
0x05,
0x0a,
0x00,
0x03,
0xff,
0x07,
0xfd,
0xfc,
0xf7,
0xfc,
0x03,
0x07,
0xf1,
0xf1,
0xf1,
0xf7,
0xfd,
0x0d,
0x0b,
0x02,
0x08,
0xff,
0xfb,
0xfc,
0xf7,
0xf7,
0x0b,
0x22,
0x12,
0x12,
0x03,
0x0c,
0x06,
0xf5,
0xff,
0x16,
0x07,
0x05,
0xff,
0x06,
0xe8,
0xe2,
0xfc,
0xf8,
0x0a,
0xfd,
0x02,
0xf0,
0x00,
0x0b,
0x04,
0x05,
0x13,
0x0d,
0xf1,
0x06,
0x00,
0xf8,
0xfe,
0xee,
0x01,
0xfe,
0x03,
0x03,
0xf3,
0xfa,
0xf3,
0xfa,
0xf6,
0x22,
0x12,
0xec,
0x0e,
0x16,
0xff,
0xf4,
0x11,
0x0a,
0x0b,
0xfc,
0xfb,
0xfb,
0xfc,
0x15,
0x02,
0xfe,
0x0b,
0xe9,
0xfd,
0x01,
0x09,
0xf2,
0x13,
0x09,
0xf4,
0xf5,
0xf9,
0xed,
0xef,
0x12,
0x02,
0xe2,
0x07,
0x01,
0xf0,
0x01,
0x0a,
0x04,
0xe9,
0xe1,
0xf9,
0xe7,
0xfd,
0x03,
0x00,
0x0b,
0xf3,
0x08,
0x08,
0x0d,
0xff,
0xfb,
0xfb,
0xed,
0xfb,
0xfb,
0x04,
0x04,
0x16,
0x05,
0x03,
0xfd,
0xff,
0x07,
0x0d,
0x05,
0xf2,
0xf7,
0xf1,
0x09,
0xfd,
0xfb,
0xfd,
0x07,
0xfa,
0x0e,
0x08,
0xff,
0x04,
0xec,
0xf2,
0x02,
0x0f,
0xec,
0x06,
0x10,
0xf8,
0xe7,
0x05,
0x06,
0xfc,
0x02,
0xf9,
0xfe,
0x0e,
0xf8,
0xfe,
0x03,
0x04,
0x05,
0x07,
0x08,
0xfa,
0x02,
0x10,
0x02,
0x1c,
0x18,
0x09,
0x0f,
0xfc,
0x06,
0xfc,
0x05,
0xf9,
0x05,
0x00,
0xe9,
0xeb,
0xef,
0xf3,
0xf8,
0x09,
0x13,
0x14,
0x03,
0xff,
0xfd,
0xfe,
0xf9,
0x05,
0xf6,
0x07,
0x02,
0xfd,
0x02,
0x00,
0x03,
0xf4,
0xf6,
0xe3,
0xec,
0x08,
0xfd,
0xf2,
0x04,
0x03,
0x01,
0x0c,
0x0b,
0x05,
0x04,
0x01,
0x0d,
0xff,
0xfa,
0x13,
0x15,
0x0c,
0x0c,
0x0c,
0x04,
0xf4,
0xf2,
0xfe,
0xf3,
0x0d,
0x05,
0xf7,
0x01,
0xf6,
0xfe,
0x00,
0x13,
0x0e,
0xf2,
0x09,
0x13,
0x08,
0xfa,
0x01,
0x05,
0x17,
0x18,
0xff,
0xfc,
0xfa,
0x15,
0x0f,
0x0b,
0x12,
0x10,
0xfa,
0x0a,
0x0b,
0x10,
0x12,
0x0d,
0xf8,
0xf9,
0xec,
0xe9,
0xe0,
0xdb,
0x06,
0x0f,
0x16,
0xfa,
0x00,
0x15,
0xf2,
0xe4,
0xf0,
0x01,
0xf9,
0x09,
0x09,
0xf3,
0xfa,
0xe9,
0xe0,
0xf1,
0xe9,
0xf7,
0x05,
0x04,
0xf5,
0x02,
0xfd,
0xed,
0x05,
0x0a,
0xe6,
0xf2,
0x01,
0xfa,
0xf6,
0xf3,
0xee,
0x00,
0xf1,
0xee,
0xec,
0xee,
0xd5,
0xe9,
0xf5,
0x03,
0x0d,
0x03,
0xf7,
0x0a,
0x0d,
0x00,
0x05,
0x06,
0xff,
0xeb,
0xf1,
0xf9,
0xf0,
0xe3,
0x1c,
0x20,
0x25,
0x1b,
0x0a,
0x0c,
0x05,
0x09,
0x0c,
0x07,
0x04,
0x06,
0xf9,
0xf7,
0x06,
0xfc,
0xfc,
0xfc,
0xf8,
0xf8,
0xf1,
0xe0,
0xed,
0xee,
0xff,
0x03,
0x17,
0xf5,
0xff,
0x07,
0xf4,
0xea,
0x0b,
0x0f,
0x0c,
0xfc,
0x02,
0x00,
0x0f,
0xf9,
0x04,
0x0e,
0x04,
0xff,
0xf1,
0xff,
0x03,
0xf6,
0xdf,
0xfe,
0xff,
0xf4,
0xf6,
0xef,
0xf5,
0x09,
0xfb,
0xeb,
0x09,
0x05,
0xff,
0x0d,
0x05,
0x03,
0x13,
0x00,
0xfb,
0xf2,
0xea,
0xfd,
0x09,
0xff,
0x0f,
0x25,
0x06,
0x08,
0x10,
0x1f,
0x04,
0x16,
0x04,
0x01,
0x0a,
0x1b,
0x12,
0x07,
0x11,
0x13,
0x04,
0x13,
0x05,
0xf5,
0xf1,
0xf4,
0x06,
0xf7,
0xec,
0x13,
0x26,
0x17,
0x20,
0x1a,
0x14,
0x17,
0xfe,
0xf6,
0xf9,
0xee,
0xf4,
0xfa,
0xf5,
0xe9,
0xfd,
0xf0,
0x00,
0xfc,
0xf8,
0x16,
0x0e,
0x03,
0x0a,
0x07,
0x09,
0xf9,
0x08,
0x0e,
0xfe,
0xf4,
0x06,
0xff,
0xfd,
0x01,
0xfe,
0xfb,
0x06,
0xfa,
0xf4,
0xf0,
0xee,
0x00,
0xfc,
0x11,
0x11,
0x10,
0xff,
0xfb,
0xfb,
0x01,
0xfc,
0x02,
0x0a,
0x13,
0x17,
0x0d,
0x19,
0x17,
0x11,
0x02,
0x00,
0xfa,
0x17,
0x0d,
0x0e,
0x09,
0x06,
0xff,
0xfe,
0xf8,
0x0a,
0x1d,
0x11,
0xf7,
0x01,
0x1b,
0xfc,
0xfa,
0x08,
0xf2,
0xef,
0x09,
0x06,
0x04,
0x09,
0xf8,
0xf2,
0x03,
0xf5,
0xea,
0x00,
0xf1,
0xfa,
0x04,
0xf9,
0x04,
0x00,
0xfe,
0x03,
0xfd,
0xfe,
0xf5,
0x10,
0x11,
0xf0,
0x07,
0x0e,
0xe9,
0xff,
0x01,
0xf2,
0xfc,
0x08,
0x0f,
0x03,
0x0d,
0x0e,
0x07,
0x05,
0xff,
0xfa,
0xf2,
0xf8,
0xfd,
0x02,
0x05,
0x06,
0x0e,
0x03,
0xfc,
0xf4,
0xf5,
0x06,
0x09,
0x0a,
0xf9,
0x01,
0xf2,
0x02,
0xf8,
0xfb,
0xec,
0x0d,
0x10,
0x01,
0x09,
0xf5,
0xe9,
0x04,
0xf8,
0x04,
0x25,
0x00,
0xfc,
0x03,
0x07,
0xfb,
0x0d,
0x06,
0x12,
0xf4,
0x08,
0x14,
0xfd,
0xfd,
0x01,
0xf4,
0xfc,
0xfb,
0xfe,
0xf2,
0xf4,
0x0c,
0xfc,
0xea,
0xec,
0xfe,
0x02,
0xf9,
0xe7,
0x0c,
0xf2,
0xe7,
0xf9,
0xfe,
0x07,
0x02,
0x0b,
0x02,
0x00,
0xeb,
0xed,
0xee,
0xe3,
0x11,
0x14,
0x03,
0x11,
0x0f,
0x0e,
0x0b,
0x06,
0x0f,
0x01,
0xf9,
0xff,
0xf1,
0xf7,
0xf0,
0xee,
0xed,
0xfe,
0xef,
0xf8,
0x0d,
0x04,
0xe8,
0x00,
0xfc,
0xee,
0xfe,
0x0c,
0xf8,
0xf9,
0x04,
0xed,
0xda,
0x0a,
0xe0,
0xf2,
0x27,
0xfa,
0x15,
0x0d,
0xee,
0xfd,
0x00,
0xf1,
0xff,
0xf3,
0xf4,
0x08,
0xf9,
0xfd,
0x04,
0xfd,
0xff,
0x05,
0xfe,
0xfd,
0x08,
0x03,
0xef,
0x16,
0x26,
0x0e,
0xf7,
0x09,
0xff,
0x11,
0x0f,
0x06,
0x0a,
0x0f,
0xfd,
0x00,
0x07,
0x04,
0xff,
0x0a,
0xfa,
0xf6,
0xf5,
0xf2,
0xf7,
0xfb,
0x08,
0x11,
0x08,
0xec,
0xf9,
0xf5,
0xfe,
0xfb,
0xfb,
0x06,
0xfe,
0x00,
0xfd,
0xfb,
0x01,
0x06,
0xee,
0xf1,
0xfb,
0xf7,
0x14,
0x0a,
0xff,
0x19,
0x07,
0xf4,
0xf5,
0xff,
0xed,
0xf0,
0xf6,
0x11,
0x14,
0x03,
0x16,
0x0c,
0xfe,
0x15,
0x09,
0xf9,
0xff,
0xf4,
0xf0,
0x0d,
0x18,
0xee,
0x07,
0x0c,
0xf5,
0xfc,
0x00,
0xd9,
0xda,
0xf3,
0xec,
0x0a,
0x03,
0x0d,
0x00,
0x09,
0x12,
0x13,
0xeb,
0xfd,
0xec,
0xe9,
0xfa,
0xe2,
0xe7,
0xec,
0xe7,
0xfc,
0xfb,
0x01,
0xfa,
0xf5,
0x09,
0xfe,
0xed,
0x17,
0xfe,
0x00,
0xe1,
0x10,
0x38,
0xd4,
0x03,
0x1b,
0xdd,
0xe2,
0x45,
0x0d,
0xda,
0xf5,
0xf9,
0x10,
0xeb,
0xfa,
0x17,
0xf4,
0x09,
0x0d,
0x03,
0x04,
0xf7,
0x11,
0x0d,
0xfc,
0xf8,
0xfc,
0xf8,
0x00,
0xf2,
0xee,
0x11,
0x1c,
0xeb,
0x0b,
0x16,
0xe1,
0xeb,
0x09,
0x03,
0x02,
0x01,
0x08,
0x03,
0xf4,
0x08,
0xfb,
0xea,
0x05,
0xf7,
0x03,
0xf6,
0xfc,
0xf4,
0xf2,
0x05,
0x00,
0x0c,
0xf9,
0x09,
0x0a,
0x02,
0x0c,
0x01,
0xef,
0xe3,
0xeb,
0x12,
0x16,
0x10,
0xf4,
0x06,
0x09,
0x01,
0x03,
0x02,
0x03,
0xfa,
0x05,
0x04,
0xf5,
0x14,
0x03,
0xf1,
0x22,
0x03,
0xe5,
0x02,
0x04,
0xfb,
0xf1,
0x08,
0x0f,
0xfe,
0xfd,
0x0f,
0x05,
0x02,
0x02,
0xff,
0xfc,
0x12,
0xf2,
0xfa,
0x0f,
0x06,
0x0d,
0x0a,
0xeb,
0x0b,
0x0f,
0x01,
0xfd,
0x03,
0x0a,
0x0a,
0x03,
0xf2,
0x13,
0x10,
0x0e,
0x04,
0x04,
0x02,
0x06,
0x05,
0x01,
0x02,
0x14,
0xf8,
0x07,
0x09,
0x0a,
0xf4,
0xf6,
0xef,
0xed,
0xf9,
0xf2,
0xe5,
0x00,
0x03,
0xf5,
0x10,
0x04,
0xfa,
0x14,
0x0d,
0x08,
0x09,
0x0d,
0xfd,
0x04,
0x06,
0xf1,
0x06,
0x0c,
0xdc,
0x0d,
0x10,
0xe5,
0x11,
0x04,
0x00,
0x12,
0x0d,
0xff,
0xfc,
0xf6,
0x0d,
0xee,
0x03,
0x13,
0xf9,
0xfb,
0xf4,
0xf9,
0x09,
0xf7,
0x0a,
0x05,
0xe2,
0xfd,
0x03,
0x01,
0x03,
0x0f,
0x07,
0x0d,
0x18,
0x04,
0x08,
0x0d,
0xf8,
0xfe,
0x15,
0x03,
0xf6,
0x0c,
0x0a,
0x0f,
0xfb,
0x10,
0x03,
0xea,
0x05,
0x04,
0x05,
0x0b,
0x05,
0x04,
0xee,
0xdb,
0xea,
0x02,
0x0a,
0x04,
0x02,
0x02,
0xf5,
0xf3,
0xf2,
0xf9,
0xe5,
0xf6,
0x07,
0x03,
0xf3,
0x02,
0x0e,
0xee,
0x0e,
0x12,
0x02,
0x0e,
0x14,
0xf7,
0xfb,
0xfa,
0xf0,
0xf5,
0x05,
0xf6,
0xfa,
0x06,
0xff,
0xf3,
0x03,
0x00,
0xff,
0x0c,
0xf8,
0xff,
0x09,
0xf9,
0xfd,
0x05,
0xf3,
0xfb,
0xf9,
0x06,
0xfa,
0xf8,
0x0a,
0x00,
0xff,
0xfa,
0xf8,
0x00,
0xf3,
0xf5,
0xfe,
0xf9,
0xf9,
0xf9,
0xfa,
0x02,
0xfb,
0xfd,
0x04,
0x0a,
0xf4,
0xfb,
0xf9,
0xed,
0xf3,
0xf9,
0x16,
0x12,
0x07,
0x13,
0x13,
0x0b,
0xfc,
0x11,
0xf4,
0xfb,
0xff,
0xfa,
0x03,
0x08,
0xf2,
0x05,
0x0f,
0xf0,
0x08,
0x13,
0x00,
0x0b,
0x0d,
0x02,
0xff,
0x14,
0x1c,
0x09,
0x01,
0x0e,
0xfd,
0xf1,
0x03,
0x18,
0xf1,
0xf3,
0x13,
0x00,
0xf3,
0x13,
0x0c,
0x0a,
0xf9,
0xf3,
0xec,
0x02,
0x06,
0xf0,
0xfe,
0x10,
0x02,
0xfd,
0x03,
0xff,
0xfc,
0x07,
0xe4,
0xf9,
0x0c,
0xf2,
0x12,
0x17,
0x05,
0xfa,
0xfc,
0xf8,
0x03,
0xf6,
0x00,
0xfd,
0xf6,
0xfe,
0x09,
0xf5,
0x00,
0xfb,
0xf4,
0xea,
0x0c,
0xfd,
0xfe,
0x11,
0xee,
0xed,
0xdf,
0xf9,
0x02,
0xe5,
0x0f,
0x0c,
0xfe,
0x09,
0x03,
0x05,
0x03,
0x04,
0x06,
0x02,
0x05,
0x05,
0x07,
0x0b,
0x08,
0x03,
0x12,
0xfd,
0xf6,
0x12,
0xfd,
0xf4,
0x12,
0x0f,
0xf7,
0xf3,
0xf6,
0xf4,
0xfd,
0x0a,
0xff,
0xfd,
0xf7,
0x0c,
0x04,
0xfb,
0xee,
0xf7,
0xfc,
0xfa,
0x05,
0x03,
0x0d,
0x14,
0x12,
0xf6,
0x03,
0xff,
0xe1,
0xe8,
0x06,
0xef,
0xf0,
0x10,
0x00,
0xef,
0x0c,
0x0e,
0x01,
0x07,
0x01,
0x01,
0xff,
0xfb,
0x00,
0x0e,
0x02,
0xf2,
0xee,
0xf6,
0x0f,
0x0d,
0x05,
0x02,
0x06,
0x07,
0x0a,
0x0d,
0x0d,
0x11,
0x10,
0x08,
0x03,
0x12,
0x12,
0x11,
0x0c,
0xf7,
0x03,
0x15,
0xf4,
0x00,
0x09,
0x02,
0x0b,
0xfd,
0xfc,
0x05,
0x04,
0xf5,
0xe8,
0x0d,
0xfc,
0xf7,
0x0d,
0x06,
0x09,
0x03,
0xfc,
0xf6,
0xfc,
0x03,
0x00,
0xf7,
0x05,
0x09,
0xfc,
0x08,
0x08,
0x04,
0x08,
0xf8,
0x0e,
0x11,
0x03,
0x08,
0x06,
0xf1,
0x04,
0x14,
0x0c,
0xf9,
0x0f,
0xf3,
0xff,
0x08,
0xfe,
0x13,
0xfc,
0x01,
0xfb,
0xf5,
0x04,
0x09,
0xf4,
0x09,
0xf4,
0x09,
0x13,
0x12,
0xea,
0xf2,
0x0d,
0xf2,
0xfa,
0x0e,
0x0b,
0x12,
0x04,
0x0c,
0x05,
0x0c,
0x1a,
0xee,
0xe5,
0xfc,
0x08,
0xf5,
0xef,
0x08,
0x04,
0x02,
0x03,
0x04,
0xfe,
0xfb,
0xf6,
0x01,
0x00,
0xfa,
0xf5,
0xee,
0xe8,
0xf9,
0xec,
0xf6,
0x04,
0x00,
0xfc,
0xe8,
0xef,
0x00,
0xf5,
0x02,
0x08,
0x06,
0x1a,
0x07,
0x15,
0x15,
0x00,
0xf3,
0xf3,
0xfc,
0xfd,
0xff,
0xf8,
0xf4,
0x02,
0xe8,
0xec,
0xff,
0x05,
0x0a,
0xfc,
0xfa,
0xf5,
0x08,
0x09,
0x09,
0x06,
0x06,
0x0c,
0xf6,
0x03,
0x00,
0xfd,
0xfe,
0x03,
0xfb,
0xfd,
0xfb,
0xfe,
0xfc,
0x05,
0x14,
0x09,
0x0d,
0x15,
0x14,
0x02,
0x02,
0xf5,
0x05,
0x09,
0xf2,
0xf8,
0x0f,
0xef,
0xf0,
0x02,
0x09,
0x11,
0x0c,
0x0a,
0x14,
0xf1,
0x01,
0x0c,
0x04,
0x0a,
0x0b,
0xe4,
0xe6,
0xe6,
0x06,
0x05,
0xff,
0x1d,
0x28,
0x1f,
0xf1,
0x06,
0xee,
0x02,
0x0d,
0xf7,
0xfc,
0x1a,
0x00,
0x0f,
0x0a,
0x0e,
0x02,
0xf9,
0x16,
0xff,
0xed,
0xfa,
0xeb,
0x07,
0xf8,
0xef,
0xf5,
0x07,
0xf7,
0xee,
0xfe,
0xf4,
0xed,
0xf4,
0xeb,
0xec,
0xf2,
0xf1,
0xf1,
0xf1,
0x14,
0x02,
0xe7,
0x18,
0x1b,
0xf9,
0xed,
0xec,
0xf5,
0xfb,
0xfa,
0xf9,
0xff,
0xfe,
0xfd,
0x0b,
0x0a,
0x04,
0xfc,
0x04,
0xe8,
0xe8,
0xfb,
0xf5,
0xfe,
0x0b,
0x15,
0x24,
0xf2,
0xff,
0xff,
0xfd,
0xfc,
0xf8,
0x05,
0x0e,
0x00,
0x00,
0x0a,
0x0a,
0xfc,
0x03,
0x07,
0xfa,
0x06,
0xfe,
0xf4,
0xeb,
0xf7,
0xf1,
0xed,
0x17,
0x20,
0x19,
0xef,
0xfe,
0x00,
0xef,
0xfa,
0x05,
0xfd,
0x00,
0x15,
0x05,
0x0f,
0x0d,
0x0e,
0x07,
0xe7,
0xdb,
0xdc,
0x05,
0x0c,
0xf8,
0x22,
0x1f,
0x16,
0xf6,
0xf6,
0xfa,
0xff,
0xf7,
0x04,
0x05,
0xf9,
0x02,
0xf9,
0xf6,
0xf5,
0xf4,
0x02,
0xf6,
0xfd,
0x10,
0xeb,
0xff,
0xf7,
0xf6,
0xf9,
0xea,
0xe5,
0xe9,
0x09,
0x04,
0x00,
0x1f,
0x11,
0x0e,
0xf7,
0xf6,
0xff,
0x0c,
0x0a,
0xf3,
0x00,
0x17,
0xf4,
0xf6,
0x07,
0xf8,
0xf7,
0xfe,
0x01,
0x0f,
0x0d,
0x09,
0x08,
0x0a,
0x08,
0x06,
0xff,
0x02,
0xfc,
0xf5,
0xfa,
0xf7,
0xea,
0xed,
0xf5,
0x04,
0x01,
0xfc,
0x06,
0x02,
0xfb,
0x02,
0xfa,
0xf7,
0x01,
0x01,
0xff,
0x06,
0x02,
0xfa,
0x0e,
0xff,
0xfe,
0x07,
0xfe,
0x02,
0xfc,
0xfa,
0x00,
0xfd,
0x01,
0x0c,
0xfe,
0xf9,
0xfb,
0x00,
0xf3,
0xfd,
0x09,
0xf3,
0xf9,
0x11,
0x11,
0x0c,
0x0b,
0x23,
0x15,
0x00,
0xf9,
0xfb,
0x08,
0x01,
0xfa,
0x0b,
0x01,
0x02,
0x03,
0x0c,
0x05,
0x05,
0x03,
0xf3,
0xed,
0xfb,
0x0f,
0x08,
0x01,
0xf8,
0xf5,
0xfe,
0xfa,
0x05,
0x0d,
0x07,
0x08,
0x0c,
0x0a,
0x0a,
0xfd,
0xfb,
0x00,
0x07,
0x08,
0x07,
0xff,
0x08,
0x05,
0x0d,
0x08,
0x06,
0xf7,
0x02,
0x08,
0xed,
0x01,
0x04,
0x05,
0x01,
0xf4,
0xf7,
0xf8,
0xfb,
0xf3,
0xec,
0x08,
0x15,
0x03,
0x18,
0x00,
0x20,
0x11,
0x00,
0x12,
0x07,
0x06,
0xfc,
0xf6,
0x09,
0x0d,
0x04,
0x04,
0x0d,
0x1c,
0xfe,
0xff,
0x14,
0x07,
0x08,
0xf9,
0xf4,
0xfc,
0xf3,
0xf5,
0xf6,
0xf0,
0xfc,
0x06,
0xea,
0xfa,
0x01,
0x00,
0x0f,
0x12,
0xf1,
0x01,
0x1b,
0xfb,
0x00,
0x0e,
0xfa,
0x06,
0xfa,
0xe9,
0x16,
0x0d,
0xd5,
0xf1,
0x24,
0xfc,
0xe0,
0x09,
0x0b,
0xfe,
0xed,
0xeb,
0xe0,
0xec,
0x11,
0x09,
0x08,
0x0c,
0x06,
0xfb,
0xf6,
0x0e,
0x05,
0xfe,
0x03,
0xf2,
0xf4,
0x05,
0x19,
0x09,
0xf6,
0xfb,
0xec,
0x03,
0x02,
0xeb,
0xfd,
0x06,
0x01,
0x00,
0x03,
0x06,
0x05,
0x05,
0xf9,
0x00,
0xff,
0x07,
0xf9,
0xf6,
0xef,
0xdc,
0x15,
0x0e,
0x0d,
0x05,
0x03,
0x02,
0xe5,
0xe3,
0xfc,
0xee,
0x07,
0x04,
0x08,
0x07,
0x0b,
0x11,
0x14,
0x0e,
0x0c,
0x0d,
0xff,
0x06,
0xfb,
0xf9,
0xf1,
0xfd,
0xf3,
0xf5,
0x08,
0xfe,
0xfd,
0x06,
0xfc,
0x00,
0x02,
0x0e,
0x0e,
0x02,
0x06,
0xfd,
0x0a,
0x0d,
0xf2,
0x09,
0x10,
0x04,
0x0a,
0x10,
0xfd,
0xf8,
0xfe,
0x10,
0x08,
0x08,
0x12,
0x1a,
0x0f,
0xf3,
0xf8,
0xfe,
0x17,
0x20,
0x05,
0x02,
0x30,
0x01,
0x11,
0x15,
0xfa,
0xf8,
0xf3,
0xf7,
0xf7,
0xf7,
0x08,
0x0c,
0x0f,
0x25,
0x15,
0x07,
0x1a,
0x0e,
0x05,
0x03,
0xf8,
0xfe,
0xf3,
0xe6,
0x04,
0xee,
0x00,
0x04,
0x12,
0xf9,
0xf2,
0x02,
0x04,
0xf7,
0xfb,
0x00,
0x09,
0xfa,
0xff,
0x02,
0xf9,
0xf9,
0xf7,
0x00,
0x03,
0xff,
0xfd,
0xfa,
0xfa,
0x05,
0x0e,
0xfc,
0x02,
0xff,
0x02,
0xf6,
0xff,
0x0d,
0x04,
0xfa,
0xfc,
0x12,
0x0d,
0xea,
0x1a,
0x06,
0x03,
0xfd,
0xf7,
0x08,
0x03,
0xff,
0x07,
0x07,
0x04,
0x06,
0x12,
0x07,
0x00,
0xf9,
0xfb,
0xf4,
0xf7,
0x0b,
0x0d,
0x0a,
0xff,
0x00,
0x03,
0x01,
0xfc,
0x06,
0x01,
0xf1,
0x05,
0xf5,
0xf2,
0xfb,
0x04,
0x06,
0xfa,
0x12,
0x06,
0xeb,
0xf0,
0xf3,
0xf9,
0xf5,
0xfa,
0xf2,
0xf0,
0x04,
0x0e,
0xf2,
0xf8,
0x10,
0xf8,
0xf9,
0xef,
0xf9,
0xfa,
0x00,
0x04,
0x0c,
0xfe,
0x02,
0x03,
0x03,
0x15,
0x00,
0xff,
0x05,
0x06,
0x0a,
0x0b,
0x13,
0x08,
0xff,
0xf5,
0x09,
0x0b,
0xf4,
0xfc,
0x0b,
0xf6,
0xe8,
0xf4,
0xf6,
0x05,
0xff,
0x01,
0xff,
0x0a,
0x02,
0x03,
0x0e,
0xff,
0x07,
0x0a,
0x02,
0x09,
0x09,
0xf2,
0x07,
0x09,
0xdc,
0xef,
0xf3,
0xfd,
0x06,
0x10,
0xfa,
0x06,
0x10,
0xfa,
0xfa,
0x08,
0x04,
0x00,
0x0a,
0xf9,
0x0f,
0xfd,
0xfc,
0xfc,
0xf7,
0x02,
0x01,
0x02,
0x00,
0x12,
0x01,
0xfc,
0x21,
0x11,
0x01,
0xfd,
0xfa,
0xfa,
0xfc,
0x18,
0xf9,
0xdb,
0x01,
0xf1,
0xfa,
0x04,
0xec,
0xf9,
0x01,
0xf4,
0xf1,
0xf6,
0xf4,
0x01,
0xf7,
0xff,
0xfb,
0x0d,
0x04,
0xf2,
0x05,
0xf5,
0xf8,
0x09,
0x04,
0x01,
0xfd,
0xf8,
0x00,
0xf6,
0xef,
0xf8,
0xfb,
0x02,
0x00,
0x02,
0xf3,
0xfa,
0xff,
0x05,
0x04,
0x1d,
0x1b,
0xf0,
0xfc,
0x02,
0xf1,
0xf3,
0xf7,
0x1e,
0x12,
0x04,
0x09,
0x1b,
0x0c,
0x0c,
0x19,
0x04,
0x04,
0x12,
0xf0,
0xed,
0xef,
0xf6,
0xfe,
0xe8,
0x0a,
0x21,
0xf1,
0x17,
0x1a,
0x02,
0xf5,
0xfa,
0x0f,
0x0d,
0xfe,
0x12,
0x12,
0x09,
0x02,
0xf9,
0x05,
0x03,
0x00,
0x01,
0xe8,
0xfa,
0xf7,
0xe7,
0xe4,
0x01,
0x00,
0x0a,
0xec,
0xfd,
0x03,
0xff,
0xe6,
0xeb,
0xdd,
0xf0,
0xec,
0xf0,
0xf1,
0xe7,
0xf4,
0xf0,
0xed,
0xeb,
0xf9,
0x09,
0x0b,
0xf9,
0xf2,
0xfc,
0x14,
0xf9,
0xea,
0x1b,
0x13,
0xf7,
0xf4,
0xf5,
0xf4,
0xfc,
0x01,
0x02,
0x00,
0x03,
0xfd,
0x04,
0xff,
0xfe,
0xfa,
0xfd,
0xf4,
0xfe,
0xf6,
0x03,
0x01,
0x04,
0x05,
0x06,
0xf5,
0x16,
0x0f,
0xfe,
0x02,
0xfb,
0x06,
0x06,
0xf8,
0xf9,
0xf9,
0xf4,
0xf8,
0xfe,
0xee,
0xf7,
0x00,
0x0c,
0x0e,
0x09,
0xf2,
0xee,
0xf3,
0x21,
0x23,
0x29,
0xf4,
0xf0,
0xf2,
0xf3,
0xf9,
0xfa,
0xfa,
0xf8,
0x09,
0xfd,
0xfc,
0x09,
0x09,
0x04,
0xef,
0xf3,
0xf3,
0x00,
0xfa,
0xf2,
0x1b,
0x04,
0x05,
0xfa,
0xff,
0x0b,
0x09,
0xf9,
0xff,
0xc3,
0x27,
0x3b,
0x2c,
0x15,
0x03,
0x02,
0x2d,
0x00,
0x05};
