/* SPDX-License-Identifier: GPL-2.0 */
/*
 * Copyright (c) 2020 MediaTek Inc.
 *
 * Author: Ya-Wen Hsu <Ya-Wen.Hsu@mediatek.com>
 *
 */

char fdvt_kernel_bias_loop61_1_frame01[] = {
0x06,
0xf9,
0xe1,
0xff,
0x09,
0xd7,
0xf1,
0xf5,
0xff,
0xec,
0x01,
0xff,
0x01,
0x09,
0xf8,
0xf8,
0xfc,
0x0c,
0x00,
0x18,
0xea,
0x07,
0xf2,
0xf7,
0xfb,
0xfc,
0xe4,
0x00,
0x04,
0xf2,
0x08,
0x01,
0xfe,
0x1a,
0xfd,
0xf7,
0x00,
0xf7,
0xe6,
0xfa,
0xf4,
0x00,
0xe3,
0x01,
0xf6,
0xf6,
0x03,
0xf9,
0x08,
0x15,
0xfa,
0x0d,
0xf5,
0x10,
0xec,
0xf4,
0xfd,
0xfa,
0xf2,
0xfd,
0x00,
0xf4,
0x0b,
0xf6,
0x0a,
0xf6,
0xf4,
0x02,
0x05,
0xf3,
0xf0,
0x01,
0xee,
0xff,
0xff,
0x05,
0xec,
0x09,
0xe8,
0x0b,
0x08,
0xef,
0x09,
0xfb,
0x07,
0xff,
0xfd,
0x0b,
0xee,
0x06,
0x0b,
0x0e,
0xe0,
0x07,
0xf9,
0x11,
0x03,
0xf8,
0xf5,
0x04,
0x08,
0xf9,
0x07,
0xe2,
0x04,
0x0b,
0x0b,
0x01,
0xfd,
0x09,
0xfa,
0x07,
0xfb,
0x0c,
0x04,
0x07,
0x01,
0x00,
0xff,
0x0b,
0xef,
0x0a,
0xf9,
0x03,
0x02,
0xf5,
0x05,
0x07,
0xe9,
0xf7,
0x01,
0x2e,
0x02,
0xff,
0x0c,
0x11,
0x11,
0x04,
0x01,
0x05,
0xf2,
0x0b,
0xf9,
0xdc,
0xf4,
0x08,
0x00,
0x02,
0x02,
0xfc,
0xfe,
0xe7,
0xf6,
0xff,
0x0e,
0xfe,
0x26,
0x19,
0xf9,
0xf4,
0x0b,
0xfd,
0xfb,
0xdc,
0x05,
0xfc,
0xfb,
0xe5,
0xf8,
0xff,
0xfe,
0x04,
0x07,
0xfb,
0x03,
0x05,
0x0a,
0x03,
0x11,
0x01,
0x0f,
0xf5,
0x03,
0xdd,
0xf5,
0xe8,
0x08,
0xf7,
0x04,
0xfb,
0x0a,
0xdf,
0xfc,
0xf8,
0x1d,
0x13,
0xff,
0x01,
0x0e,
0x01,
0x04,
0x0b,
0x02,
0x01,
0x04,
0xff,
0x09,
0x0b,
0x0b,
0x1b,
0x03,
0xff,
0x0a,
0x0a,
0xfc,
0x03,
0x00,
0x13,
0xfa,
0x07,
0xd8,
0x0c,
0x05,
0xf3,
0xfd,
0x04,
0xfb,
0x0d,
0x04,
0xf5,
0x02,
0xe0,
0xfb,
0xf0,
0xfa,
0xfa,
0xf6,
0x18,
0x0a,
0xcd,
0x1b,
0xfd,
0x0e,
0x09,
0xe7,
0x0c,
0x00,
0xf0,
0x06,
0xf2,
0xf1,
0xf7,
0x0c,
0x04,
0xfb,
0xec,
0x00,
0x00,
0x00,
0x00,
0x00,
0x00,
0x00,
0x00,
0x00,
0x00,
0x00,
0x00,
0x00,
0x00,
0x00,
0x00};
