/* SPDX-License-Identifier: GPL-2.0 */
/*
 * Copyright (c) 2020 MediaTek Inc.
 *
 * Author: Ya-Wen Hsu <Ya-Wen.Hsu@mediatek.com>
 *
 */
char fdvt_kernel_bias_loop64_0_frame01[] = {
0x03,
0xfe,
0x17,
0xf8,
0x10,
0xd2,
0xfc,
0xf3,
0x09,
0xf1,
0xdb,
0x03,
0xd9,
0xf5,
0x2a,
0x05,
0xec,
0xfa,
0x08,
0x07,
0x05,
0x01,
0x24,
0xd9,
0xff,
0x03,
0xef,
0x06,
0xe9,
0x02,
0x2a,
0x04,
0xfc,
0xfc,
0xdd,
0xf8,
0x0a,
0xf1,
0xc8,
0x09,
0xf3,
0xf4,
0xfe,
0xe5,
0xde,
0xf6,
0xe9,
0x0a,
0x29,
0xd9,
0xec,
0xfd,
0xfc,
0xf3,
0xfa,
0xe6,
0xf6,
0x1c,
0x14,
0xef,
0x0b,
0x2d,
0x04,
0xfd,
0xcc,
0x0d,
0xfc,
0xfa,
0x08,
0x04,
0x0e,
0xe0,
0xfb,
0x05,
0xf2,
0xfd,
0xfa,
0x00,
0xdf,
0xeb,
0x00,
0xf3,
0xba,
0x00,
0xe4,
0x01,
0xf6,
0x0a,
0xf6,
0x02,
0x0d,
0xf0,
0xda,
0x04,
0x0e,
0xe3,
0xfb,
0xda,
0xf0,
0xf0,
0xe9,
0x0c,
0xd5,
0x11,
0xda,
0x22,
0xdb,
0xf2,
0xfe,
0x02,
0x04,
0x01,
0x03,
0x26,
0xfc,
0x11,
0x0d,
0xdf,
0x05,
0xfb,
0xf1,
0xe5,
0xf2,
0xf3,
0xfa,
0xe5,
0x09,
0xf9,
0x0d,
0xef,
0xea,
0xeb,
0xf3,
0x15,
0xfc,
0xf1,
0xf9,
0xe3,
0x15,
0x18,
0x0c,
0x05,
0xda,
0x0b,
0x10,
0xeb,
0xd4,
0xef,
0x0b,
0xe8,
0xf6,
0xff,
0xe9,
0xe5,
0xd3,
0x38,
0xec,
0x0c,
0x00,
0xfe,
0xf7,
0xec,
0xe3,
0x42,
0xfd,
0xe4,
0x00,
0xeb,
0x08,
0x20,
0x47,
0xcb,
0xe7,
0x08,
0x0b,
0xf4,
0xdd,
0xf6,
0xf0,
0xf4,
0x07,
0xfd,
0xe8,
0xfb,
0x0d,
0x16,
0x03,
0xfd,
0xcd,
0xd7,
0xff,
0x11,
0x1d,
0xe9,
0x10,
0xd9,
0x3e,
0x05,
0x36,
0x16,
0x29,
0x16,
0x11,
0x10,
0x38,
0x1a,
0xfa,
0x02,
0xed,
0xf9,
0x07,
0x0e,
0x09,
0x21,
0xf2,
0x04,
0x01,
0xd0,
0x1c,
0xfe,
0x03,
0xf4,
0xec,
0xbe,
0x16,
0x0b,
0xe8,
0xe1,
0xe6,
0x02,
0xf3,
0xfd,
0x28,
0x02,
0xf8,
0x19,
0x11,
0xf8,
0xeb,
0x17,
0xe3,
0xeb,
0x14,
0xf8,
0x02,
0x05,
0x13,
0x13,
0x11,
0xf3,
0xee,
0xe2,
0x2f,
0x01,
0xee,
0x00,
0xfb,
0x11,
0xfc,
0xcf,
0xfa,
0xf3,
0xee,
0xfb,
0xfe,
0x01,
0xdc,
0x32,
0x04,
0x09,
0x18,
0xf2,
0x00,
0x09,
0x02,
0x0b,
0x10,
0xfe,
0x06,
0x25,
0x0b,
0xd3,
0x34,
0xeb,
0xfe,
0x01,
0xfc,
0x2f,
0x0e,
0xf1,
0xfa,
0xca,
0x1a,
0x10,
0xdf,
0xe3,
0x15,
0xfa,
0xf8,
0x1d,
0xf7,
0xe2,
0xea,
0xcf,
0xd0,
0x12,
0x03,
0xd6,
0x07,
0x06,
0xf0,
0xf6,
0xde,
0xf4,
0xee,
0x11,
0x0a,
0xe4,
0x36,
0xf9,
0xed,
0x02,
0x6c,
0x03,
0x00,
0xfa,
0x18,
0xfc,
0x20,
0x1d,
0x05,
0x06,
0xf9,
0x0c,
0x1b,
0x12,
0xdf,
0xf8,
0x12,
0x0f,
0x06,
0x16,
0x01,
0xe5,
0x03,
0xdc,
0x1e,
0xe8,
0xf0,
0x14,
0xf8,
0x02,
0x14,
0x05,
0x17,
0x13,
0x06,
0xd7,
0xfe,
0xe5,
0xfd,
0xf7,
0x0a,
0xfa,
0xf7,
0x18,
0x3c,
0x11,
0x24,
0xf9,
0xfb,
0x1c,
0x1f,
0x01,
0x10,
0xfd,
0x2a,
0xf6,
0xf2,
0xe1,
0xf9,
0xf4,
0x06,
0x0d,
0x17,
0x04,
0x11,
0x0c,
0xdd,
0xe3,
0x0d,
0x20,
0xfa,
0x12,
0x22,
0xf3,
0xfb,
0xf8,
0xf3,
0x0c,
0xdf,
0xf0,
0xda,
0xef,
0xfd,
0x0f,
0xfb,
0xf8,
0xe7,
0xfd,
0xfd,
0x08,
0xfa,
0x24,
0xfc,
0x16,
0x0d,
0x11,
0xdd,
0x03,
0xe1,
0xd5,
0xfa,
0x26,
0xf9,
0x0d,
0xe4,
0xf0,
0xf6,
0x28,
0x48,
0xe7,
0xcc,
0x0c,
0xeb,
0x12,
0xf7,
0x06,
0xfb,
0x03,
0xe8,
0xf5,
0x16,
0xfe,
0xf7,
0x04,
0xed,
0xff,
0xc7,
0x11,
0xe5,
0x0a,
0x08,
0x12,
0x1a,
0x19,
0x07,
0xee,
0xee,
0xf2,
0xe4,
0xfa,
0xf5,
0x33,
0x24,
0x1b,
0x01,
0xef,
0xff,
0xf9,
0xe3,
0xff,
0xf2,
0x18,
0xe5,
0x17,
0x01,
0x08,
0x03,
0xe6,
0xf2,
0xe6,
0xec,
0x35,
0x17,
0x15,
0xe7,
0x0f,
0xfe,
0xf6,
0xfd,
0xfe,
0xfa,
0xd9,
0x07,
0xf6,
0x1e,
0x1f,
0x1d,
0x1b,
0xfc,
0x0f,
0xdc,
0x21,
0xef,
0x05,
0xf7,
0x1a,
0xef,
0x01,
0xf4,
0x0b,
0xe7,
0x2b,
0x12,
0x01,
0x08,
0xd8,
0xed,
0xf8,
0xf5,
0x11,
0x18,
0x1d,
0x17,
0xfa,
0x05,
0xcd,
0x20,
0xfa,
0xf6,
0xfe,
0x13,
0xd9,
0x39,
0xd0,
0xd2,
0xfc,
0xfc,
0xf9,
0x00,
0x22,
0x15,
0xfe,
0xb1,
0xfd,
0xe0,
0xd9,
0xf5,
0xfa,
0xfc,
0xe5,
0xf4,
0xff,
0x25,
0xfe,
0xf1,
0xc6,
0xeb,
0x12,
0xfc,
0x04,
0xe0,
0xef,
0xf4,
0xe0,
0x22,
0x09,
0xf6,
0x0a,
0x3e,
0x15,
0xd5,
0xfd,
0xf7,
0x28,
0x13,
0x18,
0x17,
0x14,
0x2a,
0xf6,
0x05,
0xf2,
0xe0,
0xec,
0x0b,
0x13,
0xf2,
0xe2,
0xe6,
0x26,
0x1b,
0x13,
0x27,
0x0c,
0xec,
0xde,
0x1a,
0xd1,
0xe9,
0xe1,
0x3c,
0x11,
0xf1,
0xfc,
0xf1,
0x15,
0x31,
0xfe,
0x0e,
0xfd,
0xef,
0xe6,
0x14,
0xe1,
0x0c,
0xfc,
0x1b,
0xd8,
0x11,
0x31,
0x0d,
0x17,
0xf3,
0x06,
0x00,
0x07,
0x23,
0x01,
0xdc,
0xe5,
0x13,
0xf3,
0xef,
0xe3,
0x13,
0xf3,
0xf0,
0xfd,
0xeb,
0x15,
0x03,
0xf1,
0xfa,
0x06,
0x28,
0x01,
0xf8,
0x02,
0x19,
0xf0,
0xf0,
0xf1,
0xf9,
0xf4,
0x08,
0xe1,
0xf1,
0x17,
0xe8,
0xf7,
0x14,
0x06,
0xf2,
0xd5,
0x1f,
0xc8,
0x41,
0xe8,
0x1d,
0x20,
0x10,
0x10,
0xe1,
0x0a,
0xee,
0xf3,
0x02,
0x1e,
0xec,
0x13,
0x03,
0xd8,
0xfb,
0xf9,
0xfb,
0xfe,
0xfd,
0xfe,
0xee,
0x0b,
0x11,
0x0f,
0x05,
0x17,
0x2b,
0xe0,
0xfa,
0x12,
0x08,
0xcf,
0xfb,
0x11,
0x19,
0xf8,
0x17,
0x1e,
0xf9,
0x04,
0xfc,
0x19,
0x21,
0xfe,
0x01,
0x01,
0xfa,
0x04,
0x10,
0xff,
0xef,
0xea,
0xfd,
0xfe,
0x18,
0xfe,
0xf8,
0xf9,
0xe9,
0x0a,
0xfc,
0xec,
0x05,
0x08,
0x10,
0x1a,
0xfc,
0xfe,
0x1a,
0xf3,
0x07,
0xe8,
0x0e,
0xe0,
0xe5,
0xdf,
0x03,
0xf6,
0xf6,
0xe5,
0xe9,
0x29,
0xfe,
0x03,
0x17,
0xeb,
0xdf,
0x18,
0xf1,
0x1e,
0xd9,
0xf0,
0x26,
0xf3,
0xf5,
0x15,
0xff,
0x00,
0x02,
0xee,
0xfa,
0x27,
0x09,
0xe3,
0x06,
0xea,
0xcf,
0xe7,
0x13,
0xf8,
0x34,
0xf0,
0xe5,
0x11,
0x13,
0x09,
0xff,
0x01,
0x02,
0x0c,
0x03,
0xfe,
0xfa,
0xfa,
0x16,
0xfb,
0xfa,
0xe1,
0x06,
0xeb,
0xeb,
0x07,
0xe5,
0x09,
0xfc,
0x00,
0x26,
0xfe,
0xe1,
0x18,
0x02,
0x17,
0xff,
0xee,
0xdc,
0x13,
0x23,
0xf6,
0xf9,
0xf2,
0x27,
0xfb,
0xe9,
0x0d,
0x02,
0xec,
0xff,
0x07,
0x1b,
0xfb,
0xf2,
0x0e,
0x05,
0xfa,
0xe7,
0xe8,
0x10,
0xe8,
0x08,
0xfa,
0xfb,
0xf6,
0x15,
0xfc,
0x07,
0xf5,
0xee,
0x09,
0x33,
0xf7,
0x2d,
0xf2,
0x00,
0xcf,
0xf3,
0xf2,
0x05,
0x10,
0x04,
0x07,
0x0c,
0xfe,
0xf4,
0xf1,
0xf9,
0x15,
0xee,
0xed,
0x11,
0xd9,
0xf8,
0xd9,
0xfc,
0x18,
0x03,
0x05,
0xfc,
0x20,
0xfb,
0xf9,
0x41,
0x0b,
0x00,
0x16,
0xfb,
0xfb,
0x03,
0x24,
0xf5,
0x03,
0xeb,
0x03,
0x02,
0x03,
0xef,
0x00,
0x06,
0x26,
0xe5,
0xe1,
0xf8,
0x09,
0x1b,
0x02,
0x0e,
0xf7,
0x00,
0x33,
0xf2,
0x05,
0x2a,
0x07,
0x03,
0x0c,
0x0c,
0xec,
0x0f,
0xec,
0x17,
0xd5,
0xef,
0x07,
0xfe,
0xee,
0xf7,
0x3a,
0xee,
0x12,
0xfc,
0x00,
0x16,
0x26,
0xdd,
0xf2,
0x04,
0xe2,
0x1a,
0xdd,
0x06,
0x08,
0x03,
0x06,
0xd6,
0x29,
0xfe,
0x03,
0xf6,
0x15,
0x0f,
0x15,
0x0d,
0xd9,
0x01,
0x00,
0xfb,
0x07,
0xfe,
0xfa,
0x02,
0xfd,
0xde,
0x02,
0x1b,
0x0f,
0x0b,
0x01,
0xf0,
0xf8,
0x0e,
0x03,
0xc3,
0xff,
0x13,
0x07,
0x07,
0xd7,
0xf9,
0xff,
0xf6,
0x15,
0xee,
0xea,
0x21,
0x06,
0xdb,
0xe8,
0x09,
0xe2,
0x40,
0xfe,
0xfe,
0xfd,
0x24,
0xdb,
0x1e,
0x1b,
0xd7,
0xf7,
0x0d,
0x3b,
0xea,
0xf4,
0xdc,
0xd6,
0xfd,
0xec,
0x03,
0xe6,
0x14,
0xeb,
0x27,
0xf4,
0xf6,
0xee,
0xc6,
0x11,
0xf2,
0x0b,
0x0e,
0xfb,
0xe8,
0x0d,
0x0d,
0xe1,
0x45,
0x1c,
0xd2,
0x4a,
0x35,
0x38,
0x36,
0x46,
0x6f,
0x55,
0x3c,
0x07,
0x2d,
0xfe,
0xc9,
0xd1};
