/* SPDX-License-Identifier: GPL-2.0 */
/*
 * Copyright (c) 2020 MediaTek Inc.
 *
 * Author: Ya-Wen Hsu <Ya-Wen.Hsu@mediatek.com>
 *
 */

char fdvt_kernel_bias_loop54_0_frame01[] = {
0xf0,
0x0e,
0x06,
0x0e,
0xfd,
0xff,
0xf1,
0xee,
0xf9,
0x0f,
0x03,
0x10,
0xfb,
0x03,
0xe9,
0xea,
0xf7,
0xf6,
0x02,
0xfe,
0x02,
0x08,
0x0c,
0xf6,
0xec,
0xf3,
0x00,
0xfd,
0x04,
0x09,
0x0c,
0xfa,
0xb6,
0x08,
0x09,
0x08,
0xff,
0xfd,
0xf4,
0xfc,
0x1f,
0x08,
0x09,
0x08,
0x00,
0xfd,
0xf4,
0xf8,
0x07,
0xfd,
0x04,
0xf5,
0x03,
0xff,
0x03,
0xff,
0xff,
0xfc,
0x05,
0xf7,
0x04,
0xff,
0x03,
0xfd,
0xe4,
0x04,
0xfa,
0x01,
0xf7,
0x01,
0x05,
0x01,
0xec,
0x01,
0xfb,
0xfd,
0xf8,
0x03,
0x05,
0x03,
0x05,
0x1f,
0x0f,
0x06,
0xfb,
0xef,
0xfd,
0xf7,
0xd3,
0x1e,
0x0c,
0x07,
0xf9,
0xf2,
0xfd,
0xf8,
0xd8,
0x01,
0x03,
0x00,
0x02,
0xff,
0xfb,
0xfe,
0xe3,
0x02,
0x04,
0x00,
0x00,
0xff,
0xfb,
0xfc,
0xcc,
0x04,
0x03,
0x08,
0xf4,
0x05,
0xfb,
0xfb,
0xcf,
0x02,
0x05,
0x02,
0xf9,
0x02,
0xff,
0xf9,
0xfb,
0xf7,
0xfc,
0x00,
0xf5,
0x0f,
0x03,
0x08,
0xfb,
0xf4,
0xfc,
0x01,
0xf5,
0x10,
0x03,
0x09,
0xf4,
0x00,
0x03,
0xf9,
0xfe,
0x02,
0x04,
0xff,
0xf5,
0x01,
0x01,
0xf9,
0xfe,
0x03,
0x05,
0xfe,
0xeb,
0xf7,
0xfb,
0xf2,
0x0a,
0xfa,
0x0e,
0x08,
0xf6,
0xf3,
0xf9,
0xf1,
0x0b,
0xfa,
0x12,
0x09,
0xf1,
0xfc,
0xf3,
0x00,
0xfe,
0x00,
0x03,
0x0f,
0xe9,
0xfc,
0xf3,
0x02,
0xfb,
0x02,
0x02,
0x0f,
0xe4,
0x0f,
0xfa,
0x15,
0xf8,
0x01,
0xf6,
0xfe,
0xe2,
0x0c,
0xf7,
0x13,
0xf5,
0xff,
0xf7,
0xff,
0xfd,
0x0a,
0xff,
0x0a,
0xfd,
0xfb,
0xf9,
0xfd,
0xfc,
0x0a,
0x02,
0x07,
0x01,
0xf8,
0xfb,
0xf8,
0x28,
0x0c,
0x07,
0x05,
0x02,
0xf8,
0xf9,
0xf4,
0x24,
0x0c,
0x08,
0x06,
0x03,
0xf7,
0xf9,
0xf3,
0xd4,
0xf4,
0xfe,
0xfa,
0xfe,
0xfd,
0x00,
0xfb,
0xd7,
0xf0,
0xfd,
0xf8,
0xfe,
0x02,
0x00,
0xfd,
0xb8,
0x0e,
0x06,
0x0b,
0xf5,
0xfb,
0xf8,
0xf6,
0xbe,
0x0e,
0x05,
0x0b,
0xf5,
0xfc,
0xf8,
0xf6,
0x09,
0xf9,
0xfb,
0xfb,
0xff,
0xff,
0x09,
0x09,
0x03,
0xfb,
0xfb,
0xfb,
0xfc,
0x02,
0x04,
0x09,
0xfd,
0x04,
0xfc,
0xfa,
0xf6,
0xfc,
0xf3,
0x23,
0x15,
0x04,
0xfe,
0xf9,
0xf5,
0xfc,
0xf5,
0x21,
0xaa,
0x00,
0x00,
0xff,
0x02,
0x00,
0xfd,
0x00,
0xb9,
0x05,
0xff,
0xfe,
0x00,
0xff,
0xfd,
0x00,
0x22,
0x11,
0x08,
0x09,
0xf6,
0x02,
0xfe,
0xf7,
0x25,
0x11,
0x08,
0x09,
0xf5,
0x03,
0xfb,
0xfb,
0xf0,
0x04,
0x04,
0xff,
0xff,
0xfc,
0xfb,
0x00,
0xf0,
0x04,
0x04,
0xfe,
0x02,
0xfa,
0xfd,
0xff,
0x08,
0x1a,
0x07,
0x0f,
0xf1,
0xf9,
0xf6,
0xf3,
0x07,
0x19,
0x08,
0x0d,
0xf0,
0xf9,
0xf8,
0xf3,
0xda,
0x09,
0x02,
0x04,
0x02,
0xf4,
0xfe,
0xf7,
0xdd,
0x05,
0xfd,
0x02,
0x01,
0xf6,
0x02,
0xf9,
0xf8,
0xff,
0x04,
0xfe,
0x00,
0xfc,
0x04,
0xfe,
0xf2,
0x00,
0x01,
0xff,
0xfe,
0xfb,
0x02,
0x03,
0x0b,
0x03,
0xff,
0x07,
0xf8,
0xfe,
0xf2,
0x06,
0xc3,
0x04,
0x01,
0x05,
0xfa,
0xfc,
0xf3,
0x07,
0xfc,
0xf6,
0xff,
0xf9,
0x09,
0x01,
0x08,
0x01,
0x02,
0xfc,
0x01,
0xfb,
0x05,
0x00,
0x05,
0x00,
0xf4,
0x01,
0x02,
0x00,
0xfd,
0x03,
0x02,
0xfb,
0xf7,
0x02,
0x04,
0xff,
0xfe,
0x00,
0x03,
0xf8,
0xe8,
0x09,
0x05,
0x02,
0xfe,
0xfc,
0x04,
0xfc,
0xdc,
0x06,
0x05,
0x00,
0xfd,
0xfc,
0x02,
0xfe,
0xfd,
0xfa,
0xff,
0xf7,
0x03,
0x00,
0x04,
0x0a,
0xf7,
0xf9,
0xfe,
0xf6,
0x05,
0xfd,
0x06,
0x0c,
0x01,
0xe4,
0x4a,
0xc8,
0x2e,
0xf1,
0xdb,
0xdf,
0xfe,
0xe4,
0x47,
0xcc,
0x2b,
0xf3,
0xda,
0xe0,
0xe9,
0xe3,
0xf8,
0xe6,
0x09,
0x04,
0x1d,
0x26,
0xf0,
0xe2,
0xfb,
0xe9,
0x09,
0x04,
0x1a,
0x27,
0xe6,
0x0f,
0x05,
0x10,
0xfd,
0x04,
0xf1,
0xed,
0xf7,
0x0f,
0x03,
0x12,
0xfc,
0x05,
0xea,
0xe8,
0xf5,
0xf5,
0x02,
0xfd,
0x00,
0x0a,
0x09,
0xf9,
0xeb,
0xf2,
0xff,
0xfe,
0x02,
0x0b,
0x0a,
0xfc,
0xbe,
0x06,
0x08,
0x08,
0xfe,
0xfe,
0xf6,
0xfd,
0x28,
0x07,
0x08,
0x07,
0x01,
0xfe,
0xf5,
0xf9,
0x07,
0xfd,
0x05,
0xf6,
0x04,
0xff,
0x03,
0xfe,
0xff,
0xfc,
0x04,
0xf6,
0x05,
0xfe,
0x04,
0xfe,
0xed,
0x03,
0xfd,
0x00,
0xf9,
0x00,
0x04,
0xff,
0xf0,
0x01,
0xfd,
0xfe,
0xfa,
0x02,
0x05,
0x00,
0xfc,
0x1e,
0x0f,
0x06,
0xfb,
0xf1,
0xfe,
0xf6,
0xd2,
0x1d,
0x0c,
0x07,
0xf8,
0xf3,
0xfd,
0xf8,
0xe7,
0x02,
0x02,
0x00,
0x03,
0xff,
0xfb,
0xfd,
0xf2,
0x01,
0x03,
0xff,
0x02,
0xfe,
0xfb,
0xfc,
0xcf,
0x04,
0x01,
0x0a,
0xf5,
0x09,
0xf4,
0xfd,
0xcd,
0x03,
0x05,
0x05,
0xfc,
0x04,
0xfa,
0xf8,
0x01,
0xf5,
0xf9,
0x00,
0xf6,
0x11,
0x04,
0x0b,
0x01,
0xf2,
0xfc,
0xfe,
0xf7,
0x0f,
0x07,
0x09,
0xf4,
0x02,
0x04,
0xf9,
0xfc,
0x01,
0x06,
0xfc,
0xf5,
0x01,
0x03,
0xf9,
0xfe,
0x02,
0x04,
0xfc,
0xd3,
0xfa,
0xff,
0xf6,
0x0a,
0xf8,
0x0c,
0x05,
0xda,
0xf7,
0xfe,
0xf5,
0x0c,
0xf8,
0x10,
0x06,
0xf8,
0xf9,
0xf2,
0x00,
0x00,
0x00,
0x04,
0x0f,
0xfb,
0xf9,
0xf1,
0x02,
0xfd,
0x03,
0x03,
0x10,
0xf7,
0x12,
0xf7,
0x1a,
0xf9,
0x01,
0xf2,
0xfe,
0xe8,
0x10,
0xf6,
0x19,
0xf8,
0x00,
0xf3,
0xfd,
0xfc,
0x09,
0x00,
0x09,
0xfe,
0xfb,
0xf6,
0xfe,
0xf8,
0x07,
0x01,
0x03,
0x01,
0xf9,
0xf8,
0xfd,
0xea,
0x0a,
0x06,
0x04,
0x03,
0xf8,
0xfd,
0xf6,
0xe8,
0x0c,
0x07,
0x06,
0x03,
0xf8,
0xfd,
0xf5,
0xcf,
0xf5,
0xfe,
0xfc,
0xfc,
0xff,
0x02,
0xfd,
0xd4,
0xf4,
0xfd,
0xfb,
0xfc,
0x02,
0x00,
0xfe,
0xc1,
0x0d,
0x04,
0x0c,
0xf5,
0xfd,
0xf8,
0xf9,
0xc7,
0x0d,
0x02,
0x0d,
0xf5,
0xfe,
0xf7,
0xf7,
0xe9,
0xf8,
0xfa,
0xfb,
0xfe,
0x01,
0x0a,
0x08,
0xdc,
0xfa,
0xfa,
0xfc,
0xfb,
0x03,
0x06,
0x08,
0xfc,
0x04,
0xfd,
0xf9,
0xf6,
0xfc,
0xf6,
0x1f,
0x09,
0x03,
0xfe,
0xf6,
0xf7,
0xfd,
0xf6,
0x20,
0x95,
0xfe,
0xfd,
0xfa,
0x06,
0x01,
0x00,
0x03,
0xb1,
0x03,
0x00,
0xfc,
0x03,
0xfe,
0xfe,
0x00,
0xe0,
0x10,
0x07,
0x06,
0xf7,
0x02,
0xff,
0xf9,
0xeb,
0x0f,
0x07,
0x07,
0xf6,
0x03,
0xfc,
0xfc,
0xf6,
0x05,
0x02,
0xff,
0xff,
0xfa,
0xfd,
0x00,
0xfe,
0x05,
0x03,
0xfe,
0x02,
0xf9,
0xfc,
0x00,
0x0c,
0x1a,
0x06,
0x0e,
0xf2,
0xf9,
0xf6,
0xf4,
0x08,
0x1a,
0x07,
0x0d,
0xf1,
0xf9,
0xf7,
0xf4,
0xde,
0x0a,
0x00,
0x06,
0x02,
0xf6,
0x01,
0xf3,
0xde,
0x05,
0xfb,
0x01,
0x03,
0xf6,
0x07,
0xf5,
0xf4,
0xfd,
0x02,
0xf4,
0x01,
0xf8,
0x08,
0x01,
0xf2,
0xff,
0x03,
0xf8,
0xfd,
0xfb,
0x03,
0x04,
0x1a,
0x03,
0x00,
0x08,
0xf9,
0xff,
0xf0,
0x07,
0xd0,
0x03,
0x01,
0x06,
0xfa,
0xff,
0xf0,
0x08,
0xf5,
0xf5,
0xfe,
0xfa,
0x0b,
0x01,
0x08,
0x02,
0xfc,
0xfb,
0xff,
0xfd,
0x05,
0x01,
0x05,
0x00,
0x10,
0x02,
0x01,
0x02,
0xfe,
0x03,
0x00,
0xf9,
0x07,
0x03,
0x03,
0x00,
0xfe,
0xff,
0x02,
0xf6,
0xdc,
0x07,
0x05,
0x00,
0x02,
0xfb,
0x05,
0xfc,
0xde,
0x05,
0x04,
0x00,
0xfd,
0xfd,
0x02,
0x00,
0xff,
0xfa,
0x00,
0xf9,
0x04,
0xfe,
0x05,
0x07,
0xf2,
0xfb,
0xff,
0xf8,
0x05,
0xfe,
0x05,
0x09,
0x02,
0xe3,
0x49,
0xc8,
0x2c,
0xf2,
0xdf,
0xe0,
0xfe,
0xe4,
0x46,
0xcc,
0x29,
0xf6,
0xde,
0xe1,
0xe3,
0xe4,
0xf9,
0xe8,
0x09,
0x05,
0x1c,
0x25,
0xed,
0xe3,
0xfb,
0xec,
0x08,
0x03,
0x1b,
0x25,
0xd0,
0x0d,
0x04,
0x0c,
0xf9,
0xfe,
0xee,
0xed,
0xfd,
0x0f,
0x03,
0x0f,
0xf6,
0xff,
0xe4,
0xe7,
0xee,
0xf3,
0x02,
0xfc,
0x07,
0x06,
0x10,
0xf6,
0xe9,
0xf1,
0xff,
0xfc,
0x08,
0x08,
0x0f,
0xf8,
0xf9,
0x08,
0x0a,
0x07,
0x00,
0xfd,
0xf5,
0xfc,
0xf4,
0x0a,
0x0b,
0x07,
0x00,
0xfb,
0xf5,
0xfa,
0x01,
0xfe,
0x04,
0xf7,
0x01,
0xff,
0x01,
0x00,
0x00,
0xff,
0x04,
0xfa,
0x03,
0xfe,
0x00,
0xff,
0xfc,
0x02,
0xf8,
0x03,
0xf8,
0x02,
0x01,
0x05,
0xf9,
0x00,
0xf7,
0x03,
0xf8,
0x05,
0x01,
0x07,
0xe2,
0x23,
0x13,
0x06,
0xfc,
0xec,
0xfe,
0xf4,
0xa5,
0x22,
0x12,
0x08,
0xf8,
0xef,
0xfa,
0xf6,
0xe1,
0x01,
0x01,
0xff,
0x01,
0xff,
0xfe,
0xff,
0x2f,
0x01,
0x02,
0xff,
0x01,
0xfe,
0xfc,
0xfe,
0xd5,
0x05,
0x00,
0x07,
0xf4,
0x05,
0xf8,
0xfd,
0xd2,
0x04,
0x02,
0x01,
0xfa,
0xff,
0xfc,
0xf8,
0xff,
0xf5,
0xf9,
0x05,
0xf3,
0x12,
0x01,
0x0b,
0xfe,
0xf1,
0xfc,
0x04,
0xf6,
0x10,
0x04,
0x09,
0xf6,
0x01,
0x02,
0xfa,
0xfd,
0x03,
0x04,
0xfb,
0xed,
0x02,
0x03,
0xfa,
0xfd,
0x05,
0x01,
0xfc,
0x05,
0xf0,
0xfa,
0xf0,
0x0b,
0xfc,
0x11,
0x0a,
0x0e,
0xef,
0xf9,
0xef,
0x0d,
0xfb,
0x13,
0x0a,
0xcd,
0xfa,
0xf1,
0x00,
0xfd,
0x03,
0x00,
0x14,
0xd1,
0xfa,
0xef,
0x01,
0xfa,
0x05,
0x01,
0x14,
0xee,
0x0e,
0xf9,
0x16,
0xfb,
0x01,
0xf5,
0xfd,
0xe6,
0x0c,
0xf6,
0x14,
0xf3,
0x00,
0xf8,
0xfe,
0xf5,
0x0b,
0xfe,
0x0e,
0xf7,
0xfa,
0xf7,
0xfd,
0xf7,
0x0c,
0xff,
0x0b,
0xfd,
0xf6,
0xfb,
0xf5,
0x1f,
0x0d,
0x09,
0x03,
0x04,
0xf5,
0xf8,
0xf1,
0x22,
0x0d,
0x0b,
0x03,
0x05,
0xf4,
0xf9,
0xf0,
0xd6,
0xf1,
0xfa,
0xf6,
0xff,
0xfd,
0x04,
0xff,
0xd5,
0xf1,
0xfb,
0xf5,
0xfe,
0xfe,
0x02,
0xff,
0x19,
0x11,
0x07,
0x0a,
0xf3,
0xf8,
0xf4,
0xf2,
0x0a,
0x10,
0x06,
0x0a,
0xf0,
0xfa,
0xf3,
0xf3,
0xcf,
0xfa,
0xfa,
0xfc,
0xfe,
0x00,
0x06,
0x0b,
0xcf,
0xfb,
0xfa,
0xff,
0xfb,
0x02,
0x03,
0x09,
0xfe,
0x05,
0xfd,
0xfc,
0xf6,
0xfd,
0xf1,
0x22,
0x03,
0x04,
0xfc,
0xfc,
0xf4,
0xfe,
0xf2,
0x22,
0xac,
0x01,
0x02,
0xfb,
0x01,
0xfd,
0x00,
0x02,
0xc5,
0x02,
0x01,
0xfe,
0xfe,
0x00,
0xfd,
0x03,
0x08,
0x13,
0x09,
0x0a,
0xf8,
0xff,
0x00,
0xf4,
0xf9,
0x12,
0x07,
0x0a,
0xf6,
0x03,
0xfb,
0xf9,
0xf5,
0x04,
0x06,
0xff,
0xfe,
0xfa,
0xfc,
0xfe,
0xfb,
0x02,
0x06,
0xfb,
0x00,
0xf9,
0xff,
0xfd,
0xc8,
0x18,
0x05,
0x0c,
0xf4,
0xfa,
0xfc,
0xf3,
0xc9,
0x17,
0x06,
0x0a,
0xf5,
0xfa,
0xfe,
0xf3,
0xd3,
0x0b,
0xff,
0x07,
0x00,
0xf7,
0xf8,
0xf6,
0xde,
0x06,
0xfb,
0x05,
0xff,
0xf9,
0xfc,
0xf8,
0x00,
0x00,
0x02,
0xfe,
0x03,
0xfb,
0x04,
0x00,
0xfb,
0xff,
0x01,
0xfd,
0x00,
0xfd,
0xff,
0x07,
0x08,
0x03,
0xfe,
0x08,
0xf3,
0xff,
0xf2,
0x06,
0xf4,
0x02,
0xff,
0x06,
0xf5,
0xfe,
0xf3,
0x08,
0xf0,
0xf7,
0x01,
0xf6,
0x0b,
0xfc,
0x0b,
0xfe,
0xfd,
0xfe,
0x04,
0xf9,
0x09,
0xfc,
0x07,
0xfb,
0xd8,
0x06,
0x04,
0x03,
0xfc,
0x03,
0xff,
0xf6,
0xdb,
0x06,
0x06,
0x02,
0xff,
0xfe,
0x02,
0xf2,
0xf8,
0x08,
0x04,
0x03,
0xff,
0xfc,
0x03,
0xfa,
0x07,
0x05,
0x02,
0x02,
0xfe,
0xfe,
0x03,
0xfb,
0x08,
0xfe,
0xfe,
0xf9,
0x03,
0xff,
0x00,
0x0a,
0xf1,
0xfa,
0xfc,
0xf6,
0x04,
0xff,
0x04,
0x0b,
0x07,
0xe6,
0x4c,
0xbe,
0x32,
0xe4,
0xd7,
0xdd,
0x09,
0xe6,
0x4a,
0xc3,
0x2f,
0xe5,
0xd6,
0xde,
0xf8,
0xd9,
0xfe,
0xe0,
0x0b,
0xff,
0x1e,
0x26,
0xfd,
0xd9,
0xff,
0xe3,
0x0a,
0xff,
0x1b,
0x27,
0xd1,
0x0c,
0x05,
0x0d,
0xfb,
0x00,
0xeb,
0xec,
0x04,
0x0e,
0x03,
0x10,
0xf8,
0x00,
0xe2,
0xe5,
0xf1,
0xef,
0x01,
0xfd,
0x05,
0x0b,
0x0e,
0xfb,
0xf0,
0xee,
0xfe,
0xfd,
0x06,
0x0c,
0x0f,
0xfc,
0x02,
0x08,
0x0a,
0x08,
0xfd,
0xff,
0xf6,
0xfb,
0xfc,
0x0a,
0x0b,
0x08,
0xff,
0xfd,
0xf5,
0xf9,
0xfb,
0x00,
0x05,
0xf7,
0x02,
0xfe,
0x00,
0xff,
0xfa,
0x00,
0x05,
0xf7,
0x05,
0xfc,
0x01,
0xfe,
0xf6,
0xff,
0xfa,
0x01,
0xf8,
0x04,
0x02,
0x04,
0xf4,
0xff,
0xfa,
0x03,
0xf8,
0x05,
0x01,
0x03,
0xde,
0x20,
0x11,
0x05,
0xfb,
0xf0,
0xfb,
0xfa,
0x9a,
0x20,
0x0e,
0x07,
0xf7,
0xf1,
0xf9,
0xfe,
0xef,
0x00,
0x00,
0xfe,
0x03,
0xff,
0xfe,
0xfe,
0x3c,
0x00,
0x01,
0xfe,
0x02,
0xfe,
0xfc,
0xfe,
0xd7,
0x03,
0x01,
0x06,
0xf6,
0x03,
0xf5,
0xfc,
0xd2,
0x03,
0x05,
0x01,
0xfd,
0xfe,
0xfb,
0xf8,
0xf5,
0xf3,
0xf8,
0x02,
0xf4,
0x13,
0x04,
0x0c,
0xf4,
0xf1,
0xfc,
0x01,
0xf6,
0x11,
0x05,
0x09,
0xed,
0x02,
0x04,
0xf9,
0xfd,
0x02,
0x05,
0xf9,
0xe5,
0x03,
0x04,
0xfb,
0xfc,
0x04,
0x02,
0xfb,
0xdb,
0xf1,
0xfd,
0xf3,
0x0d,
0xfb,
0x12,
0x08,
0xeb,
0xf0,
0xfc,
0xf2,
0x0f,
0xf9,
0x15,
0x08,
0xf7,
0xf8,
0xef,
0x00,
0xff,
0x02,
0x01,
0x13,
0xf6,
0xf7,
0xee,
0x01,
0xfc,
0x05,
0x02,
0x14,
0xf4,
0x10,
0xf6,
0x19,
0xfa,
0x02,
0xf3,
0xfe,
0xed,
0x0f,
0xf3,
0x18,
0xf6,
0x01,
0xf6,
0xfe,
0x04,
0x0b,
0x00,
0x0d,
0xf9,
0xfa,
0xf5,
0xfb,
0x06,
0x0b,
0x00,
0x0b,
0xfe,
0xf6,
0xfa,
0xf5,
0xc0,
0x0e,
0x09,
0x03,
0x03,
0xf6,
0xfa,
0xf3,
0xc2,
0x0d,
0x0a,
0x02,
0x04,
0xf5,
0xfa,
0xf2,
0xd7,
0xf4,
0x00,
0xf6,
0x01,
0xfc,
0x04,
0x00,
0xd9,
0xf6,
0x00,
0xf6,
0xfe,
0xfd,
0x01,
0x01,
0x22,
0x0f,
0x05,
0x0a,
0xf1,
0xfb,
0xf4,
0xf5,
0x10,
0x0f,
0x05,
0x0b,
0xf0,
0xfd,
0xf3,
0xf5,
0xda,
0xf7,
0xf7,
0xfd,
0xfd,
0x03,
0x08,
0x0c,
0xd8,
0xfa,
0xf7,
0x00,
0xfb,
0x04,
0x05,
0x0a,
0xfb,
0x05,
0xfc,
0xfb,
0xf6,
0xfd,
0xf3,
0x20,
0xfa,
0x04,
0xfb,
0xfc,
0xf5,
0xfe,
0xf3,
0x22,
0xa8,
0x00,
0x01,
0xf6,
0x04,
0xf9,
0x03,
0x04,
0xc1,
0x03,
0x02,
0xfb,
0x00,
0xfd,
0xff,
0x03,
0x12,
0x12,
0x0a,
0x07,
0xf9,
0xff,
0xff,
0xf5,
0x04,
0x11,
0x0a,
0x08,
0xf6,
0x03,
0xfa,
0xf7,
0x09,
0x04,
0x06,
0xff,
0x00,
0xf8,
0xfb,
0xfc,
0x0c,
0x02,
0x06,
0xfc,
0x00,
0xf8,
0xfb,
0xfe,
0xca,
0x17,
0x06,
0x0a,
0xf3,
0xfb,
0xfb,
0xf4,
0xc9,
0x17,
0x06,
0x0a,
0xf3,
0xfb,
0xfd,
0xf4,
0xd2,
0x0b,
0xfc,
0x09,
0xfd,
0xfa,
0xfa,
0xf6,
0xde,
0x06,
0xf9,
0x05,
0xfe,
0xfa,
0x00,
0xf8,
0xf2,
0xfc,
0xfe,
0xf8,
0x04,
0xfa,
0x08,
0x03,
0xf1,
0xfd,
0xfe,
0xfa,
0x00,
0xfe,
0x02,
0x07,
0x0a,
0x02,
0xfe,
0x08,
0xf5,
0x00,
0xf2,
0x07,
0xf3,
0x02,
0x00,
0x06,
0xf6,
0xff,
0xf2,
0x08,
0xed,
0xf4,
0x01,
0xf5,
0x0c,
0xfd,
0x0b,
0xff,
0xfa,
0xfb,
0x04,
0xf9,
0x0a,
0xfd,
0x07,
0xfc,
0xdd,
0x09,
0x05,
0x03,
0xfa,
0x02,
0xfd,
0xf6,
0xe0,
0x09,
0x06,
0x01,
0xfd,
0xfe,
0x00,
0xf4,
0xfb,
0x07,
0x04,
0x04,
0x00,
0xfd,
0x02,
0xfb,
0x0d,
0x04,
0x03,
0x02,
0xfe,
0xfe,
0x02,
0xfd,
0x07,
0xff,
0xfe,
0xfa,
0x01,
0xff,
0x02,
0x09,
0xed,
0xfc,
0xfd,
0xf8,
0x03,
0xff,
0x05,
0x0a,
0x06,
0xe6,
0x4b,
0xbf,
0x30,
0xe6,
0xd9,
0xdd,
0x0a,
0xe6,
0x49,
0xc5,
0x2d,
0xe9,
0xd8,
0xdf,
0xf5,
0xda,
0xfc,
0xe0,
0x0a,
0xfe,
0x1d,
0x26,
0xf9,
0xdc,
0xfd,
0xe3,
0x09,
0xfe,
0x1b,
0x27,
0xbc,
0x5c,
0x00,
0x3d,
0xb2,
0xe7,
0xeb,
0xb9,
0xbe,
0x6a,
0x07,
0x37,
0xb3,
0xe0,
0xea,
0xb0,
0xaa,
0x3e,
0xfb,
0x41,
0xa8,
0x00,
0xf0,
0xcf,
0xb0,
0x4a,
0x09,
0x3d,
0x9d,
0xfd,
0xf1,
0xbe};
