/* SPDX-License-Identifier: GPL-2.0 */
/*
 * Copyright (c) 2020 MediaTek Inc.
 *
 * Author: Ya-Wen Hsu <Ya-Wen.Hsu@mediatek.com>
 *
 */

char fdvt_kernel_bias_loop70_0_frame01[] = {
0x12,
0x05,
0x1f,
0xfd,
0xfd,
0x02,
0x08,
0xf1,
0x0a,
0x1a,
0xf9,
0xf1,
0x0e,
0xf3,
0x03,
0x0a,
0xfb,
0xfd,
0xff,
0x04,
0xfd,
0xfd,
0x0c,
0xf1,
0xf6,
0xf1,
0xfc,
0xf7,
0x05,
0xf7,
0x05,
0x03,
0x0e,
0x07,
0x18,
0x0b,
0x0c,
0xf8,
0xf5,
0xfb,
0x02,
0xf9,
0xfe,
0x00,
0xfb,
0x19,
0xff,
0x07,
0x18,
0x15,
0x05,
0xfb,
0xfc,
0x0f,
0xfd,
0x0b,
0x01,
0x00,
0xed,
0x09,
0xe9,
0xfe,
0x06,
0xfe,
0xf6,
0xf6,
0x00,
0xe4,
0xe5,
0xfb,
0xf2,
0xf9,
0xf6,
0xfa,
0xfd,
0xef,
0x0f,
0x08,
0x01,
0xf7,
0xfb,
0xff,
0x00,
0x04,
0x00,
0xf9,
0x04,
0xfb,
0x05,
0xfc,
0x06,
0x02,
0x10,
0x07,
0x0b,
0x06,
0x09,
0x05,
0x02,
0x06,
0x08,
0x06,
0x01,
0x00,
0x07,
0xff,
0x07,
0x0c,
0xf9,
0xd9,
0x07,
0x00,
0xfe,
0x09,
0xf8,
0xf4,
0xfd,
0xfb,
0x06,
0xfb,
0xee,
0x0b,
0x06,
0xfe,
0x12,
0x0c,
0xfe,
0x06,
0x0e,
0x00,
0x09,
0x03,
0x04,
0x01,
0x0f,
0xf8,
0x1a,
0x03,
0x15,
0xff,
0xee,
0xfd,
0xfe,
0x0a,
0xfe,
0x13,
0xff,
0x09,
0xf6,
0x14,
0x00,
0xfb,
0xf5,
0x14,
0x03,
0x10,
0x14,
0x07,
0xf7,
0xf8,
0xff,
0x16,
0x0f,
0x07,
0xfc,
0xfc,
0x00,
0x10,
0x04,
0xf8,
0xfb,
0xf9,
0x09,
0x08,
0xfa,
0x15,
0x0a,
0x05,
0xee,
0xeb,
0x0d,
0xfd,
0x00,
0x01,
0x00,
0xf6,
0x0a,
0x0d,
0x08,
0xf8,
0xf1,
0x00,
0x01,
0x18,
0x10,
0xf1,
0xfb,
0x06,
0xf7,
0x06,
0xf1,
0xf2,
0xf9,
0x04,
0x13,
0x05,
0xf9,
0xfc,
0x0d,
0xf9,
0x03,
0xfb,
0x1e,
0xf4,
0x07,
0xf9,
0x07,
0xfd,
0x17,
0xfc,
0xeb,
0xe5,
0x03,
0x24,
0x03,
0x06,
0xfd,
0x00,
0x02,
0x0c,
0x05,
0x07,
0x04,
0xee,
0x04,
0x0b,
0xfa,
0x0d,
0xef,
0x13,
0xe6,
0xf5,
0x0c,
0xe2,
0x05,
0xf8,
0x0e,
0x1a,
0x1a,
0xf5,
0x02,
0x10,
0xe6,
0x1f,
0x04,
0xf2,
0x08,
0xf6,
0x1b,
0xef,
0x0d,
0x07,
0x01,
0x0d,
0x01,
0x0c,
0x0a,
0x14,
0xff,
0x0a,
0xfe,
0x03,
0xec,
0xfe,
0xfb,
0x0c,
0x05,
0xf8,
0x07,
0x0e,
0x0a,
0x0c,
0x0a,
0xfd,
0xf7,
0xef,
0x10,
0xfc,
0x1b,
0x11,
0x04,
0x26,
0x05,
0x02,
0x0f,
0x05,
0x08,
0xf9,
0xf3,
0x02,
0x01,
0xdc,
0x06,
0xf6,
0xf5,
0x12,
0x04,
0xfa,
0x03,
0xf9,
0xf5,
0xf7,
0xfa,
0x08,
0x01,
0x01,
0x0a,
0xf8,
0x0b,
0xfa,
0xf3,
0x05,
0x02,
0x04,
0xff,
0x05,
0x11,
0x0d,
0x01,
0x27,
0xfe,
0x0d,
0x0d,
0x03,
0xed,
0x09,
0x03,
0xf4,
0x04,
0xf0,
0xfe,
0x04,
0x00,
0x01,
0x00,
0x00,
0x0b,
0x02,
0xfe,
0x14,
0xfd,
0xf8,
0xf8,
0xfb,
0x07,
0xfb,
0x17,
0x02,
0xfd,
0xfa,
0x0b,
0xf5,
0x01,
0xfa,
0x03,
0x11,
0x0d,
0x0a,
0xfd,
0x14,
0xfd,
0xfe,
0xf7,
0x03,
0x02,
0xfa,
0x0d,
0x0a,
0xf9,
0x00,
0xf6,
0x1b,
0xfa,
0x02,
0x13,
0xfd,
0xf5,
0xe6,
0xfd,
0xf2,
0x0a,
0x02,
0xf5,
0xf0,
0x0f,
0x0e,
0xfb,
0x06,
0x0e,
0x16,
0x05,
0x11,
0xe7,
0x01,
0xf1,
0xf9,
0xf9,
0x00,
0x13,
0xfe,
0xf8,
0x1d,
0x0d,
0x02,
0xf9,
0x08,
0xf9,
0xf5,
0x12,
0xfb,
0xf6,
0xfd,
0x02,
0xff,
0x09,
0x12,
0xff,
0x03,
0xff,
0x0d,
0xef,
0x01,
0x10,
0xff,
0x07,
0xf8,
0xe7,
0x14,
0xf1,
0xfe,
0xfa,
0x01,
0xf7,
0xe9,
0xfa,
0xfc,
0x0d,
0xf8,
0xec,
0x08,
0xf4,
0x06,
0xf1,
0x0b,
0xf5,
0xf4,
0x10,
0xf4,
0xf0,
0xfe,
0xfd,
0xf3,
0x05,
0x10,
0x0e,
0x02,
0x00,
0x02,
0x18,
0x0d,
0xfd,
0x1a,
0x0d,
0xfa,
0xfc,
0x05,
0x04,
0x03,
0xfd,
0x01,
0xf9,
0xf6,
0xf8,
0xef,
0x04,
0xf4,
0xf5,
0x11,
0xf5,
0xfe,
0xfd,
0xfa,
0x11,
0xf4,
0x03,
0xf9,
0xfc,
0xff,
0xed,
0xfd,
0xfd,
0x0c,
0x01,
0x03,
0x04,
0x05,
0xf2,
0xfd,
0xfe,
0x10,
0x06,
0xf4,
0xf5,
0x09,
0xfe,
0x07,
0x01,
0xf8,
0xfb,
0xf9,
0x03,
0xfc,
0xf9,
0xf8,
0xfe,
0x0e,
0x13,
0xfc,
0xf0,
0xfe,
0xfa,
0x10,
0x07,
0x12,
0x0d,
0xfc,
0x0f,
0x03,
0xfd,
0x02,
0xfa,
0x11,
0x05,
0x0b,
0x00,
0x00,
0xf9,
0x0a,
0xfb,
0xfc,
0xf4,
0x07,
0x0e,
0xfa,
0xff,
0x0a,
0xfd,
0xfc,
0x14,
0x03,
0x07,
0x01,
0xfb,
0x06,
0x0b,
0xd9,
0xf8,
0xf0,
0x11,
0xfa,
0xec,
0xf6,
0xe7,
0x12,
0xf9,
0xf8,
0x02,
0xfd,
0xf4,
0x03,
0xe1,
0x0a,
0xe4,
0xf9,
0x01,
0x0f,
0xf2,
0x0c,
0xff,
0x0d,
0xfa,
0xf4,
0x01,
0xf8,
0xfe,
0xf6,
0xf6,
0x13,
0xfc,
0x07,
0xf9,
0xf8,
0x05,
0xf9,
0x0f,
0xfb,
0x00,
0xfe,
0xf5,
0xf2,
0xec,
0xf6,
0x01,
0xe5,
0x0c,
0x01,
0x04,
0x06,
0x01,
0xdb,
0x00,
0xef,
0x0a,
0xfe,
0x00,
0x0f,
0xfb,
0xf8,
0xf7,
0x09,
0xff,
0xe8,
0x03,
0xec,
0x07,
0xe5,
0x18,
0x04,
0x0a,
0xfc,
0x02,
0xfc,
0xeb,
0xf7,
0x0d,
0xf5,
0xff,
0x01,
0xf8,
0xfa,
0xf7,
0xf7,
0xf7,
0xfc,
0xff,
0x0a,
0xf8,
0xf6,
0x05,
0xf3,
0xf7,
0xfc,
0xfb,
0x0b,
0xf1,
0xfb,
0x03,
0x07,
0x07,
0x04,
0x0b,
0xfd,
0xf0,
0xf8,
0x0e,
0x04,
0x09,
0x02,
0x0b,
0x02,
0xfc,
0x04,
0x03,
0xf7,
0xf3,
0x08,
0xfe,
0x13,
0xf5,
0xf6,
0xf7,
0x04,
0x14,
0x05,
0x0a,
0xff,
0x0f,
0xfd,
0xf6,
0xf5,
0xef,
0x02,
0xed,
0xf8,
0x15,
0xfe,
0xf5,
0x0b,
0xf2,
0x01,
0x09,
0xfb,
0x03,
0xf8,
0x01,
0xf9,
0xfa,
0x0a,
0x0d,
0xec,
0xf8,
0xfa,
0x00,
0xfe,
0xf5,
0xdd,
0x07,
0x04,
0xf8,
0x01,
0xf1,
0xf0,
0xfa,
0xfa,
0x09,
0x1c,
0xf7,
0x1d,
0xfc,
0x0c,
0xf3,
0xfc,
0x04,
0xfc,
0xf5,
0xf3,
0x0c,
0x03,
0xf3,
0xfc,
0x0b,
0xfa,
0xdf,
0x01,
0xea,
0xda,
0x0d,
0xed,
0xfb,
0xf3,
0xfc,
0x25,
0x05,
0x36,
0x09,
0x06,
0xfa,
0x07,
0x09,
0x0b,
0x02,
0xda,
0xfd,
0xf3,
0xfa,
0xfc,
0x10,
0xf4,
0x06,
0xf5,
0xfb,
0xf1,
0x13,
0xf3,
0xfe,
0xfa,
0x07,
0xfd,
0xf8,
0xed,
0xf5,
0x0a,
0x1e,
0xf6,
0x16,
0xec,
0x0b,
0xfe,
0x0b,
0xf3,
0xfd,
0xff,
0xf7,
0xeb,
0x06,
0x13,
0x08,
0x07,
0x13,
0x04,
0xf3,
0xf2,
0xfc,
0x0a,
0xf5,
0xf8,
0x04,
0x21,
0xff,
0x08,
0x0c,
0xf9,
0xf9,
0x21,
0xef,
0xff,
0xfe,
0x07,
0xf9,
0xf3,
0xfd,
0xf9,
0xf9,
0xfd,
0xf9,
0xe2,
0xf0,
0xf6,
0x01,
0xfd,
0xf4,
0x1b,
0xed,
0x05,
0x00,
0x04,
0xfb,
0x09,
0x08,
0xfc,
0xfa,
0xf2,
0x06,
0x14,
0x03,
0xfe,
0x04,
0x05,
0x11,
0x08,
0xfe,
0xfb,
0xff,
0xf9,
0xef,
0xf0,
0x08,
0x18,
0xec,
0xff,
0x13,
0xfa,
0x04,
0x0f,
0xf6,
0xec,
0xfe,
0xff,
0x00,
0x0a,
0x03,
0xfb,
0x1e,
0xfb,
0x08,
0xf2,
0xf7,
0xfe,
0x06,
0xee,
0x05,
0x07,
0xf5,
0x11,
0xf4,
0xfc,
0xfb,
0xfb,
0x1d,
0xf3,
0xf5,
0xe7,
0x12,
0xf9,
0xf7,
0xf2,
0xff,
0x04,
0x19,
0xfa,
0xeb,
0x19,
0xf1,
0x0f,
0xf9,
0xfc,
0xf6,
0xef,
0xff,
0xf5,
0xf6,
0x0e,
0xfd,
0xf0,
0xe8,
0xf4,
0xff,
0x00,
0x00,
0x00,
0x0a,
0x02,
0x06,
0x04,
0x1d,
0x15,
0xfb,
0xf6,
0xf3,
0xfe,
0xf5,
0xf0,
0xfc,
0xf9,
0x0c,
0xf2,
0x06,
0xf5,
0x06,
0xf6,
0xf5,
0xff,
0xfb,
0x14,
0xf8,
0xf5,
0xf0,
0xef,
0x10,
0xf4,
0x0d,
0x06,
0xfc,
0x06,
0xf3,
0xfd,
0x10,
0xfe,
0xfe,
0x09,
0x07,
0xf8,
0xfe,
0x0c,
0x12,
0x04,
0xed,
0xfd,
0x03,
0xf3,
0x0a,
0xfb,
0xf1,
0xf3,
0xec,
0xff,
0xf4,
0xfd,
0xf9,
0xec,
0x05,
0xf1,
0x00,
0x06,
0x0f,
0xfe,
0x04,
0x39,
0x03,
0x19,
0xe2,
0x05,
0x07,
0xf0,
0x02,
0x12,
0x08,
0x0f,
0xf6,
0x00,
0x0c,
0xf6,
0xf6,
0x0d,
0xfe,
0x04,
0xf4,
0xf5,
0x05,
0x00,
0x07,
0x02,
0x16,
0x10,
0xd6,
0xdb,
0x32,
0x5d,
0x0c,
0x28,
0x37,
0xfc,
0xda,
0xf9,
0x1b,
0xfa,
0x17,
0x95,
0x0a,
0xef};
