/* SPDX-License-Identifier: GPL-2.0 */
/*
 * Copyright (c) 2020 MediaTek Inc.
 *
 * Author: Ya-Wen Hsu <Ya-Wen.Hsu@mediatek.com>
 *
 */
char fdvt_kernel_bias_loop25_1_frame01[] = {
0xf4,
0x0c,
0x0b,
0xf0,
0x08,
0xe8,
0x3a,
0xdf,
0xf3,
0x0d,
0x0d,
0xf1,
0x09,
0xe9,
0x38,
0xdb,
0xd9,
0xf5,
0xfa,
0x00,
0x03,
0xf7,
0x06,
0x05,
0xd3,
0xf7,
0xfb,
0x01,
0x01,
0xf8,
0x05,
0x05,
0x08,
0x0b,
0x04,
0x04,
0xfa,
0xf9,
0xfe,
0xfc,
0x10,
0x0c,
0x05,
0x04,
0xf8,
0xfb,
0xfd,
0xfb,
0xfe,
0xff,
0x0e,
0x08,
0xfd,
0xff,
0xfc,
0xf7,
0xf3,
0x00,
0x0e,
0x0a,
0xfd,
0xfe,
0xf9,
0xf7,
0xcc,
0xf3,
0xf1,
0xf0,
0x05,
0x07,
0x0c,
0x12,
0xd1,
0xf1,
0xf0,
0xf0,
0x04,
0x08,
0x0d,
0x12,
0xc9,
0x05,
0x02,
0xff,
0xfe,
0xfe,
0xfa,
0x04,
0xc7,
0x07,
0x03,
0xfe,
0xfe,
0xfe,
0xfa,
0x03,
0x09,
0x03,
0xf6,
0x24,
0x19,
0xfc,
0xfd,
0xe3,
0x02,
0x03,
0xf0,
0x2a,
0x1e,
0xfa,
0xfc,
0xe1,
0xac,
0x16,
0x00,
0x0d,
0x00,
0xf0,
0xf4,
0xfb,
0xcb,
0x14,
0x02,
0x11,
0xfd,
0xf0,
0xf4,
0xfc,
0xe7,
0x0f,
0x00,
0xff,
0xf8,
0xf8,
0xfd,
0x04,
0xe2,
0x0e,
0x01,
0xff,
0xf7,
0xf6,
0xff,
0x04,
0xf8,
0xed,
0xef,
0xee,
0x07,
0x05,
0x0e,
0x1d,
0xf3,
0xee,
0xee,
0xf2,
0x02,
0x07,
0x0d,
0x1c,
0x09,
0xfd,
0xfa,
0xf4,
0xff,
0x03,
0x09,
0x07,
0x1a,
0x01,
0xfe,
0xf6,
0xff,
0x01,
0x07,
0x03,
0x3f,
0x18,
0x16,
0x07,
0xfd,
0xee,
0xf4,
0xe1,
0x2e,
0x16,
0x17,
0x07,
0xfc,
0xf1,
0xf5,
0xe2,
0xfd,
0x0f,
0x04,
0x07,
0xf5,
0xfa,
0xe2,
0x0f,
0xe7,
0x12,
0x03,
0x0a,
0xf4,
0xfa,
0xe2,
0x0b,
0xee,
0x07,
0xfc,
0x03,
0xf8,
0xff,
0xfd,
0x05,
0xf8,
0x05,
0xfb,
0x03,
0xfb,
0xfc,
0x00,
0x03,
0x10,
0x04,
0xfc,
0x03,
0x03,
0xfa,
0x00,
0x01,
0x0b,
0x03,
0xfd,
0x02,
0x03,
0xfa,
0xfe,
0x05,
0x2c,
0x0d,
0x0a,
0x05,
0x01,
0xf4,
0xf5,
0xfb,
0x2d,
0x0e,
0x08,
0x08,
0x00,
0xf4,
0xf2,
0xfd,
0xd8,
0x04,
0x06,
0xfb,
0xfd,
0xfc,
0x06,
0xfa,
0xcc,
0x05,
0x06,
0xf8,
0xfb,
0xfe,
0x01,
0x00,
0xfc,
0x0b,
0xfb,
0x08,
0xed,
0x02,
0xd0,
0x2c,
0x00,
0x0c,
0xfa,
0x08,
0xec,
0x01,
0xcf,
0x2e,
0x0f,
0x0f,
0x07,
0x0e,
0xf1,
0xf8,
0xf6,
0xfc,
0xf0,
0x12,
0x09,
0x11,
0xee,
0xf9,
0xf4,
0xf9,
0xe1,
0x06,
0x03,
0xfa,
0x01,
0xfb,
0x00,
0xff,
0xe3,
0x0a,
0x03,
0xff,
0xfb,
0xfc,
0xfe,
0xfe,
0xf8,
0x09,
0xfa,
0x08,
0xfe,
0xfc,
0x01,
0xfc,
0xec,
0x06,
0xfc,
0x04,
0xff,
0xfc,
0x01,
0xfe,
0x11,
0xf8,
0xfd,
0xf5,
0x0d,
0xf9,
0x12,
0xfa,
0x0f,
0xf7,
0xfd,
0xf5,
0x0a,
0xfc,
0x11,
0xfe,
0xeb,
0x05,
0x01,
0x03,
0x01,
0xfe,
0x01,
0xf3,
0xfd,
0x01,
0xfd,
0x02,
0x07,
0xff,
0x01,
0xf7,
0xd6,
0x0d,
0x0b,
0x07,
0xfd,
0xf4,
0xfb,
0xec,
0xd7,
0x0f,
0x09,
0x09,
0xfc,
0xf5,
0xf8,
0xec,
0xf6,
0xfe,
0x00,
0xfc,
0x04,
0xfc,
0x00,
0x07,
0xfc,
0xfe,
0x01,
0xf7,
0x04,
0xfa,
0x02,
0x09,
0xe0,
0xf6,
0x06,
0x09,
0x04,
0x08,
0xf8,
0xf4,
0xf3,
0xf0,
0x06,
0x07,
0x04,
0x0d,
0xf5,
0xf9,
0x0e,
0x01,
0x08,
0x06,
0x04,
0xff,
0xfb,
0xf6,
0xd6,
0x05,
0x0a,
0x0a,
0xfd,
0x01,
0xf8,
0xf4,
0xf7,
0x03,
0x00,
0xf8,
0xf4,
0x06,
0x04,
0x04,
0xe4,
0x07,
0xff,
0xf9,
0xf0,
0x05,
0x03,
0x07,
0xf2,
0x01,
0x02,
0x09,
0xfb,
0x03,
0x02,
0xf3,
0xf9,
0xfc,
0x01,
0x04,
0xfe,
0x03,
0x04,
0xfa,
0xef,
0x0a,
0x01,
0x00,
0xfd,
0xf9,
0x03,
0xfc,
0xf3,
0x0c,
0xfe,
0xff,
0xfc,
0xfc,
0x04,
0xfc,
0xeb,
0x1a,
0x03,
0x06,
0xf9,
0xfc,
0xf7,
0xf3,
0xfa,
0x19,
0x03,
0x06,
0xfc,
0xfa,
0xf9,
0xef,
0xf9,
0x19,
0x0d,
0x0c,
0xf4,
0xf4,
0xf9,
0xf4,
0xe3,
0x17,
0x09,
0x09,
0xf4,
0xf4,
0xfd,
0xfa,
0xf1,
0x0f,
0x0e,
0xed,
0x0d,
0xe0,
0x39,
0xdd,
0xf1,
0x12,
0x0e,
0xf1,
0x0b,
0xe3,
0x36,
0xdb,
0xda,
0xf5,
0xf3,
0xff,
0x04,
0xf9,
0x0a,
0x09,
0xd4,
0xf5,
0xf5,
0xfd,
0x04,
0xf6,
0x0c,
0x0a,
0xf2,
0x10,
0x05,
0x03,
0xf7,
0xf9,
0xff,
0xfb,
0xef,
0x0c,
0x05,
0x00,
0xf5,
0xfd,
0xfc,
0x00,
0xff,
0x00,
0x0d,
0x07,
0xfc,
0xfd,
0xfd,
0xf8,
0xf6,
0x00,
0x0e,
0x09,
0xfb,
0xfd,
0xfc,
0xf9,
0xd3,
0xee,
0xef,
0xef,
0x07,
0x08,
0x0e,
0x15,
0xd6,
0xed,
0xef,
0xf0,
0x06,
0x07,
0x0e,
0x16,
0xd3,
0x0b,
0xfb,
0xff,
0xf7,
0xfd,
0xfb,
0x0a,
0xde,
0x0a,
0x01,
0xfa,
0xfe,
0xf7,
0x01,
0x06,
0x0e,
0x02,
0xf4,
0x27,
0x1d,
0xf8,
0xfe,
0xe5,
0x07,
0x02,
0xf0,
0x2c,
0x26,
0xf5,
0xf9,
0xe0,
0xab,
0x15,
0x00,
0x0b,
0x03,
0xef,
0xf4,
0xfe,
0xc6,
0x15,
0x03,
0x0f,
0xfe,
0xee,
0xf5,
0xfd,
0xe3,
0x0f,
0x00,
0xfa,
0xf9,
0xf8,
0xff,
0x07,
0xe4,
0x0f,
0x04,
0xf9,
0xf8,
0xf7,
0xfe,
0x05,
0xfa,
0xf1,
0xee,
0xf5,
0x05,
0x01,
0x0d,
0x1f,
0xf3,
0xf3,
0xee,
0xfa,
0x00,
0x02,
0x0d,
0x1b,
0x11,
0xfc,
0xfb,
0xf5,
0xfd,
0x05,
0x0a,
0x07,
0x20,
0xfe,
0xfd,
0xf5,
0xfe,
0x05,
0x08,
0x03,
0x0f,
0x19,
0x15,
0x08,
0xfa,
0xf1,
0xf3,
0xe3,
0x00,
0x16,
0x16,
0x08,
0xfa,
0xf2,
0xf5,
0xe5,
0x02,
0x13,
0x04,
0x0b,
0xf2,
0xf8,
0xdf,
0x0e,
0xe9,
0x14,
0x04,
0x0c,
0xf3,
0xf8,
0xe1,
0x0b,
0xd6,
0x03,
0xfe,
0x03,
0xfa,
0xfd,
0xfd,
0x06,
0xdf,
0x04,
0xfe,
0x03,
0xfd,
0xfa,
0x00,
0x03,
0x16,
0x00,
0xfc,
0x01,
0x06,
0xfa,
0x02,
0x02,
0x0e,
0x00,
0xfa,
0x00,
0x03,
0xfa,
0x02,
0x07,
0x2f,
0x0c,
0x08,
0x06,
0x01,
0xf4,
0xf5,
0xfd,
0x31,
0x0d,
0x06,
0x09,
0x00,
0xf3,
0xf4,
0xfe,
0xd5,
0x08,
0x07,
0xff,
0xf9,
0x00,
0xff,
0xf9,
0xce,
0x07,
0x07,
0xff,
0xf7,
0x02,
0xfa,
0xfe,
0xfb,
0x0b,
0xfb,
0x08,
0xef,
0x02,
0xcf,
0x2d,
0xfd,
0x0b,
0xf9,
0x08,
0xed,
0x02,
0xce,
0x2f,
0x09,
0x0d,
0x04,
0x0e,
0xf1,
0xf8,
0xf7,
0xfd,
0xef,
0x10,
0x05,
0x11,
0xed,
0xf9,
0xf5,
0xfa,
0xdb,
0x07,
0x01,
0xfe,
0xfe,
0xf9,
0x01,
0x00,
0xe2,
0x0d,
0x03,
0x02,
0xf9,
0xf9,
0xfd,
0xff,
0xf9,
0x08,
0xf3,
0x0a,
0x05,
0xfe,
0xfd,
0xfd,
0xec,
0x09,
0xf5,
0x07,
0x02,
0xfb,
0x00,
0xfe,
0xf1,
0xf4,
0xfb,
0xf4,
0x0c,
0xfd,
0x13,
0xfe,
0xf1,
0xf5,
0xfd,
0xf6,
0x08,
0xfc,
0x14,
0xff,
0xef,
0xfe,
0x02,
0x01,
0x04,
0x02,
0x00,
0xf5,
0xfe,
0xfe,
0xfa,
0x03,
0x06,
0x02,
0x02,
0xf9,
0xdb,
0x0e,
0x0d,
0x05,
0xfe,
0xf3,
0xfb,
0xeb,
0xd9,
0x0f,
0x09,
0x07,
0xfd,
0xf5,
0xf9,
0xed,
0x03,
0x04,
0x00,
0xfd,
0x08,
0xf7,
0xfd,
0x03,
0xf4,
0x01,
0x00,
0xf9,
0x05,
0xf8,
0x03,
0x06,
0xe7,
0xf2,
0x0c,
0x05,
0x06,
0x0c,
0xf6,
0xf2,
0xf6,
0xee,
0x08,
0x04,
0x03,
0x10,
0xf8,
0xf7,
0x0e,
0x01,
0x08,
0x06,
0x02,
0x00,
0xfb,
0xf6,
0xcd,
0x05,
0x0a,
0x0a,
0xfc,
0x00,
0xfa,
0xf1,
0xf6,
0x01,
0xfa,
0xfc,
0xf4,
0x0b,
0x01,
0x07,
0xe5,
0x05,
0xfc,
0xfc,
0xf1,
0x07,
0x02,
0x07,
0x03,
0xff,
0x05,
0x08,
0xff,
0x03,
0x02,
0xf0,
0x0a,
0xfb,
0x01,
0x04,
0xff,
0x06,
0x04,
0xf7,
0xcb,
0x04,
0x02,
0xfe,
0xff,
0xfd,
0x01,
0xff,
0xdb,
0x07,
0xff,
0xfc,
0x02,
0xfc,
0x01,
0xff,
0xe2,
0x19,
0x05,
0x05,
0xfb,
0xff,
0xf6,
0xf2,
0xf2,
0x18,
0x04,
0x05,
0xff,
0xfc,
0xf8,
0xef,
0xf9,
0x17,
0x0d,
0x0b,
0xf4,
0xf3,
0xf9,
0xfa,
0xe7,
0x17,
0x09,
0x08,
0xf3,
0xf3,
0xfc,
0xfe,
0xfa,
0x09,
0x04,
0xee,
0x07,
0xeb,
0x3c,
0xdd,
0xf6,
0x0a,
0x08,
0xec,
0x0a,
0xe8,
0x3b,
0xd9,
0xdf,
0xf7,
0xf8,
0x04,
0xff,
0xfa,
0x03,
0x00,
0xdd,
0xfb,
0xf8,
0x06,
0xfb,
0xfa,
0x02,
0x01,
0xe9,
0x10,
0x01,
0x04,
0xf9,
0xf7,
0xff,
0xff,
0xe9,
0x0e,
0x02,
0x03,
0xf8,
0xf8,
0xff,
0x00,
0xc8,
0x03,
0x0c,
0x08,
0xff,
0xfc,
0xfd,
0xf4,
0xc8,
0x02,
0x0b,
0x0a,
0xfd,
0xfe,
0xfb,
0xf6,
0xee,
0xec,
0xf3,
0xed,
0x0a,
0x06,
0x12,
0x15,
0xe3,
0xec,
0xf2,
0xee,
0x07,
0x08,
0x14,
0x14,
0xc7,
0x04,
0xfd,
0xfe,
0xff,
0x00,
0xf7,
0x09,
0xd0,
0x06,
0xff,
0xfd,
0xfe,
0xfc,
0xfc,
0x04,
0xfe,
0x04,
0xf7,
0x23,
0x14,
0xff,
0xfb,
0xe4,
0xfb,
0x04,
0xf1,
0x25,
0x1b,
0x00,
0xfd,
0xdf,
0xac,
0x13,
0xfe,
0x0c,
0xfd,
0xf5,
0xf7,
0xfc,
0xbe,
0x11,
0xfe,
0x0c,
0x03,
0xf3,
0xf7,
0xfb,
0xe3,
0x0d,
0xfe,
0xfe,
0xf8,
0xfa,
0xfe,
0x03,
0xdd,
0x0c,
0xff,
0xfe,
0xf7,
0xf8,
0xfe,
0x06,
0xf3,
0xee,
0xef,
0xe9,
0x04,
0x03,
0x10,
0x22,
0xf2,
0xef,
0xee,
0xed,
0x00,
0x04,
0x10,
0x1f,
0x14,
0xfd,
0xfd,
0xf6,
0xff,
0x01,
0x09,
0x05,
0x07,
0x01,
0xff,
0xf5,
0x01,
0xfd,
0x0a,
0x02,
0x1d,
0x1a,
0x10,
0x08,
0xfc,
0xef,
0xf4,
0xde,
0x20,
0x18,
0x11,
0x07,
0xfe,
0xef,
0xf6,
0xdc,
0x11,
0x15,
0x06,
0x0a,
0xf4,
0xf6,
0xdf,
0x07,
0xfa,
0x16,
0x05,
0x0b,
0xf2,
0xf8,
0xdd,
0x07,
0x04,
0x03,
0x00,
0x01,
0xfa,
0xfe,
0xfa,
0x08,
0x03,
0x03,
0xff,
0x02,
0xfc,
0xfd,
0xfc,
0x06,
0xfa,
0x05,
0xff,
0x00,
0x05,
0xfa,
0x00,
0xfd,
0xfd,
0x04,
0xfe,
0x00,
0x05,
0xfc,
0xff,
0xff,
0xed,
0x0f,
0x08,
0x07,
0xfd,
0xf3,
0xf6,
0xfd,
0xeb,
0x0f,
0x07,
0x08,
0xfe,
0xf2,
0xf3,
0xff,
0xed,
0x07,
0x06,
0xfe,
0xfa,
0xfe,
0x03,
0xf7,
0xdd,
0x07,
0x04,
0xfd,
0xf7,
0x00,
0xfe,
0xff,
0x04,
0x06,
0xfb,
0x05,
0xed,
0x02,
0xd6,
0x2c,
0x05,
0x07,
0xfa,
0x05,
0xeb,
0x00,
0xd7,
0x2c,
0xe3,
0x13,
0x07,
0x12,
0xf1,
0xf7,
0xf7,
0xf9,
0xeb,
0x16,
0x09,
0x16,
0xf0,
0xfb,
0xf0,
0xf8,
0xf3,
0x0b,
0x01,
0xfd,
0xfb,
0xf9,
0xff,
0x03,
0xfe,
0x0b,
0x01,
0xf9,
0xfb,
0xf8,
0x02,
0x03,
0xf9,
0x05,
0xfb,
0x09,
0x00,
0xff,
0xfe,
0xf9,
0xf0,
0x04,
0xfc,
0x05,
0xff,
0xfd,
0xfd,
0xfe,
0xdf,
0xf2,
0xfd,
0xf4,
0x13,
0xf8,
0x12,
0xfb,
0xdf,
0xf1,
0xfb,
0xf6,
0x0e,
0xfc,
0x10,
0xff,
0xee,
0x09,
0x00,
0x07,
0x03,
0xfe,
0xfd,
0xef,
0x00,
0x05,
0xfc,
0x05,
0x07,
0xfd,
0x02,
0xef,
0x13,
0x12,
0x0a,
0x05,
0xfa,
0xee,
0xf7,
0xe3,
0x12,
0x11,
0x08,
0x06,
0xfa,
0xf1,
0xf5,
0xe6,
0xe8,
0xfe,
0x01,
0xf7,
0x04,
0xf8,
0x01,
0x0d,
0xf2,
0xfd,
0x01,
0xf8,
0x03,
0xf7,
0x02,
0x0b,
0xec,
0xf5,
0x04,
0x08,
0x05,
0x08,
0xf9,
0xf4,
0xf5,
0xf1,
0x05,
0x0b,
0x07,
0x0a,
0xf6,
0xf2,
0xf9,
0x08,
0x06,
0x08,
0xff,
0xfd,
0xfb,
0xf4,
0xef,
0x09,
0x06,
0x0b,
0xfb,
0x00,
0xf9,
0xf4,
0xf0,
0xfc,
0xf6,
0x01,
0xf2,
0x0a,
0x01,
0x0b,
0xe7,
0xf9,
0xf5,
0xff,
0xf4,
0x0c,
0x01,
0x0f,
0xe2,
0xff,
0x05,
0x08,
0xff,
0x03,
0x01,
0xed,
0xea,
0xfd,
0x04,
0x05,
0xfd,
0x04,
0x00,
0xf6,
0xc0,
0x0b,
0x04,
0x04,
0xff,
0xfb,
0xfd,
0xf5,
0xc2,
0x0c,
0x00,
0x05,
0x01,
0xfc,
0xfd,
0xf4,
0xdc,
0x1a,
0x07,
0x07,
0xf8,
0xfa,
0xfa,
0xee,
0xfe,
0x19,
0x06,
0x05,
0xf9,
0xf8,
0xf9,
0xe9,
0xdd,
0x1a,
0x0e,
0x0c,
0xf3,
0xf3,
0xf3,
0xf3,
0xc0,
0x17,
0x0b,
0x0a,
0xf2,
0xf5,
0xf7,
0xfa,
0xf8,
0x0e,
0x09,
0xea,
0x0b,
0xe1,
0x3b,
0xde,
0xf3,
0x0f,
0x0c,
0xea,
0x0d,
0xe1,
0x3a,
0xdb,
0xdd,
0xf8,
0xf4,
0x00,
0x03,
0xf7,
0x08,
0x03,
0xda,
0xfa,
0xf2,
0x03,
0x01,
0xf6,
0x07,
0x04,
0xef,
0x12,
0x03,
0x01,
0xf5,
0xf7,
0x03,
0xfe,
0xf1,
0x0f,
0x04,
0x00,
0xf2,
0xfc,
0xfe,
0x04,
0xbb,
0x00,
0x0f,
0x07,
0x00,
0xfe,
0xfb,
0xf4,
0xb7,
0x02,
0x0c,
0x09,
0xfc,
0xfd,
0xfb,
0xf6,
0xee,
0xe7,
0xf0,
0xeb,
0x0b,
0x09,
0x15,
0x18,
0xe4,
0xe7,
0xef,
0xeb,
0x09,
0x09,
0x16,
0x18,
0xb9,
0x05,
0xfc,
0xfe,
0xf6,
0xff,
0xf8,
0x10,
0xc4,
0x09,
0xfe,
0xfe,
0xf7,
0xf8,
0x01,
0x07,
0xff,
0x03,
0xf3,
0x23,
0x19,
0xfb,
0x01,
0xe9,
0xfd,
0x02,
0xef,
0x26,
0x21,
0xfc,
0xfe,
0xe4,
0xa6,
0x15,
0x01,
0x0c,
0xff,
0xee,
0xf6,
0xfd,
0xb9,
0x12,
0xff,
0x0c,
0x06,
0xed,
0xf8,
0xfd,
0xd9,
0x0c,
0xfd,
0xfa,
0xfb,
0xf8,
0x01,
0x06,
0xd5,
0x0c,
0x00,
0xfb,
0xfa,
0xf7,
0xfd,
0x07,
0xf9,
0xee,
0xef,
0xe9,
0x06,
0xff,
0x13,
0x23,
0xf7,
0xf1,
0xef,
0xec,
0xff,
0x01,
0x12,
0x20,
0x06,
0xfc,
0xfe,
0xf3,
0xff,
0x02,
0x0b,
0x06,
0xfc,
0xff,
0xff,
0xf3,
0x00,
0xfe,
0x0c,
0x03,
0xf5,
0x1b,
0x12,
0x09,
0xfa,
0xef,
0xf1,
0xde,
0xf9,
0x19,
0x12,
0x08,
0xfb,
0xf0,
0xf4,
0xdd,
0x12,
0x17,
0x07,
0x0c,
0xf0,
0xf6,
0xd9,
0x09,
0xfa,
0x17,
0x06,
0x0b,
0xf1,
0xf7,
0xda,
0x09,
0xb8,
0x02,
0xff,
0x00,
0xfc,
0xfd,
0xfb,
0x0a,
0xbb,
0x03,
0xff,
0x01,
0xfe,
0xfb,
0xfe,
0x08,
0xf8,
0x01,
0xfd,
0xfd,
0x07,
0xf9,
0x03,
0x01,
0xf8,
0x01,
0xfc,
0xfd,
0x06,
0xfa,
0x01,
0x04,
0xfc,
0x0e,
0x07,
0x0a,
0xfc,
0xf1,
0xf6,
0xfd,
0xf9,
0x0f,
0x06,
0x0a,
0xfc,
0xf2,
0xf3,
0x00,
0xea,
0x09,
0x0b,
0x00,
0xf7,
0x01,
0xfd,
0xf6,
0xe0,
0x06,
0x09,
0xff,
0xf7,
0x03,
0xf9,
0xfe,
0x03,
0x04,
0xfb,
0x04,
0xee,
0x02,
0xd6,
0x2c,
0x03,
0x05,
0xfa,
0x04,
0xec,
0x01,
0xd6,
0x2d,
0xdf,
0x0f,
0x02,
0x0e,
0xf0,
0xf6,
0xfc,
0xfb,
0xed,
0x11,
0x05,
0x12,
0xee,
0xfa,
0xf5,
0xfb,
0xea,
0x0c,
0x02,
0xff,
0xf6,
0xf8,
0xff,
0x04,
0xfa,
0x0b,
0x02,
0xfd,
0xf6,
0xf9,
0x00,
0x05,
0xfb,
0x01,
0xf7,
0x08,
0x05,
0xff,
0xfe,
0xfc,
0xef,
0x02,
0xf6,
0x05,
0xff,
0xfe,
0x00,
0x02,
0xfd,
0xf1,
0xfc,
0xf4,
0x11,
0xfa,
0x12,
0xfb,
0xfa,
0xf2,
0xfd,
0xf4,
0x0d,
0xfc,
0x12,
0xfd,
0xf9,
0x06,
0x01,
0x04,
0x02,
0x00,
0xfd,
0xf3,
0x05,
0x05,
0xfc,
0x04,
0x05,
0xff,
0x02,
0xf2,
0x12,
0x12,
0x0c,
0x05,
0xfa,
0xec,
0xf7,
0xe2,
0x10,
0x11,
0x0a,
0x06,
0xf8,
0xf0,
0xf4,
0xe6,
0xeb,
0xfa,
0x01,
0xf7,
0x0a,
0xf5,
0x03,
0x0a,
0xf4,
0xfe,
0x01,
0xfb,
0x05,
0xf5,
0x03,
0x07,
0xee,
0xf4,
0x09,
0x08,
0x08,
0x0a,
0xf6,
0xef,
0xf8,
0xf2,
0x09,
0x0a,
0x07,
0x0a,
0xf6,
0xee,
0xfc,
0x06,
0x06,
0x08,
0xff,
0x00,
0xfc,
0xf1,
0xf2,
0x07,
0x06,
0x0b,
0xfa,
0x00,
0xfd,
0xf0,
0xf7,
0xfc,
0xf1,
0x05,
0xee,
0x10,
0xfd,
0x0f,
0xf0,
0xfa,
0xf2,
0x02,
0xef,
0x11,
0xff,
0x11,
0xde,
0xfe,
0x05,
0x08,
0x02,
0x03,
0x01,
0xeb,
0xe4,
0xfd,
0x04,
0x05,
0x00,
0x03,
0x00,
0xf2,
0xe3,
0x08,
0xff,
0x01,
0x01,
0xfe,
0xfe,
0xfb,
0xe8,
0x06,
0xf8,
0x02,
0x07,
0xfe,
0x00,
0xfa,
0xdb,
0x19,
0x06,
0x07,
0xfb,
0xfb,
0xf9,
0xee,
0x02,
0x1a,
0x06,
0x05,
0xfc,
0xf9,
0xf9,
0xe9,
0xe5,
0x19,
0x0d,
0x0b,
0xf3,
0xf2,
0xf3,
0xf5,
0xc3,
0x16,
0x09,
0x09,
0xf1,
0xf2,
0xf7,
0xfb,
0xc3,
0x63,
0xe8,
0x0a,
0xd8,
0xbe,
0x26,
0xeb,
0xc3,
0x71,
0xea,
0x01,
0xd3,
0xbb,
0x21,
0xf2,
0xbf,
0x5d,
0xec,
0x03,
0xdb,
0xc4,
0x1e,
0xee,
0xbc,
0x5f,
0xee,
0x03,
0xda,
0xc1,
0x26,
0xe7};
