/* SPDX-License-Identifier: GPL-2.0 */
/*
 * Copyright (c) 2020 MediaTek Inc.
 *
 * Author: Ya-Wen Hsu <Ya-Wen.Hsu@mediatek.com>
 *
 */
char fdvt_kernel_bias_loop54_0_frame01[] = {
0xfe,
0xbc,
0x41,
0xb5,
0x44,
0xde,
0xea,
0xc8,
0xfc,
0xbc,
0x41,
0xb8,
0x44,
0xdb,
0xe8,
0xc8,
0xcd,
0xfd,
0xf1,
0x00,
0x01,
0x01,
0x02,
0x13,
0xda,
0xfb,
0xee,
0x01,
0x02,
0x01,
0x04,
0x11,
0x0c,
0xfc,
0xfd,
0x04,
0xf6,
0xfe,
0x04,
0x02,
0x0b,
0xfd,
0xf8,
0x03,
0xfa,
0xfd,
0x06,
0x02,
0x08,
0xec,
0xfa,
0xf6,
0x0a,
0x0c,
0x06,
0x0c,
0x00,
0xe5,
0xf7,
0xf7,
0x0b,
0x0f,
0x09,
0x11,
0xe4,
0x09,
0x03,
0xf9,
0xfc,
0x02,
0xfe,
0xff,
0xec,
0x07,
0x03,
0xf9,
0xff,
0xfe,
0x00,
0xfe,
0xff,
0x34,
0x19,
0x11,
0xd4,
0xe7,
0xea,
0xf1,
0x04,
0x36,
0x19,
0x11,
0xd0,
0xe8,
0xe9,
0xec,
0xdd,
0xfc,
0xff,
0x03,
0x02,
0x01,
0xfd,
0xfd,
0xef,
0xf9,
0xff,
0x02,
0x01,
0x03,
0xfc,
0xff,
0x01,
0xf6,
0x00,
0x01,
0x0a,
0x0a,
0xfb,
0xf4,
0xfc,
0xf4,
0xff,
0x00,
0x0a,
0x09,
0xfd,
0xfa,
0xe8,
0x0a,
0x0f,
0xff,
0x02,
0xf6,
0xfb,
0xf7,
0xed,
0x0a,
0x0f,
0x06,
0xfe,
0xf9,
0xf6,
0xf4,
0x09,
0x17,
0xfe,
0x09,
0xfd,
0xf9,
0xfc,
0xf6,
0xf0,
0x13,
0xfe,
0x05,
0x01,
0xfb,
0xff,
0xf7,
0xe9,
0xfa,
0x04,
0xf9,
0xfd,
0x03,
0xfb,
0x08,
0xe5,
0xfc,
0x07,
0xf9,
0xfd,
0x06,
0xf7,
0x04,
0x0c,
0xd1,
0xce,
0xc8,
0x11,
0x0d,
0x27,
0x32,
0x07,
0xd3,
0xcf,
0xcb,
0x10,
0x0c,
0x26,
0x2f,
0x04,
0x01,
0x00,
0xfe,
0x03,
0xff,
0xfe,
0x00,
0xe6,
0x04,
0x03,
0xfb,
0x03,
0xfe,
0x00,
0xff,
0x0e,
0x08,
0x0b,
0xf4,
0xf6,
0xfc,
0x0b,
0xfd,
0x0f,
0x07,
0x0c,
0xf5,
0xf3,
0x00,
0x09,
0xfe,
0xf4,
0xfe,
0xf7,
0x01,
0xfe,
0x04,
0x03,
0x06,
0xf0,
0xff,
0xf8,
0x00,
0xfc,
0x05,
0x03,
0x05,
0xf6,
0x06,
0x02,
0x04,
0xf9,
0xf8,
0x00,
0x00,
0xd7,
0x09,
0x0c,
0x00,
0xf5,
0xf8,
0x02,
0xfe,
0xe8,
0xc9,
0xd5,
0xba,
0x13,
0x0b,
0x30,
0x2a,
0xe7,
0xc7,
0xd1,
0xbe,
0x0e,
0x10,
0x2e,
0x2d,
0xec,
0x19,
0x10,
0x0b,
0xf7,
0xf2,
0xf6,
0xf1,
0xf4,
0x1b,
0x0f,
0x0e,
0xfd,
0xf4,
0xf2,
0xec,
0x18,
0xea,
0xfb,
0xf8,
0x10,
0x06,
0x10,
0xf9,
0x00,
0xed,
0xfa,
0xfa,
0x11,
0x03,
0x0e,
0xf9,
0x04,
0xe7,
0xff,
0xfb,
0x05,
0x07,
0x08,
0x10,
0x08,
0xee,
0x05,
0xf8,
0x05,
0x02,
0x06,
0x07,
0xf2,
0x04,
0x09,
0x03,
0x04,
0x02,
0xf3,
0xf7,
0x17,
0x07,
0x0c,
0x03,
0x06,
0x02,
0xf1,
0xef,
0x02,
0xb5,
0xbc,
0x37,
0xbe,
0x4d,
0xc6,
0xf5,
0xfd,
0xb4,
0xbf,
0x34,
0xbf,
0x4b,
0xc9,
0xf5,
0x0f,
0x15,
0x07,
0x0a,
0xfa,
0xf5,
0xfe,
0xfe,
0xd0,
0x17,
0x09,
0x0a,
0xf8,
0xf5,
0xfc,
0xfc,
0xec,
0x04,
0xff,
0x04,
0xfd,
0xfd,
0xfc,
0xff,
0xf0,
0x02,
0x02,
0x03,
0x01,
0xf7,
0x00,
0xfe,
0xe9,
0x0b,
0x08,
0x00,
0xfa,
0xfe,
0xf8,
0xfc,
0xf1,
0x0c,
0x09,
0x01,
0xfd,
0xfb,
0xf9,
0xfc,
0xe7,
0xf7,
0xfe,
0x01,
0x02,
0x00,
0xf9,
0x01,
0xe3,
0xfa,
0xfb,
0x02,
0x00,
0x06,
0xf9,
0xfe,
0xfd,
0x03,
0x0a,
0x06,
0x05,
0x02,
0xf4,
0xef,
0x02,
0x02,
0x0c,
0x05,
0x08,
0xff,
0xf6,
0xef,
0xd8,
0x01,
0xf8,
0x02,
0xff,
0xf8,
0x0a,
0x04,
0x18,
0x01,
0xf6,
0x04,
0x02,
0xf6,
0x09,
0x04,
0x2b,
0x14,
0x04,
0x0b,
0xf8,
0xfb,
0xf2,
0xf5,
0x34,
0x12,
0x03,
0x09,
0xfa,
0xfb,
0xf7,
0xf3,
0xdf,
0x1f,
0x0d,
0x11,
0xf1,
0xf7,
0xf1,
0xe9,
0x06,
0x19,
0x0d,
0x0f,
0xf5,
0xf8,
0xf4,
0xf0,
0xea,
0x15,
0x0a,
0x0b,
0x00,
0xfd,
0xf2,
0xe4,
0xe4,
0x12,
0x0a,
0x08,
0x05,
0xfd,
0xf7,
0xe2,
0x01,
0xee,
0xfb,
0xfa,
0x0c,
0x0d,
0x04,
0x00,
0xf5,
0xee,
0xfa,
0xf8,
0x0d,
0x0e,
0x05,
0x01,
0xff,
0xba,
0x40,
0xb5,
0x44,
0xdd,
0xe9,
0xcc,
0xfe,
0xbc,
0x41,
0xb7,
0x42,
0xdc,
0xe9,
0xcb,
0xe9,
0xf6,
0xed,
0xfe,
0x01,
0x03,
0x04,
0x19,
0xf3,
0xf6,
0xeb,
0xff,
0x05,
0x01,
0x05,
0x15,
0xfd,
0x00,
0xfe,
0x07,
0xf7,
0x02,
0x05,
0xfe,
0xfe,
0x04,
0xfe,
0x08,
0xf9,
0xfe,
0x02,
0xfa,
0x07,
0xef,
0xf9,
0xf6,
0x08,
0x0c,
0x07,
0x0f,
0xff,
0xec,
0xf6,
0xf5,
0x08,
0x0e,
0x0a,
0x11,
0x02,
0x0a,
0x06,
0xfa,
0xfd,
0x03,
0xfa,
0xfc,
0x03,
0x0a,
0x06,
0xf8,
0xff,
0x02,
0xf9,
0xfe,
0x02,
0x37,
0x19,
0x11,
0xd1,
0xeb,
0xe5,
0xed,
0x05,
0x39,
0x1b,
0x12,
0xcf,
0xed,
0xe5,
0xe6,
0xda,
0xf8,
0xfe,
0x05,
0x02,
0x02,
0x01,
0xfe,
0xe8,
0xf5,
0xff,
0x04,
0x00,
0x06,
0xff,
0xfd,
0xff,
0xfb,
0xfe,
0x02,
0x06,
0x06,
0xfe,
0xf6,
0xf9,
0xf3,
0xfc,
0x01,
0x08,
0x08,
0xff,
0xfb,
0xdc,
0x09,
0x0a,
0xfc,
0xfe,
0xf9,
0xfc,
0xfd,
0xe3,
0x05,
0x0c,
0x02,
0xf8,
0xff,
0xf8,
0xfd,
0x15,
0x16,
0xfe,
0x08,
0x01,
0xf7,
0xfc,
0xf6,
0xf9,
0x14,
0xfd,
0x05,
0x03,
0xfa,
0xfd,
0xf6,
0xed,
0xf9,
0x05,
0xfb,
0xfd,
0x01,
0xfb,
0x08,
0xe8,
0xfd,
0x05,
0xfb,
0x00,
0x02,
0xf7,
0x06,
0x0e,
0xd7,
0xcc,
0xca,
0x10,
0x10,
0x25,
0x33,
0x06,
0xd8,
0xd0,
0xcc,
0x12,
0x0e,
0x25,
0x2e,
0xed,
0x02,
0x01,
0x00,
0x00,
0x01,
0xfd,
0xff,
0xdd,
0x04,
0x02,
0xfe,
0xff,
0xff,
0x01,
0xff,
0x26,
0x06,
0x0f,
0xf2,
0xf3,
0xff,
0x0b,
0xfe,
0x26,
0x06,
0x0e,
0xf3,
0xf1,
0x04,
0x06,
0xff,
0xf0,
0xfa,
0xf9,
0x02,
0xfe,
0x03,
0x05,
0x04,
0xed,
0xf7,
0xf8,
0x03,
0xfe,
0x06,
0x07,
0x03,
0xf5,
0x03,
0x05,
0x00,
0xfc,
0xfb,
0x00,
0xff,
0xdd,
0x03,
0x0c,
0xff,
0xf9,
0xfc,
0x01,
0xff,
0xe7,
0xcd,
0xd5,
0xbe,
0x0f,
0x0c,
0x30,
0x28,
0xe9,
0xcb,
0xd1,
0xc0,
0x0d,
0x10,
0x2e,
0x2d,
0xf4,
0x20,
0x12,
0x13,
0xef,
0xf0,
0xef,
0xf0,
0xee,
0x21,
0x14,
0x14,
0xf2,
0xf0,
0xea,
0xed,
0x0e,
0xe8,
0xf8,
0xf8,
0x11,
0x05,
0x14,
0xfb,
0xfb,
0xea,
0xf8,
0xfb,
0x10,
0x04,
0x11,
0xfb,
0x03,
0xef,
0x04,
0xfd,
0x02,
0x02,
0x05,
0x0b,
0x06,
0xf4,
0x09,
0xf9,
0x02,
0xff,
0x05,
0x02,
0xe7,
0x07,
0x09,
0x04,
0x04,
0xff,
0xf7,
0xf3,
0x19,
0x09,
0x0c,
0x03,
0x05,
0x01,
0xf5,
0xec,
0xff,
0xb6,
0xc2,
0x35,
0xbd,
0x4c,
0xc8,
0xf7,
0xfd,
0xb6,
0xc6,
0x33,
0xbd,
0x4b,
0xcc,
0xf7,
0x14,
0x14,
0x07,
0x09,
0xfc,
0xf5,
0xfe,
0xfe,
0xdb,
0x18,
0x08,
0x08,
0xf8,
0xf4,
0xfc,
0xfb,
0xe1,
0x04,
0xff,
0x05,
0xfd,
0xfe,
0xfb,
0x00,
0xea,
0x05,
0x03,
0x03,
0x01,
0xfa,
0xfc,
0xfb,
0xe4,
0x0c,
0x08,
0x02,
0xf6,
0xff,
0xfa,
0xfd,
0xf5,
0x08,
0x07,
0x00,
0xfb,
0xff,
0xfa,
0xfe,
0xe8,
0xfa,
0x00,
0xfe,
0xff,
0xfc,
0xf8,
0x07,
0xe1,
0xfa,
0xfb,
0x00,
0x04,
0xfd,
0xfb,
0x02,
0xef,
0x07,
0x0b,
0x03,
0x06,
0x01,
0xf3,
0xef,
0xf4,
0x07,
0x0c,
0x02,
0x07,
0xff,
0xf6,
0xef,
0xe4,
0x01,
0xf6,
0x01,
0x02,
0xf7,
0x09,
0x06,
0x22,
0x02,
0xf5,
0x04,
0x07,
0xf3,
0x08,
0x04,
0x2b,
0x15,
0x05,
0x0b,
0xf7,
0xfc,
0xee,
0xf4,
0x33,
0x13,
0x05,
0x09,
0xfb,
0xfa,
0xf4,
0xf1,
0xe0,
0x1f,
0x0d,
0x0e,
0xf2,
0xf9,
0xf4,
0xeb,
0x07,
0x17,
0x0c,
0x0c,
0xf8,
0xfb,
0xf4,
0xf1,
0x1f,
0x1a,
0x0c,
0x0d,
0xfe,
0xf9,
0xed,
0xda,
0x18,
0x14,
0x0d,
0x0a,
0x04,
0xfb,
0xf3,
0xda,
0xf6,
0xf1,
0xf6,
0xfe,
0x0c,
0x0b,
0x08,
0xfd,
0xf2,
0xee,
0xf2,
0x00,
0x0b,
0x0f,
0x07,
0x00,
0x01,
0xbd,
0x42,
0xaa,
0x48,
0xca,
0xeb,
0xc4,
0xff,
0xbd,
0x43,
0xad,
0x48,
0xca,
0xe9,
0xc4,
0xd6,
0xf7,
0xed,
0xfe,
0xfe,
0x05,
0x05,
0x1b,
0xd4,
0xf7,
0xe9,
0xfe,
0xfd,
0x05,
0x09,
0x1a,
0x05,
0x04,
0xf8,
0x04,
0xf5,
0x00,
0x09,
0xfc,
0x05,
0x06,
0xf5,
0x04,
0xf4,
0xfe,
0x0a,
0xfa,
0x02,
0xea,
0xfa,
0xf4,
0x0c,
0x0a,
0x06,
0x0c,
0x02,
0xe2,
0xf5,
0xef,
0x0e,
0x0c,
0x0b,
0x12,
0xe2,
0x0a,
0xfd,
0xf8,
0xfe,
0x00,
0x02,
0x01,
0xe4,
0x09,
0xfd,
0xf5,
0x01,
0xfc,
0x05,
0x02,
0x00,
0x37,
0x19,
0x12,
0xd2,
0xe5,
0xde,
0xf1,
0x00,
0x38,
0x18,
0x12,
0xcf,
0xe5,
0xdd,
0xf2,
0xf4,
0xfa,
0xfd,
0x01,
0x00,
0x02,
0xfe,
0xff,
0x1f,
0xfa,
0xff,
0x00,
0xff,
0x01,
0xfb,
0x02,
0xf5,
0xfa,
0x01,
0x03,
0x03,
0x09,
0xfc,
0xf5,
0xf3,
0xfa,
0x02,
0x01,
0x05,
0x05,
0xfb,
0xf7,
0xfa,
0xff,
0x09,
0x04,
0x03,
0xfc,
0xf8,
0xf8,
0xfa,
0xfe,
0x05,
0x05,
0x02,
0x03,
0xf5,
0xfc,
0xf8,
0x19,
0xff,
0x07,
0xfb,
0xf8,
0xfe,
0xf7,
0x02,
0x17,
0x00,
0x04,
0xfe,
0xf7,
0x01,
0xf5,
0xd6,
0xfb,
0x08,
0xfd,
0xfe,
0x02,
0xf5,
0x06,
0xd5,
0xfd,
0x0a,
0xfe,
0xfc,
0x03,
0xf0,
0x02,
0x10,
0xc6,
0xce,
0xc2,
0x0c,
0x0a,
0x29,
0x3a,
0x0c,
0xc7,
0xcd,
0xc5,
0x0b,
0x09,
0x2a,
0x38,
0x04,
0x02,
0x05,
0xfe,
0xff,
0xfd,
0xfd,
0x01,
0xeb,
0x02,
0x02,
0xfd,
0x06,
0xfd,
0x01,
0xfd,
0xf7,
0x08,
0x0b,
0xf5,
0xf5,
0xfa,
0x0c,
0xfe,
0xfa,
0x09,
0x0c,
0xf5,
0xf3,
0xfd,
0x05,
0x00,
0xf2,
0xff,
0xfc,
0x01,
0xfe,
0x01,
0x04,
0x00,
0xfa,
0xff,
0xfc,
0x02,
0xfd,
0x02,
0x03,
0x00,
0x11,
0x04,
0x06,
0x05,
0xf7,
0xf7,
0x00,
0x01,
0x21,
0x05,
0x0a,
0x05,
0xf6,
0xf5,
0x02,
0xff,
0x06,
0xca,
0xd6,
0xc0,
0x10,
0x09,
0x2c,
0x26,
0x08,
0xc8,
0xd3,
0xc5,
0x0b,
0x0f,
0x28,
0x2b,
0xed,
0x1a,
0x11,
0x0c,
0xfc,
0xf4,
0xf3,
0xea,
0xe9,
0x1c,
0x0f,
0x0f,
0xfa,
0xf6,
0xf3,
0xe8,
0x34,
0xe6,
0xfd,
0xfa,
0x12,
0x04,
0x11,
0xf6,
0x17,
0xe9,
0xfc,
0xfa,
0x12,
0x02,
0x11,
0xf8,
0x06,
0xe8,
0xfc,
0xf3,
0x02,
0x05,
0x0d,
0x13,
0x0e,
0xe9,
0x04,
0xf1,
0x04,
0xff,
0x0b,
0x0b,
0xf1,
0x04,
0x06,
0x05,
0x07,
0xff,
0xf4,
0xf7,
0xec,
0x06,
0x08,
0x04,
0x04,
0x03,
0xf2,
0xf5,
0x03,
0xb6,
0xae,
0x39,
0xae,
0x50,
0xbb,
0xf5,
0x01,
0xb5,
0xb2,
0x38,
0xac,
0x4f,
0xbc,
0xf5,
0xf9,
0x18,
0x09,
0x0d,
0xf8,
0xf5,
0xff,
0xfb,
0x15,
0x19,
0x0a,
0x0c,
0xf9,
0xf5,
0xfc,
0xf9,
0xe3,
0x06,
0xfd,
0x06,
0xfa,
0xfc,
0xfa,
0x01,
0xe2,
0x07,
0xfd,
0x06,
0xfc,
0xf8,
0xfd,
0xfd,
0x05,
0x00,
0x05,
0xfd,
0xff,
0xff,
0xfa,
0x06,
0xf8,
0x04,
0x07,
0xff,
0xff,
0xfb,
0xf8,
0x04,
0xe8,
0xfc,
0xff,
0x00,
0x02,
0x03,
0xf8,
0xfa,
0xe6,
0x00,
0x01,
0x02,
0xff,
0x05,
0xf4,
0xf3,
0x00,
0x04,
0x0a,
0x05,
0x03,
0x01,
0xf3,
0xef,
0xfc,
0x02,
0x09,
0x03,
0x05,
0xff,
0xf8,
0xef,
0xfb,
0x02,
0xf7,
0x00,
0xff,
0xf8,
0x0b,
0x03,
0x23,
0x02,
0xf5,
0x03,
0x00,
0xf7,
0x09,
0x01,
0x39,
0x13,
0x02,
0x0a,
0xf8,
0xfb,
0xf2,
0xfa,
0x3a,
0x11,
0x02,
0x0a,
0xf9,
0xfb,
0xf7,
0xf8,
0x13,
0x21,
0x0b,
0x0f,
0xf0,
0xf7,
0xf2,
0xe8,
0xe1,
0x1e,
0x0c,
0x0e,
0xf2,
0xf7,
0xf3,
0xee,
0xef,
0x16,
0x09,
0x09,
0xff,
0xf9,
0xee,
0xdc,
0xf0,
0x14,
0x0b,
0x06,
0x04,
0xf7,
0xf1,
0xd7,
0xf9,
0xf0,
0xf5,
0xfc,
0x0b,
0x0e,
0x04,
0x01,
0xf2,
0xef,
0xf6,
0xfa,
0x0c,
0x0d,
0x06,
0x01,
0x00,
0xbc,
0x41,
0xad,
0x47,
0xcb,
0xe9,
0xc6,
0xff,
0xbc,
0x41,
0xae,
0x47,
0xcd,
0xe9,
0xc6,
0xfb,
0xf2,
0xea,
0xfa,
0x01,
0x04,
0x08,
0x1e,
0xfe,
0xf3,
0xe5,
0xfb,
0xff,
0x03,
0x0b,
0x1e,
0x01,
0x0a,
0xf8,
0x0b,
0xf1,
0x04,
0x04,
0xf9,
0xff,
0x0b,
0xf6,
0x0a,
0xf3,
0x00,
0x06,
0xf6,
0xf8,
0xeb,
0xf8,
0xf5,
0x09,
0x09,
0x07,
0x10,
0xf9,
0xe3,
0xf4,
0xee,
0x0c,
0x0c,
0x0b,
0x15,
0xe3,
0x11,
0x01,
0xf8,
0xfd,
0x01,
0xfb,
0xfd,
0xe0,
0x0d,
0x02,
0xf5,
0x01,
0xff,
0xfd,
0xff,
0x01,
0x38,
0x19,
0x14,
0xce,
0xeb,
0xd9,
0xec,
0x01,
0x38,
0x19,
0x13,
0xcd,
0xec,
0xd9,
0xee,
0xf4,
0xf9,
0xfe,
0x00,
0x01,
0x00,
0x02,
0xfd,
0x1a,
0xf9,
0xff,
0x01,
0x00,
0x00,
0xfe,
0xff,
0xf8,
0xfc,
0x02,
0x06,
0x01,
0x0a,
0xfa,
0xf3,
0xf4,
0xfa,
0x01,
0x04,
0x05,
0x09,
0xfa,
0xf4,
0xec,
0xf5,
0x03,
0x05,
0x02,
0x03,
0xf7,
0xfd,
0xea,
0xf5,
0x06,
0x06,
0x01,
0x07,
0xf1,
0x00,
0xf8,
0x19,
0xfe,
0x06,
0xfd,
0xf7,
0xff,
0xf6,
0x02,
0x17,
0x00,
0x05,
0xfe,
0xf8,
0xff,
0xf6,
0xd8,
0xfe,
0x09,
0xfd,
0xff,
0x00,
0xf4,
0x03,
0xd7,
0xff,
0x0a,
0xfe,
0xfc,
0x02,
0xf0,
0x02,
0x13,
0xcd,
0xca,
0xc3,
0x09,
0x0b,
0x29,
0x3a,
0x0e,
0xcb,
0xcc,
0xc4,
0x0b,
0x09,
0x29,
0x37,
0xfa,
0x03,
0x06,
0xfd,
0xfa,
0x02,
0xfc,
0x00,
0xda,
0x02,
0x01,
0xfd,
0x02,
0x01,
0xfe,
0xfd,
0x0b,
0x07,
0x0c,
0xf1,
0xf5,
0xfb,
0x0c,
0x01,
0x11,
0x08,
0x0b,
0xf3,
0xf1,
0xff,
0x06,
0x04,
0xe2,
0xfb,
0xfc,
0x02,
0xfe,
0x01,
0x06,
0xff,
0xe9,
0xfc,
0xfd,
0x04,
0xfd,
0x02,
0x05,
0xfe,
0x1b,
0x05,
0x02,
0x06,
0xfb,
0xf7,
0xfe,
0xfe,
0x24,
0x06,
0x07,
0x04,
0xf9,
0xf5,
0x00,
0xfe,
0x06,
0xca,
0xd9,
0xc4,
0x0e,
0x0b,
0x2b,
0x26,
0x09,
0xca,
0xd5,
0xc8,
0x0a,
0x11,
0x28,
0x2b,
0xf3,
0x19,
0x0f,
0x0d,
0xf5,
0xf0,
0xf0,
0xf1,
0xe0,
0x1b,
0x0f,
0x0e,
0xf9,
0xf2,
0xec,
0xed,
0x32,
0xe5,
0xfc,
0xf9,
0x14,
0x03,
0x14,
0xf6,
0x16,
0xe7,
0xfc,
0xfa,
0x13,
0x02,
0x11,
0xf7,
0xfe,
0xed,
0xff,
0xf6,
0x00,
0x01,
0x0a,
0x0f,
0x07,
0xee,
0x04,
0xf4,
0x01,
0xfe,
0x0a,
0x09,
0xe6,
0x05,
0x07,
0x03,
0x05,
0x00,
0xf7,
0xf2,
0xe1,
0x06,
0x07,
0x04,
0x02,
0x05,
0xf4,
0xf1,
0x02,
0xb7,
0xb0,
0x38,
0xa9,
0x50,
0xba,
0xf5,
0xff,
0xb6,
0xb7,
0x37,
0xab,
0x4f,
0xbc,
0xf5,
0xfe,
0x17,
0x07,
0x0c,
0xf9,
0xf7,
0xff,
0xfb,
0x19,
0x18,
0x08,
0x0b,
0xf9,
0xf8,
0xfd,
0xf9,
0xe2,
0x07,
0xfd,
0x06,
0xfa,
0xfb,
0xf9,
0x04,
0xe4,
0x08,
0xfe,
0x06,
0xfc,
0xf7,
0xfc,
0xff,
0xfc,
0x01,
0x03,
0xff,
0xfd,
0xff,
0xfc,
0x05,
0xf7,
0x03,
0x04,
0xff,
0xfe,
0xfc,
0xfa,
0x06,
0xe0,
0xf7,
0x02,
0xfc,
0xfe,
0x01,
0xf5,
0x05,
0xdc,
0xfc,
0x00,
0xfc,
0xfd,
0x06,
0xf6,
0xfc,
0x0a,
0x04,
0x09,
0x06,
0x02,
0x03,
0xf2,
0xf0,
0x04,
0x03,
0x09,
0x04,
0x05,
0x00,
0xf7,
0xed,
0x07,
0x02,
0xf7,
0x02,
0x01,
0xf8,
0x08,
0x03,
0x2e,
0x02,
0xf6,
0x04,
0x03,
0xf6,
0x07,
0x01,
0x43,
0x13,
0x01,
0x0c,
0xf8,
0xfc,
0xf0,
0xfa,
0x46,
0x13,
0x02,
0x0a,
0xfa,
0xfa,
0xf5,
0xf6,
0x1e,
0x21,
0x0b,
0x0f,
0xf2,
0xf6,
0xf4,
0xe9,
0xea,
0x1f,
0x0b,
0x0e,
0xf4,
0xf6,
0xf4,
0xee,
0x06,
0x17,
0x0a,
0x0a,
0xfe,
0xf7,
0xea,
0xd8,
0x09,
0x15,
0x0d,
0x08,
0x03,
0xf6,
0xee,
0xd4,
0xf5,
0xec,
0xf5,
0x00,
0x0b,
0x0e,
0x06,
0xff,
0xf0,
0xec,
0xf3,
0xfe,
0x0a,
0x0e,
0x09,
0x00,
0xbe,
0x62,
0xe3,
0x0c,
0xd2,
0xc0,
0x25,
0xf9,
0xbe,
0x6a,
0xe9,
0x02,
0xd3,
0xbc,
0x27,
0xf5,
0xbe,
0x59,
0xed,
0x06,
0xd2,
0xc6,
0x1a,
0xfa,
0xbc,
0x58,
0xf2,
0x03,
0xd7,
0xc5,
0x20,
0xf0};
