/* SPDX-License-Identifier: GPL-2.0 */
/*
 * Copyright (c) 2020 MediaTek Inc.
 *
 * Author: Ya-Wen Hsu <Ya-Wen.Hsu@mediatek.com>
 *
 */
char fdvt_kernel_bias_loop20_0_frame01[] = {
0x01,
0xff,
0x05,
0xfc,
0x02,
0xff,
0x04,
0xfb,
0x01,
0xff,
0x06,
0xfc,
0x02,
0xff,
0x03,
0xfa,
0xfc,
0x01,
0xe3,
0xe4,
0xff,
0x04,
0xf4,
0xeb,
0x01,
0xff,
0xfc,
0xf1,
0x05,
0x02,
0x02,
0xf2,
0xf4,
0x03,
0xf8,
0x13,
0xfb,
0x04,
0xfa,
0x12,
0xfa,
0x0e,
0x02,
0x14,
0xf7,
0x12,
0x01,
0x13,
0x35,
0x01,
0x49,
0x08,
0x3b,
0x01,
0x4c,
0x0a,
0x36,
0xfc,
0x4a,
0x09,
0x3b,
0xfe,
0x4c,
0x09,
0x01,
0x03,
0xff,
0xff,
0xfc,
0x01,
0xfd,
0xfe,
0x02,
0xfe,
0xff,
0x01,
0xfc,
0xfc,
0xfc,
0xff,
0x06,
0x01,
0xf8,
0x10,
0x07,
0x02,
0xf3,
0x10,
0x06,
0x00,
0xf2,
0x0e,
0x07,
0xff,
0xee,
0x10,
0x1b,
0xf8,
0x01,
0xf2,
0x0d,
0xfa,
0xf5,
0xed,
0x1e,
0xfb,
0x02,
0xf0,
0x0c,
0xf8,
0xf3,
0xea,
0xf9,
0xfc,
0x0f,
0x06,
0x01,
0xfd,
0x15,
0x0a,
0xf9,
0x02,
0x02,
0x01,
0x03,
0x06,
0x05,
0x05,
0x0e,
0xef,
0xed,
0xf4,
0xf6,
0xed,
0xf1,
0xf5,
0x08,
0xe8,
0xf8,
0xfa,
0xfd,
0xe5,
0xfc,
0xfa,
0xf7,
0x01,
0x08,
0x15,
0xed,
0x03,
0x13,
0x1a,
0xf8,
0xfb,
0x0a,
0x17,
0xed,
0xfc,
0x13,
0x19,
0x0f,
0xfc,
0xf9,
0x00,
0x11,
0x00,
0xfa,
0x01,
0x0e,
0x02,
0x04,
0x08,
0x14,
0x03,
0x03,
0x07,
0x01,
0x01,
0x08,
0x05,
0xfd,
0x02,
0x08,
0x08,
0x02,
0x02,
0xfc,
0xff,
0xfd,
0x04,
0xfb,
0x01,
0xea,
0xfe,
0xec,
0xf4,
0x00,
0x00,
0x06,
0x01,
0xee,
0xfc,
0xf0,
0xf7,
0x01,
0xfe,
0x04,
0x01,
0xff,
0x18,
0x06,
0x0c,
0xfe,
0x16,
0x07,
0x0d,
0x03,
0x14,
0x00,
0x06,
0xfa,
0x13,
0x06,
0x0a,
0x01,
0x11,
0xef,
0xea,
0xf9,
0x19,
0xf5,
0xef,
0x02,
0x14,
0xf2,
0xec,
0xf9,
0x18,
0xf6,
0xf0,
0xfb,
0xfd,
0x10,
0x05,
0xff,
0x01,
0x0b,
0x02,
0xfb,
0x02,
0x0e,
0x04,
0x00,
0x01,
0x0d,
0x02,
0xfb,
0x01,
0x1a,
0xfb,
0xfd,
0x00,
0x1a,
0xfc,
0xfa,
0x00,
0x1d,
0xff,
0xfe,
0x00,
0x1e,
0xff,
0x07,
0x02,
0x06,
0xfa,
0xfe,
0xfd,
0x0b,
0xfd,
0x03,
0x08,
0x03,
0xf7,
0xfc,
0x05,
0x05,
0xf9,
0xed,
0xfd,
0x37,
0x0f,
0xee,
0xff,
0x31,
0x0a,
0xeb,
0x00,
0x37,
0x0f,
0xef,
0x01,
0x32,
0x0a,
0xce,
0x01,
0x52,
0xfc,
0xd4,
0x00,
0x56,
0xff,
0xcc,
0xfd,
0x55,
0x00,
0xd2,
0xfd,
0x58,
0x01,
0x08,
0xf8,
0xfa,
0x08,
0x02,
0xfa,
0xfc,
0x0b,
0x0b,
0xfc,
0xfa,
0x07,
0x02,
0x01,
0x01,
0x0a,
0x00,
0xff,
0x05,
0xfb,
0x02,
0xff,
0x03,
0xfa,
0x00,
0xff,
0x04,
0xfa,
0x02,
0xff,
0x02,
0xf9,
0x13,
0xff,
0xf6,
0xf7,
0x0e,
0x00,
0xee,
0xf7,
0x15,
0xf8,
0xf2,
0xf6,
0x10,
0xfb,
0xeb,
0xf5,
0x02,
0x03,
0x2d,
0x25,
0xfa,
0x02,
0x2b,
0x23,
0x01,
0x07,
0x31,
0x24,
0xfc,
0x07,
0x2c,
0x21,
0xfc,
0x01,
0xfe,
0x01,
0xf4,
0x03,
0x00,
0x03,
0xfe,
0x00,
0xfd,
0x00,
0xf5,
0x04,
0xff,
0x02,
0x02,
0x07,
0xf3,
0xfc,
0xfe,
0x04,
0xf0,
0xfa,
0x01,
0x01,
0xf4,
0xfb,
0xff,
0x00,
0xf2,
0xf9,
0xfe,
0xdf,
0x12,
0x2a,
0xfb,
0xdd,
0x0e,
0x27,
0xfb,
0xdf,
0x08,
0x25,
0xf9,
0xdd,
0x03,
0x23,
0x21,
0x04,
0x21,
0x0d,
0x24,
0x02,
0x2a,
0x15,
0x20,
0x03,
0x23,
0x10,
0x24,
0x01,
0x2a,
0x17,
0xf7,
0xfe,
0x03,
0x09,
0xfb,
0xfe,
0x0a,
0x0d,
0xf7,
0xfe,
0x02,
0x0a,
0xfa,
0xfd,
0x08,
0x0d,
0xfa,
0xfd,
0xff,
0x08,
0xf8,
0xfe,
0xf4,
0xfc,
0xf7,
0xfb,
0xfe,
0x07,
0xf7,
0xfb,
0xf2,
0xfb,
0x00,
0x13,
0x0d,
0x2b,
0xf4,
0x13,
0x09,
0x28,
0xff,
0x14,
0x10,
0x2d,
0xf4,
0x15,
0x0c,
0x2a,
0xf0,
0xe5,
0xfb,
0xf9,
0x04,
0xe5,
0xff,
0xfb,
0xf5,
0x05,
0xf5,
0xf5,
0x06,
0x15,
0xf9,
0xf6,
0x01,
0xff,
0x04,
0xf9,
0x01,
0x00,
0x04,
0xf8,
0x01,
0x01,
0x05,
0xfa,
0x01,
0x01,
0x04,
0xf9,
0xf8,
0xff,
0xf7,
0xe3,
0x01,
0x04,
0xfe,
0xeb,
0xfe,
0x00,
0x06,
0xf3,
0x01,
0x06,
0x08,
0xf5,
0xf7,
0x10,
0xff,
0x21,
0xfd,
0x12,
0xff,
0x26,
0xfa,
0x15,
0x03,
0x25,
0xfc,
0x19,
0x04,
0x2a,
0x20,
0x00,
0x2c,
0x05,
0x23,
0x01,
0x2b,
0x05,
0x1f,
0xfd,
0x2b,
0x04,
0x22,
0xff,
0x2a,
0x03,
0x04,
0x03,
0xfe,
0xfe,
0xfe,
0x03,
0xfc,
0xfc,
0x03,
0x00,
0xfe,
0xfe,
0xfd,
0x00,
0xfd,
0xfd,
0x05,
0x00,
0xfc,
0x16,
0x05,
0x02,
0xf8,
0x15,
0x03,
0x00,
0xfa,
0x15,
0x05,
0xff,
0xf6,
0x14,
0x15,
0xf9,
0x01,
0xe8,
0x0b,
0xf8,
0x00,
0xe8,
0x19,
0xfd,
0xff,
0xe5,
0x0a,
0xf8,
0xff,
0xe6,
0xf8,
0xfa,
0x1d,
0x1a,
0x01,
0xfa,
0x24,
0x21,
0xfa,
0x08,
0x15,
0x15,
0xff,
0x0a,
0x19,
0x19,
0x0a,
0xf0,
0xfa,
0xf5,
0xfb,
0xef,
0xfc,
0xf7,
0x06,
0xf4,
0x10,
0x0d,
0x0a,
0xf5,
0x15,
0x0d,
0xfa,
0x02,
0xf9,
0x0d,
0xf6,
0x03,
0x00,
0x15,
0xfb,
0xf9,
0xf8,
0x0c,
0xf5,
0xf9,
0xfe,
0x13,
0x0f,
0x07,
0x02,
0x08,
0x0d,
0x08,
0xfb,
0x01,
0x0e,
0x0a,
0x0b,
0x17,
0x10,
0x07,
0x01,
0x0b,
0x02,
0xfe,
0x06,
0x05,
0xff,
0xff,
0x05,
0x06,
0x04,
0xfe,
0x02,
0x03,
0xff,
0x00,
0xff,
0x02,
0x02,
0x00,
0x02,
0xff,
0xfd,
0x04,
0x0e,
0x0b,
0x04,
0xfb,
0x02,
0x02,
0xff,
0xfd,
0x09,
0x07,
0xfe,
0x1a,
0x0b,
0x19,
0xff,
0x19,
0x0d,
0x1a,
0x01,
0x15,
0x03,
0x0d,
0xfc,
0x15,
0x07,
0x10,
0x00,
0x12,
0x00,
0xf1,
0xf7,
0x14,
0x04,
0xf5,
0x00,
0x1a,
0xfb,
0xe9,
0xf7,
0x19,
0xfd,
0xed,
0xfd,
0xfe,
0x05,
0x04,
0x00,
0x00,
0x02,
0xfe,
0xfd,
0x02,
0x06,
0x06,
0x03,
0x02,
0x06,
0x01,
0xfc,
0x01,
0x0e,
0xfa,
0xff,
0x01,
0x0e,
0xfb,
0xfb,
0xff,
0x0d,
0xfb,
0xff,
0xfe,
0x0e,
0xfb,
0xff,
0x02,
0x04,
0xfd,
0x02,
0xfc,
0x08,
0x03,
0x01,
0x0a,
0x0a,
0xff,
0x00,
0x04,
0x05,
0xfb,
0xf5,
0xff,
0x2c,
0x1a,
0xf4,
0x00,
0x27,
0x12,
0xf2,
0x00,
0x2b,
0x1a,
0xf5,
0x02,
0x27,
0x12,
0xe2,
0x00,
0x31,
0xf1,
0xe8,
0xfe,
0x39,
0xfa,
0xe1,
0xfb,
0x31,
0xf4,
0xe8,
0xfc,
0x37,
0xfb,
0x06,
0xf7,
0xf5,
0x03,
0x02,
0xfd,
0xf9,
0x09,
0x09,
0xfa,
0xf8,
0x05,
0x02,
0x00,
0xfc,
0x08,
0x02,
0xfe,
0x04,
0xfa,
0x02,
0xfe,
0x03,
0xf9,
0x00,
0x00,
0x03,
0xfa,
0x01,
0x00,
0x02,
0xfa,
0x12,
0xf9,
0xf8,
0xf4,
0x06,
0xfd,
0xf8,
0xf4,
0x13,
0xf7,
0xf9,
0xf8,
0x09,
0xfd,
0xf8,
0xf6,
0x00,
0x06,
0x1d,
0x2f,
0xfa,
0x04,
0x1a,
0x2d,
0xff,
0x07,
0x21,
0x32,
0xfb,
0x06,
0x1f,
0x2f,
0x02,
0x01,
0xfe,
0x00,
0xf8,
0x03,
0x00,
0x01,
0x04,
0x02,
0xfc,
0xff,
0xf9,
0x06,
0xfd,
0x00,
0xff,
0x04,
0xfa,
0xfb,
0xfb,
0x03,
0xf7,
0xfb,
0xfd,
0x00,
0xf5,
0xf5,
0xfa,
0x00,
0xf3,
0xf5,
0xfd,
0xc3,
0x11,
0x3f,
0xfc,
0xc1,
0x0e,
0x3b,
0xfb,
0xc2,
0x0b,
0x38,
0xfa,
0xc0,
0x09,
0x35,
0x13,
0x05,
0x13,
0x10,
0x16,
0x04,
0x1b,
0x21,
0x12,
0x04,
0x13,
0x10,
0x16,
0x01,
0x1b,
0x22,
0xf8,
0xfc,
0x01,
0x0b,
0xfc,
0xfc,
0x05,
0x0f,
0xf8,
0xfe,
0x01,
0x0c,
0xfc,
0xfd,
0x06,
0x12,
0xfb,
0xfd,
0xfe,
0x07,
0xfd,
0xfa,
0xf2,
0xf2,
0xf9,
0xfa,
0xfb,
0x03,
0xfd,
0xf8,
0xf1,
0xf3,
0x02,
0x20,
0x0a,
0x40,
0xf8,
0x1f,
0x09,
0x3a,
0x00,
0x23,
0x0b,
0x41,
0xf8,
0x22,
0x0b,
0x3e,
0xed,
0xe6,
0xff,
0xfc,
0x05,
0xec,
0xff,
0xfc,
0xed,
0x01,
0xf6,
0xf5,
0x0b,
0x0d,
0xf3,
0xf1,
0x03,
0x06,
0x44,
0x2f,
0xfc,
0x06,
0x48,
0x31,
0x04,
0x00,
0x44,
0x2f,
0xfe,
0x00,
0x48,
0x31};
