/* SPDX-License-Identifier: GPL-2.0 */
/*
 * Copyright (c) 2020 MediaTek Inc.
 *
 * Author: Ya-Wen Hsu <Ya-Wen.Hsu@mediatek.com>
 *
 */
char fdvt_kernel_bias_loop02_1_frame01[] = {
0x05,
0x0b,
0xfd,
0xfd,
0x08,
0x00,
0xf6,
0xfc,
0x03,
0xf7,
0x02,
0x00,
0x0e,
0x07,
0x04,
0xfe,
0xe9,
0xf9,
0x17,
0x02,
0xf0,
0xfd,
0xf8,
0xf8,
0x04,
0x01,
0x02,
0x0a,
0xff,
0x02,
0x08,
0x08,
0x02,
0xfa,
0x0c,
0x00,
0xfa,
0x09,
0x05,
0x06,
0x00,
0xfe,
0xf1,
0xfd,
0xff,
0xfa,
0xe3,
0xfd,
0xf9,
0xf6,
0xf8,
0xf9,
0xfe,
0x03,
0x0a,
0xf6,
0x04,
0xed,
0xe9,
0x0f,
0x03,
0xff,
0xf6,
0xfa,
0xee,
0xea,
0xec,
0xee,
0xf4,
0xeb,
0xf3,
0xf1,
0xef,
0xf5,
0xea,
0xeb,
0xfa,
0xf6,
0xf7,
0x01,
0x08,
0xf7,
0xff,
0x06,
0xf6,
0xfc,
0x05,
0xf3,
0x01,
0x08,
0xfd,
0x02,
0x05,
0x09,
0x15,
0x01,
0x12,
0x03,
0x08,
0xfe,
0xf9,
0xf6,
0xf1,
0xf2,
0x0f,
0x12,
0x16,
0xf9,
0xfd,
0xfd,
0xf1,
0xf1,
0x07,
0xfa,
0xf3,
0x01,
0x02,
0xfe,
0x01,
0x00,
0xfa,
0x02,
0x03,
0x02,
0x0a,
0x0b,
0x09,
0x0d,
0x02,
0xfc,
0x01,
0x06,
0xec,
0xf7,
0xf4,
0xff,
0xfc,
0x05,
0xf1,
0x02,
0xf7,
0x02,
0x0f,
0x09,
0x03,
0xfd,
0x15,
0x38,
0x0a,
0xff,
0x1d,
0xe5,
0xce,
0xce,
0xbd,
0x01,
0xfe,
0x06,
0xfd,
0xf4,
0xeb,
0xfd,
0x0f,
0xf2,
0xf8,
0x00,
0xfa,
0xea,
0x17,
0xf6,
0xdd,
0x12,
0x0e,
0xf6,
0x19,
0x0b,
0x02,
0xfd,
0x01,
0xfe,
0x00,
0x04,
0xfe,
0xfd,
0x02,
0xfe,
0xf9,
0x0a,
0x01,
0xf7,
0x05,
0x00,
0x02,
0x02,
0x04,
0x00,
0xfc,
0x18,
0xe8,
0x01,
0x0b,
0xd9,
0xea,
0x17,
0xf5,
0x04,
0x0c,
0xf2,
0x0b,
0x03,
0xfc,
0xfc,
0xfc,
0xfe,
0xf9,
0xfd,
0x00,
0xf5,
0xfa,
0x04,
0xff,
0x01,
0x05,
0x0a,
0xef,
0x0a,
0x07,
0xfb,
0xf8,
0xff,
0x0e,
0xf6,
0x01,
0x09,
0x04,
0x0c,
0x06,
0xff,
0xf4,
0x08,
0xe7,
0xfd,
0x00,
0xfb,
0x00,
0x09,
0xf1,
0x08,
0x03,
0x13,
0x09,
0x07,
0x0a,
0x03,
0xf8,
0xfb,
0x03,
0xfc,
0x06,
0x04,
0x01,
0x02,
0x02,
0x01,
0xff,
0x02,
0xfd,
0x00,
0xfb,
0xe8,
0xeb,
0xf3,
0xff,
0xf3,
0x04,
0x01,
0xf0,
0x02,
0xf8,
0xff,
0xf2,
0x00,
0x08,
0xfe,
0xff,
0x08,
0x02,
0x04,
0x03,
0x04,
0xcc,
0xc4,
0xec,
0xec,
0xf0,
0x03,
0x18,
0x1e,
0x19,
0xf8,
0xfa,
0xef,
0x02,
0x07,
0x0e,
0x0b,
0xf9,
0x0a,
0x0d,
0x03,
0xfa,
0x01,
0xf7,
0xf8,
0x04,
0x02,
0xf3,
0x0e,
0x08,
0x0c,
0xfb,
0x00,
0x00,
0x00,
0x00,
0x00,
0x04,
0x00,
0x04,
0x08,
0x08,
0x07,
0x0b,
0x00,
0xfa,
0x02,
0xfd,
0x00,
0x02,
0x04,
0x03,
0x04,
0x14,
0xf9,
0x03,
0x18,
0xfb,
0xe0,
0xe8,
0xd0,
0xfe,
0xf8,
0xf4,
0xfa,
0xff,
0xfe,
0x04,
0x0a,
0x00,
0x03,
0x06,
0x03,
0x04,
0xfe,
0x05,
0x03,
0xff,
0x01,
0x07,
0xff,
0xf7,
0x00,
0xfe,
0xff,
0x03,
0xf9,
0xfc,
0xfe,
0xfd,
0xfd,
0xff,
0x01,
0x0e,
0x01,
0x1f,
0x08,
0x10,
0x0d,
0xfe,
0x05,
0x0b,
0x03,
0x01,
0x03,
0xfe,
0xfe,
0x00,
0xfd,
0xf6,
0xf8,
0xfc,
0x01,
0xff,
0x01,
0x01,
0xff,
0x01,
0xfd,
0xfd,
0xfe,
0xfe,
0xfd,
0xfb,
0xf9,
0x01,
0x00,
0x01,
0xf4,
0xf0,
0x02,
0xf1,
0xf1,
0x04,
0x00,
0xfe,
0xfc,
0x01,
0x00,
0x03,
0xfd,
0x02,
0xfe,
0x02,
0x03,
0xf4,
0xf2,
0x05,
0x08,
0xff,
0xff,
0x0d,
0x08,
0x05,
0x0f,
0x16,
0x18,
0xfd,
0xf4,
0xf2,
0x05,
0x15,
0xf1,
0xf8,
0x07,
0xfe,
0xee,
0xf9,
0x07,
0x0c,
0xf9,
0xf9,
0xf5,
0xf2,
0x00,
0xf2,
0xfd,
0x06,
0x01,
0xf9,
0x04,
0x08,
0x00,
0xfe,
0x03,
0xf8,
0x03,
0xfc,
0xe9,
0xe8,
0xfe,
0xfd,
0xf2,
0xf7,
0xf4,
0xf5,
0xfb,
0x0d,
0xfd,
0xee,
0xfd,
0x03,
0x09,
0x01,
0x03,
0xf6,
0xfb,
0xf7,
0xfa,
0x07,
0xfa,
0x01,
0x03,
0xff,
0x04,
0x02,
0x06,
0x06,
0x01,
0x06,
0x03,
0xf7,
0x07,
0xf9,
0x04,
0xfe,
0x06,
0xfb,
0x06,
0x01,
0x00,
0xfc,
0x01,
0xf7,
0xff,
0x01,
0x0f,
0x0d,
0x00,
0xf8,
0xfa,
0x00,
0x01,
0xfd,
0xfe,
0x21,
0x01,
0xf9,
0xfe,
0x03,
0x03,
0xfe,
0xec,
0x06,
0xff,
0xfb,
0xfc,
0xfe,
0x01,
0xfd,
0x03,
0x02,
0xff,
0x05,
0x01,
0x03,
0x02,
0x02,
0xfd,
0x0a,
0x00,
0xfb,
0xf6,
0xf6,
0xfa,
0xf6,
0xe8,
0x04,
0x0e,
0xed,
0xf8,
0x04,
0xeb,
0x05,
0x02,
0x02,
0x04,
0xfb,
0x04,
0x01,
0x03,
0x04,
0x01,
0xfd,
0xf6,
0x07,
0x02,
0x07,
0xf6,
0x0a,
0x00,
0xf8,
0xfc,
0xf6,
0x03,
0x01,
0xed,
0xfc,
0xfa,
0xf3,
0x10,
0x07,
0xf4,
0xfe,
0x0e,
0xf7,
0x08,
0x07,
0x0a,
0x05,
0xf5,
0x03,
0x04,
0x01,
0x08,
0x01,
0xfb,
0x03,
0xf5,
0x02,
0xfc,
0xfd,
0x07,
0x0a,
0x00,
0xf4,
0xf6,
0xfc,
0xf4,
0x06,
0xff,
0xff,
0x03,
0x10,
0x01,
0xf8,
0x09,
0x14,
0xf9,
0x06,
0x05,
0x03,
0xfd,
0xf8,
0x02,
0x0a,
0xfa,
0x02,
0x01,
0xfd,
0x01,
0x0a,
0x08,
0x02,
0x0e,
0xfb,
0xfc,
0x0a,
0x03,
0xfd,
0xfb,
0xfd,
0xfa,
0xfc,
0x05,
0xfe,
0x03,
0x06,
0x0d,
0x08,
0x03,
0x0f,
0xf8,
0x11,
0x07,
0x02,
0x01,
0xf2,
0x06,
0x12,
0x06,
0x08,
0x08,
0x08,
0xfb,
0x01,
0x05,
0xfe,
0xeb,
0x06,
0x07,
0xfa,
0x02,
0x01,
0x01,
0xfe,
0x00,
0xfe,
0xfe,
0x03,
0x03,
0x07,
0x04,
0x00,
0xfe,
0x0e,
0x0c,
0xf9,
0x14,
0x05,
0x01,
0x05,
0x0d,
0xf4,
0xfe,
0xfa,
0xfe,
0x01,
0xfe,
0x00,
0x0b,
0xfb,
0x07,
0x06,
0x06,
0xfa,
0xfa,
0x02,
0xfe,
0x01,
0x03,
0x04,
0xf9,
0xf8,
0xf3,
0xfa,
0xf7,
0x02,
0x09,
0x06,
0xfd,
0xf4,
0x06,
0x01,
0x09,
0x09,
0xfa,
0xf6,
0x16,
0xf3,
0xfe,
0x07,
0x03,
0xf7,
0xfe,
0x05,
0xfb,
0x00,
0x04,
0xfd,
0x00,
0xfe,
0x05,
0xfe,
0x08,
0xf7,
0x00,
0xf5,
0x00,
0xfe,
0x05,
0x02,
0x00,
0xfc,
0xf3,
0xf9,
0xf5,
0x06,
0x09,
0xfe,
0x02,
0x0d,
0xf7,
0x09,
0xff,
0x01,
0x02,
0x05,
0x03,
0xfc,
0x06,
0x0a,
0x05,
0x04,
0x00,
0x02,
0x06,
0x04,
0x05,
0x02,
0x06,
0xfe,
0xff,
0x08,
0x02,
0xf7,
0xe7,
0xfb,
0xf8,
0xf9,
0x08,
0x01,
0x03,
0x06,
0x01,
0x00,
0xfa,
0xf6,
0xef,
0xfc,
0xff,
0xff,
0xfe,
0xfd,
0xfd,
0xfe,
0xfc,
0x05,
0xf6,
0xe8,
0x03,
0x00,
0xec,
0x04,
0x05,
0xff,
0x01,
0x03,
0x00,
0x01,
0x02,
0x00,
0xfe,
0x00,
0x00,
0x03,
0x02,
0x07,
0x03,
0x13,
0x0b,
0xde,
0xfc,
0x19,
0x16,
0x1b,
0x05,
0xf1,
0xef,
0x00,
0x05,
0xf9,
0xfb,
0x08,
0x06,
0x02,
0xf4,
0x06,
0x07,
0x0a,
0x09,
0xfe,
0xfe,
0x02,
0x07,
0x05,
0x06,
0x00,
0xf6,
0x01,
0xfa,
0x01,
0x03,
0x02,
0x03,
0xff,
0x01,
0x06,
0x15,
0x19,
0x03,
0x00,
0x10,
0xfc,
0xec,
0xf7,
0x05,
0xf7,
0xfe,
0xfb,
0xf6,
0x00,
0x04,
0xfb,
0xff,
0x04,
0xf8,
0x03,
0x03,
0x03,
0x08,
0x04,
0x07,
0x06,
0x05,
0x04,
0x07,
0xfb,
0x08,
0x0a,
0xf0,
0x05,
0x06,
0xff,
0x0f,
0x07,
0x03,
0x0a,
0xf7,
0xfe,
0x07,
0x07,
0x0f,
0x0d,
0x06,
0x0e,
0x06,
0xfe,
0x07,
0x05,
0xec,
0x07,
0xf2,
0xd5,
0xfa,
0xf3,
0xfa,
0xf7,
0xfa,
0x08,
0x10,
0x05,
0x10,
0x0e,
0x06,
0x03,
0x03,
0xfe,
0xfd,
0x06,
0x05,
0xfe,
0x09,
0xf9,
0x0b,
0x05,
0x05,
0xff,
0xf7,
0x0f,
0x10,
0x13,
0x06,
0xfe,
0x0b,
0x02,
0xf5,
0xf9,
0x05,
0x08,
0x01,
0xfe,
0x03,
0x00,
0x01,
0x01,
0x02,
0xff,
0x00,
0x00,
0x0a,
0x11,
0x00,
0xfa,
0xfe,
0x00,
0x13,
0xee,
0xf6,
0x13,
0xfe,
0xf3,
0x09,
0x01,
0xf6,
0x07,
0x09,
0xff,
0x01,
0xf1,
0xec,
0x06,
0x09,
0x06,
0x00,
0xf8,
0xf7,
0x06,
0xf6,
0xf6,
0xf9,
0x00,
0xff,
0x0e,
0xfe,
0xf4,
0xfb,
0xfd,
0xf2,
0x00,
0x01,
0x05,
0xfd,
0x04,
0x13,
0xf8,
0x0e,
0x17,
0x10,
0x03,
0x0a,
0xf3,
0xf6,
0xf3,
0xeb,
0x09,
0x0a,
0xe9,
0x00,
0x02,
0xec,
0x04,
0xfc,
0xf0,
0x0a,
0x06,
0x08,
0xf2,
0xf9,
0x01,
0xf7,
0xfb,
0x05,
0xfd,
0x06,
0xfe,
0xf0,
0xf1,
0xfd,
0xe8,
0xef,
0xee,
0xf7,
0x05,
0xfb,
0xf4,
0x02,
0x01,
0xfe,
0xfc,
0xfa,
0xff,
0x02,
0xfc,
0x00,
0xfc,
0xfe,
0x06,
0x07,
0x04,
0x01,
0x15,
0x17,
0x00,
0xfb,
0x00,
0xf7,
0x05,
0x0b,
0xfb,
0xff,
0xfe,
0x02,
0xfe,
0x05,
0x04,
0x02,
0xf9,
0x04,
0x02,
0x00,
0xff,
0xf5,
0xfc,
0x08,
0x07,
0xf9,
0x07,
0x07,
0x01,
0x03,
0x02,
0xfd,
0x06,
0x02,
0xff,
0x00,
0xfe,
0x00,
0x01,
0xfe,
0x02,
0x01,
0xfc,
0x02,
0x00,
0xf8,
0xf8,
0x03,
0xf4,
0xfd,
0xff,
0x07,
0x07,
0x08,
0xe3,
0x07,
0x05,
0xee,
0x06,
0x0b,
0x04,
0x05,
0x00,
0x00,
0x00,
0x00,
0x00,
0x00,
0x00,
0x00,
0x00,
0x00,
0x00,
0x00,
0x00,
0x00,
0x00,
0x00};
