/* SPDX-License-Identifier: GPL-2.0 */
/*
 * Copyright (c) 2020 MediaTek Inc.
 *
 * Author: Ya-Wen Hsu <Ya-Wen.Hsu@mediatek.com>
 *
 */

char fdvt_kernel_bias_loop58_1_frame01[] = {
0xd0,
0xe6,
0x08,
0x02,
0x09,
0x01,
0xd3,
0xf7,
0x01,
0xf2,
0x0e,
0x0b,
0x17,
0xf1,
0x22,
0x2c,
0xd0,
0x8f,
0xdf,
0x21,
0x09,
0x27,
0x00,
0xfe,
0xff,
0xff,
0xfd,
0xfe,
0xfe,
0xfc,
0xfc,
0x0c,
0x27,
0xe2,
0xcb,
0xe7,
0xfc,
0x01,
0x08,
0x26,
0x2c,
0x24,
0x0b,
0x1e,
0x32,
0xee,
0x02,
0x1b,
0x1a,
0xe2,
0xf6,
0x04,
0xbf,
0xf1,
0x10,
0x45,
0xee,
0xe8,
0x07,
0xf2,
0xea,
0xf1,
0xf6,
0xf4,
0x18,
0xe9,
0xe1,
0x1d,
0xeb,
0xe4,
0x22,
0x02,
0x01,
0x25,
0x0a,
0x15,
0x09,
0xfa,
0xff,
0xf1,
0xf1,
0xd8,
0xe3,
0xf6,
0x13,
0x23,
0x1b,
0x12,
0x20,
0x23,
0x14,
0x19,
0x1d,
0x23,
0x03,
0x38,
0x03,
0x00,
0x02,
0x0c,
0x08,
0xfe,
0x06,
0x04,
0xd8,
0xfa,
0x11,
0xe3,
0xfe,
0x1d,
0xf1,
0x11,
0xdf,
0xe5,
0xff,
0x08,
0xf5,
0x01,
0x00,
0xed,
0xf6,
0x12,
0x10,
0x0f,
0x0c,
0x20,
0xf7,
0x15,
0x00,
0x05,
0x0b,
0x0a,
0x04,
0x0c,
0x00,
0x00,
0x00,
0xeb,
0x06,
0xfa,
0xdb,
0xf3,
0x02,
0xf2,
0xe5,
0xf3,
0xf9,
0xfe,
0xfc,
0x08,
0xfb,
0x01,
0x00,
0xfa,
0x03,
0x10,
0x03,
0x11,
0x0c,
0x02,
0xfb,
0xc8,
0xf8,
0x21,
0x19,
0x16,
0xff,
0x04,
0x02,
0x02,
0x0b,
0x08,
0xfd,
0x02,
0x00,
0xf9,
0x05,
0x04,
0xe3,
0xfc,
0xff,
0xfa,
0x05,
0xfe,
0x05,
0x0e,
0xf6,
0xfc,
0x0a,
0xff,
0x04,
0x10,
0x0b,
0xe3,
0x0e,
0x12,
0xec,
0xfd,
0xff,
0x2f,
0x00,
0xf8,
0x0e,
0xf7,
0xe2,
0xf2,
0x00,
0x0a,
0x00,
0x00,
0x00,
0x00,
0x00,
0x00,
0x00,
0x00,
0x00,
0x00,
0x00,
0x00,
0x00,
0x00,
0x00,
0x00,
0x00,
0x00,
0x00,
0x00,
0x00,
0x00,
0x00,
0x00,
0x00,
0x00,
0x00,
0x00,
0x00,
0x00,
0x00,
0x00};
