/* SPDX-License-Identifier: GPL-2.0 */
/*
 * Copyright (c) 2020 MediaTek Inc.
 *
 * Author: Ya-Wen Hsu <Ya-Wen.Hsu@mediatek.com>
 *
 */
char fdvt_kernel_bias_loop65_0_frame01[] = {
0x0b,
0x05,
0x02,
0x00,
0x0f,
0x18,
0x07,
0x0f,
0xef,
0x29,
0x20,
0x15,
0x25,
0xde,
0xe1,
0xfa,
0x18,
0x0b,
0x09,
0x19,
0xea,
0xe1,
0xff,
0x05,
0xff,
0xea,
0xff,
0xfa,
0xf1,
0xf3,
0xfb,
0x02,
0x0b,
0x16,
0xf8,
0x02,
0x07,
0x00,
0xfd,
0xfc,
0xf9,
0xf8,
0x08,
0x09,
0x00,
0x10,
0x0e,
0x09,
0x0f,
0x1f,
0x22,
0x14,
0xff,
0xfc,
0x16,
0x06,
0xee,
0x03,
0xe6,
0xdf,
0x13,
0xff,
0x12,
0x0c,
0xfe,
0xf6,
0xfa,
0x06,
0x07,
0xff,
0xfc,
0xe0,
0xe7,
0x0b,
0xfc,
0x0f,
0x04,
0x17,
0xff,
0xf6,
0xcc,
0xdf,
0x06,
0x1c,
0xed,
0x05,
0x18,
0x0e,
0xde,
0x06,
0xf0,
0xf9,
0x0d,
0x07,
0xf8,
0x04,
0x0a,
0xf2,
0x1b,
0x0e,
0xff,
0x0a,
0xef,
0xf8,
0x0f,
0x19,
0x12,
0x0f,
0xf0,
0x07,
0x0c,
0x07,
0xf5,
0xf3,
0xfc,
0xf8,
0x02,
0x0a,
0x11,
0xfe,
0x0a,
0x00,
0xf4,
0xf6,
0xe6,
0xfa,
0xea,
0xf9,
0xf3,
0x0d,
0x01,
0xf4,
0xfe,
0xee,
0xe9,
0x0a,
0xea,
0x11,
0xee,
0x31,
0x1c,
0x09,
0x0e,
0xdc,
0x27,
0x1d,
0xf2,
0x19,
0x30,
0x05,
0xed,
0xd1,
0x04,
0x05,
0x0a,
0x07,
0xed,
0x03,
0xf7,
0xec,
0x15,
0x1b,
0x0b,
0x09,
0xf7,
0xf7,
0x11,
0xfb,
0xf9,
0xf6,
0x00,
0xf6,
0xfe,
0xff,
0xfa,
0x17,
0xf5,
0x0b,
0xf7,
0xfc,
0x01,
0x06,
0xfe,
0x0a,
0x00,
0xf7,
0xf7,
0xf6,
0xff,
0xf0,
0xfb,
0x1a,
0x03,
0x1e,
0x0e,
0xf4,
0xfb,
0x02,
0xfd,
0xf1,
0xfa,
0xf2,
0xe6,
0x18,
0xfd,
0xe4,
0xf5,
0x0d,
0xf1,
0xf8,
0xf5,
0x04,
0xf2,
0xf9,
0xf8,
0xea,
0xda,
0xf7,
0xf3,
0x0a,
0x01,
0x13,
0x11,
0x04,
0xec,
0xf5,
0x0b,
0x05,
0x0a,
0x09,
0x11,
0x03,
0xfe,
0x02,
0x05,
0x0a,
0x0e,
0xf2,
0xf0,
0xfa,
0x07,
0x1b,
0x11,
0x03,
0x04,
0x16,
0xe5,
0xfa,
0x00,
0xf9,
0x03,
0xf8,
0x18,
0xfc,
0xfe,
0x09,
0x01,
0x03,
0xfb,
0xf7,
0x13,
0x12,
0xfd,
0x07,
0xfc,
0x04,
0xfe,
0x12,
0x11,
0xfb,
0x0e,
0x09,
0xff,
0x1a,
0x1e,
0x10,
0x08,
0xfe,
0x09,
0x00,
0xf3,
0xff,
0xf8,
0xf3,
0xf7,
0xe9,
0xf0,
0xef,
0x08,
0x28,
0xf7,
0xf1,
0xf9,
0xf6,
0x03,
0xdc,
0xef,
0xfa,
0x06,
0x04,
0xec,
0x23,
0xf7,
0xdd,
0xe8,
0x0a,
0x01,
0xf4,
0x09,
0x09,
0xf8,
0xfc,
0xfa,
0xec,
0x0a,
0x00,
0x08,
0xfb,
0xfa,
0xf7,
0x01,
0x1b,
0xdb,
0xed,
0x1d,
0xf2,
0xf4,
0x12,
0x03,
0x0c,
0x0e,
0xfe,
0xfc,
0x01,
0xfe,
0x19,
0xe8,
0xf3,
0x12,
0xf2,
0xf1,
0xff,
0xff,
0x04,
0x1b,
0xf7,
0x05,
0x17,
0x12,
0xf7,
0xfe,
0x22,
0x09,
0x04,
0x06,
0x07,
0xfc,
0x11,
0x05,
0xe6,
0xe0,
0x01,
0xde,
0xf3,
0xf8,
0x14,
0x36,
0x0f,
0x08,
0xec,
0xeb,
0xf9,
0x08,
0x11,
0x0d,
0x00,
0x01,
0xf4,
0xec,
0xf2,
0xdd,
0x05,
0xf7,
0xf0,
0x00,
0x2b,
0x14,
0x00,
0x12,
0x04,
0x07,
0xef,
0xe6,
0x07,
0x0a,
0xef,
0xea,
0x08,
0xfc,
0x1d,
0xfc,
0xff,
0x07,
0x12,
0x04,
0x02,
0xf7,
0xfc,
0xe1,
0x04,
0x00,
0xfd,
0xfd,
0x02,
0xfb,
0x01,
0x05,
0xe7,
0x03,
0xee,
0xe8,
0x03,
0xfe,
0x07,
0xef,
0xfb,
0xf5,
0xf4,
0x0a,
0x01,
0xf9,
0x15,
0x1d,
0x16,
0x07,
0x1e,
0x1d,
0xd2,
0xfa,
0xca,
0xf0,
0xfc,
0x07,
0x0f,
0x00,
0xdc,
0xff,
0xf6,
0x0f,
0xfd,
0xfc,
0x04,
0xf1,
0xfc,
0xff,
0x0d,
0x19,
0x0f,
0xfd,
0xf9,
0x0a,
0x02,
0x08,
0xe4,
0xf7,
0x02,
0x16,
0xf9,
0xf7,
0x0c,
0x04,
0x03,
0xf4,
0xfc,
0x03,
0xff,
0x06,
0xf0,
0xf6,
0xfc,
0x15,
0x13,
0x0d,
0x06,
0xea,
0xf7,
0xf8,
0xf1,
0xe7,
0xf9,
0x1c,
0xf1,
0x0b,
0x12,
0x03,
0x0e,
0xf0,
0xfb,
0xff,
0xfb,
0xe9,
0xf5,
0xfc,
0xf8,
0xf3,
0xfa,
0xec,
0x10,
0x16,
0x09,
0xff,
0xfa,
0xeb,
0x1f,
0xfb,
0x00,
0xf5,
0xe5,
0x00,
0x08,
0xee,
0xea,
0xf1,
0xfb,
0xd2,
0xf7,
0xff,
0x02,
0x09,
0xf5,
0xe9,
0x04,
0xdd,
0xf4,
0x28,
0x1e,
0x11,
0xdc,
0xf2,
0x0d,
0xe1,
0xf6,
0x04,
0xfb,
0x11,
0x07,
0xf5,
0xf8,
0x0a,
0x0a,
0xf8,
0x0c,
0xfb,
0xfb,
0xf7,
0xf0,
0x05,
0xec,
0x15,
0x0f,
0x08,
0x03,
0x1b,
0x17,
0x0f,
0x17,
0x15,
0xfe,
0x0d,
0x11,
0xf5,
0xf7,
0x04,
0xfe,
0xf0,
0xf0,
0xfb,
0x2e,
0xeb,
0x01,
0x1b,
0xba,
0xf6,
0xf3,
0x06,
0x01,
0x0d,
0x0f,
0xe8,
0xf6,
0x14,
0x26,
0x05,
0xf6,
0x01,
0xe5,
0xfb,
0xf9,
0xf2,
0xe2,
0x02,
0xe9,
0x08,
0xfb,
0x00,
0x08,
0x01,
0xeb,
0xf3,
0x0d,
0xfe,
0xe5,
0x17,
0x04,
0xf0,
0xf1,
0x00,
0xfa,
0x0c,
0xf4,
0x03,
0x00,
0xfc,
0xff,
0x0a,
0xf7,
0x1f,
0x09,
0xe6,
0x09,
0x05,
0xe4,
0xed,
0x02,
0x01,
0x00,
0x00,
0x0e,
0x03,
0x0d,
0xf6,
0xfe,
0xf7,
0xfa,
0x03,
0x03,
0x04,
0x12,
0xef,
0xfe,
0xf2,
0xf3,
0x09,
0xf7,
0x07,
0x15,
0xe7,
0x05,
0xfb,
0x00,
0x03,
0x03,
0xf4,
0x06,
0xdf,
0xec,
0xf8,
0x06,
0x0a,
0xf9,
0x01,
0x03,
0xe2,
0xfb,
0xf7,
0xe8,
0xf2,
0x11,
0x09,
0x20,
0x05,
0xee,
0xfd,
0xfa,
0xf1,
0x04,
0xeb,
0xfe,
0x04,
0xfa,
0x0a,
0x00,
0x01,
0x09,
0xfd,
0x0c,
0x0d,
0xf8,
0x00,
0xf0,
0xfd,
0x01,
0xf2,
0xfb,
0x00,
0xfa,
0xf4,
0xfd,
0x10,
0xfe,
0x16,
0x17,
0xef,
0x12,
0x1e,
0x03,
0x04,
0x07,
0xfb,
0xdf,
0xfa,
0xed,
0xfa,
0x1a,
0xfe,
0xe5,
0xeb,
0xe0,
0xf4,
0xf4,
0x08,
0xfd,
0xf8,
0x09,
0xe8,
0x2a,
0x14,
0x04,
0x06,
0x09,
0xe7,
0x09,
0x0b,
0x17,
0x0f,
0x09,
0x09,
0xf8,
0xf8,
0x0c,
0x07,
0x0b,
0xe6,
0xe1,
0xfc,
0xfd,
0xe3,
0x0f,
0x10,
0xec,
0xf0,
0x05,
0x0c,
0xf5,
0x12,
0x09,
0x0b,
0x07,
0x0d,
0x19,
0x1f,
0xf5,
0xfe,
0x07,
0xdd,
0xf0,
0x06,
0x0d,
0x16,
0xf0,
0x0d,
0x0d,
0x08,
0x12,
0xfc,
0x01,
0xf9,
0xe7,
0xff,
0xf1,
0x09,
0xef,
0xf3,
0x08,
0xf4,
0xf1,
0x15,
0x07,
0xff,
0xf8,
0x15,
0x0e,
0xfe,
0xff,
0x0c,
0xeb,
0xeb,
0xf4,
0xf4,
0x11,
0xf4,
0xee,
0xea,
0x0b,
0xf6,
0xf0,
0x30,
0x12,
0xe1,
0x15,
0x1a,
0xec,
0x08,
0x13,
0x1a,
0x0d,
0x05,
0x12,
0xf8,
0xf8,
0xfd,
0x14,
0xf7,
0x08,
0x00,
0x15,
0xf1,
0x0e,
0x1e,
0xef,
0xf8,
0xf8,
0x18,
0x01,
0xf7,
0x13,
0xf6,
0xfb,
0x17,
0xdf,
0x06,
0x08,
0xfa,
0xec,
0xeb,
0x02,
0x06,
0x01,
0x04,
0x05,
0xf7,
0x05,
0xeb,
0x13,
0xea,
0x00,
0xf3,
0x01,
0xf2,
0xfa,
0x20,
0x13,
0xfe,
0xf0,
0xf1,
0xf8,
0x1b,
0xce,
0x01,
0x1b,
0x0d,
0x0f,
0x01,
0xf4,
0xfd,
0x0f,
0x10,
0x0f,
0xf3,
0x1b,
0x0c,
0x10,
0x14,
0x08,
0xf6,
0xd6,
0xf2,
0x08,
0xfa,
0xf6,
0xf7,
0x05,
0xf6,
0xe9,
0x08,
0x20,
0x13,
0xfe,
0xf0,
0xf9,
0xf4,
0xf6,
0xf6,
0xf4,
0x09,
0x3d,
0x18,
0xfb,
0x2a,
0xe3,
0xe7,
0x0e,
0x0a,
0xf0,
0x04,
0x06,
0xf0,
0xf2,
0xfa,
0x0c,
0x08,
0x1b,
0x0c,
0x10,
0x09,
0xf4,
0xf2,
0xf8,
0xff,
0x07,
0x0c,
0x08,
0x01,
0xf3,
0x0a,
0xeb,
0x04,
0x21,
0x0d,
0xff,
0x17,
0x11,
0xf8,
0x09,
0x12,
0x04,
0xf1,
0xf5,
0x07,
0xf6,
0xe8,
0xfe,
0x02,
0x0f,
0x1a,
0x0e,
0x0a,
0xff,
0xfe,
0xed,
0xf1,
0xfd,
0x14,
0x11,
0x02,
0x03,
0xf0,
0x02,
0xfe,
0xfd,
0xf3,
0x07,
0xec,
0xed,
0xfc,
0xf7,
0x0c,
0xf8,
0x13,
0xfd,
0xfd,
0x1c,
0x0c,
0x09,
0xfd,
0x01,
0x01,
0x08,
0x14,
0x10,
0x03,
0x05,
0xed,
0x04,
0xf8,
0xef,
0xed,
0xdc,
0x05,
0xf3,
0x04,
0x02,
0x25,
0x14,
0x02,
0x1e,
0x11,
0x0b,
0x19,
0x1d,
0xec,
0x12,
0x18,
0x01,
0x01,
0xe7,
0xe1,
0xfb,
0x0f,
0x0d,
0x14,
0x1e,
0x00,
0x01,
0x00,
0x03,
0xfa,
0xff,
0x0f,
0x14,
0x0e,
0xff,
0x17,
0xfc,
0x02,
0x16,
0x01,
0xf4,
0x04,
0xeb,
0xdd,
0x09,
0xe7,
0xd2,
0x04,
0xd9,
0x08,
0x08,
0xf5,
0xf7,
0xdd,
0xec,
0xed,
0xee,
0x04,
0xf7,
0xe7,
0xe7,
0x00,
0xf7,
0xf1,
0x06,
0x06,
0x04,
0xfd,
0x04,
0xf8,
0x13,
0x02,
0x19,
0x08,
0xf4,
0x1a,
0x0e,
0xf9,
0x07,
0xec,
0x09,
0xcf,
0xf7,
0x06,
0x06,
0x00,
0xfe,
0x04,
0x02,
0x0d,
0xf3,
0x0e,
0x06,
0x14,
0x1c,
0x03,
0xe6,
0xf3,
0xe4,
0xf9,
0x01,
0x05,
0x00,
0x12,
0x03,
0x0f,
0x01,
0xfc,
0x11,
0xf9,
0xfd,
0xfb,
0xf3,
0xf5,
0x0d,
0x19,
0x08,
0x06,
0x0d,
0x10,
0x08,
0xfb,
0xf8,
0x00,
0xe9,
0xfa,
0xf0,
0xf0,
0x05,
0x06,
0x1d,
0x06,
0x1a,
0xf8,
0x10,
0xfa,
0x03,
0x18,
0xf3,
0x0e,
0xff,
0xdf,
0x08,
0x01,
0xff,
0x09,
0x16,
0x0b,
0xf9,
0x0d,
0x13,
0x01,
0x2d,
0x3b,
0x08,
0xff,
0xf8,
0x13,
0x01,
0xf9,
0xf2,
0xf3,
0xf9,
0xf7,
0xfd,
0xe4,
0xd2,
0xf0,
0x08,
0x20,
0xf9,
0xfb,
0xec,
0xf3,
0x02,
0x0c,
0xef,
0xf9,
0xf9,
0x08,
0xf3,
0x0e,
0x0b,
0x07,
0xfe,
0xff,
0xf8,
0xf7,
0xf3,
0x09,
0xfc,
0xf5,
0xef,
0x02,
0xfe,
0x0f,
0xd9,
0xc9,
0xdf,
0xee,
0xf7,
0xfe,
0x00,
0x17,
0xfc,
0xee,
0xf5,
0xf9,
0x00,
0x0c,
0xef,
0xf6,
0x03,
0x04,
0x09,
0x07,
0x00,
0x16,
0x15,
0x08,
0x14,
0x20,
0xfc,
0xe5,
0xf3,
0xf7,
0x0c,
0x15,
0xf8,
0x11,
0x07,
0x05,
0xfe,
0xf7,
0x09,
0x16,
0xed,
0xdd,
0x15,
0xff,
0xf2,
0x03,
0x19,
0x17,
0xee,
0x0f,
0x1d,
0x04,
0xcf,
0x04,
0xe9,
0x25,
0x1b,
0x05,
0x09,
0x0d,
0xfd,
0xed,
0x10,
0x00,
0xf7,
0x1c,
0x17,
0xe7,
0x09,
0xf4,
0xfb,
0x1e,
0xfb,
0xfd,
0x05,
0xfe,
0x1d,
0x0e,
0xe8,
0xed,
0xfe,
0xeb,
0x04,
0x11,
0xf8,
0x14,
0x05,
0xe4,
0x12,
0x12,
0xe7,
0x0f,
0x10,
0x18,
0x11,
0xfc,
0xf0,
0x17,
0xf3,
0xdb,
0xd8,
0xe2,
0xf9,
0xf6,
0x02,
0x0e,
0xdf,
0x04,
0x23,
0x02,
0xd2,
0xe8,
0xe2,
0xf4,
0xfb,
0x0b,
0xf9,
0x20,
0xf5,
0x08,
0xfe,
0xfe,
0x07,
0x0f,
0xfb,
0x02,
0x0d,
0x16,
0x00,
0x03,
0x10,
0x28,
0x14,
0xfd,
0x01,
0x0e,
0x0d,
0x0d,
0xfd,
0x0e,
0xfe,
0x09,
0x14,
0xfc,
0x00,
0xf7,
0x04,
0x12,
0xf5,
0x08,
0xee,
0xe3,
0x09,
0x04,
0x0b,
0x02,
0xf4,
0xe2,
0x24,
0xfe,
0x07,
0x0a,
0xfe,
0x0f,
0x04,
0x17,
0x07,
0x03,
0x0a,
0x09,
0xfc,
0xe1,
0xea,
0x09,
0x09,
0xe9,
0xfb,
0x0c,
0xf2,
0x0d,
0x04,
0xf1,
0x02,
0x06,
0x00,
0xeb,
0x05,
0xf6,
0xe2,
0x09,
0xff,
0xe8,
0x09,
0x1a,
0xed,
0x04,
0x0a,
0x09,
0xf5,
0xff,
0x0c,
0xee,
0xee,
0xfe,
0xfd,
0x07,
0x0a,
0x08,
0x09,
0xf2,
0xf7,
0xe2,
0xf9,
0xf5,
0x05,
0x0e,
0xf5,
0x06,
0xfc,
0xe9,
0x0f,
0xf1,
0xf9,
0x08,
0x1a,
0x16,
0xf4,
0xd8,
0xe0,
0xeb,
0x02,
0xfe,
0x10,
0x1d,
0x12,
0xf0,
0xfa,
0x0a,
0xf3,
0x02,
0x18,
0xde,
0x35,
0x06,
0x08,
0x0e,
0x0f,
0x1e,
0x0d,
0xec,
0xf5,
0xdf,
0x07,
0xe4,
0x17,
0x0a,
0xfe,
0x03,
0x0b,
0x2d,
0x03,
0x0e,
0x01,
0xef,
0x05,
0xf2,
0x04,
0x0a,
0xef,
0x01,
0x02,
0x14,
0x02,
0x09,
0xf8,
0x01,
0x17,
0xf1,
0x0c,
0xf9,
0xfa,
0xf9,
0xf5,
0xe6,
0xfb,
0xf3,
0xf6,
0xf0,
0xfe,
0xed,
0xe7,
0xfb,
0x0b,
0x03,
0x04,
0x03,
0xf2,
0x06,
0xf4,
0xf6,
0x14,
0x01,
0x01,
0x16,
0xfb,
0x00,
0x19,
0xf7,
0x0f,
0x09,
0x1e,
0xf6,
0x13,
0xf9,
0xe6,
0x00,
0xe0,
0x15,
0xf0,
0xea,
0xda,
0xf7,
0x07,
0x01,
0x0f,
0xed,
0x07,
0x07,
0xe4,
0xfc,
0xd3,
0x09,
0x08,
0xf8,
0xf7,
0xdd,
0x0f,
0x12,
0xd9,
0x04,
0xf4,
0xe7,
0x1e,
0x13,
0xf1,
0xf9,
0x09,
0x0a,
0x01,
0xfb,
0xf5,
0xf0,
0xea,
0x0d,
0xea,
0x07,
0x0a,
0x20,
0x00,
0xf1,
0x02,
0x03,
0x06,
0xfd,
0x07,
0x0f,
0xf9,
0x10,
0x19,
0xfb,
0x09,
0xf5,
0x0b,
0x1e,
0x1e,
0x23,
0x00,
0x12,
0x1b,
0x0c,
0xfd,
0x1d,
0xfe,
0xd5,
0x0b,
0x04,
0x06,
0xf6,
0xe7,
0xfe,
0xe9,
0x12,
0x21,
0xd7,
0x0f,
0x0d,
0xe6,
0xf9,
0x09,
0x00,
0xf8,
0xe8,
0xe2,
0xd9,
0x05,
0x12,
0x00,
0x1d,
0x28,
0x26,
0x04,
0xe7,
0xf3,
0xf1,
0xd0,
0x21,
0x15,
0xea,
0x26,
0x05,
0xe8,
0xf1,
0xeb,
0xe3,
0xf3,
0x12,
0xe9,
0x03,
0x06,
0x01,
0x10,
0x0f,
0xf2,
0xfa,
0xf0,
0xfa,
0x16,
0xfb,
0x0b,
0x12,
0xf2,
0x01,
0x06,
0xeb,
0x16,
0xf8,
0x10,
0x0a,
0x01,
0x08,
0xf6,
0x0b,
0x34,
0x32,
0x2f,
0x03,
0x09,
0x10,
0xe9,
0xec,
0xdc,
0xfe,
0xe9,
0xf5,
0xfc,
0x00,
0xfa,
0x19,
0xfa,
0x05,
0x17,
0x17,
0xee,
0xf7,
0xdc,
0xf5,
0xf3,
0x11,
0x13,
0xea,
0x00,
0x0d,
0xf6,
0xf2,
0xec,
0xf6,
0x08,
0x04,
0xf2,
0xf4,
0x0e,
0x12,
0xf4,
0xfa,
0x06,
0x07,
0x1c,
0x04,
0x08,
0x0e,
0xfb,
0x03,
0xe7,
0x04,
0x09,
0x0d,
0xf8,
0xf4,
0x04,
0xfe,
0xef,
0xeb,
0xfa,
0xf2,
0xff,
0xeb,
0x08,
0xfa,
0xf5,
0xfc,
0x01,
0xfc,
0x0f,
0x0b,
0xff,
0xe3,
0xfe,
0x16,
0xfd,
0x05,
0xe5,
0xe9,
0xf5,
0x0f,
0x00,
0xfb,
0xf7,
0x12,
0xec,
0xef,
0xf3,
0x07,
0x08,
0x0f,
0xfe,
0x09,
0x20,
0x22,
0xfb,
0xf1,
0x00,
0x03,
0x05,
0x04,
0xf3,
0xf0,
0xf6,
0xfe,
0x12,
0xf4,
0xf7,
0x14,
0xf8,
0xee,
0x03,
0x09,
0xf6,
0x08,
0x03,
0x02,
0x0e,
0x01,
0xf5,
0x0b,
0x1d,
0x15,
0xf8,
0xee,
0x01,
0x0b,
0x0d,
0x00,
0x16,
0xf9,
0x00,
0x03,
0x17,
0x0c,
0xf4,
0x07,
0xfa,
0x04,
0x01,
0xfe,
0x0b,
0x03,
0x05,
0x13,
0x09,
0xf6,
0xd9,
0xfc,
0x13,
0x18,
0x1c,
0xf4,
0xe6,
0xf5,
0x02,
0x01,
0xe7,
0xf7,
0xfc,
0xf2,
0x04,
0x0b,
0x0e,
0x09,
0x0b,
0x12,
0x0b,
0xec,
0x02,
0x19,
0xe9,
0xee,
0x0c,
0xe5,
0xdb,
0x0c,
0x05,
0x23,
0xe8,
0xfa,
0x16,
0x10,
0x1d,
0xef,
0xf6,
0x0a,
0x00,
0x0f,
0x15,
0xf2,
0x27,
0x18,
0xf0,
0x18,
0x15,
0x0f,
0x06,
0x04,
0x18,
0x07,
0xfd,
0x07,
0xef,
0xf4,
0xf6,
0x08,
0xee,
0xf4,
0xe4,
0xe6,
0xf1,
0x03,
0xf3,
0x27,
0x11,
0x0b,
0xfd,
0xf5,
0xf4,
0xed,
0x0d,
0xf4,
0x09,
0x1b,
0x07,
0xfc,
0x00,
0x04,
0x09,
0xfd,
0xeb,
0x15,
0xee,
0xf5,
0xe9,
0xda,
0xe2,
0xf6,
0x0f,
0x13,
0xfa,
0x11,
0x1f,
0x03,
0xfb,
0x02,
0x05,
0xf7,
0xff,
0x0b,
0xea,
0xf7,
0x16,
0x09,
0xf2,
0xf1,
0xe7,
0xf9,
0xee,
0x03,
0xf8,
0x00,
0xf4,
0x04,
0xfd,
0xfc,
0x16,
0x26,
0x19,
0x15,
0x18,
0x03,
0xec,
0xd0,
0xdf,
0xeb,
0x05,
0x02,
0x05,
0xf0,
0x15,
0xfd,
0xff,
0x0b,
0x0e,
0x0d,
0x22,
0x18,
0x00,
0x0c,
0x09,
0xf6,
0xe6,
0xef,
0xf2,
0xe1,
0xe7,
0x07,
0x16,
0x1f,
0x04,
0x18,
0x00,
0x01,
0x0a,
0xf7,
0x00,
0xee,
0xfa,
0x01,
0x06,
0x0b,
0x12,
0x27,
0x17,
0x1d,
0x24,
0x07,
0xe9,
0xcb,
0xf5,
0xfc,
0x00,
0x03,
0x01,
0xfe,
0x08,
0xeb,
0xe9,
0xee,
0xf6,
0xf8,
0x02,
0xfc,
0xf7,
0xfc,
0xea,
0xf3,
0xf2,
0xf5,
0xef,
0xec,
0xf2,
0x07,
0x04,
0xf6,
0x05,
0x0a,
0x0a,
0x1b,
0x10,
0x10,
0x0d,
0xfb,
0x13,
0xf7,
0x01,
0xf6,
0x03,
0x00,
0xfb,
0x01,
0x02,
0x00,
0xd9,
0xde,
0xde,
0xfb,
0xf2,
0xf5,
0xf4,
0xfa,
0x1b,
0x0d,
0xcc,
0x07,
0x13,
0x1f,
0x07,
0x01,
0xff,
0x09,
0x04,
0xcd,
0xfa,
0xef,
0x0a,
0x01,
0x12,
0xf8,
0x0f,
0x12,
0x29,
0x07,
0x09,
0x1c,
0x12,
0xfc,
0xf4,
0x12,
0x1d,
0xfb,
0x10,
0xf2,
0x15,
0xfb,
0xfb,
0x04,
0x00,
0x05,
0x09,
0xe5,
0xe6,
0xff,
0xe7,
0xed,
0x0a,
0xfe,
0xff,
0xf8,
0xe3,
0xf9,
0xf9,
0x0f,
0xb8,
0x03,
0x08,
0xde,
0xf3,
0x00,
0x08,
0x08,
0x11,
0x03,
0xf5,
0xe6,
0xe9,
0xfa,
0x08,
0x0d,
0x01,
0xf4,
0x0f,
0x05,
0xe5,
0x04,
0xff,
0xee,
0xe6,
0xf3,
0xfd,
0xe6,
0xfa,
0x0f,
0xf2,
0xf8,
0xf1,
0xfd,
0x0d,
0x11,
0xe8,
0xf7,
0xeb,
0xfc,
0xf9,
0x00,
0x07,
0x11,
0xfe,
0xff,
0xfb,
0x0d,
0x01,
0x0c,
0xfc,
0xf9,
0x11,
0xee,
0xfd,
0xd5,
0xee,
0x05,
0x01,
0x12,
0x07,
0xeb,
0x19,
0xf7,
0x10,
0x0b,
0xfe,
0x02,
0x07,
0x02,
0xf7,
0xff,
0xfb,
0x07,
0x13,
0x17,
0x11,
0x08,
0xfe,
0x09,
0xe1,
0xd3,
0x0c,
0x14,
0xef,
0x15,
0x19,
0x01,
0xfe,
0x14,
0xf9,
0xd6,
0xf9,
0x05,
0xfe,
0x07,
0x11,
0x12,
0x04,
0x01,
0x0b,
0x06,
0xeb,
0xf9,
0xf1,
0x07,
0xed,
0xe8,
0x0a,
0xfd,
0xf9,
0xe5,
0xe5,
0x25,
0xe1,
0x08,
0x1e,
0xfa,
0x11,
0x04,
0x09,
0xfd,
0xf9,
0xf8,
0x01,
0xf4,
0x25,
0x02,
0xfa,
0x15,
0x04,
0x10,
0x0f,
0xf0,
0xfa,
0x03,
0xcd,
0xdb,
0xf3,
0xf4,
0xfd,
0xf2,
0xf9,
0x10,
0xf1,
0x07,
0xfc,
0xf8,
0xee,
0xf7,
0xf2,
0xf6,
0x04,
0x05,
0x00,
0xfb,
0xec,
0xff,
0x02,
0xef,
0xe4,
0x01,
0x21,
0x07,
0xf3,
0x0c,
0xda,
0xff,
0x06,
0xf2,
0x11,
0x0c,
0x07,
0x07,
0xed,
0xee,
0xf7,
0xea,
0xf4,
0x01,
0x00,
0x14,
0x1f,
0x0d,
0xf3,
0xfc,
0x0b,
0x00,
0xef,
0x06,
0xf8,
0xf3,
0x10,
0x22,
0xf3,
0x06,
0x19,
0xf8,
0x13,
0x1b,
0x00,
0xfd,
0xf5,
0xee,
0x0d,
0xf1,
0xe8,
0x02,
0xf2,
0xfa,
0x0e,
0xf3,
0x1c,
0x0c,
0x05,
0x14,
0x07,
0x0e,
0x07,
0xf9,
0x00,
0xdb,
0xdb,
0x08,
0x03,
0x04,
0x2d,
0xea,
0xf6,
0x14,
0x0b,
0xf9,
0x0f,
0x05,
0x05,
0x12,
0x0e,
0x01,
0x03,
0xf9,
0xf6,
0xdd,
0xe2,
0xef,
0xe6,
0xf2,
0x06,
0xf4,
0xe8,
0x24,
0x1e,
0x01,
0xfb,
0xfb,
0x07,
0x12,
0x08,
0xf6,
0xf8,
0x25,
0xed,
0x02,
0x05,
0x01,
0xfe,
0xfd,
0x08,
0x06,
0xf5,
0xed,
0xe6,
0xf5,
0x00,
0xf5,
0xfe,
0xee,
0xf8,
0xe8,
0xf5,
0xf5,
0xe9,
0xef,
0xfd,
0xf6,
0xf3,
0xf8,
0xf5,
0xf3,
0xf3,
0xf4,
0xe4,
0xfe,
0xf5,
0xfd,
0x02,
0xf8,
0x00,
0xf8,
0x01,
0xf6,
0x03,
0xf3,
0xff,
0xea,
0xf7,
0x08,
0xf9,
0x0e,
0xf8,
0xf5,
0x06,
0xcf,
0xd7,
0xff,
0x03,
0x00,
0x04,
0xee,
0xef,
0x15,
0xef,
0x04,
0x00,
0xfa,
0x00,
0x0b,
0x08,
0xfa,
0xf5,
0x02,
0xd9,
0xee,
0x07,
0xfc,
0x16,
0xe8,
0xe6,
0xfa,
0xf5,
0xe8,
0xf7,
0x00,
0x07,
0x12,
0xde,
0xee,
0xf9,
0xe6,
0xf5,
0x0b,
0xe6,
0xf0,
0xff,
0xf4,
0xe9,
0xfa,
0x15,
0x01,
0x0a,
0xfc,
0xf5,
0xfd,
0x0f,
0xff,
0x12,
0xf6,
0xce,
0x01,
0x02,
0x12,
0x19,
0xe5,
0x0b,
0x1a,
0xfa,
0x05,
0xf5,
0xe9,
0xe2,
0xf0,
0xf8,
0x0a,
0xf6,
0x0e,
0x15,
0xf9,
0x05,
0xff,
0x1b,
0x0e,
0xf6,
0xfb,
0x0c,
0x00,
0xf5,
0xf5,
0x0d,
0x15,
0x07,
0x0c,
0xf4,
0xf2,
0x05,
0x14,
0xfc,
0xe0,
0xf4,
0xfb,
0xf5,
0xfe,
0xf6,
0xfb,
0xf8,
0xfc,
0xf5,
0x14,
0x10,
0x08,
0x10,
0x16,
0x0a,
0xf9,
0xfa,
0xf4,
0xe6,
0xf4,
0x04,
0x0b,
0x11,
0xf2,
0x0a,
0xec,
0xe9,
0x0e,
0x03,
0x07,
0x16,
0xfa,
0xf7,
0xff,
0xf8,
0xfb,
0x0d,
0xf8,
0x09,
0x0c,
0xf4,
0xe4,
0xff,
0xef,
0xf3,
0xf0,
0xf0,
0xf4,
0xec,
0xf8,
0xe3,
0xe9,
0xe5,
0x11,
0x19,
0xfc,
0x0f,
0x10,
0x02,
0xf0,
0x1e,
0xd7,
0xf0,
0x0f,
0x1a,
0x0e,
0x0d,
0x10,
0x04,
0xfc,
0x0b,
0xf1,
0x0b,
0xf2,
0x19,
0x01,
0xee,
0x0f,
0x01,
0x08,
0x0c,
0x15,
0x14,
0x06,
0xfd,
0x00,
0xf1,
0x1c,
0xe8,
0xf0,
0xe9,
0x06,
0xe5,
0xe4,
0x12,
0x0f,
0x15,
0x02,
0xf8,
0x0b,
0x0e,
0xff,
0x16,
0xec,
0xd7,
0x22,
0xf5,
0xee,
0x14,
0xe8,
0xe9,
0x0e,
0xf1,
0xef,
0xf5,
0xf9,
0xe5,
0xff,
0xf3,
0xf1,
0x00,
0xe4,
0xf6,
0xf0,
0xfa,
0xe7,
0xd0,
0xfa,
0x0f,
0xf3,
0xd3,
0x35,
0x23,
0xe6,
0x01,
0xfa,
0x0a,
0xf1,
0x09,
0xdc,
0xf8,
0x36,
0x04,
0xe9,
0x23,
0x0b,
0xf7,
0xed,
0x1d,
0xfc,
0xf0,
0x04,
0xfb,
0x05,
0xfc,
0x06,
0x01,
0x07,
0xf2,
0x00,
0x0c,
0x05,
0xe5,
0xf4,
0xfe,
0x17,
0x00,
0xf4,
0x2f,
0xe8,
0xe2,
0xf8,
0xf9,
0xf0,
0x07,
0x08,
0x0e,
0xff,
0x01,
0x08,
0x06,
0x04,
0xef,
0xff,
0x03,
0x0c,
0xef,
0x0c,
0x0d,
0x05,
0x0a,
0x03,
0x06,
0x09,
0xfd,
0xf6,
0xf8,
0x12,
0x03,
0x0f,
0x02,
0xec,
0xf2,
0x07,
0xf5,
0x04,
0xe8,
0xfa,
0xee,
0x0f,
0x0f,
0x00,
0x24,
0x06,
0xfd,
0x08,
0x0c,
0xfa,
0x07,
0x01,
0x11,
0xf3,
0xfd,
0x00,
0xf8,
0x1e,
0x07,
0xff,
0x01,
0x02,
0xff,
0xd5,
0x2b,
0xe4,
0xfe,
0x05,
0xe7,
0xf5,
0x07,
0x18,
0x08,
0x06,
0x03,
0x00,
0x07,
0x13,
0x15,
0xf0,
0xdd,
0xf7,
0xeb,
0x01,
0x08,
0xf9,
0xef,
0x0b,
0xf7,
0x06,
0x10,
0x0a,
0x11,
0xef,
0xe3,
0xff,
0xfa,
0xdf,
0x0c,
0x12,
0xf9,
0xf6,
0xde,
0xf1,
0x0d,
0xff,
0xfa,
0x1e,
0x20,
0x01,
0xf7,
0xfc,
0x0c,
0xe5,
0x0f,
0xfc,
0xe6,
0x27,
0xf9,
0x04,
0x12,
0x16,
0x0b,
0x01,
0x1b,
0xef,
0xfc,
0x01,
0xed,
0x05,
0x17,
0x11,
0xf8,
0xfb,
0xf5,
0x0c,
0x17,
0x09,
0x11,
0x27,
0xfa,
0xfd,
0xfa,
0x0d,
0xfc,
0x1b,
0xfd,
0xf1,
0x2e,
0xf8,
0x2e,
0x27,
0xff,
0xfd,
0x01,
0xfe,
0xfd,
0xfe,
0xff,
0x05,
0x00,
0xf2,
0xfc,
0xde,
0xfc,
0x05,
0xfd,
0x12,
0x11,
0x01,
0x04,
0xfe,
0x16,
0xf7,
0xfc,
0x2c,
0xfd,
0xf3,
0x14,
0xee,
0xe7,
0xf3,
0xee,
0xfa,
0xf9,
0xfa,
0x10,
0x09,
0xe4,
0x12,
0x03,
0x0d,
0xf8,
0xee,
0xf3,
0x04,
0x12,
0xfd,
0xef,
0xfd,
0xfc,
0x0d,
0x00,
0x07,
0x1f,
0xf7,
0x08,
0xf6,
0xf3,
0x1c,
0xf3,
0xfa,
0x09,
0xf7,
0xf0,
0x04,
0x1b,
0x00,
0xfe,
0x10,
0x27,
0x04,
0xee,
0xfe,
0xff,
0x10,
0xf7,
0xf0,
0x24,
0xfc,
0xce,
0x15,
0x02,
0xef,
0xfc,
0xfb,
0x15,
0xf7,
0xe7,
0x17,
0xf5,
0xe7,
0xf0,
0xdb,
0xf2,
0xf0,
0xd9,
0xea,
0x09,
0xf7,
0xcd,
0x15,
0x3d,
0xf9,
0xfe,
0xf6,
0x11,
0xe1,
0xf6,
0xeb,
0xf0,
0x5d,
0xed,
0xdb,
0x07,
0x24,
0x0d,
0x01,
0x1b,
0xfa,
0xed,
0x00,
0xea,
0xfd,
0x0f,
0x08,
0xf8,
0x06,
0xed,
0xf5,
0x06,
0xfd,
0xfd,
0xf7,
0xf6,
0x08,
0xf9,
0x03,
0x0e,
0x02,
0xfe,
0xff,
0xf3,
0xfb,
0xf6,
0x05,
0x0a,
0xf3,
0xff,
0xfa,
0xf7,
0x02,
0xf3,
0x0a,
0xfb,
0x17,
0x13,
0xfe,
0x07,
0xf5,
0xf9,
0x0c,
0xfa,
0xf0,
0xed,
0xef,
0x0c,
0x06,
0x01,
0x0e,
0xf3,
0x06,
0xfa,
0x13,
0xfa,
0xef,
0x20,
0x10,
0x0b,
0x20,
0x08,
0xdf,
0xee,
0xfb,
0xe3,
0xf7,
0x04,
0xfc,
0x05,
0x0b,
0x08,
0xe8,
0xf4,
0x03,
0xf1,
0xed,
0xf5,
0xf8,
0xf9,
0xeb,
0xed,
0x08,
0xe3,
0xfa,
0x08,
0xf9,
0x00,
0x04,
0x09,
0x20,
0x0c,
0xf9,
0x0a,
0xf7,
0xee,
0xf0,
0xf2,
0xef,
0xf0,
0x03,
0x15,
0xfb,
0xf8,
0x04,
0x0b,
0x10,
0xf5,
0xfc,
0xfb,
0x07,
0x1d,
0x03,
0xfd,
0x0d,
0xff,
0xea,
0x18,
0x16,
0x00,
0x0b,
0xfa,
0xfa,
0x10,
0x10,
0x05,
0x0a,
0x08,
0x0a,
0xfa,
0xfe,
0xeb,
0xfd,
0x0f,
0x07,
0xf7,
0x13,
0xfe,
0x15,
0xf6,
0xfe,
0xfd,
0xe5,
0x12,
0x24,
0xee,
0xfb,
0x10,
0x07,
0x15,
0x35,
0x0f,
0xfb,
0xf6,
0xf9,
0xfb,
0xfd,
0xfe,
0xf2,
0x06,
0x1b,
0x03,
0x08,
0xf7,
0xfa,
0x04,
0x01,
0xfa,
0xfa,
0xfd,
0xf4,
0x05,
0xe2,
0x05,
0xee,
0xf9,
0xf3,
0xfa,
0x02,
0xfd,
0xfb,
0xe4,
0x16,
0xf9,
0x01,
0xfb,
0xf3,
0x0b,
0xfe,
0x07,
0x0d,
0x0f,
0x0a,
0xd9,
0x02,
0x07,
0xe6,
0xff,
0x0f,
0xcf,
0x02,
0x0d,
0xf8,
0xf6,
0x01,
0xf0,
0x0e,
0x03,
0x04,
0x0a,
0x1b,
0x0f,
0x1d,
0xe8,
0x00,
0xfc,
0xfe,
0xfb,
0xfb,
0x1a,
0xf6,
0xf9,
0x01,
0x0a,
0x15,
0x17,
0x03,
0x08,
0xf9,
0x06,
0xee,
0x04,
0x0c,
0x0a,
0x02,
0xfb,
0xff,
0xf6,
0xf0,
0x1c,
0x0e,
0xe5,
0x0c,
0x01,
0xf6,
0xe7,
0xe7,
0x13,
0xf6,
0xe8,
0xf7,
0xf9,
0xf6,
0x08,
0xff,
0x0c,
0x06,
0xdf,
0x0a,
0x19,
0xf0,
0xf6,
0xf1,
0xfa,
0x02,
0x00,
0x08,
0x09,
0x16,
0x0b,
0xfd,
0x11,
0x0f,
0x02,
0x19,
0x0b,
0xd6,
0xf3,
0xee,
0xf2,
0x42,
0xf9,
0x0a,
0x10,
0x1f,
0x12,
0x07,
0x03,
0xf3,
0x0e,
0xf1,
0xec,
0xff,
0x00,
0x00,
0xf2,
0xf5,
0xfb,
0x09,
0x1b,
0x00,
0x1c,
0x19,
0x02,
0x09,
0xfc,
0x04,
0x00,
0x08,
0x0a,
0xdf,
0xef,
0xff,
0x03,
0xdc,
0x04,
0x00,
0xfd,
0x04,
0x09,
0xfb,
0xfe,
0x04,
0x03,
0x23,
0x0d,
0xf2,
0xf2,
0xf6,
0x04,
0x04,
0x0c,
0xf9,
0xeb,
0xef,
0x1f,
0xec,
0xf5,
0x14,
0xf1,
0xf8,
0x04,
0x08,
0x0d,
0x0e,
0x01,
0x14,
0x22,
0x0b,
0x0a,
0xed,
0xe8,
0xfd,
0xe4,
0xe3,
0x10,
0x09,
0x0f,
0x0f,
0x1c,
0xea,
0xf1,
0x0b,
0xe3,
0xe7,
0xf5,
0xe3,
0xef,
0xe0,
0xf9,
0xfc,
0xe6,
0x06,
0xf7,
0x02,
0xf6,
0xea,
0xef,
0x07,
0x13,
0xf2,
0x07,
0xf6,
0xfb,
0x01,
0xea,
0x13,
0x07,
0x04,
0xf2,
0x05,
0x20,
0xf3,
0xfa,
0x11,
0x03,
0x04,
0x0e,
0x02,
0xe8,
0xf5,
0x00,
0x14,
0x05,
0xfe,
0xf1,
0xf4,
0xf2,
0xf4,
0xfa,
0x0a,
0x03,
0x07,
0x00,
0xf9,
0x0a,
0x08,
0x19,
0xed,
0xf3,
0x1c,
0xf9,
0xfe,
0xfd,
0x13,
0x00,
0xf6,
0x00,
0xf2,
0xf8,
0xfc,
0x10,
0x04,
0xfa,
0x06,
0xf7,
0x04,
0x02,
0xf3,
0x14,
0x17,
0x09,
0x10,
0x13,
0xfe,
0x20,
0x0a,
0xfc,
0x08,
0xe6,
0x08,
0xf2,
0xe1,
0xf0,
0x04,
0x00,
0x02,
0xf6,
0xf6,
0x03,
0x04,
0x1b,
0x03,
0x0c,
0x09,
0xfc,
0x07,
0x12,
0xf9,
0xfe,
0x00,
0xf7,
0xf7,
0xf5,
0xeb,
0xf2,
0xf3,
0xee,
0xed,
0xf8,
0x2c,
0x01,
0x03,
0xfc,
0xef,
0xf4,
0x09,
0xf8,
0xe6,
0xf5,
0xf0,
0xf2,
0xf3,
0x02,
0x05,
0xf4,
0xf8,
0x09,
0x04,
0x09,
0x18,
0xf6,
0x12,
0x09,
0x10,
0xf8,
0xf0,
0x0c,
0x07,
0xfa,
0x14,
0x06,
0x08,
0x1f,
0x03,
0x0d,
0x0e,
0x04,
0xfc,
0xea,
0x12,
0x17,
0x01,
0x2a,
0x1d,
0xfb,
0x10,
0x1c,
0xf2,
0x04,
0x18,
0x0a,
0x06,
0xf0,
0xf8,
0x18,
0x08,
0xf5,
0xf6,
0xf9,
0xef,
0x14,
0x0d,
0x0b,
0x03,
0xea,
0xf3,
0x13,
0xfe,
0x22,
0xe9,
0xfa,
0x05,
0xf6,
0xef,
0x1a,
0x0e,
0xf6,
0x15,
0x1c,
0x16,
0xe9,
0x09,
0x0b,
0x00,
0x17,
0x07,
0x04,
0x1d,
0x02,
0x06,
0xf3,
0x15,
0x04,
0xf7,
0x29,
0xf9,
0x04,
0x04,
0xf9,
0x03,
0x01,
0xe5,
0x03,
0xf0,
0xf5,
0x0c,
0xfb,
0xff,
0x20,
0x1c,
0x08,
0xf9,
0x0e,
0x09,
0xe9,
0x14,
0xdc,
0xfe,
0x3b,
0xf2,
0x07,
0x15,
0x0e,
0x0d,
0xfd,
0xfa,
0xf2,
0xf6,
0x01,
0xeb,
0xed,
0xfc,
0xf6,
0x02,
0x01,
0x07,
0x08,
0xf2,
0x03,
0x00,
0xff,
0xed,
0xf0,
0x08,
0xfe,
0x0a,
0x0a,
0xf5,
0xee,
0xdd,
0xec,
0xe4,
0xfa,
0x22,
0x1f,
0x03,
0x0c,
0x0f,
0xf3,
0x02,
0xf5,
0xfb,
0xf5,
0xf6,
0x05,
0x08,
0x0d,
0xf4,
0xf3,
0xff,
0x06,
0xd7,
0xde,
0x01,
0xf0,
0x0e,
0x0a,
0x01,
0x0b,
0xf4,
0x03,
0xf2,
0x06,
0x07,
0xf0,
0xea,
0xee,
0xed,
0x17,
0x1c,
0x10,
0xf1,
0x0e,
0xef,
0xd9,
0x05,
0x01,
0x06,
0x1c,
0x04,
0xf4,
0x04,
0xee,
0xfd,
0xed,
0x03,
0x03,
0xf7,
0x0c,
0xf6,
0x04,
0xf5,
0xf8,
0xef,
0xec,
0xeb,
0xf7,
0xf4,
0xf4,
0x04,
0xfd,
0x0b,
0x05,
0xfd,
0xf9,
0xf5,
0x05,
0x05,
0x06,
0xf3,
0x08,
0x0a,
0xe7,
0x08,
0xfc,
0xfe,
0x05,
0xf8,
0x11,
0xfb,
0xfa,
0x0c,
0x03,
0x0a,
0x07,
0x08,
0x03,
0x03,
0x0a,
0xf5,
0x07,
0x0d,
0x07,
0x13,
0x15,
0xf8,
0xfd,
0xff,
0xf3,
0x02,
0xfe,
0xed,
0x22,
0x13,
0x28,
0x0b,
0xfb,
0x09,
0x0a,
0xfa,
0x01,
0x03,
0x08,
0x02,
0x08,
0xe4,
0x03,
0x0f,
0x03,
0x06,
0x04,
0x06,
0xfa,
0xfd,
0xfc,
0xfa,
0x12,
0xff,
0xef,
0xfb,
0xfc,
0xf4,
0xf7,
0x10,
0xf9,
0xf9,
0x0f,
0xf0,
0x09,
0x13,
0xf1,
0xff,
0x09,
0xfd,
0x09,
0x0b,
0xf7,
0xee,
0x0a,
0x23,
0x1c,
0xfc,
0xec,
0xfc,
0xf0,
0xef,
0xf8,
0x03,
0xeb,
0x13,
0x01,
0xed,
0x0c,
0xfa,
0x20,
0x00,
0x05,
0x08,
0x03,
0x03,
0x25,
0xf5,
0xd3,
0x03,
0x0c,
0xe9,
0x03,
0x15,
0xf2,
0x14,
0xe8,
0xfe,
0xfc,
0xf8,
0x0f,
0x04,
0xf9,
0x0a,
0x00,
0x17,
0xff,
0xe7,
0xe9,
0xfa,
0x12,
0xed,
0xf0,
0x02,
0xe1,
0xf6,
0xe2,
0xe7,
0x03,
0xeb,
0xf4,
0xf5,
0xef,
0x08,
0xf9,
0x16,
0xfe,
0xf0,
0xfa,
0x11,
0x0e,
0xf2,
0x15,
0x04,
0x09,
0x14,
0xf9,
0xf0,
0xff,
0xf1,
0xf8,
0xed,
0x03,
0xe6,
0xef,
0x0f,
0x14,
0x15,
0xf8,
0x25,
0x0e,
0xfb,
0x13,
0x03,
0xf9,
0x17,
0x19,
0x14,
0x1f,
0x07,
0xee,
0xfe,
0xeb,
0xf7,
0x0a,
0xf9,
0x16,
0x12,
0xf8,
0x1f,
0x0c,
0x10,
0x19,
0xfa,
0x07,
0x01,
0xf2,
0x05,
0x12,
0x07,
0xf3,
0x09,
0x02,
0xf2,
0x14,
0x03,
0x1a,
0xf9,
0xe3,
0xf4,
0x0f,
0x00,
0x0a,
0xfa,
0x07,
0x1a,
0xfd,
0xee,
0xe8,
0xfe,
0xe2,
0x06,
0x1c,
0xf9,
0xfe,
0x10,
0x0d,
0xe0,
0xfe,
0xfe,
0xff,
0x0e,
0x0b,
0x02,
0x11,
0xec,
0xf8,
0x0e,
0xf7,
0x1b,
0x10,
0x03,
0x2d,
0x08,
0xfa,
0x11,
0x0a,
0x01,
0x15,
0xfb,
0x12,
0x1c,
0xff,
0x1d,
0x0a,
0x19,
0x19,
0x11,
0x29,
0xfc,
0x0e,
0x0d,
0xdf,
0x09,
0x13,
0xf3,
0x09,
0x16,
0x02,
0x1d,
0x0b,
0xf7,
0xf3,
0x07,
0xfd,
0x0b,
0x01,
0xfd,
0x0e,
0x0d,
0x1c,
0x1e,
0xfa,
0xf7,
0x21,
0xf4,
0xdf,
0xf7,
0xf0,
0x08,
0xf4,
0xe5,
0xf1,
0x0d,
0xde,
0xfb,
0x09,
0xf8,
0xf0,
0xff,
0xec,
0xf1,
0x0f,
0xf5,
0xf5,
0xfd,
0xfb,
0xf0,
0xfd,
0xfa,
0xf2,
0xf8,
0x04,
0xf5,
0xfe,
0x0e,
0x0c,
0x0e,
0x01,
0x02,
0xec,
0x0d,
0x1f,
0xfd,
0xf3,
0xec,
0xf5,
0xe7,
0xf0,
0xed,
0xfb,
0xfd,
0x07,
0x04,
0x0a,
0x03,
0x02,
0xf8,
0x06,
0xe5,
0xfb,
0xf9,
0x02,
0x10,
0x09,
0x07,
0x1b,
0x06,
0x0b,
0x0e,
0xf5,
0x1a,
0xf7,
0x06,
0xff,
0xd1,
0x0f,
0xf8,
0xf9,
0x04,
0xf2,
0xf5,
0xf1,
0xf9,
0x06,
0xfe,
0x11,
0x0c,
0xf6,
0x14,
0x08,
0xeb,
0x03,
0x19,
0x20,
0x05,
0x0c,
0x1c,
0xf6,
0xf5,
0x02,
0x04,
0xf4,
0x1c,
0xfe,
0xfe,
0x1a,
0xf1,
0x00,
0xf0,
0xf8,
0x0e,
0x1f,
0xef,
0x06,
0x03,
0xf6,
0x0b,
0xfb,
0x10,
0x09,
0xd4,
0xf9,
0xfb,
0xe1,
0xe6,
0x31,
0x07,
0xd6,
0x11,
0x05,
0xf2,
0x06,
0xe5,
0xfd,
0x02,
0xff,
0xf5,
0x14,
0x0e,
0xf9,
0xf2,
0x05,
0xfa,
0xf3,
0xf5,
0x0a,
0xe9,
0xf0,
0x16,
0x2c,
0x03,
0x00,
0xf3,
0xfd,
0xdc,
0xef,
0xec,
0xf6,
0x30,
0xfb,
0xfa,
0x0f,
0x1f,
0x18,
0xf8,
0x1b,
0xf5,
0xee,
0x01,
0xdb,
0xff,
0xf4,
0xfe,
0x12,
0x0f,
0xe8,
0x07,
0xf4,
0xfb,
0xff,
0xec,
0xf9,
0xf1,
0x04,
0xfc,
0xfa,
0x0c,
0x14,
0x02,
0x08,
0xf6,
0xf9,
0xf4,
0x0a,
0x04,
0x00,
0x14,
0x03,
0xff,
0x07,
0x05,
0x00,
0xff,
0xf7,
0xfa,
0x01,
0x02,
0x0f,
0xf4,
0xf5,
0x04,
0xec,
0xed,
0x02,
0x0d,
0x0f,
0xf8,
0xf3,
0x13,
0xf6,
0xdb,
0x0a,
0xfd,
0xdd,
0x19,
0x20,
0x0d,
0x1a,
0x05,
0x0c,
0x13,
0x02,
0x0d,
0xfc,
0xe4,
0xf9,
0xf7,
0xfa,
0xfd,
0xfe,
0xe2,
0xfe,
0xf5,
0xf1,
0x03,
0xf2,
0xe1,
0xf3,
0xfb,
0x0d,
0xf6,
0x00,
0x06,
0xe5,
0x06,
0xe9,
0xdf,
0xd6,
0xf8,
0x10,
0xf0,
0xf0,
0xf7,
0x0a,
0xf6,
0x0c,
0xee,
0xff,
0x0b,
0xf1,
0x00,
0x0f,
0x07,
0x09,
0x10,
0xef,
0xf8,
0xf4,
0x00,
0x07,
0xfe,
0x06,
0x05,
0xf5,
0xf1,
0xf3,
0xf3,
0x0e,
0x1a,
0xda,
0xf3,
0x0e,
0xf3,
0xe7,
0xf1,
0xfc,
0xfc,
0xf0,
0x06,
0xf3,
0x23,
0xf3,
0xe4,
0x1c,
0x05,
0xeb,
0xde,
0xfd,
0xfe,
0xec,
0x06,
0x08,
0xfb,
0x08,
0xfc,
0x0b,
0xf9,
0xe6,
0xf3,
0xef,
0xe9,
0x0e,
0xfc,
0x02,
0x17,
0x07,
0x01,
0x02,
0xf8,
0x01,
0xde,
0x11,
0xf6,
0xef,
0x0e,
0xf0,
0xf5,
0x12,
0x0a,
0x06,
0x03,
0x08,
0x06,
0x0b,
0x01,
0x08,
0x03,
0x0b,
0xf1,
0xfe,
0xfa,
0x06,
0x00,
0x17,
0x06,
0xf2,
0xfe,
0xdb,
0xeb,
0x1a,
0xf2,
0xfa,
0x04,
0x05,
0xfb,
0x17,
0x1a,
0x0c,
0xfb,
0x11,
0xfd,
0xf3,
0x01,
0xee,
0xdf,
0xf6,
0xeb,
0x0b,
0xf0,
0x0c,
0x03,
0x01,
0x06,
0x0d,
0xfb,
0x02,
0x0e,
0x16,
0xfc,
0xee,
0x06,
0xfb,
0x06,
0xf4,
0x05,
0xf5,
0x03,
0xf6,
0xe2,
0x11,
0x20,
0xfd,
0xff,
0xf8,
0x23,
0x15,
0xfd,
0x25,
0x0f,
0x06,
0x09,
0xfb,
0x0c,
0x15,
0x04,
0x01,
0xfb,
0x09,
0xfe,
0xfd,
0xee,
0xe8,
0x13,
0x0a,
0xfc,
0x03,
0x10,
0xec,
0xc3,
0xf1,
0x0f,
0x13,
0x0b,
0x03,
0x09,
0x01,
0x08,
0x07,
0x03,
0x00,
0x11,
0x01,
0xdc,
0xe1,
0xf0,
0x02,
0xf2,
0x03,
0x09,
0x16,
0x0f,
0xed,
0xed,
0xe5,
0xfb,
0x10,
0xe4,
0x03,
0x04,
0xf8,
0xfa,
0x05,
0x02,
0xff,
0x20,
0xfb,
0xfb,
0x13,
0x0d,
0x07,
0x06,
0xec,
0x01,
0x02,
0xfd,
0xdd,
0x10,
0x05,
0xdf,
0xda,
0xfc,
0xe2,
0xdb,
0xdb,
0xdf,
0xaa,
0xcb,
0xd0,
0xce,
0xf2,
0x00,
0x02,
0xf1,
0xf2,
0xf8,
0x11,
0xf8,
0x07,
0x02,
0xf4,
0xfc,
0x1e,
0xef,
0xff,
0x0e,
0xe8,
0xfe,
0xf3,
0x11,
0x02,
0xf8,
0x03,
0x05,
0x02,
0x03,
0x06,
0x04,
0x03,
0xf9,
0x12,
0x0b,
0xfe,
0x02,
0x0f,
0x22,
0x11,
0x05,
0x05,
0x11,
0xf5,
0x04,
0x11,
0xfd,
0xe8,
0xf5,
0x08,
0x01,
0xf1,
0x07,
0x12,
0x08,
0x13,
0x0d,
0xe9,
0xec,
0x03,
0xf9,
0xe1,
0xf4,
0xf6,
0xd7,
0xf0,
0x0c,
0x15,
0x15,
0x02,
0xff,
0x00,
0xf8,
0xfd,
0x12,
0x21,
0xff,
0x18,
0x39,
0x28,
0xfe,
0xe8,
0x15,
0xf3,
0xfb,
0xf7,
0xfe,
0x08,
0x02,
0xf8,
0xf4,
0x09,
0xef,
0xed,
0x1e,
0x1f,
0xf5,
0xf0,
0x03,
0x21,
0x10,
0x0a,
0x02,
0x08,
0x02,
0xf1,
0xef,
0x16,
0xf4,
0xdc,
0xf1,
0x11,
0xee,
0x0a,
0x1a,
0x09,
0x0a,
0xf5,
0xfc,
0xf0,
0xf0,
0xf0,
0x05,
0x11,
0xff,
0xf3,
0xf6,
0xf4,
0x00,
0xfb,
0xfb,
0xf4,
0xef,
0xf2,
0x1e,
0xe4,
0x03,
0xea,
0xfd,
0x07,
0xfa,
0xf2,
0x06,
0xf8,
0x03,
0xf8,
0x03,
0xfc,
0x18,
0x03,
0x02,
0x00,
0xf1,
0x12,
0x18,
0xef,
0x0d,
0xf8,
0xf6,
0xf8,
0x06,
0x14,
0xfd,
0x12,
0x19,
0x18,
0xf7,
0xfa,
0x0d,
0x16,
0xe5,
0xe9,
0x05,
0xec,
0xf3,
0xf6,
0xfe,
0x01,
0xfa,
0xf4,
0xf1,
0x10,
0x0a,
0x10,
0x0e,
0xfb,
0x0d,
0x07,
0x02,
0x0e,
0x0c,
0x03,
0x03,
0x00,
0x0c,
0x12,
0xf4,
0xee,
0xfd,
0x0f,
0x04,
0x14,
0x07,
0xf6,
0xf8,
0xf4,
0x01,
0xfe,
0xf4,
0x0c,
0xff,
0xf0,
0x17,
0xfe,
0xf9,
0x03,
0x21,
0xe8,
0x07,
0xe0,
0x4d,
0xfb,
0x02,
0x1b,
0x1a,
0x03,
0xff,
0x04};
