/* SPDX-License-Identifier: GPL-2.0 */
/*
 * Copyright (c) 2020 MediaTek Inc.
 *
 * Author: Ya-Wen Hsu <Ya-Wen.Hsu@mediatek.com>
 *
 */
char fdvt_kernel_bias_loop69_1_frame01[] = {
0x06,
0x0b,
0xea,
0xf7,
0x0d,
0xf6,
0xef,
0xf3,
0x01,
0x01,
0x06,
0x06,
0x0a,
0xec,
0xfa,
0xf9,
0x07,
0x04,
0xfc,
0x01,
0x07,
0xe2,
0x03,
0x09,
0xf8,
0x08,
0xfd,
0xf9,
0x03,
0x0a,
0xfd,
0x03,
0xf8,
0x02,
0x05,
0x0e,
0x03,
0xf9,
0x06,
0xfc,
0xfa,
0x01,
0x04,
0x05,
0xfc,
0x00,
0xfc,
0xff,
0x0d,
0x0e,
0xe8,
0xb6,
0xfb,
0x17,
0xfe,
0xe7,
0xff,
0x04,
0x00,
0xfd,
0xfd,
0xf8,
0xf8,
0x07,
0xfd,
0x04,
0xfe,
0x01,
0x07,
0xfc,
0xfa,
0x01,
0x02,
0xff,
0xef,
0x00,
0x04,
0xf7,
0xfb,
0x0b,
0x08,
0x04,
0x00,
0x12,
0xf5,
0x0d,
0xf5,
0x0d,
0x17,
0xfd,
0xf2,
0x07,
0xf3,
0xff,
0x0a,
0xff,
0xf9,
0x06,
0xfc,
0x0c,
0x0d,
0xe5,
0x06,
0xfc,
0xfa,
0x10,
0x0a,
0xff,
0xfa,
0x00,
0xfc,
0x03,
0xfd,
0x05,
0x0e,
0x09,
0xff,
0x07,
0xfe,
0xe5,
0xfe,
0x23,
0x12,
0xfa,
0x04,
0x1c,
0xf9,
0x02,
0xf2,
0x09,
0xf8,
0xec,
0xfb,
0xea,
0x0b,
0xf4,
0xf1,
0x0b,
0x00,
0x00,
0x01,
0x0c,
0x00,
0x04,
0x08,
0xff,
0xfa,
0xe4,
0xf7,
0x15,
0xf4,
0xf8,
0xfb,
0xfb,
0xf9,
0x00,
0x00,
0x0e,
0x05,
0x0f,
0xf1,
0xff,
0xff,
0xf9,
0xfd,
0x02,
0x00,
0xfb,
0xf2,
0xfb,
0x04,
0xfd,
0x07,
0x06,
0x01,
0x04,
0xfe,
0x02,
0x05,
0x05,
0x03,
0x01,
0x05,
0xf8,
0x03,
0x03,
0x00,
0xfa,
0xf9,
0xf6,
0x01,
0x01,
0xf9,
0xfd,
0x0a,
0xf5,
0x00,
0xf6,
0xfe,
0xff,
0xf3,
0xfd,
0x04,
0xfe,
0x03,
0x03,
0x09,
0x06,
0xff,
0x04,
0xfd,
0xff,
0x08,
0xea,
0x03,
0xfc,
0x04,
0x0c,
0xf7,
0xfd,
0x00,
0x0b,
0x00,
0xff,
0x00,
0x03,
0x06,
0xfc,
0x08,
0xf4,
0xf1,
0xf2,
0x00,
0xec,
0xf5,
0x07,
0x03,
0xf2,
0x0e,
0xfe,
0xfd,
0xf8,
0x09,
0x01,
0x0b,
0xe5,
0xfe,
0x00,
0xe6,
0x0d,
0xf7,
0xff,
0x01,
0x1c,
0x0b,
0x08,
0xf5,
0xf6,
0x0b,
0xfd,
0xf9,
0x0a,
0x0b,
0xf6,
0xfb,
0xf7,
0x09,
0xf9,
0x02,
0xfa,
0xf8,
0x04,
0x0c,
0xfa,
0x02,
0x00,
0x06,
0x01,
0x08,
0xf6,
0xf7,
0xf5,
0x09,
0x01,
0x0c,
0xf7,
0x01,
0xfe,
0x07,
0xff,
0xf8,
0xfa,
0x00,
0x03,
0x01,
0xf8,
0xfd,
0xfd,
0x10,
0x02,
0x00,
0x04,
0xfd,
0xfe,
0xff,
0x01,
0xf2,
0xf5,
0xfe,
0x0a,
0xfa,
0xef,
0x02,
0xf2,
0x02,
0xfc,
0x05,
0x03,
0xfc,
0x0c,
0xf3,
0x00,
0x03,
0x06,
0xf6,
0x0a,
0x07,
0xeb,
0x03,
0x07,
0x16,
0x04,
0x02,
0x08,
0x04,
0x0d,
0xfd,
0x04,
0x08,
0xe2,
0x0c,
0x03,
0x08,
0x01,
0xf3,
0xff,
0x07,
0xfb,
0x09,
0x0a,
0x01,
0x01,
0xff,
0xff,
0x0e,
0x03,
0xfa,
0x0c,
0x06,
0xfd,
0xfe,
0x05,
0x07,
0x02,
0xfa,
0x08,
0x09,
0xfb,
0x06,
0x07,
0xfd,
0x03,
0x07,
0x09,
0x00,
0x02,
0xfb,
0x0a,
0xfd,
0xf8,
0xfc,
0x0b,
0x0f,
0x0c,
0x09,
0xfe,
0xf8,
0x00,
0x01,
0xf4,
0x05,
0x00,
0xee,
0xfc,
0x01,
0xfa,
0x0a,
0xfd,
0x04,
0xfc,
0x09,
0x03,
0xff,
0x01,
0x03,
0xf9,
0x05,
0x05,
0xfe,
0xfb,
0xec,
0x02,
0x03,
0xff,
0x04,
0x03,
0xf5,
0x04,
0xfd,
0x09,
0xff,
0xfe,
0x00,
0x10,
0xfd,
0x02,
0xf7,
0xfb,
0x03,
0xfd,
0xff,
0xf9,
0xf0,
0xfd,
0xf7,
0x18,
0xf6,
0xf4,
0xff,
0x03,
0xf9,
0xfc,
0x02,
0x0c,
0xfd,
0x0d,
0x04,
0xf2,
0xf9,
0xf1,
0x0d,
0x22,
0x01,
0x03,
0x08,
0x14,
0x17,
0x07,
0xf2,
0x08,
0xf8,
0xe4,
0xf0,
0xf8,
0xfa,
0x03,
0xf8,
0xfa,
0x02,
0xfa,
0x06,
0x00,
0x06,
0xfd,
0xf8,
0xf8,
0xfd,
0xea,
0xff,
0xf9,
0x06,
0xff,
0xfb,
0xf6,
0xed,
0xf0,
0x06,
0xf7,
0xf8,
0xfb,
0x02,
0xfc,
0x00,
0x04,
0xfc,
0x09,
0x01,
0xff,
0xff,
0xfe,
0x03,
0x18,
0x05,
0xf8,
0x0a,
0x06,
0x18,
0xfe,
0xfc,
0x04,
0xfe,
0xff,
0xf8,
0xfe,
0x09,
0xf6,
0xf4,
0xeb,
0x01,
0x08,
0x01,
0xf9,
0xf6,
0x04,
0xf5,
0xfd,
0xfb,
0xf9,
0xf9,
0x08,
0x06,
0xf0,
0xfb,
0x1e,
0xfd,
0xee,
0x10,
0xf4,
0xf4,
0xef,
0xfc,
0x06,
0xf8,
0xf1,
0xfd,
0xf2,
0xfd,
0x13,
0xff,
0xeb,
0x03,
0xf5,
0x04,
0x00,
0x16,
0xfb,
0xfe,
0x09,
0x00,
0x05,
0xf4,
0xff,
0x0f,
0xf4,
0xf8,
0x1a,
0xf1,
0xf0,
0xf2,
0x07,
0xfd,
0x02,
0xff,
0xfc,
0xf3,
0x08,
0x10,
0x05,
0xfb,
0x0a,
0xff,
0xf9,
0xf3,
0x0b,
0xed,
0x01,
0xf6,
0x05,
0x08,
0x02,
0x06,
0x06,
0x04,
0x05,
0xfa,
0x03,
0x10,
0xed,
0x08,
0xff,
0x04,
0xf9,
0xff,
0xfa,
0x06,
0xf2,
0x07,
0xfe,
0x04,
0x06,
0xfb,
0xf8,
0x11,
0xff,
0x19,
0xe5,
0x05,
0xee,
0xf0,
0x07,
0xfc,
0xf0,
0x07,
0x0b,
0xfd,
0xfa,
0x01,
0xed,
0xfe,
0xfc,
0x06,
0xfc,
0x0c,
0xfc,
0x03,
0xf8,
0x06,
0xee,
0x07,
0x0d,
0xfe,
0xfd,
0xf9,
0x06,
0xff,
0x11,
0x00,
0xf3,
0x0c,
0x13,
0xef,
0x03,
0x0f,
0xf4,
0x09,
0xed,
0x02,
0xfb,
0xf8,
0xe7,
0xfb,
0x03,
0xf2,
0x12,
0x04,
0xf1,
0x00,
0xf9,
0xfb,
0x02,
0x07,
0x0b,
0x01,
0xfd,
0x05,
0xf0,
0x01,
0xf7,
0x08,
0xef,
0x05,
0xe3,
0xfd,
0x08,
0xfa,
0xe6,
0xfa,
0x01,
0x03,
0xff,
0xf1,
0xf9,
0x00,
0xfa,
0x0b,
0xf7,
0x03,
0x04,
0x0e,
0x00,
0xfa,
0x01,
0xff,
0xfd,
0xfe,
0x0a,
0xf1,
0x02,
0x04,
0x03,
0xf8,
0x22,
0xe7,
0x08,
0xe8,
0x0c,
0x0e,
0x17,
0xfe,
0x09,
0x09,
0x02,
0x09,
0x12,
0x0b,
0xfa,
0x07,
0xeb,
0xee,
0xf0,
0x03,
0x17,
0xe9,
0xde,
0xf6,
0xfb,
0xf8,
0xf4,
0x05,
0xe2,
0x07,
0xf9,
0xf4,
0xfc,
0xf7,
0x02,
0x0a,
0xf4,
0x0d,
0x04,
0x08,
0x0e,
0x0a,
0xee,
0xf5,
0xfd,
0x03,
0xf7,
0xf5,
0x13,
0xf6,
0xfd,
0xea,
0xfa,
0xfb,
0xe3,
0x11,
0x0c,
0x04,
0xf2,
0x0c,
0xf7,
0x09,
0x19,
0xf0,
0x10,
0x0b,
0x04,
0x10,
0x0b,
0xf2,
0x05,
0xf0,
0x12,
0xeb,
0xe7,
0x16,
0xf0,
0x26,
0x1e,
0xdd,
0xea,
0xff,
0x05,
0xfa,
0xec,
0x0d,
0x03,
0x00,
0xef,
0x0c,
0x06,
0x0b,
0x07,
0xee,
0xfd,
0xea,
0xfe,
0x0e,
0xf4,
0xf7,
0x18,
0xf8,
0xf6,
0xfe,
0x06,
0xea,
0x31,
0xf7,
0xfe,
0x0d,
0x01,
0x14,
0x0a,
0x03,
0xfb,
0xf6,
0x04,
0x2b,
0xe9,
0x1a,
0xf4,
0x1b,
0xe2,
0xea,
0xfa,
0x0d,
0x06,
0x04,
0xf1,
0xfc,
0x24,
0x09,
0xdf,
0xe7,
0x02,
0x05,
0xef,
0x1e,
0x0e,
0x05,
0x18,
0x22,
0x03,
0x0c,
0x05,
0xf7,
0xf4,
0xe7,
0xdb,
0xd2,
0x01,
0xe9,
0xf3,
0x0e,
0xea,
0xf8,
0x06,
0x04,
0x08,
0xfd,
0x13,
0x1b,
0xfa,
0x02,
0x06,
0x12,
0x04,
0x0a,
0x10,
0x04,
0x05,
0x08,
0x04,
0x0e,
0xec,
0xef,
0xfb,
0xf8,
0xf7,
0x0b,
0x15,
0xfb,
0xf8,
0x01,
0x05,
0x13,
0x0a,
0xfc,
0x0c,
0xf3,
0x0e,
0x0d,
0x06,
0xf8,
0x0e,
0x26,
0xf2,
0xef,
0xf9,
0xec,
0xf9,
0x09,
0xf6,
0xfb,
0x05,
0x00,
0xff,
0xfc,
0xf2,
0xfb,
0x21,
0x05,
0xef,
0x03,
0xfe,
0xfa,
0xe0,
0x0c,
0x15,
0x06,
0x02,
0xef,
0x0a,
0x01,
0xff,
0x05,
0xf6,
0x04,
0xf5,
0xf4,
0xf6,
0xfa,
0x06,
0xe8,
0xf2,
0x0d,
0xf6,
0xfb,
0x0c,
0xf0,
0xf5,
0x10,
0xef,
0xf7,
0x14,
0x0b,
0xec,
0x02,
0x13,
0x0b,
0xf4,
0x1f,
0xf8,
0xe2,
0xf1,
0x07,
0xf6,
0xf8,
0xfb,
0xf6,
0x02,
0xf8,
0xfb,
0xed,
0x0a,
0xfe,
0x01,
0xf9,
0xfd,
0x00,
0xf0,
0x04,
0xf2,
0x04,
0x07,
0x01,
0x26,
0xf5,
0xff,
0x0c,
0xf7,
0xf2,
0xea,
0xda,
0x00,
0xea,
0xf7,
0x0c,
0xf8,
0xdc,
0x0f,
0x17,
0xf1,
0xe8,
0x02,
0x1c,
0x07,
0x05,
0x0e,
0x2d,
0x00,
0x0d,
0xf4,
0x1d,
0x07,
0xf6,
0x03,
0xf6,
0x02,
0xf8,
0xff,
0xf0,
0x11,
0xff,
0xfe,
0x07,
0xff,
0xe6,
0xfe,
0xff,
0x00,
0xf5,
0x13,
0xfb,
0xf8,
0xf6,
0xf6,
0xc8,
0x08,
0xfe,
0x00,
0x09,
0x05,
0xf5,
0x00,
0xfd,
0x02,
0xfa,
0xeb,
0x06,
0x00,
0xfb,
0xff,
0x03,
0x15,
0x03,
0x03,
0xfd,
0x01,
0xfc,
0x00,
0x04,
0x07,
0xff,
0xe7,
0x02,
0xf6,
0xf9,
0xfe,
0xed,
0xf6,
0xf3,
0xf4,
0xee,
0xf8,
0xf2,
0xf8,
0x06,
0x0e,
0xf9,
0x05,
0x0c,
0x00,
0x00,
0xe7,
0x06,
0x3a,
0xff,
0xfc,
0xfe,
0xff,
0xfb,
0x00,
0xfb,
0xf9,
0x05,
0x16,
0x01,
0xf9,
0xfc,
0x08,
0x03,
0xf7,
0x10,
0xf5,
0xf8,
0xf5,
0xf7,
0x08,
0xfd,
0x01,
0x0a,
0x12,
0x09,
0x03,
0x03,
0x02,
0xf2,
0x02,
0x05,
0x01,
0x09,
0x05,
0x09,
0x09,
0x00,
0x0a,
0x08,
0x01,
0x01,
0x05,
0x02,
0xfe,
0x00,
0x07,
0x07,
0x01,
0x0d,
0xf0,
0xf6,
0xee,
0xfe,
0xf0,
0x01,
0x0b,
0x03,
0x04,
0xfb,
0x0c,
0x01,
0x04,
0xf3,
0x00,
0xfa,
0xe8,
0xf3,
0x0d,
0x01,
0x0e,
0x03,
0x04,
0xfe,
0xf0,
0x04,
0xf8,
0xec,
0xf8,
0xf7,
0xfa,
0xf6,
0xf8,
0x00,
0xff,
0xfa,
0x05,
0x07,
0xf7,
0x0c,
0xff,
0x02,
0xed,
0xff,
0xf1,
0xfe,
0xff,
0xf7,
0x0d,
0xfa,
0x07,
0x02,
0xfc,
0xef,
0xdf,
0xfa,
0x00,
0x06,
0xf8,
0x04,
0x0f,
0x00,
0x02,
0xfd,
0xf1,
0x02,
0xf0,
0x0c,
0x00,
0xff,
0xf6,
0xfe,
0x0a,
0xff,
0x00,
0x19,
0x04,
0xfa,
0x0d,
0x06,
0xfb,
0xfa,
0x06,
0xfb,
0x0a,
0x03,
0xfd,
0xff,
0x01,
0x04,
0xf9,
0xff,
0xef,
0x0a,
0x02,
0x03,
0x01,
0x04,
0x15,
0xf8,
0xfe,
0x03,
0x08,
0xfe,
0xff,
0xf8,
0x0c,
0x0e,
0xec,
0xfd,
0xf4,
0xfd,
0xf7,
0xfb,
0xed,
0x06,
0xf4,
0xfc,
0x01,
0xf8,
0x02,
0xfc,
0x01,
0xf6,
0xe9,
0x00,
0x10,
0x06,
0xfb,
0xfd,
0xff,
0xfd,
0x00,
0xfe,
0x17,
0xfb,
0x0a,
0x03,
0xed,
0xf1,
0xed,
0xfd,
0x01,
0x01,
0x00,
0x03,
0x0b,
0xfd,
0xfb,
0xf9,
0xee,
0x03,
0xfc,
0x01,
0xfa,
0xe8,
0x02,
0x08,
0x10,
0x04,
0x01,
0x09,
0xfc,
0xfb,
0xec,
0x08,
0xf3,
0x05,
0xfa,
0x00,
0xfa,
0xe9,
0xfe,
0x04,
0xfa,
0x00,
0x0d,
0x06,
0x01,
0x00,
0xee,
0xf2,
0xfa,
0xf9,
0x0b,
0xfd,
0xf7,
0x05,
0x0a,
0xfd,
0xf8,
0x0e,
0x03,
0xf3,
0xf1,
0x08,
0xf6,
0x03,
0xfa,
0x03,
0x00,
0x03,
0xfa,
0x16,
0x03,
0xfe,
0x00,
0x0b,
0xf3,
0xe1,
0x03,
0x02,
0xf2,
0xf6,
0xfe,
0x0a,
0x0c,
0x05,
0xf7,
0x17,
0xfb,
0xf3,
0x03,
0xf9,
0x05,
0x10,
0xf7,
0x09,
0xf8,
0x04,
0xed,
0xfc,
0x02,
0x10,
0x08,
0x1a,
0xf7,
0x01,
0x0a,
0xf3,
0xfc,
0xfd,
0x02,
0x04,
0xfc,
0xfb,
0xfb,
0xfe,
0xf7,
0xfe,
0x0a,
0xf5,
0xf9,
0xfc,
0xfa,
0x02,
0x01,
0xfe,
0x01,
0xff,
0x01,
0x04,
0x00,
0x0a,
0x05,
0x01,
0xff,
0xf9,
0xfa,
0xff,
0xf6,
0x05,
0x07,
0xfb,
0x00,
0xfd,
0x05,
0x09,
0xfc,
0x05,
0xf6,
0xfe,
0x00,
0xdf,
0xf8,
0xfe,
0xf9,
0xfd,
0x04,
0x02,
0xfa,
0xfc,
0xf6,
0x03,
0x08,
0x09,
0x04,
0xff,
0x09,
0x04,
0xe7,
0xfe,
0x04,
0x08,
0xfc,
0x0d,
0xf7,
0xfc,
0xfd,
0x06,
0xf0,
0x05,
0xf9,
0x05,
0x11,
0x22,
0x00,
0xff,
0xfd,
0xf8,
0x00,
0xfb,
0x02,
0xfd,
0xfd,
0xff,
0x04,
0xfb,
0xfb,
0x03,
0xfb,
0x19,
0xf1,
0x01,
0x0d,
0x0c,
0x09,
0x03,
0xff,
0xf9,
0x05,
0x0e,
0x12,
0xfa,
0xfa,
0xf6,
0xe9,
0x01,
0xe9,
0x01,
0x07,
0x06,
0xfa,
0x12,
0x0c,
0x08,
0x08,
0x09,
0xf6,
0x01,
0x00,
0x08,
0x00,
0xef,
0x0d,
0xff,
0xfe,
0x04,
0x00,
0x01,
0xfa,
0xf6,
0xf8,
0x03,
0xf2,
0x01,
0x04,
0x01,
0xfe,
0xfc,
0x05,
0x04,
0x0f,
0x00,
0x1d,
0x0f,
0x02,
0xfd,
0xf5,
0xf7,
0xf7,
0x08,
0x06,
0xfa,
0x09,
0x23,
0x12,
0x04,
0x06,
0x01,
0x0d,
0x02,
0x00,
0x01,
0xf8,
0x05,
0x0c,
0xff,
0x11,
0x01,
0xf9,
0xf4,
0xf4,
0x06,
0xf8,
0xf7,
0x04,
0x0d,
0x07,
0xf8,
0xff,
0x00,
0x01,
0xf5,
0xf9,
0x02,
0xf3,
0xfb,
0x0b,
0xfd,
0x04,
0xfe,
0x0e,
0x0b,
0xf6,
0xff,
0x04,
0xfe,
0xf2,
0x00,
0x07,
0x00,
0xf3,
0x15,
0x22,
0x04,
0x0a,
0xf0,
0xfe,
0x07,
0xfe,
0x0a,
0x03,
0x07,
0xf7,
0xf9,
0x09,
0xfa,
0xee,
0xd7,
0xf9,
0xf3,
0x01,
0xfa,
0x07,
0x08,
0x00,
0x03,
0x07,
0xf9,
0x08,
0xf9,
0x05,
0x0e,
0xf7,
0xd2,
0x04,
0xfe,
0x00,
0xfe,
0x0c,
0xfb,
0xfc,
0x06,
0xf1,
0xfe,
0xfc,
0x00,
0xf3,
0x06,
0x01,
0x13,
0x07,
0x03,
0x07,
0x0f,
0xe5,
0xf5,
0xfd,
0xfb,
0xf0,
0x17,
0x0c,
0xfa,
0x07,
0xfb,
0x02,
0xfb,
0x18,
0x01,
0xfa,
0x00,
0xe5,
0x09,
0x0c,
0xfd,
0xf5,
0xfc,
0x0f,
0x05,
0xfb,
0x02,
0xef,
0xf9,
0x17,
0x09,
0xf8,
0x0d,
0xef,
0x02,
0xfe,
0xfd,
0xed,
0x15,
0xf2,
0x03,
0xf7,
0x02,
0xfd,
0xee,
0x07,
0xfd,
0xf3,
0xfc,
0xf8,
0xfb,
0x0f,
0x04,
0xfb,
0xf7,
0xfc,
0xff,
0xf7,
0xf9,
0x02,
0xf4,
0xfd,
0x02,
0x15,
0x08,
0xf8,
0x02,
0x07,
0x00,
0x03,
0x1a,
0xfe,
0xfd,
0xff,
0x00,
0xfd,
0x0d,
0xe7,
0x0b,
0xff,
0x00,
0x01,
0x04,
0x04,
0xf5,
0x00,
0x0b,
0x02,
0xf9,
0x03,
0x0b,
0xe8,
0x15,
0x0e,
0x02,
0xf9,
0x11,
0xef,
0xfb,
0xe2,
0xf7,
0xfb,
0xfe,
0xf8,
0xfd,
0xf7,
0x13,
0xfd,
0xf7,
0xec,
0xf7,
0x03,
0x09,
0xef,
0xfc,
0xef,
0xf7,
0xfd,
0x06,
0x07,
0x08,
0x17,
0xf7,
0xf4,
0xf6,
0x0d,
0x15,
0xfd,
0x13,
0xf4,
0xf9,
0xfa,
0xfc,
0xf9,
0x0d,
0x05,
0x06,
0xfa,
0xfd,
0xf6,
0xe4,
0xf6,
0x0e,
0x0f,
0x0a,
0xdb,
0xcc,
0xe3,
0xfa,
0xf4,
0x26,
0x0f,
0xf7,
0x0b,
0xf3,
0x15,
0xee,
0xeb,
0x0a,
0xeb,
0xf5,
0x1c,
0xf9,
0xee,
0x06,
0x03,
0x0e,
0x03,
0xfe,
0xf4,
0x1e,
0x10,
0xf2,
0x0f,
0xfe,
0xf2,
0xf1,
0xfd,
0xf1,
0xf3,
0xe1,
0xe5,
0x04,
0x08,
0x00,
0x24,
0xfd,
0x08,
0xe8,
0x12,
0xf3,
0x07,
0xf6,
0x16,
0xd5,
0xf0,
0x13,
0xee,
0xf0,
0xf0,
0x07,
0xfc,
0x0a,
0x13,
0x0b,
0xff,
0xfd,
0xee,
0x03,
0x09,
0xeb,
0x02,
0xf5,
0xeb,
0x09,
0x15,
0xf8,
0x04,
0xf7,
0x17,
0xdf,
0x1a,
0xd6,
0xe2,
0xec,
0xe3,
0x07,
0xf2,
0xe1,
0xdf,
0xee,
0x07,
0xd5,
0xeb,
0xed,
0xf2,
0x1f,
0x05,
0x07,
0x25,
0xfa,
0xee,
0xee,
0xef,
0x00,
0xfa,
0xfa,
0x06,
0xec,
0xe1,
0xed,
0xf7,
0xe7,
0xfb,
0xe7,
0x0d,
0x05,
0x0d,
0x0a,
0x28,
0x17,
0xfe,
0x21,
0xf3,
0xf1,
0x15,
0xf9,
0x03,
0x06,
0xfb,
0x0f,
0xf1,
0x01,
0xf4,
0xf6,
0x23,
0x07,
0xf4,
0xfa,
0xf4,
0x15,
0xfb,
0x1d,
0xf2,
0xf8,
0x00,
0xfb,
0x0a,
0xdf,
0x0e,
0xfb,
0x11,
0xed,
0x06,
0xf8,
0x0c,
0x17,
0x0f,
0xf0,
0xeb,
0x06,
0x17,
0xfd,
0x0d,
0x14,
0xfb,
0x26,
0xfe,
0xeb,
0xe5,
0xf4,
0x03,
0xe5,
0xe3,
0xec,
0xe4,
0x1d,
0xee,
0x0e,
0xe6,
0xed,
0xfe,
0x3c,
0xfe,
0xf5,
0xf5,
0xf6,
0x03,
0x05,
0xf6,
0x0a,
0x28,
0x12,
0x06,
0x12,
0x01,
0xfa,
0x07,
0xf7,
0x0c,
0x00,
0xfe,
0x08,
0x0e,
0x38,
0xf0,
0xdf,
0x0e,
0xff,
0xef,
0xf1,
0xe6,
0x00,
0xf5,
0x09,
0xd9,
0x0b,
0xed,
0xf5,
0x04,
0xf3,
0x11,
0x09,
0xfd,
0xfe,
0xf2,
0xe3,
0x02,
0x13,
0x0e,
0x12,
0xf9,
0x02,
0x05,
0x09,
0xfa,
0xff,
0xf0,
0xec,
0x0a,
0xf1,
0xf5,
0x1c,
0xf8,
0xf9,
0x03,
0xf0,
0xfe,
0x0a,
0x02,
0x0d,
0x12,
0xe7,
0xe6,
0xf5,
0x01,
0xf4,
0x00,
0x1d,
0x04,
0xfb,
0xf2,
0xf9,
0xfe,
0x21,
0x07,
0x00,
0x02,
0xf2,
0x11,
0xe2,
0xf5,
0xfe,
0xfb,
0xff,
0x0f,
0x04,
0x16,
0x07,
0x05,
0x11,
0x0e,
0xfd,
0x16,
0x04,
0x07,
0xfc,
0x09,
0xf6,
0xf6,
0xf8,
0x0b,
0x08,
0x03,
0xfd,
0x08,
0x14,
0xe8,
0x11,
0x03,
0x00,
0x0b,
0x06,
0x06,
0x02,
0x04,
0x09,
0xf2,
0xfc,
0xfa,
0x0c,
0x03,
0xfc,
0xe7,
0xff,
0xf3,
0x02,
0x07,
0x04,
0xff,
0xfc,
0xf0,
0x01,
0x01,
0xfb,
0x01,
0xf7,
0x0a,
0x13,
0xed,
0xf9,
0x0c,
0x03,
0x09,
0x0a,
0x0f,
0xef,
0x02,
0xfe,
0xe7,
0xfb,
0x00,
0x06,
0xff,
0xf6,
0xf7,
0xff,
0x00,
0x03,
0xfa,
0x0c,
0x04,
0x00,
0xe8,
0xf7,
0xf4,
0xfe,
0x08,
0x00,
0xec,
0x08,
0x06,
0x04,
0xfe,
0xff,
0xfc,
0x0c,
0x01,
0x12,
0xfc,
0xee,
0xff,
0x02,
0xf0,
0x03,
0x0b,
0xf7,
0xf7,
0xf7,
0x14,
0x02,
0x04,
0xf9,
0xfb,
0x01,
0xf3,
0x07,
0x03,
0xf5,
0x07,
0x18,
0xfc,
0xef,
0xfa,
0x0b,
0x06,
0xfa,
0xff,
0x0b,
0xff,
0x08,
0xf4,
0xfa,
0xf8,
0xf7,
0xff,
0xfd,
0xf1,
0x02,
0xe8,
0xf6,
0xf9,
0xef,
0x07,
0x02,
0x03,
0x0c,
0x00,
0xfd,
0xfe,
0xf5,
0x00,
0xfd,
0xff,
0x06,
0x03,
0xfc,
0xfc,
0x08,
0x0b,
0x0a,
0xff,
0xef,
0xfd,
0xf7,
0xee,
0xf8,
0xff,
0x01,
0xfd,
0xfd,
0x05,
0x0a,
0xf9,
0xfc,
0x0e,
0x0a,
0x06,
0x00,
0xf8,
0xfe,
0xfc,
0x05,
0xfe,
0xf6,
0x08,
0x03,
0x05,
0x0a,
0xeb,
0xf9,
0xf8,
0xf6,
0x0a,
0x0a,
0xf0,
0x00,
0x0a,
0x02,
0x03,
0xf8,
0xfc,
0xf6,
0xec,
0xfc,
0x12,
0x08,
0xf9,
0xfd,
0xf7,
0xf8,
0xfb,
0x00,
0x02,
0x09,
0x05,
0x00,
0x05,
0xfe,
0xf7,
0xfc,
0x14,
0xfd,
0x07,
0x0f,
0x00,
0xff,
0xf4,
0xf8,
0xfe,
0xed,
0x0a,
0xff,
0xe7,
0x0b,
0x02,
0x01,
0x01,
0xf2,
0x04,
0xf1,
0xf4,
0xf2,
0x03,
0x09,
0x05,
0x04,
0x00,
0x08,
0x00,
0xf9,
0x0d,
0xfb,
0xfc,
0x06,
0xfa,
0xfb,
0xf8,
0xf9,
0xfc,
0xfd,
0xee,
0x05,
0xfe,
0x04,
0x00,
0x05,
0xec,
0x02,
0x0a,
0xfb,
0x0b,
0x08,
0x01,
0x05,
0xf5,
0xf2,
0xf4,
0xfe,
0xfb,
0x04,
0x02,
0x08,
0x15,
0x10,
0x07,
0xf7,
0x06,
0x00,
0xf9,
0x0e,
0xfc,
0xf2,
0xfb,
0xf9,
0x02,
0xff,
0xee,
0xf0,
0x12,
0xfb,
0xf5,
0x0a,
0x03,
0xf2,
0xfc,
0x0e,
0xf0,
0xf7,
0xf8,
0xf9,
0x06,
0xfb,
0x03,
0x0f,
0x09,
0xf9,
0xf5,
0x02,
0x08,
0xe9,
0xf9,
0x02,
0x0a,
0x0d,
0xfd,
0xfd,
0x12,
0x07,
0x05,
0x03,
0xea,
0xfa,
0x0b,
0xff,
0x06,
0xf0,
0x00,
0x12,
0x04,
0xfc,
0x0f,
0xf3,
0xfa,
0xe9,
0x05,
0xee,
0xf9,
0xfb,
0x14,
0xf5,
0xff,
0xf5,
0xfc,
0x0c,
0xfe,
0xf2,
0x04,
0xfb,
0xfa,
0x02,
0x06,
0xf7,
0x04,
0x08,
0xf0,
0xfb,
0x01,
0xec,
0x09,
0x04,
0xf7,
0x04,
0xf8,
0xf3,
0x02,
0xe3,
0x03,
0x08,
0xfc,
0x04,
0xf3,
0xff,
0xfe,
0xf9,
0xfb,
0xf3,
0x0e,
0x11,
0x02,
0x04,
0xfe,
0x00,
0xfc,
0x04,
0xfa,
0x07,
0xf5,
0xfb,
0xff,
0x0a,
0x01,
0x06,
0xf5,
0x01,
0x05,
0xfc,
0xf9,
0x01,
0xfa,
0x00,
0x13,
0x0b,
0xfe,
0xf7,
0xfe,
0x02,
0x06,
0xfc,
0xe0,
0x05,
0xed,
0xeb,
0x0c,
0xfa,
0x01,
0x04,
0xf6,
0x04,
0xfc,
0xfb,
0x04,
0x16,
0x01,
0x0d,
0x06,
0x11,
0xf7,
0x09,
0xfa,
0xff,
0xfe,
0xfa,
0xe7,
0xfe,
0xe8,
0x0b,
0x04,
0x00,
0x01,
0x05,
0xed,
0xfe,
0xf5,
0x0b,
0xff,
0x01,
0x05,
0xf5,
0x02,
0x06,
0xf9,
0x07,
0xfb,
0x05,
0xf0,
0x0f,
0x0e,
0xf2,
0x00,
0xfb,
0x01,
0xf7,
0xfb,
0xfc,
0x15,
0xf8,
0x05,
0x09,
0x05,
0xf6,
0x07,
0x03,
0x06,
0x19,
0xfa,
0xff,
0xfd,
0x04,
0xf9,
0x09,
0x08,
0x05,
0xfb,
0xf3,
0x07,
0xfe,
0x03,
0x00,
0xfe,
0xf7,
0xe9,
0xf6,
0x09,
0x0b,
0x12,
0xfd,
0x1c,
0x05,
0x01,
0x06,
0xfa,
0x05,
0x06,
0xf9,
0xfc,
0xfd,
0x05,
0xf9,
0x04,
0xf5,
0x03,
0xf1,
0xf3,
0xfb,
0x02,
0xf1,
0xf9,
0x06,
0x0a,
0xf9,
0x02,
0xfd,
0xfe,
0x11,
0xf2,
0xfc,
0x02,
0xf4,
0xf5,
0x02,
0x10,
0xf9,
0x04,
0x17,
0x06,
0x0c,
0xf9,
0xd8,
0x13,
0xf3,
0xfc,
0xfd,
0x06,
0xfc,
0x0b,
0xf4,
0x0b,
0x01,
0x0c,
0x0e,
0x07,
0x02,
0x06,
0x04,
0xf4,
0x12,
0xe9,
0xf3,
0xee,
0xf6,
0xe5,
0x01,
0xe8,
0x02,
0x01,
0xff,
0xf7,
0x09,
0xf1,
0x07,
0xfc,
0x0a,
0x06,
0x04,
0x0b,
0x14,
0x0e,
0x06,
0xf7,
0xe9,
0xf3,
0x08,
0xe6,
0x07,
0x01,
0xf5,
0x12,
0x06,
0xfa,
0xee,
0x0d,
0xea,
0x16,
0xfb,
0xfd,
0x01,
0xfb,
0xf6,
0x06,
0x11,
0x01,
0x0a,
0x12,
0xfb,
0x04,
0xea,
0xfc,
0x09,
0x02,
0x04,
0x01,
0x03,
0xfb,
0xf8,
0x04,
0x0f,
0x03,
0xf5,
0x06,
0x05,
0x03,
0xfd,
0xf0,
0xff,
0xf1,
0x07,
0xe0,
0x0f,
0xfb,
0x11,
0xf7,
0x07,
0x0c,
0xf9,
0xfc,
0xfc,
0x07,
0xf6,
0xf2,
0xf9,
0x00,
0xf5,
0xfb,
0x08,
0x04,
0xf8,
0x01,
0x12,
0xfb,
0xf1,
0xf7,
0xfc,
0x02,
0xf8,
0x11,
0x07,
0x0f,
0xf3,
0xfa,
0x05,
0xfd,
0x04,
0x01,
0x03,
0x00,
0xf1,
0x04,
0xf8,
0xf0,
0xf8,
0x07,
0xf5,
0xef,
0x0b,
0xfc,
0xff,
0xff,
0x0b,
0x06,
0xfd,
0xf5,
0xfe,
0x08,
0xf4,
0x02,
0xf8,
0x09,
0x06,
0x04,
0x04,
0x0c,
0x00,
0xff,
0xef,
0x0a,
0xf8,
0x06,
0xfc,
0x0a,
0xf7,
0x13,
0xf6,
0x08,
0x10,
0x07,
0xff,
0xf0,
0x00,
0x02,
0x10,
0xfe,
0x03,
0x05,
0x0b,
0x03,
0x05,
0xfc,
0xf4,
0xfe,
0xfa,
0x0c,
0xfe,
0xf4,
0xff,
0xfa,
0x06,
0xfb,
0x2d,
0xf8,
0xf4,
0xed,
0xfd,
0x09,
0x09,
0x06,
0x0a,
0xeb,
0xfb,
0xee,
0x02,
0xfb,
0x03,
0xe8,
0x03,
0x00,
0xec,
0x01,
0x14,
0x07,
0xed,
0x03,
0xf1,
0x10,
0xea,
0x1f,
0x15,
0xf6,
0x08,
0xfc,
0x07,
0x0a,
0xfe,
0x08,
0x01,
0x07,
0x12,
0xf0,
0x00,
0x05,
0xfc,
0x00,
0xf2,
0x0a,
0xe7,
0xfa,
0xff,
0xfb,
0x0e,
0xfc,
0x25,
0x00,
0xfd,
0x12,
0xf2,
0x08,
0xef,
0x12,
0x00,
0x19,
0xd1,
0x29,
0xfe,
0xf7,
0xe9,
0xf9,
0xde,
0xd4,
0xeb,
0xfd,
0xe7,
0x02,
0x09,
0xef,
0xf0,
0xf1,
0x05,
0x0c,
0xf9,
0x05,
0xf5,
0xfe,
0xf5,
0xf8,
0xf9,
0x12,
0xf4,
0xfe,
0xf5,
0xf3,
0xf1,
0xfa,
0xfa,
0xea,
0x17,
0x00,
0xd6,
0xf7,
0xf2,
0x0f,
0x0c,
0xec,
0x07,
0xf0,
0xf2,
0xdf,
0xdf,
0xe6,
0xe4,
0xfb,
0xfa,
0xf4,
0xdb,
0x05,
0xf8,
0x0a,
0x17,
0xed,
0xfa,
0xfc,
0xef,
0xe8,
0x00,
0xfd,
0x13,
0x1e,
0xf7,
0xf6,
0xfd,
0x0a,
0x0c,
0xfe,
0xe7,
0x0d,
0xff,
0x03,
0x05,
0x2f,
0xf3,
0x1a,
0xee,
0xed,
0x02,
0x13,
0x0f,
0x00,
0xfa,
0xef,
0xe3,
0xfb,
0xfa,
0xed,
0xfd,
0xfc,
0x04,
0xf7,
0xfa,
0xfd,
0x05,
0x01,
0xe1,
0xfa,
0xf1,
0xed,
0xe6,
0xec,
0x01,
0x03,
0xf2,
0xf9,
0xec,
0xfd,
0x09,
0xf1,
0x07,
0x36,
0x0f,
0xff,
0xf0,
0x0b,
0xe3,
0xf5,
0x33,
0xef,
0xf2,
0xe8,
0xde,
0xf3,
0xf1,
0xe4,
0x14,
0xfd,
0x0f,
0x02,
0xfc,
0xf3,
0x04,
0xf4,
0xdc,
0x0d,
0xec,
0x20,
0x11,
0xea,
0x02,
0xee,
0x0f,
0x0a,
0xee,
0xf8,
0xfb,
0x03,
0x1b,
0xf0,
0xe7,
0x0d,
0xe2,
0x05,
0x01,
0x03,
0xf9,
0x02,
0x0f,
0x05,
0xf1,
0x05,
0x02,
0xfa,
0x19,
0x05,
0x04,
0x03,
0xfe,
0xfa,
0x03,
0xef,
0xff,
0x15,
0xfc,
0xf0,
0xe4,
0x02,
0x04,
0x00,
0x01,
0xf1,
0x0a,
0x0a,
0x0e,
0x17,
0xdc,
0x17,
0x10,
0x0d,
0xdd,
0x1e,
0x02,
0x00,
0xea,
0xe4,
0xf8,
0x1c,
0xe3,
0x04,
0xe4,
0xfb,
0xf5,
0xf6,
0x11,
0xff,
0x06,
0xf6,
0x16,
0xf0,
0xfa,
0x13,
0xe6,
0xf8,
0xfc,
0x03,
0x00,
0x2d,
0xf1,
0x03,
0xf6,
0xf4,
0x06,
0xf3,
0xf9,
0x07,
0x0a,
0x0c,
0xf5,
0x09,
0x0b,
0xfa,
0xed,
0xf7,
0x11,
0x07,
0xf3,
0x0c,
0x05,
0xf6,
0x02,
0x14,
0xf9,
0x03,
0x00,
0xf9,
0xfd,
0x0c,
0xf4,
0xfc,
0x05,
0x0b,
0x01,
0xf2,
0xf8,
0xfd,
0x01,
0x03,
0x05,
0xff,
0x02,
0xfa,
0xf2,
0xf5,
0xfd,
0xfd,
0xfa,
0x04,
0x01,
0x0c,
0x01,
0xfb,
0x02,
0x0b,
0x03,
0x06,
0xf3,
0x00,
0x02,
0x0a,
0xef,
0x11,
0x0e,
0xfc,
0xec,
0x09,
0x0c,
0xee,
0xfc,
0x07,
0xff,
0x00,
0x04,
0x00,
0xff,
0xfe,
0x06,
0xf8,
0x0a,
0x0e,
0xfa,
0xff,
0xff,
0xfd,
0xf8,
0xf7,
0x11,
0xfa,
0x01,
0x0a,
0xf8,
0xfc,
0xf7,
0xfd,
0x03,
0x01,
0x06,
0x02,
0x0a,
0x01,
0x05,
0x06,
0x01,
0x00,
0x00,
0x01,
0xf8,
0x09,
0x01,
0xf3,
0x08,
0xf6,
0x04,
0xf6,
0x0d,
0x04,
0xf5,
0x00,
0xf7,
0xfc,
0x0a,
0x0a,
0x13,
0x00,
0x06,
0xfb,
0x0f,
0x0b,
0x00,
0xf1,
0xed,
0xfa,
0x01,
0xf6,
0x03,
0xfb,
0x00,
0xfe,
0xf5,
0xec,
0xfa,
0x02,
0x0f,
0x0f,
0xfb,
0x07,
0x07,
0xff,
0x01,
0xf7,
0x00,
0xf8,
0x05,
0x0d,
0xfa,
0x11,
0xf8,
0x04,
0x0a,
0xea,
0xf9,
0x01,
0xfb,
0xf6,
0xff,
0xf5,
0xfc,
0x03,
0xf4,
0x07,
0x00,
0x06,
0x03,
0x08,
0x01,
0xfa,
0xfa,
0x04,
0x02,
0x06,
0xfb,
0x0e,
0xfd,
0xfe,
0x06,
0x06,
0xff,
0xf9,
0x03,
0xf0,
0xf7,
0x05,
0x04,
0xf9,
0xf5,
0x07,
0x06,
0xf9,
0x04,
0x01,
0xfd,
0x01,
0xf8,
0x08,
0x0a,
0x01,
0xff,
0x02,
0x01,
0x05,
0xfe,
0x06,
0xfc,
0x0b,
0x04,
0xfe,
0xf4,
0x04,
0x05,
0xfb,
0x01,
0xfe,
0x17,
0xf9,
0xfd,
0xfc,
0x08,
0x00,
0x02,
0xe8,
0xfe,
0xf8,
0x1c,
0xf3,
0x05,
0x0a,
0x04,
0x0d,
0x03,
0x0e,
0xf5,
0x07,
0xff,
0xf8,
0x0a,
0xf2,
0x09,
0xfc,
0x0b,
0x02,
0x02,
0xf9,
0x15,
0xf9,
0x04,
0xf6,
0x03,
0x00,
0x07,
0xff,
0xf4,
0x03,
0x07,
0xf9,
0x02,
0xf9,
0x03,
0xfe,
0x0d,
0x03,
0x04,
0xfd,
0xff,
0xfc,
0xfc,
0x00,
0xf0,
0x13,
0x0c,
0x03,
0x03,
0xff,
0x11,
0x05,
0xed,
0xf7,
0x03,
0xef,
0xf0,
0x06,
0x0a,
0x03,
0xfe,
0xfb,
0x02,
0xf1,
0x09,
0xf8,
0x07,
0x0b,
0xf9,
0xfe,
0x0e,
0xf1,
0xef,
0xfa,
0x04,
0xf3,
0x00,
0x0d,
0xfc,
0xea,
0x05,
0x07,
0x02,
0x08,
0x03,
0xf9,
0x02,
0xff,
0xfe,
0x00,
0xf9,
0xfd,
0xfe,
0x15,
0x08,
0x01,
0xf9,
0xfc,
0x17,
0xe1,
0x0a,
0xfb,
0xf5,
0x08,
0x02,
0x09,
0xfe,
0xfa,
0x04,
0x01,
0xfd,
0xfc,
0xfc,
0x08,
0xf8,
0x06,
0x10,
0x01,
0xfa,
0x08,
0x05,
0xfb,
0xfe,
0x0f,
0x11,
0x10,
0x08,
0xf5,
0xf8,
0xfe,
0x03,
0xfe,
0xf4,
0xff,
0x05,
0xf4,
0xee,
0x09,
0x07,
0xf6,
0xfd,
0x01,
0xef,
0xf9,
0x04,
0x04,
0xff,
0x04,
0x00,
0x04,
0xf5,
0xec,
0x02,
0xfc,
0xfc,
0x05,
0xf7,
0xfc,
0x07,
0xfb,
0x04,
0x09,
0xf9,
0xf4,
0x05,
0x01,
0xfe,
0x10,
0xfd,
0x01,
0x05,
0x02,
0x04,
0x03,
0xfc,
0xfb,
0x04,
0xf9,
0xf4,
0xfc,
0x0a,
0xfc,
0xf9,
0xfe,
0x03,
0x02,
0xff,
0x05,
0xfb,
0x15,
0xf9,
0xff,
0xff,
0xfc,
0xfe,
0x09,
0x01,
0x03,
0xf7,
0x08,
0xfe,
0x05,
0x03,
0xf7,
0xfa,
0xfb,
0xfe,
0xfb,
0x02,
0x00,
0x03,
0xfa,
0xfa,
0xfa,
0x04,
0x03,
0x04,
0x08,
0xfa,
0xfb,
0x0d,
0x0f,
0xf7,
0x11,
0xfe,
0xf0,
0x15,
0x07,
0xfa,
0xf1,
0x03,
0xe7,
0xfd,
0x02,
0x0a,
0xf4,
0xff,
0xf2,
0xff,
0xef,
0x00,
0x07,
0xf5,
0xfa,
0x02,
0x0b,
0x0a,
0xf0,
0xfc,
0xff,
0xfc,
0xf5,
0x02,
0x08,
0xf9,
0xf8,
0xff,
0x00,
0x03,
0xfb,
0x06,
0x04,
0x05,
0xf2,
0x03,
0x01,
0x01,
0x06,
0xfa,
0x09,
0xfc,
0xf7,
0x0c,
0xfd,
0x00,
0x12,
0x0a,
0x08,
0xe0,
0x10,
0x03,
0x0a,
0x05,
0xfd,
0x04,
0xfd,
0x04,
0x06,
0xfb,
0x03,
0x04,
0xfc,
0xfa,
0xff,
0xfb,
0xfa,
0xfc,
0xf2,
0xf1,
0x0e,
0x03,
0xf5,
0xe8,
0x05,
0x07,
0xee,
0xfd,
0x0a,
0x0d,
0xf8,
0x1d,
0x08,
0x0d,
0xfd,
0xf1,
0x0a,
0x0d,
0x00,
0x04,
0x09,
0xf3,
0xf5,
0x01,
0x0e,
0x05,
0xf8,
0x0a,
0xd9,
0xeb,
0xfc,
0x19,
0xf6,
0xfe,
0x07,
0xf5,
0x0a,
0xf7,
0xf0,
0x00,
0xef,
0xf2,
0x04,
0xea,
0xeb,
0xff,
0xfb,
0xfb,
0xf8,
0xff,
0xf4,
0xff,
0x09,
0xf4,
0xff,
0x0c,
0xfa,
0xff,
0xff,
0x00,
0x0b,
0x0b,
0xf5,
0x0d,
0xec,
0xf3,
0x06,
0xeb,
0xfa,
0xfb,
0x05,
0x01,
0x12,
0x19,
0xf0,
0xff,
0x06,
0xfb,
0xff,
0xee,
0xff,
0xee,
0xfc,
0xf3,
0xe6,
0x18,
0xf7,
0x00,
0x0d,
0xef,
0x08,
0x00,
0xfc,
0xf0,
0x04,
0xf9,
0xee,
0xf8,
0x15,
0xf6,
0xf3,
0x02,
0x04,
0x01,
0xf0,
0x05,
0xfe,
0xed,
0xef,
0xfe,
0x02,
0x05,
0x00,
0xfb,
0xe9,
0xfd,
0x00,
0x05,
0x0c,
0x01,
0x09,
0x0c,
0xfb,
0x06,
0x0d,
0xf6,
0x02,
0x0b,
0xfd,
0xff,
0x03,
0x09,
0x0a,
0xef,
0x02,
0xfe,
0x04,
0x02,
0xf3,
0xfe,
0x09,
0xfb,
0xfa,
0x07,
0xff,
0x04,
0x05,
0xf4,
0xf0,
0xff,
0xf7,
0xfe,
0x07,
0xec,
0xf6,
0x07,
0x02,
0xf2,
0x00,
0xfc,
0xf4,
0xfa,
0xfc,
0x05,
0xf8,
0xfc,
0x0d,
0x01,
0x02,
0xf6,
0x07,
0xf7,
0x0c,
0xfb,
0x09,
0x0a,
0x08,
0xfc,
0x18,
0x0f,
0xf6,
0xf9,
0xfd,
0x03,
0xe6,
0xfa,
0x05,
0xea,
0xf6,
0xf9,
0xff,
0xfc,
0xf7,
0xea,
0xf6,
0x02,
0x00,
0xfd,
0x0f,
0xf9,
0xf0,
0xf6,
0x05,
0xfc,
0xef,
0xe1,
0xe7,
0x04,
0xf6,
0xf7,
0x04,
0xfe,
0xf8,
0x16,
0xfb,
0x00,
0xf7,
0x05,
0xf7,
0x0b,
0x02,
0x04,
0xfd,
0xf5,
0xfd,
0xdd,
0x09,
0xf1,
0xe6,
0x23,
0xec,
0xf3,
0x16,
0xf1,
0xeb,
0xfa,
0xde,
0xf7,
0xfa,
0xe1,
0xde,
0x0a,
0x07,
0xf9,
0xf3,
0xfb,
0xfc,
0xfe,
0xff,
0x07,
0xed,
0x0a,
0x19,
0x01,
0x00,
0xfc,
0xfa,
0xf7,
0xef,
0x1b,
0xec,
0xe3,
0xec,
0x10,
0x1b,
0xe5,
0xe1,
0x03,
0xe6,
0x0c,
0xd4,
0xeb,
0xe0,
0xf0,
0x13,
0x01,
0xf3,
0xfe,
0xfa,
0x02,
0x0b,
0x3a,
0x06,
0x0c,
0xfe,
0xff,
0x05,
0xf5,
0x01,
0x03,
0x24,
0xf4,
0xf1,
0xf6,
0x01,
0xd7,
0xed,
0xeb,
0x06,
0x09,
0xf8,
0xda,
0x01,
0x05,
0xfe,
0xf4,
0xee,
0x01,
0x09,
0xff,
0x1b,
0x15,
0x09,
0xf5,
0x0f,
0x00,
0x01,
0x00,
0xda,
0xf7,
0xdd,
0x0b,
0x0e,
0x07,
0x10,
0xf2,
0xfe,
0x18,
0xe4,
0xff,
0xf7,
0xfd,
0x15,
0xf4,
0xf1,
0x26,
0xe5,
0x08,
0xfe,
0x03,
0xfe,
0x06,
0x00,
0x06,
0xf4,
0x10,
0x10,
0x0c,
0x0f,
0xfc,
0x2c,
0x01,
0xf5,
0x13,
0xfd,
0x0b,
0x0c,
0x15,
0xf4,
0x15,
0xfc,
0x07,
0x05,
0xf4,
0x0f,
0x01,
0xf2,
0x12,
0xed,
0xff,
0xf8,
0xfc,
0xe7,
0x28,
0x1b,
0xfc,
0xef,
0xfd,
0x0d,
0x2a,
0xe9,
0x09,
0xf7,
0xf4,
0x15,
0xff,
0x10,
0x02,
0xfd,
0xf1,
0xe8,
0xfc,
0xef,
0xdd,
0x18,
0x11,
0x04,
0xfd,
0xe0,
0xcd,
0xda,
0xf0,
0x05,
0xf3,
0xf6,
0xed,
0xff,
0x08,
0xee,
0xf3,
0x0a,
0x06,
0x23,
0xfb,
0x0d,
0xf9,
0x1a,
0x00,
0x03,
0x10,
0x04,
0xfc,
0x00,
0x01,
0x06,
0xc8,
0xf9,
0xf5,
0x09,
0x01,
0x10,
0xfa,
0xfb,
0xf4,
0x01,
0xf2,
0xfc,
0xf7,
0xf4,
0xec,
0xf3,
0xfc,
0xea,
0xf1,
0x29,
0xf5,
0xf7,
0xfa,
0x02,
0x01,
0xf3,
0x0d,
0x00,
0xfc,
0x02,
0x12,
0x1a,
0xfd,
0xfc,
0x06,
0x17,
0x08,
0xe3,
0x28,
0x15,
0x0b,
0x1b,
0x08,
0xe6,
0xe6,
0x0f,
0xf9,
0x1d,
0x1b,
0xed,
0xf7,
0x0e,
0x08,
0xe4,
0x16,
0x0b,
0xfb,
0xf7,
0xfd,
0xf6,
0x06,
0xfc,
0x1d,
0xf7,
0xf3,
0x06,
0xf9,
0xf3,
0xfe,
0xf5,
0xef,
0x07,
0xf1,
0x16,
0x27,
0xfa,
0xfa,
0x29,
0x0a,
0x14,
0xe0,
0xe8,
0xfa,
0xeb,
0x0b,
0x19,
0xfc,
0xea,
0x33,
0xf5,
0xf1,
0x09,
0x0a,
0xe1,
0xbd,
0x0b,
0x0d,
0x0f,
0x12,
0xe0,
0x10,
0x35,
0x08,
0x29};
