/* SPDX-License-Identifier: GPL-2.0 */
/*
 * Copyright (c) 2020 MediaTek Inc.
 *
 * Author: Ya-Wen Hsu <Ya-Wen.Hsu@mediatek.com>
 *
 */
char fdvt_kernel_bias_loop21_0_frame01[] = {
0x05,
0xff,
0xff,
0xf6,
0x01,
0xfb,
0x04,
0xf9,
0x05,
0xfd,
0x01,
0xf7,
0xff,
0xfe,
0x03,
0xf8,
0xff,
0x00,
0xf1,
0xf9,
0xf5,
0xf9,
0xf8,
0xfa,
0xf9,
0xea,
0xfb,
0xfe,
0x05,
0xf6,
0x06,
0x01,
0xf0,
0xf7,
0x0e,
0x03,
0x0b,
0xf9,
0x0b,
0x03,
0xfb,
0x04,
0x11,
0x0b,
0x06,
0x08,
0x09,
0x07,
0x01,
0x00,
0x13,
0x09,
0x0d,
0x02,
0x3d,
0x17,
0xff,
0x00,
0x09,
0x00,
0x10,
0x01,
0x3e,
0x1b,
0xfe,
0x06,
0xff,
0x08,
0x03,
0x04,
0xfe,
0x06,
0x07,
0x00,
0x02,
0x06,
0xfa,
0xfe,
0x00,
0x05,
0x05,
0x02,
0xf7,
0x1b,
0x08,
0x07,
0xec,
0x1d,
0x03,
0x04,
0xf3,
0x20,
0x0b,
0x05,
0xe8,
0x22,
0x0d,
0xf1,
0xf9,
0x06,
0x0b,
0x02,
0xef,
0xfc,
0x1a,
0xfa,
0x05,
0x05,
0x15,
0xfe,
0xf3,
0xf4,
0x0f,
0x09,
0xf7,
0xef,
0xf6,
0x07,
0x01,
0xf8,
0x0b,
0x01,
0xef,
0xee,
0xf5,
0xff,
0xf9,
0xf7,
0x0d,
0xed,
0xf9,
0x04,
0xf3,
0xe8,
0xfe,
0x02,
0x05,
0xf3,
0xfb,
0x01,
0xf9,
0xf4,
0x05,
0x06,
0xe5,
0xfe,
0x40,
0x64,
0xdd,
0xff,
0x49,
0x60,
0xee,
0xf5,
0x44,
0x6f,
0xe0,
0xfc,
0x4d,
0x6a,
0x02,
0xf6,
0xf2,
0xfc,
0xfc,
0xfc,
0xfb,
0x05,
0xfe,
0xfa,
0xfd,
0x09,
0x06,
0xfd,
0x03,
0x0d,
0xeb,
0xfc,
0x15,
0x11,
0xfc,
0xf8,
0x15,
0x19,
0xe2,
0x0a,
0x09,
0x07,
0x00,
0x03,
0x0a,
0x11,
0xea,
0x06,
0xf3,
0xf3,
0xfb,
0x05,
0x0d,
0x08,
0xf1,
0xf6,
0xec,
0xec,
0xff,
0xff,
0x0d,
0x07,
0xf5,
0x1b,
0xfe,
0x03,
0x03,
0x17,
0xf8,
0x07,
0xfd,
0x24,
0xee,
0xf5,
0xe8,
0x1c,
0xea,
0xf6,
0xe8,
0x17,
0x0a,
0xfb,
0xe1,
0x2c,
0x11,
0x04,
0xf9,
0x19,
0x03,
0xf9,
0xe8,
0x21,
0x05,
0xf7,
0xf8,
0xfc,
0x08,
0xfd,
0xf9,
0xfd,
0x01,
0xf5,
0xfc,
0x02,
0x14,
0x06,
0x01,
0x08,
0x08,
0xfc,
0x01,
0x09,
0x18,
0xe4,
0x02,
0x06,
0x14,
0xe2,
0x00,
0xff,
0x18,
0xe6,
0x01,
0xfd,
0x16,
0xe4,
0x0d,
0x07,
0x07,
0x03,
0xfc,
0x02,
0x08,
0x01,
0x06,
0x0a,
0x02,
0xff,
0xfd,
0x08,
0x05,
0xfe,
0x01,
0xfe,
0x0c,
0x00,
0x06,
0xf5,
0x00,
0xf1,
0xf7,
0x00,
0x0d,
0x08,
0x05,
0xfd,
0xfd,
0xf6,
0xed,
0x00,
0x22,
0xfb,
0xfd,
0x07,
0x07,
0xf9,
0xf6,
0x02,
0x2c,
0x06,
0xfc,
0x01,
0x0a,
0xfc,
0x06,
0xfa,
0xf9,
0x04,
0xfb,
0xec,
0xf8,
0x0d,
0x01,
0xf6,
0xf0,
0xfb,
0xfa,
0x04,
0x07,
0x1a,
0x03,
0xfe,
0x01,
0xf6,
0x00,
0xfa,
0x05,
0xfa,
0xff,
0xff,
0x04,
0xf9,
0xfd,
0xfc,
0x06,
0xf9,
0x06,
0x0c,
0xfb,
0xf4,
0x37,
0x09,
0xd6,
0xd0,
0x15,
0xf7,
0xf0,
0xe5,
0x2e,
0x01,
0xd3,
0xc8,
0x19,
0xf7,
0x01,
0xee,
0xf3,
0xf9,
0xc6,
0xd0,
0x1b,
0x0c,
0xd8,
0xcd,
0xe8,
0x07,
0xa2,
0xb4,
0xfd,
0xff,
0x0e,
0x0a,
0xf8,
0xf9,
0x02,
0x03,
0xfb,
0x04,
0x0c,
0x0b,
0xf5,
0x05,
0x03,
0x06,
0xfc,
0x02,
0xfc,
0x03,
0x03,
0x01,
0xfa,
0x00,
0xff,
0x02,
0xfa,
0x02,
0x04,
0x00,
0xfa,
0xff,
0x01,
0x06,
0x13,
0x28,
0x02,
0x00,
0x15,
0x2b,
0x01,
0x05,
0x0e,
0x0d,
0xff,
0x02,
0x11,
0x0f,
0x0a,
0x04,
0x12,
0xf7,
0x1b,
0x04,
0x2c,
0x0e,
0x0d,
0xfc,
0x13,
0xff,
0x1e,
0x06,
0x2d,
0x15,
0xf6,
0xfb,
0xff,
0x00,
0xf0,
0x03,
0x09,
0x02,
0xf5,
0xfb,
0xfb,
0xfd,
0xf2,
0xf8,
0x09,
0x03,
0x12,
0xf8,
0xe0,
0xf1,
0xfa,
0xfb,
0xfa,
0x08,
0x0f,
0x07,
0xe5,
0xf1,
0xf2,
0xfa,
0xfd,
0x06,
0x06,
0xe7,
0xed,
0xfe,
0xf9,
0xea,
0xec,
0x00,
0x08,
0x0a,
0x0d,
0x35,
0xfb,
0x0d,
0x07,
0x2e,
0xe6,
0xe3,
0xf6,
0xee,
0x01,
0xe5,
0x03,
0xf8,
0xf8,
0x17,
0xfb,
0xf2,
0x07,
0x2d,
0x04,
0xfa,
0x00,
0x06,
0x3e,
0x3e,
0xfc,
0x06,
0x41,
0x3f,
0x01,
0xff,
0x40,
0x3d,
0xfe,
0xff,
0x42,
0x3e};
