/* SPDX-License-Identifier: GPL-2.0 */
/*
 * Copyright (c) 2020 MediaTek Inc.
 *
 * Author: Ya-Wen Hsu <Ya-Wen.Hsu@mediatek.com>
 *
 */

char fdvt_kernel_bias_loop63_0_frame01[] = {
0xfc,
0x15,
0x08,
0x10,
0xff,
0xf7,
0xf9,
0x03,
0xe5,
0xdb,
0xfe,
0x11,
0xfe,
0xfe,
0x09,
0xf1,
0x1d,
0x08,
0x06,
0xf8,
0x09,
0xf9,
0xfc,
0xfe,
0x09,
0x00,
0x0d,
0xf8,
0x03,
0xec,
0x06,
0xfe,
0xf7,
0xf1,
0xfd,
0xe2,
0x01,
0x0d,
0x5c,
0x29,
0x00,
0xe3,
0x04,
0xf6,
0xfc,
0xed,
0x07,
0xf0,
0xfb,
0x0e,
0xf5,
0xfc,
0xf4,
0x04,
0xf9,
0xfb,
0x24,
0x04,
0x22,
0x10,
0xf6,
0xf7,
0xfb,
0xee,
0xed,
0x04,
0xf6,
0x10,
0xf5,
0xec,
0xfa,
0xfd,
0xf4,
0xfe,
0xf1,
0xf2,
0x09,
0x0d,
0xf3,
0xeb,
0x14,
0x3f,
0x06,
0x1e,
0x0b,
0x02,
0xe5,
0xd5,
0x0b,
0x11,
0x0d,
0x11,
0xfe,
0x2e,
0x19,
0x00,
0xf5,
0xe7,
0xdf,
0xee,
0xff,
0xfe,
0xfb,
0x91,
0xe0,
0x09,
0xf3,
0xf1,
0x07,
0xff,
0xf9,
0xe4,
0x01,
0x14,
0xf4,
0x03,
0xee,
0x00,
0xf6,
0x06,
0xf8,
0xff,
0x06,
0xe5,
0x03,
0xfb,
0xf3,
0xee,
0xee,
0x00,
0xe8,
0xf1,
0xf0,
0x0b,
0x0c,
0x02,
0x1b,
0x0f,
0x00,
0xf7,
0xf6,
0x07,
0x16,
0x01,
0xff,
0x24,
0x0d,
0x10,
0xee,
0xcb,
0x12,
0x03,
0x1d,
0xfd,
0xf4,
0xfc,
0xfa,
0x02,
0xf1,
0xfc,
0x03,
0xfe,
0x1e,
0x0f,
0xea,
0x02,
0xdf,
0xfe,
0xe8,
0xea,
0xfe,
0xff,
0xf1,
0xe9,
0x11,
0x02,
0x07,
0xf5,
0x02,
0xf3,
0x13,
0xfd,
0x00,
0xfc,
0xf1,
0xf9,
0xfc,
0x0a,
0xf7,
0xe6,
0xf7,
0x2f,
0x16,
0x0b,
0xe8,
0xf2,
0x0b,
0x2f,
0xee,
0x01,
0xf8,
0x27,
0x0c,
0x0f,
0x16,
0xfc,
0x09,
0x0c,
0x12,
0x03,
0x2d,
0x0e,
0xfc,
0x24,
0x31,
0x00,
0xff,
0x21,
0xef,
0xeb,
0xff,
0x06,
0x14,
0x1a,
0x1a,
0xf5,
0x03,
0x00,
0xfe,
0xf5,
0x15,
0xfa,
0xf6,
0x03,
0x07,
0x04,
0x18,
0xd8,
0x13,
0x09,
0x00,
0xfe,
0x0c,
0xfe,
0xec,
0x1b,
0xf0,
0x04,
0x02,
0xf6,
0xe5,
0x08,
0x01,
0xf2,
0xf3,
0x00,
0xef,
0xfd,
0xfb,
0xfe,
0x13,
0x0c,
0xf3,
0xfc,
0x0a,
0xda,
0xfe,
0xe4,
0xfb,
0xfc,
0x09,
0xf0,
0x0e,
0xfb,
0x0f,
0x0c,
0xec,
0xf4,
0x0d,
0x04,
0x23,
0x0a,
0xfc,
0x05,
0xe4,
0xee,
0x14,
0xe2,
0xfb,
0xf3,
0xf3,
0xd3,
0x0d,
0x16,
0xd9,
0x0a,
0x09,
0x0c,
0xef,
0x09,
0x06,
0xf1,
0xf1,
0x03,
0xe9,
0xf7,
0xe5,
0xfc,
0xdf,
0x03,
0x17,
0x02,
0xe3,
0x2a,
0xf9,
0x26,
0xfc,
0xfd,
0xf8,
0xe8,
0xef,
0xfb,
0xfa,
0xe1,
0x09,
0x18,
0x15,
0xf9,
0xe4,
0xf9,
0x02,
0xf2,
0xe9,
0xee,
0xf4,
0xed,
0x1d,
0xf3,
0x07,
0x2c,
0x02,
0xfd,
0x0e,
0x00,
0x01,
0x00,
0xff,
0xe8,
0x0a,
0xed,
0x09,
0x41,
0x25,
0xef,
0xfa,
0x08,
0x06,
0xf9,
0x08,
0x00,
0x0c,
0xd1,
0x14,
0xf6,
0xf2,
0x0c,
0xe6,
0x1d,
0xf2,
0x13,
0xf0,
0x04,
0xfe,
0x09,
0xfd,
0x01,
0x2c,
0x0c,
0x02,
0x01,
0xea,
0xe5,
0x02,
0xfb,
0x02,
0xfa,
0xfa,
0x16,
0xfd,
0xfd,
0x0c,
0x07,
0x1b,
0x15,
0xf1,
0x02,
0xcf,
0xf7,
0xeb,
0x24,
0xe7,
0x03,
0xf2,
0xf3,
0x16,
0x17,
0xfc,
0x0a,
0xf6,
0x05,
0xf2,
0xdd,
0xff,
0xf0,
0x06,
0xeb,
0xe2,
0xf5,
0xf4,
0xe0,
0xf9,
0xfe,
0x05,
0x00,
0xcb,
0xf8,
0xf4,
0x04,
0xe5,
0x21,
0xef,
0xe0,
0xef,
0xf1,
0xf6,
0xf3,
0x05,
0xe4,
0xee,
0x00,
0x0f,
0x0d,
0xf8,
0x14,
0xfc,
0xe0,
0xf4,
0x06,
0x00,
0x1c,
0x10,
0x0b,
0xfc,
0x05,
0xfa,
0x00,
0x2f,
0x02,
0xe6,
0x03,
0xe5,
0xfa,
0x15,
0xf2,
0x04,
0x01,
0xf9,
0xee,
0x0c,
0x12,
0xfd,
0xf1,
0x09,
0xf7,
0xf8,
0x14,
0xfa,
0xdb,
0xec,
0xee,
0x0f,
0x01,
0xf9,
0xf8,
0xf3,
0x18,
0x13,
0x01,
0x00,
0xf7,
0xf2,
0x03,
0xfd,
0xda,
0xfd,
0xf5,
0x0e,
0xeb,
0x19,
0xfe,
0x18,
0x06,
0xf2,
0x00,
0xfd,
0xec,
0x10,
0xf7,
0xf5,
0xfa,
0x01,
0xf9,
0x08,
0x09,
0xea,
0x08,
0xfb,
0xfc,
0x08,
0x08,
0xff,
0x01,
0x04,
0x14,
0x07,
0x0a,
0x07,
0xfb,
0x16,
0xfe,
0x08,
0xff,
0xef,
0xf8,
0xf7,
0x06,
0xdd,
0xfd,
0x0a,
0x18,
0x01,
0x00,
0xdc,
0xfd,
0xec,
0x08,
0xf8,
0xfc,
0x0b,
0xf3,
0xe1,
0x0d,
0xf3,
0xf3,
0x02,
0xf0,
0xf2,
0x0f,
0xf0,
0x14,
0x0a,
0x05,
0x04,
0xef,
0x09,
0x09,
0xe3,
0x00,
0x14,
0x1c,
0xee,
0xf5,
0x03,
0xf8,
0xf7,
0xec,
0x24,
0x0c,
0xfe,
0x07,
0x0d,
0xfe,
0xf8,
0x05,
0xf6,
0x01,
0x1a,
0xfd,
0xdd,
0x08,
0xf1,
0xff,
0x15,
0x05,
0x06,
0x27,
0x01,
0x01,
0xf7,
0xfc,
0xfc,
0xf7,
0x08,
0x0a,
0x04,
0x08,
0xf5,
0x16,
0xc5,
0xf3,
0x09,
0xf7,
0xff,
0xff,
0xe7,
0xfb,
0xf5,
0xfd,
0xff,
0x0e,
0xfc,
0x29,
0x40,
0x0b,
0xf3,
0x05,
0xfa,
0xee,
0xf8,
0xec,
0xf9,
0xf0,
0xfd,
0x07,
0x0e,
0x00,
0xe4,
0x0a,
0x09,
0x0a,
0x0d,
0x04,
0xfe,
0x20,
0xf4,
0xfc,
0xdf,
0xf6,
0x02,
0x12,
0xe9,
0x09,
0xf5,
0xfd,
0xf1,
0x00,
0xf8,
0xf2,
0xfb,
0xff,
0xf8,
0x0d,
0x07,
0xd7,
0xfd,
0xfb,
0x08,
0x02,
0xfa,
0x1c,
0xfe,
0x20,
0xed,
0xff,
0xf2,
0x0c,
0x06,
0x07,
0x0a,
0xfa,
0x07,
0xfb,
0x08,
0x0a,
0x07,
0x00,
0x0c,
0xe8,
0xe7,
0xec,
0xe3,
0xda,
0x11,
0xed,
0xd0,
0x1e,
0xff,
0xfc,
0x05,
0xec,
0x05,
0x1a,
0x25,
0xfd,
0xf9,
0xf8,
0x1e,
0xf0,
0x01,
0xfa,
0xe1,
0xf1,
0x1d,
0x08,
0x06,
0xf6,
0x18,
0xeb,
0x20,
0xff,
0x05,
0xdb,
0xe6,
0x15,
0x12,
0xf0,
0x21,
0xe5,
0xfa,
0x11,
0xfb,
0xdf,
0xfa,
0x16,
0x28,
0xfb,
0x09,
0x11,
0x0f,
0x1d,
0x0a,
0xea,
0xd3,
0x13,
0x07,
0x01,
0x04,
0xfa,
0x06,
0x23,
0xe8,
0xe0,
0x08,
0xe7,
0xfc,
0x02,
0xf6,
0xfd,
0xff,
0x19,
0x10,
0x04,
0xed,
0x07,
0xf3,
0x0e,
0xe4,
0xfe,
0xf6,
0xf8,
0x15,
0xfb,
0xf5,
0xe2,
0x17,
0x12,
0xea,
0xf8,
0xfc,
0xf5,
0x04,
0x03,
0x03,
0xf5,
0xf3,
0x04,
0x1b,
0x12,
0x06,
0xde,
0x02,
0xe7,
0x09,
0xf4,
0x00,
0x05,
0x08,
0x0a,
0x18,
0xf7,
0xd9,
0x16,
0xdf,
0xd8,
0xdf,
0xf1,
0x0c,
0x0b,
0xfb,
0xf9,
0xf9,
0xf0,
0x09,
0xfd,
0x2d,
0xf1,
0x16,
0x07,
0x22,
0xfb,
0x03,
0xdc,
0xf7,
0xfa,
0x0e,
0xf8,
0xfd,
0x07,
0xed,
0x0e,
0x02,
0x04,
0x02,
0x23,
0xf8,
0x08,
0x14,
0xec,
0x05,
0x18,
0x06,
0xfc,
0xee,
0xf4,
0x11,
0x04,
0xf7,
0x05,
0x14,
0xeb,
0xed,
0xf3,
0x06,
0xed,
0xfb,
0x1d,
0xf6,
0x09,
0xf5,
0xff,
0x0d,
0xfe,
0x02,
0x13,
0xec,
0xf9,
0xfb,
0xd4,
0xfd,
0x08,
0x09,
0x0c,
0xfe,
0xf2,
0x02,
0xfc,
0x06,
0x10,
0x16,
0xeb,
0x02,
0x15,
0xd3,
0x1a,
0xf7,
0x0b,
0x04,
0xee,
0xfd,
0xf8,
0x09,
0xf4,
0x00,
0xfd,
0x07,
0x14,
0xf4,
0xd7,
0x14,
0xf3,
0x22,
0xd2,
0xdf,
0x02,
0x0f,
0x04,
0x01,
0xff,
0x20,
0x06,
0xfa,
0xfc,
0xf9,
0x0b,
0xe4,
0xea,
0x16,
0xff,
0x13,
0xf2,
0x0f,
0x06,
0x02,
0x02,
0x0e,
0xe5,
0xf4,
0xf8,
0x04,
0xe4,
0xf5,
0xf1,
0xff,
0xe9,
0xf8,
0x0d,
0x0e,
0xf1,
0x2b,
0xf6,
0xfd,
0xfa,
0x05,
0xf5,
0xd8,
0xe9,
0xfd,
0xc9,
0xf1,
0xe5,
0x0f,
0xff,
0x0d,
0x04,
0xf4,
0xf6,
0xfc,
0x04,
0xfa,
0xf1,
0x08,
0xfc,
0xf5,
0x01,
0xed,
0x11,
0xf9,
0xd3,
0xf5,
0xe1,
0xd5,
0xe3,
0x1a,
0xdb,
0x0d,
0xef,
0xf6,
0xfa,
0xea,
0xf1,
0x0e,
0x1b,
0x00,
0xed,
0xf9,
0x36,
0x0e,
0xd5,
0x03,
0x0f,
0x0d,
0xf9,
0xf4,
0xc7,
0x09,
0xf3,
0x02,
0xef,
0xf7,
0xe9,
0xfe,
0x11,
0x0c,
0xeb,
0xe8,
0x03,
0xf5,
0xf3,
0xfb,
0xf1,
0xf9,
0x21,
0xfe,
0x01,
0x01,
0xf2,
0x0d,
0x28,
0x09,
0x17,
0xf6,
0x0b,
0x0b,
0xdc,
0xdf,
0x0c,
0x08,
0x05,
0xfc,
0x15,
0xfc,
0xf1,
0xfc,
0xfe,
0x0a,
0xf9,
0x0b,
0xe2,
0x01,
0xf9,
0xf9,
0x0b,
0x04,
0x2e,
0xf9,
0x05,
0x07,
0xf6,
0x1b,
0xfc,
0x17,
0xfb,
0x14,
0xfb,
0xfd,
0x09,
0x09,
0xf3,
0xf6,
0x09,
0xf8,
0xf0,
0xf4,
0xfd,
0xf4,
0x14,
0xf3,
0x02,
0xfc,
0xe4,
0x0c,
0x04,
0xfc,
0xe9,
0x05,
0x05,
0x01,
0x06,
0xf8,
0x03,
0xf4,
0x0e,
0xfa,
0x0c,
0x07,
0x01,
0xf1,
0xfd,
0xe6,
0x0b,
0xe9,
0x0a,
0x20,
0xf8,
0x0f,
0xf9,
0x17,
0xee,
0x0c,
0xe9,
0xfb,
0x0c,
0xf1,
0x09,
0x08,
0x12,
0x02,
0x07,
0xff,
0x0d,
0x14,
0xfa,
0x0a,
0x03,
0xfc,
0xfe,
0xa4,
0x1d,
0x06,
0xf6,
0x0a,
0xf8,
0x0a,
0x08,
0xf7,
0x06,
0x03,
0x15,
0xfa,
0x0c,
0x0d,
0x04,
0xec,
0xe4,
0xdb,
0x15,
0xfc,
0xf6,
0xfb,
0x02,
0xf0,
0x04,
0x13,
0xfc,
0xec,
0xd5,
0xf8,
0xf2,
0xf1,
0xf9,
0xe5,
0xf9,
0x08,
0xef,
0x02,
0xe4,
0x06,
0x03,
0x01,
0x20,
0x14,
0xf0,
0xfe,
0xf1,
0xfc,
0xe3,
0x05,
0x01,
0x0f,
0x17,
0x0a,
0xe8,
0x03,
0xdd,
0xe8,
0xfa,
0x09,
0x0d,
0x01,
0xf8,
0x0e,
0xea,
0x06,
0x1c,
0xf0,
0xfa,
0x0a,
0xf8,
0x0d,
0xd3,
0xe7,
0x05,
0xea,
0x09,
0xef,
0x00,
0x17,
0xf0,
0xed,
0xe0,
0xf6,
0xca,
0x13,
0xea,
0x05,
0x08,
0xdc,
0x1c,
0x0e,
0x02,
0xf6,
0xf1,
0xff,
0xf8,
0xd6,
0xfc,
0x0b,
0xf9,
0x07,
0xf3,
0x05,
0xf7,
0xe5,
0x1a,
0x06,
0x17,
0xfc,
0x0d,
0x0f,
0x02,
0xe4,
0xf9,
0x13,
0x0a,
0x00,
0x10,
0x01,
0xfc,
0xea,
0xeb,
0x19,
0x05,
0xfa,
0x14,
0x02,
0x08,
0xf7,
0xf4,
0xce,
0xfd,
0x02,
0xed,
0x05,
0xf4,
0xf3,
0x12,
0xf9,
0xfd,
0x01,
0x01,
0x13,
0x01,
0xf7,
0xeb,
0x02,
0x0f,
0xfa,
0x04,
0xf8,
0xff,
0x21,
0x0a,
0xfb,
0xf5,
0x03,
0x08,
0x02,
0xfa,
0x07,
0x0b,
0xf2,
0x13,
0xfb,
0x0c,
0x17,
0x04,
0x0a,
0xdd,
0xfc,
0x16,
0x1b,
0xee,
0xfd,
0x0c,
0x01,
0x06,
0xf8,
0x1b,
0x17,
0xe2,
0x2a,
0x16,
0xf5,
0x0c,
0x02,
0xf7,
0xff,
0xe8,
0x0a,
0x20,
0xff,
0xf6,
0xfb,
0xea,
0xfd,
0xf7,
0x0b,
0xfa,
0xeb,
0x09,
0x07,
0xfe,
0xff,
0x03,
0x00,
0xe8,
0x17,
0xe3,
0xea,
0xe4,
0x11,
0x06,
0x0b,
0x2c,
0xfc,
0x0d,
0x03,
0xf3,
0xef,
0x05,
0xf6,
0x0e,
0xf2,
0xf7,
0x00,
0x03,
0xf9,
0x0d,
0xe8,
0x02,
0xeb,
0x0d,
0xfc,
0x07,
0xfd,
0x12,
0xfc,
0xf9,
0x0d,
0x0b,
0xf0,
0xee,
0xfe,
0xd7,
0x03,
0xfc,
0xd2,
0x06,
0x01,
0x19,
0x0e,
0x07,
0xfc,
0x02,
0x00,
0x1c,
0x12,
0x07,
0x26,
0xf7,
0xe5,
0x22,
0x06,
0x00,
0xf5,
0xf5,
0x00,
0x1c,
0xe8,
0x07,
0xfd,
0x01,
0x03,
0x12,
0xfd,
0xee,
0xf9,
0x1e,
0xf2,
0xf9,
0x31,
0xfa,
0x05,
0xff,
0x08,
0x00,
0xf7,
0x0b,
0x24,
0x1a,
0x0e,
0x03,
0x03,
0x08,
0xe9,
0xf6,
0x15,
0x1b,
0xf7,
0x02,
0xfe,
0xfd,
0xf5,
0xff,
0x08,
0xf9,
0xf0,
0x02,
0xd9,
0xf3,
0xe6,
0xfb,
0xdc,
0x02,
0x0e,
0x19,
0xfb,
0xfd,
0x1a,
0x0a,
0x03,
0xf5,
0xec,
0xe9,
0xe6,
0xe6,
0xdc,
0x03,
0x05,
0x2b,
0xff,
0xed,
0x0c,
0xfa,
0x0f,
0x03,
0x01,
0xee,
0x1d,
0xff,
0xed,
0xea,
0xe5,
0xeb,
0xfe,
0x10,
0xec,
0xfd,
0xd0,
0xff,
0x09,
0xdf,
0x06,
0xf9,
0xfc,
0xdf,
0xe2,
0x02,
0xe9,
0xf2,
0xf8,
0x33,
0xf9,
0x03,
0x11,
0xfc,
0x0e,
0x17,
0xf7,
0x0a,
0x03,
0x1e,
0xfe,
0x00,
0xe0,
0x07,
0xf0,
0x0b,
0x0b,
0x0d,
0x1a,
0xfe,
0xed,
0xfc,
0xdf,
0xf4,
0x02,
0x07,
0x17,
0xf9,
0xe5,
0x10,
0x11,
0x09,
0xf5,
0xef,
0xfd,
0xf5,
0x11,
0xe9,
0x11,
0xf2,
0x1a,
0xd6,
0xdd,
0x0c,
0xe1,
0xea,
0xf9,
0xfe,
0x22,
0x00,
0x16,
0xfb,
0x36,
0x02,
0x08,
0xd1,
0xf8,
0xd8,
0x0f,
0xf4,
0xf0,
0xe9,
0x05,
0xfb,
0xea,
0x04,
0x02,
0x04,
0xe1,
0xfb,
0x15,
0xf2,
0xe4,
0xf9,
0xfd,
0x09,
0x10,
0x11,
0xfb,
0x09,
0x10,
0xfd,
0x00,
0x0f,
0xe9,
0xf0,
0x1e,
0xd8,
0x05,
0xfe,
0xf7,
0x07,
0x1b,
0xfb,
0x12,
0xda,
0x0f,
0xf2,
0xff,
0x05,
0xf9,
0xfb,
0x11,
0x04,
0xfb,
0x11,
0xfc,
0x20,
0x16,
0x0d,
0xfe,
0xdf,
0xfa,
0x05,
0xf3,
0xf8,
0x05,
0x12,
0x14,
0xf4,
0x0e,
0x0b,
0x02,
0xf8,
0xf7,
0xef,
0xe4,
0x02,
0x0a,
0x14,
0x09,
0xfc,
0xfb,
0xf3,
0xa1,
0x06,
0x04,
0x0c,
0x34,
0x27,
0x09,
0xfd,
0x06,
0x03,
0xf7,
0xff,
0xee,
0x28,
0x02,
0x0a,
0x1f,
0x0b,
0x0b,
0xfe,
0xab,
0xf2,
0xff,
0xea,
0x00,
0x03,
0xf4,
0xfd,
0x17,
0xa1,
0x09,
0x04,
0x0e,
0xf5,
0xec,
0xf7,
0x01,
0xfa,
0x2c,
0x00,
0x02,
0x01,
0xfa,
0xfc,
0xf6,
0x0c,
0xe4,
0xfc,
0x0f,
0x07,
0x0f,
0xee,
0x27,
0x00,
0x04,
0xe6,
0xdf,
0x16,
0x08,
0xfd,
0x0e,
0xf3,
0xfb,
0xd5,
0x0f,
0xff,
0x01,
0x02,
0x08,
0xef,
0xf5,
0xe5,
0xfe,
0x01,
0x03,
0xfe,
0x0d,
0x07,
0x04,
0x1b,
0xef,
0xfd,
0xfd,
0xfe,
0xd2,
0x14,
0xe9,
0x13,
0x10,
0xf8,
0x00,
0x06,
0xfd,
0xf1,
0x07,
0x10,
0xfb,
0xfc,
0xf9,
0x0a,
0xe6,
0x09,
0x18,
0xe6,
0xfa,
0xf2,
0xf0,
0x02,
0xfa,
0xf6,
0x0b,
0xf7,
0x04,
0xf0,
0xff,
0xfa,
0xf2,
0x09,
0xfb,
0xfd,
0x1b,
0xf9,
0x00,
0xde,
0x0b,
0xfb,
0x21,
0xef,
0x00,
0xe5,
0x1b,
0xeb,
0xef,
0xc2,
0xde,
0x13,
0x13,
0x11,
0xea,
0xde,
0xf2,
0x00,
0x14,
0x1f,
0xe4,
0xf0,
0xfe,
0xf7,
0x19,
0x06,
0x12,
0x20,
0x05,
0x05,
0xef,
0xf0,
0xf0,
0xd2,
0xeb,
0xef,
0x0f,
0x12,
0xee,
0xf6,
0x04,
0x16,
0xd8,
0xec,
0xee,
0xf0,
0xda,
0xff,
0x08,
0x0b,
0xf0,
0xf2,
0x01,
0xf6,
0x10,
0x0f,
0x10,
0x05,
0x17,
0x06,
0xe6,
0xfe,
0xf6,
0x03,
0xe3,
0x04,
0x02,
0x10,
0x03,
0x04,
0xf5,
0x03,
0x0b,
0xff,
0xdb,
0xea,
0xf6,
0x01,
0x1b,
0x0c,
0xe1,
0xfd,
0x03,
0x40,
0xec,
0xfe,
0xfd,
0x01,
0xdf,
0xed,
0xf2,
0xed,
0xfd,
0x08,
0x12,
0xfa,
0xf1,
0xea,
0xee,
0xda,
0x0a,
0x0a,
0x05,
0xfa,
0x12,
0xe5,
0x11,
0x23,
0xe4,
0x0a,
0xfb,
0x23,
0x4e,
0x20,
0x11,
0xdd,
0xf6,
0x0e,
0x0b,
0xf5,
0x1c,
0x16,
0x08,
0x03,
0xf2,
0xed,
0x1a,
0xf8,
0xfb,
0xda,
0x01,
0xf7,
0xf1,
0x0b,
0xfd,
0x03,
0xf2,
0x0e,
0x04,
0xf6,
0xeb,
0x06,
0x04,
0x18,
0x07,
0x06,
0xff,
0x1c,
0xf1,
0xfe,
0x06,
0xec,
0xf4,
0xf2,
0xfe,
0x0f,
0xfd,
0xf3,
0x11,
0x40,
0xe6,
0xf2,
0x1d,
0x2b,
0xfc,
0xfc,
0xfc,
0xfb,
0x1d,
0x05,
0xf6,
0x30,
0x01,
0x07,
0xef,
0xfa,
0x3f,
0xf6,
0x0e,
0x12,
0xec,
0x18,
0xf1,
0x04,
0x0a,
0xee,
0x02,
0xfe,
0xe8,
0xeb,
0x01,
0xfc,
0x00,
0xff,
0xd7,
0xf0,
0xf2,
0xf4,
0xfe,
0xfa,
0xf4,
0xd9,
0xf4,
0xf8,
0xf9,
0xf0,
0xf8,
0xec,
0xe4,
0x2b,
0x0f,
0xfc,
0xf1,
0xfe,
0xf1,
0x11,
0xfd,
0xef,
0xe7,
0x01,
0xf5,
0x05,
0x16,
0xf0,
0xc8,
0x02,
0x15,
0xfb,
0x00,
0xfd,
0xfc,
0x0c,
0x01,
0xea,
0xfe,
0x0c,
0x00,
0xee,
0x21,
0x00,
0xfe,
0xfa,
0xea,
0x03,
0x0a,
0x13,
0xf3,
0x11,
0x10,
0xcf,
0xe8,
0xf3,
0xfd,
0xf2,
0x00,
0x06,
0xf7,
0x04,
0x2d,
0xe8,
0x09,
0xf5,
0xf7,
0xf5,
0xf0,
0x0b,
0x2a,
0x11,
0x02,
0xe8,
0xeb,
0xee,
0xf1,
0xf5,
0x11,
0xeb,
0x03,
0xfb,
0x11,
0x14,
0x1b,
0xed,
0x09,
0x05,
0xe0,
0x09,
0x14,
0xef,
0xde,
0x04,
0xd4,
0xdd,
0x1c,
0xf6,
0x02,
0xe8,
0x1b,
0xe8,
0xc9,
0xeb,
0xfe,
0x02,
0xe0,
0xd3,
0x0d,
0xf5,
0x06,
0x08,
0xf5,
0xca,
0x0f,
0x03,
0x22,
0xe8,
0xc8,
0xeb,
0xd4,
0x3a,
0x08,
0x13,
0x2c,
0x32,
0x08,
0x32,
0x0b,
0x01,
0xf8,
0x22,
0x17,
0x01,
0x53,
0x16,
0x12,
0xe8,
0x31,
0x34,
0xbf,
0x5e,
0xdd,
0xfd};
