/* SPDX-License-Identifier: GPL-2.0 */
/*
 * Copyright (c) 2020 MediaTek Inc.
 *
 * Author: Ya-Wen Hsu <Ya-Wen.Hsu@mediatek.com>
 *
 */
char fdvt_kernel_bias_loop85_0_frame01[] = {
0x0b,
0xad,
0x33,
0xb2,
0x2b,
0xe0,
0xdf,
0xbc,
0x08,
0xb2,
0x35,
0xb7,
0x2c,
0xe4,
0xe2,
0xc0,
0x03,
0xf1,
0xed,
0xfe,
0x04,
0xf7,
0x08,
0x08,
0xeb,
0xf5,
0xf3,
0xfa,
0x06,
0xf7,
0x06,
0x00,
0xdc,
0x05,
0xf9,
0x01,
0xfb,
0xfa,
0xfd,
0xfd,
0xd1,
0xfe,
0xff,
0xfe,
0xfe,
0xff,
0x01,
0xfe,
0xe3,
0x00,
0xfe,
0xff,
0xfe,
0x00,
0x00,
0xfc,
0xde,
0x01,
0xfc,
0xfd,
0xfc,
0x01,
0x00,
0xfa,
0xca,
0x0d,
0x03,
0xf7,
0xe9,
0xfd,
0xf8,
0xfe,
0xdf,
0x12,
0x08,
0xf9,
0xe7,
0xfc,
0xf7,
0xfa,
0xf0,
0x1f,
0x19,
0xfa,
0xdb,
0xe9,
0xe2,
0xe1,
0xf8,
0x24,
0x1a,
0xff,
0xd7,
0xe4,
0xe4,
0xdf,
0xf7,
0xf4,
0xff,
0xfc,
0xf5,
0x00,
0x0b,
0x00,
0xfc,
0xef,
0xfc,
0xf8,
0xf9,
0x05,
0x0e,
0x02,
0xff,
0xf6,
0xfc,
0xfb,
0xfe,
0xf7,
0xfa,
0xfd,
0xfa,
0xfa,
0xfb,
0xf9,
0xfc,
0xf3,
0xfe,
0xfc,
0xfb,
0x10,
0x04,
0xff,
0xeb,
0xfa,
0xfc,
0xee,
0xfd,
0x13,
0x06,
0x0a,
0xf2,
0xf4,
0xfd,
0xdc,
0x10,
0x1d,
0x00,
0x04,
0xf4,
0xef,
0xf8,
0xe4,
0x07,
0x16,
0x06,
0xfc,
0x00,
0xf1,
0xfc,
0xe8,
0xf8,
0x07,
0xf6,
0xff,
0xf8,
0xf1,
0xf1,
0xf7,
0xf7,
0x0a,
0xf8,
0x03,
0xfc,
0xe8,
0xf5,
0xf4,
0xe9,
0xdc,
0xe5,
0xdf,
0x17,
0x08,
0x09,
0x09,
0xeb,
0xee,
0xec,
0xf0,
0x17,
0xf7,
0x13,
0xff,
0x20,
0x0b,
0xf9,
0xfb,
0xfc,
0x01,
0xfc,
0x00,
0xe2,
0x0d,
0xfb,
0xf3,
0xf7,
0xfb,
0xf7,
0xf9,
0xdb,
0x04,
0x03,
0xf0,
0xe3,
0x05,
0x01,
0x01,
0xda,
0xfd,
0xfc,
0xf2,
0xed,
0x0d,
0x07,
0xfc,
0xfe,
0xe9,
0xf1,
0xf7,
0x08,
0xfa,
0x13,
0x09,
0xe6,
0xec,
0xf0,
0xf7,
0x04,
0xf8,
0x13,
0x0c,
0x13,
0x0a,
0x06,
0x02,
0xf3,
0xf7,
0xfc,
0xf9,
0xe7,
0x09,
0x04,
0x09,
0xef,
0xfa,
0xf8,
0xf3,
0x11,
0xb0,
0xcb,
0xba,
0x02,
0x05,
0x34,
0x22,
0x12,
0xb3,
0xc9,
0xc6,
0x04,
0x06,
0x37,
0x1e,
0xe8,
0x05,
0xf3,
0xfd,
0xfd,
0xf5,
0x03,
0xff,
0xed,
0xff,
0xfb,
0xf9,
0xfb,
0xf5,
0x02,
0x00,
0xdf,
0xfd,
0xea,
0x06,
0x06,
0xf7,
0x0c,
0xf6,
0xe9,
0xfa,
0xf4,
0xfe,
0x04,
0xfc,
0x05,
0xfb,
0xf6,
0xfe,
0xff,
0xfd,
0xfe,
0xfe,
0xff,
0x03,
0xfb,
0x00,
0xff,
0x00,
0xfe,
0xff,
0x00,
0x00,
0x09,
0x06,
0x09,
0x04,
0xfe,
0x0c,
0xf2,
0xe6,
0x01,
0x08,
0xff,
0x03,
0x02,
0x09,
0xf5,
0xe9,
0x04,
0xb0,
0xcc,
0x1e,
0xc2,
0x41,
0xc6,
0xeb,
0x04,
0xb4,
0xd2,
0x1f,
0xc8,
0x3f,
0xca,
0xec,
0xc6,
0x09,
0x09,
0x06,
0xfb,
0xff,
0xf6,
0xfc,
0x29,
0x00,
0x00,
0x00,
0x00,
0x00,
0x00,
0x00,
0xad,
0x00,
0x00,
0x00,
0x00,
0x00,
0x00,
0x00,
0xb2,
0x00,
0x00,
0x00,
0x00,
0x00,
0x00,
0x00,
0x16,
0x13,
0x08,
0xfb,
0xed,
0xf9,
0xf5,
0xf3,
0xcc,
0x13,
0x0a,
0xf7,
0xf3,
0xf9,
0xef,
0xf6,
0xdd,
0x01,
0xfb,
0xf1,
0xed,
0xf2,
0xeb,
0x04,
0xdb,
0xff,
0xfc,
0xf6,
0xf1,
0xf2,
0xf0,
0xff,
0xd9,
0xff,
0xfe,
0x00,
0x00,
0xfe,
0xfe,
0xff,
0xde,
0xfd,
0xff,
0x01,
0x00,
0xfd,
0xfe,
0xff,
0x00,
0xf4,
0xfd,
0x05,
0x09,
0xfa,
0xf7,
0xf8,
0xec,
0xf9,
0xf8,
0x0c,
0x07,
0xf1,
0xfd,
0xfe,
0x97,
0x00,
0xff,
0x04,
0x00,
0xff,
0xf5,
0x00,
0x91,
0xf8,
0x06,
0xfd,
0x0a,
0xf8,
0xfb,
0xfb,
0x1c,
0x0a,
0xfc,
0x00,
0xfd,
0xfe,
0xfd,
0xfb,
0xf9,
0x0a,
0xff,
0x07,
0xec,
0xf7,
0xfd,
0xf9,
0xe8,
0xfe,
0xfd,
0x03,
0x00,
0xfd,
0xfe,
0xff,
0xec,
0xfe,
0xff,
0x00,
0xff,
0xfe,
0xff,
0x00,
0xed,
0xfe,
0xff,
0xf6,
0x0e,
0x01,
0x03,
0xee,
0xe7,
0xef,
0xff,
0xf4,
0x0d,
0x04,
0xf7,
0xfe,
0x06,
0xad,
0x34,
0xb4,
0x2f,
0xe1,
0xdd,
0xbd,
0x06,
0xb3,
0x36,
0xb9,
0x2c,
0xe6,
0xe2,
0xc9,
0xfd,
0xee,
0xf1,
0xfd,
0x0c,
0x02,
0x05,
0x08,
0xe4,
0xef,
0xf4,
0xfe,
0x13,
0xfb,
0x08,
0xfd,
0xd9,
0x11,
0xf7,
0x07,
0xf8,
0xf1,
0xf9,
0xf4,
0xd9,
0x00,
0xfe,
0xfc,
0xfe,
0xff,
0xfd,
0x00,
0xf3,
0xff,
0xfd,
0x01,
0xff,
0xfd,
0x01,
0xfc,
0xed,
0x00,
0xfa,
0x00,
0x02,
0xfe,
0x04,
0xf9,
0x11,
0x0e,
0x04,
0xf7,
0xe2,
0x04,
0xf8,
0xfc,
0x18,
0x0f,
0x06,
0xf9,
0xe9,
0xfb,
0xf7,
0xfb,
0xf3,
0x2a,
0x1e,
0x03,
0xd5,
0xec,
0xdb,
0xd4,
0xfb,
0x26,
0x20,
0xfd,
0xd8,
0xe8,
0xe7,
0xe0,
0xd3,
0xfa,
0xf6,
0xfc,
0xf5,
0x00,
0x0f,
0x01,
0xfa,
0xf5,
0xfd,
0xfb,
0xfd,
0x09,
0x05,
0xfc,
0x05,
0xfd,
0xff,
0xfc,
0xf5,
0xf1,
0xf2,
0xf3,
0xff,
0xff,
0xff,
0x01,
0xfa,
0xf3,
0xfe,
0xf9,
0xd7,
0x00,
0xfa,
0xf8,
0xfc,
0xf8,
0x00,
0xf6,
0xd7,
0x05,
0xfa,
0x00,
0xfb,
0xf8,
0xfc,
0xfd,
0x0c,
0x15,
0x04,
0x04,
0xf7,
0xf0,
0xf8,
0xeb,
0xfc,
0x0c,
0x04,
0x00,
0x02,
0xfb,
0xfb,
0xec,
0xe3,
0x0a,
0xf2,
0x00,
0xfb,
0xee,
0xf0,
0xee,
0xdf,
0x12,
0xf7,
0x00,
0x00,
0xe9,
0xf8,
0xec,
0xe4,
0xea,
0xed,
0xd8,
0x16,
0x06,
0x0f,
0x09,
0xdf,
0xfd,
0xef,
0xf5,
0x04,
0x02,
0x07,
0x04,
0x19,
0x07,
0xfd,
0xfd,
0xfb,
0x01,
0xfc,
0xfd,
0xdc,
0x0a,
0x03,
0xf6,
0xf4,
0xfb,
0xf9,
0xf5,
0xf8,
0x0c,
0x0a,
0xf5,
0xe9,
0x07,
0xfe,
0xf8,
0xf8,
0x08,
0xf8,
0xfb,
0xf0,
0x0d,
0x05,
0xf3,
0x14,
0xdd,
0xf4,
0xf5,
0x0a,
0xfa,
0x19,
0x0c,
0x0e,
0xe8,
0xf3,
0xf8,
0x04,
0xfc,
0x12,
0x0d,
0x16,
0x0c,
0x02,
0xfb,
0xf5,
0xf1,
0xfd,
0xf5,
0xff,
0x06,
0x06,
0xfe,
0xf4,
0xf6,
0xfb,
0xfb,
0x13,
0xb0,
0xc9,
0xbb,
0x03,
0x06,
0x34,
0x21,
0x0f,
0xb1,
0xc9,
0xc3,
0x0a,
0x06,
0x39,
0x22,
0xed,
0x08,
0x03,
0xff,
0xf4,
0xe7,
0xf7,
0xf4,
0xed,
0x00,
0xf9,
0xf5,
0xfc,
0xf4,
0x06,
0xfe,
0xdf,
0xfb,
0xf4,
0x06,
0x06,
0xfa,
0x04,
0xfb,
0xdf,
0xfd,
0x00,
0x00,
0x00,
0xfe,
0x01,
0xfc,
0xfa,
0xff,
0xff,
0xfe,
0xff,
0xfe,
0xff,
0x02,
0x00,
0x00,
0x00,
0x00,
0x00,
0x00,
0x00,
0x00,
0x10,
0x01,
0x08,
0x03,
0xfa,
0x0a,
0xeb,
0xf3,
0xdb,
0x0f,
0xfa,
0x09,
0xfc,
0x08,
0xec,
0xee,
0x04,
0xb6,
0xcd,
0x1d,
0xc2,
0x42,
0xc8,
0xec,
0x02,
0xb8,
0xd7,
0x1f,
0xc8,
0x43,
0xcf,
0xf0,
0xd8,
0x04,
0x0b,
0x01,
0xfc,
0xfe,
0xfb,
0x02,
0x34,
0x00,
0x00,
0x00,
0x00,
0x00,
0x00,
0x00,
0xa2,
0x00,
0x00,
0x00,
0x00,
0x00,
0x00,
0x00,
0xa8,
0x00,
0x00,
0x00,
0x00,
0x00,
0x00,
0x00,
0x18,
0x14,
0x08,
0x02,
0xec,
0xfb,
0xf2,
0xf2,
0xbf,
0x10,
0x05,
0xf8,
0xf8,
0xf7,
0xfa,
0xf5,
0xdc,
0x01,
0xfc,
0xf2,
0xeb,
0xef,
0xec,
0x02,
0xdc,
0xfb,
0xfe,
0xf9,
0xf8,
0xf9,
0xf1,
0x04,
0xde,
0xff,
0xff,
0x00,
0xff,
0xff,
0xff,
0x00,
0xdb,
0xff,
0x00,
0x01,
0xfd,
0xff,
0xff,
0xff,
0xf6,
0xfa,
0x04,
0x07,
0x03,
0xf1,
0xf8,
0xf2,
0xe8,
0xfe,
0xfd,
0x0b,
0x0c,
0xe5,
0xfa,
0xfa,
0x95,
0xfb,
0x0c,
0x04,
0x05,
0x00,
0xef,
0xf6,
0x92,
0xf2,
0x03,
0x05,
0x09,
0xfb,
0xfa,
0xfd,
0x17,
0x02,
0x04,
0xff,
0xf4,
0x06,
0xfd,
0xf9,
0xf0,
0x0b,
0x04,
0xfd,
0xf0,
0x03,
0xfb,
0xf8,
0xd2,
0x04,
0xf9,
0x0c,
0xfe,
0xf3,
0xff,
0xf4,
0xd9,
0x03,
0xfb,
0x03,
0xff,
0xf9,
0xff,
0xff,
0xef,
0xec,
0xf1,
0x07,
0x0d,
0xfc,
0x08,
0xfb,
0xf1,
0xf8,
0xf7,
0xfa,
0x00,
0xff,
0xff,
0x07,
0xc2,
0x52,
0xd0,
0x3a,
0xd4,
0xba,
0x14,
0xdd,
0xbc,
0x46,
0xdd,
0x1b,
0xe2,
0xc8,
0x09,
0xe2};
