/* SPDX-License-Identifier: GPL-2.0 */
/*
 * Copyright (c) 2020 MediaTek Inc.
 *
 * Author: Ya-Wen Hsu <Ya-Wen.Hsu@mediatek.com>
 *
 */
char fdvt_kernel_bias_loop11_0_frame01[] = {
0x07,
0xff,
0xf9,
0xfc,
0x06,
0x1b,
0x0e,
0xfd,
0x03,
0x03,
0xfb,
0x08,
0xff,
0x02,
0xf3,
0xff,
0x02,
0x01,
0xff,
0x05,
0xf7,
0x08,
0xfd,
0xeb,
0x05,
0x01,
0x0f,
0x0a,
0x02,
0xe9,
0x04,
0xfc,
0x10,
0x01,
0x02,
0x11,
0x05,
0xf8,
0xfb,
0xfa,
0xfe,
0xf0,
0x1b,
0xfa,
0x08,
0xf2,
0xf0,
0xf5,
0xf9,
0x03,
0x08,
0xfe,
0xfd,
0x10,
0x08,
0x00,
0x0b,
0x06,
0xfc,
0xfe,
0x09,
0xfa,
0xf5,
0xfd,
0x04,
0xff,
0xfa,
0xfa,
0x0e,
0x15,
0xfb,
0xff,
0x06,
0x06,
0x03,
0x00,
0xff,
0xff,
0x02,
0xfb,
0xf9,
0xfd,
0xfb,
0xeb,
0xfc,
0xfb,
0x0a,
0xf5,
0xf7,
0x05,
0x0a,
0x01,
0x0a,
0xf7,
0xdf,
0x05,
0xfa,
0x06,
0x04,
0xf7,
0x0b,
0x0e,
0xfc,
0xf2,
0xfb,
0x01,
0xf9,
0x03,
0x03,
0xfc,
0xf8,
0x06,
0xfe,
0xfa,
0x02,
0xea,
0x0c,
0xe1,
0xfe,
0xf8,
0xea,
0xf9,
0xf4,
0x05,
0x0d,
0xfc,
0xfb,
0x03,
0x0d,
0xfc,
0x0c,
0x02,
0x0f,
0xff,
0xfd,
0xf8,
0x14,
0x01,
0xf2,
0xfa,
0xf3,
0xff,
0x05,
0xfa,
0x01,
0x02,
0x0b,
0x03,
0xed,
0x14,
0xfa,
0xfe,
0x00,
0xfb,
0x21,
0x06,
0xf5,
0x05,
0xfb,
0xf4,
0x00,
0x07,
0xff,
0xfe,
0x03,
0x04,
0x06,
0xff,
0xf9,
0x05,
0xfd,
0xfd,
0xff,
0x06,
0xfc,
0x03,
0xf6,
0x02,
0xfd,
0x03,
0xfc,
0xf5,
0xfb,
0x01,
0xf5,
0x01,
0x10,
0xfd,
0x08,
0x05,
0x06,
0x04,
0xf3,
0xf9,
0xf4,
0xde,
0xfc,
0x29,
0x01,
0xfd,
0xfe,
0xfc,
0xf0,
0x01,
0x05,
0x04,
0x04,
0x12,
0x07,
0x08,
0xfb,
0xf1,
0xf6,
0x05,
0x05,
0x05,
0x01,
0xee,
0xfe,
0xfa,
0x03,
0xfc,
0x02,
0x01,
0xfb,
0x0a,
0x06,
0x04,
0x00,
0x0a,
0x04,
0xff,
0x01,
0x02,
0x06,
0xfe,
0xf8,
0x12,
0xfa,
0x05,
0x07,
0x18,
0x08,
0x09,
0x1b,
0xf5,
0xe4,
0xf8,
0x02,
0x03,
0x3b,
0x04,
0xf6,
0x03,
0x09,
0x00,
0xf9,
0xfd,
0x04,
0x06,
0x04,
0x02,
0xf0,
0xfa,
0x0f,
0x0c,
0x09,
0x05,
0xf3,
0xfd,
0xf4,
0xfe,
0x09,
0xfa,
0xf7,
0xf1,
0x05,
0x02,
0xf8,
0xf8,
0x13,
0xfa,
0x0e,
0x08,
0xfd,
0xfc,
0xff,
0x06,
0xf6,
0x12,
0xfc,
0x12,
0x07,
0x00,
0x02,
0x03,
0xf4,
0x07,
0xee,
0x0a,
0xf8,
0xfe,
0x0c,
0x08,
0x02,
0x04,
0x05,
0x0a,
0x17,
0xf2,
0x05,
0x0a,
0xfa,
0x12,
0x03,
0x0f,
0xfc,
0xf6,
0x05,
0x02,
0x08,
0xfe,
0x03,
0xfc,
0x0d,
0x0d,
0xf9,
0xfd,
0xf8,
0x01,
0xf2,
0xf9,
0x01,
0xff,
0xf6,
0xff,
0xfb,
0x02,
0xff,
0x0d,
0x07,
0xf4,
0xf7,
0x06,
0xf9,
0xfc,
0x0b,
0x08,
0xfb,
0x03,
0x03,
0x0a,
0xfa,
0x00,
0x04,
0x0d,
0x01,
0xf3,
0x03,
0x01,
0xf9,
0xfb,
0x05,
0x05,
0xfd,
0x03,
0x05,
0x04,
0xfb,
0x04,
0x04,
0xe5,
0xfe,
0xe9,
0x02,
0x0d,
0xf7,
0xe0,
0xff,
0xfb,
0x05,
0xf5,
0x05,
0x0e,
0x04,
0x03,
0xf8,
0xf4,
0x00,
0x0e,
0xff,
0xfe,
0x05,
0x11,
0xe3,
0xf8,
0xf9,
0x00,
0xf7,
0x0e,
0xfd,
0xf9,
0x07,
0xf2,
0xfd,
0x1f,
0xf6,
0xf5,
0x11,
0x05,
0xf4,
0xfd,
0xff,
0x07,
0xff,
0xfe,
0xea,
0x02,
0x05,
0xf1,
0x0b,
0xf7,
0xfb,
0xf8,
0xec,
0xf2,
0x03,
0xff,
0x0d,
0xf5,
0xe9,
0x04,
0x06,
0x05,
0xfb,
0x05,
0xfa,
0x0a,
0xf7,
0xfa,
0x03,
0x02,
0x09,
0x00,
0xf9,
0x02,
0xf9,
0x0c,
0xfc,
0xf9,
0x05,
0x09,
0x00,
0xfb,
0x03,
0x0d,
0xee,
0xf7,
0xfc,
0xfc,
0x01,
0xfe,
0xfb,
0x03,
0xfc,
0x06,
0x0e,
0x07,
0xfe,
0x01,
0xff,
0x0b,
0x08,
0x0d,
0xff,
0x09,
0xfc,
0x0e,
0xf2,
0x07,
0x05,
0xfa,
0xfb,
0xf5,
0xf4,
0x00,
0xff,
0x0a,
0xef,
0xef,
0xfe,
0xf8,
0x0d,
0x04,
0xfc,
0x05,
0x0b,
0x09,
0x0b,
0xf6,
0xfc,
0xfb,
0x06,
0xf8,
0x0a,
0x05,
0x0e,
0x02,
0xfd,
0x0e,
0xfb,
0x00,
0x01,
0x08,
0xf0,
0x00,
0x09,
0xf5,
0xff,
0xfe,
0xf8,
0x07,
0x03,
0xf4,
0x07,
0xf7,
0xfd,
0x01,
0x16,
0xff,
0xf6,
0xf6,
0x0d,
0x11,
0x07,
0xed,
0x0b,
0x09,
0x11,
0x0a,
0x04,
0xfe,
0x04,
0xfe,
0xfb,
0x00,
0xf8,
0xff,
0x0e,
0xe8,
0xfe,
0x0d,
0xf1,
0x01,
0x0c,
0x16,
0xfb,
0xe8,
0x0c,
0xff,
0xfc,
0xfd,
0xfa,
0x0b,
0x08,
0xfe,
0xf4,
0x0c,
0x03,
0x05,
0x05,
0x07,
0x00,
0xfb,
0x05,
0x00,
0x12,
0x05,
0xfb,
0xf1,
0xee,
0xf5,
0xff,
0x01,
0xf9,
0x00,
0x0a,
0x02,
0xf1,
0x15,
0x06,
0x00,
0xfd,
0xfe,
0x08,
0xf1,
0xf5,
0x0f,
0x02,
0xeb,
0xfb,
0x08,
0x03,
0x00,
0xfd,
0x0c,
0xff,
0x02,
0x00,
0xfe,
0x02,
0xf3,
0x10,
0xde,
0x00,
0x06,
0xfe,
0xf6,
0xf6,
0xfa,
0xff,
0xff,
0x06,
0x07,
0x0d,
0x08,
0xfc,
0x11,
0x05,
0x06,
0xf2,
0xfd,
0x03,
0x06,
0xf9,
0xfe,
0xf7,
0xf9,
0x04,
0x01,
0x05,
0x08,
0xf6,
0xfe,
0x00,
0xfa,
0x16,
0x1b,
0xf9,
0xfc,
0xf0,
0x13,
0xfa,
0xf8,
0x00,
0x07,
0x08,
0x06,
0x03,
0x1f,
0x0e,
0x29,
0xe2,
0x10,
0x1c,
0x0b,
0xfb,
0xf3,
0xf2,
0x0a,
0x22,
0xfe,
0x19,
0xf7,
0xfb,
0xed,
0x0f,
0xfb,
0x11,
0xf0,
0xfe,
0xf2,
0xfe,
0xf9,
0xfa,
0xe8,
0x0c,
0x06,
0xf9,
0xf9,
0x05,
0x01,
0xf5,
0x13,
0x0d,
0xf7,
0xfa,
0xfb,
0x05,
0x09,
0x01,
0x03,
0xfd,
0x06,
0x03,
0xff,
0x02,
0x10,
0x14,
0xea,
0x09,
0x10,
0x0b,
0x06,
0x0a,
0x00,
0xff,
0x04,
0xfd,
0xff,
0x12,
0x01,
0xf4,
0xf2,
0x01,
0x03,
0xfa,
0xf7,
0x0b,
0xec,
0xfa,
0xfa,
0xea,
0x05,
0x0c,
0x05,
0x0f,
0x00,
0xf2,
0xe9,
0xf8,
0x0e,
0xfe,
0x07,
0x00,
0xf6,
0xf3,
0xf8,
0xf5,
0xf6,
0x0d,
0x07,
0x07,
0x00,
0xfc,
0x02,
0x06,
0xee,
0x02,
0xf6,
0xf9,
0x0a,
0xf7,
0x09,
0xf3,
0x06,
0x09,
0x04,
0x13,
0x1a,
0xda,
0xfd,
0x0a,
0xee,
0xec,
0x18,
0x0d,
0xec,
0x01,
0xf0,
0xfe,
0xf8,
0xfd,
0x00,
0x0f,
0xf9,
0x07,
0x00,
0xfc,
0xfd,
0xfc,
0xe6,
0x03,
0x04,
0x15,
0xea,
0xff,
0xff,
0x1d,
0x05,
0xe4,
0xf0,
0xdf,
0xf1,
0x04,
0xff,
0x31,
0x12,
0xec,
0x10,
0x07,
0x07,
0xf4,
0xf2,
0x10,
0xef,
0x25,
0xfc,
0x01,
0x0c,
0xe3,
0x00,
0x03,
0xff,
0xec,
0x14,
0xfd,
0x0b,
0xf0,
0xe3,
0xf7,
0xf9,
0xfc,
0xf1,
0xeb,
0xf4,
0xeb,
0xfe,
0x06,
0xe3,
0xf3,
0xed,
0x07,
0xf7,
0x05,
0xf7,
0x0b,
0xf7,
0x02,
0x0c,
0x02,
0x16,
0x0c,
0xfc,
0x01,
0xe8,
0x1c,
0xf3,
0x00,
0xfe,
0x0b,
0xd8,
0x06,
0xff,
0xeb,
0xf4,
0xf0,
0xfc,
0xf9,
0xea,
0xd4,
0x31,
0xee,
0x04,
0x05,
0xea,
0x02,
0xf9,
0xfa,
0xf8,
0x06,
0xf2,
0xf6,
0x0e,
0x0b,
0xf8,
0x17,
0x09,
0xf5,
0x05,
0x0a,
0x14,
0xf1,
0x01,
0xff,
0x04,
0xdd,
0x21,
0x05,
0xf8,
0xec,
0xed,
0x0b,
0x14,
0xf4,
0x0b,
0x03,
0xfb,
0xfa,
0xf0,
0x04,
0x26,
0xfe,
0xf9,
0xf4,
0xd7,
0xfa,
0x10,
0xff,
0x0d,
0xea,
0x1e,
0x10,
0xff,
0xfa,
0x04,
0xf4,
0xfa,
0x02,
0x14,
0xf8,
0xf1,
0xee,
0x15,
0xfc,
0x09,
0xfc,
0xff,
0xeb,
0x19,
0xfa,
0x05,
0xf9,
0xfa,
0x14,
0xf7,
0xf0,
0xfa,
0x22,
0x0d,
0xf4,
0xff,
0xe5,
0xf7,
0x0b,
0xf5,
0xee,
0xf9,
0xfb,
0xfe,
0xfa,
0xf8,
0xed,
0xee,
0xfa,
0x07,
0xff,
0xf2,
0x08,
0xf2,
0x03,
0xf5,
0xfc,
0x19,
0xfe,
0x05,
0x03,
0xfd,
0x01,
0xf1,
0xe4,
0xe8,
0xf7,
0xe5,
0x24,
0xf6,
0x0d,
0x01,
0x0e,
0x0a,
0xfc,
0x0f,
0xf9,
0x02,
0x14,
0x0c,
0xee,
0xf4,
0x03,
0xf5,
0xfd,
0xf6,
0x04,
0x08,
0xf5,
0xf0,
0xfc,
0x10,
0x06,
0x08,
0xf2,
0x15,
0xf4,
0x19,
0xea,
0xdd,
0xd5,
0x14,
0x1d,
0xee,
0xff,
0xe2,
0xed,
0xf0,
0x08,
0xfb,
0xf9,
0xf5,
0xff,
0xfd,
0x05,
0xf9,
0x03,
0xf1,
0xf5,
0x01,
0x03,
0x07,
0x0c,
0xfe,
0xfd,
0x02,
0x00,
0xef,
0xfe,
0xf6,
0x0e,
0xff,
0xfe,
0xfa,
0xfd,
0x03,
0xf6,
0xf3,
0x1c,
0xe6,
0xf8,
0xfe,
0x08,
0x0e,
0xfe,
0xf5,
0x06,
0xf6,
0xf1,
0xf3,
0x05,
0xf2,
0x04,
0x13,
0x11,
0xef,
0xf1,
0x09,
0x08,
0xef,
0x00,
0x0b,
0x00,
0x0a,
0x01,
0xf7,
0xfb,
0xf3,
0x07,
0xfb,
0x09,
0xfd,
0x07,
0x13,
0x03,
0xef,
0xfd,
0xfb,
0x05,
0x01,
0xf9,
0x0b,
0x06,
0xf6,
0x0c,
0x01,
0x02,
0x0d,
0xe7,
0x0c,
0x0e,
0xe7,
0x04,
0xe4,
0x02,
0x0a,
0xff,
0x02,
0xfc,
0xf1,
0x00,
0x07,
0x02,
0x0a,
0xfd,
0x03,
0x00,
0xfe,
0xf6,
0xf9,
0xfe,
0xf4,
0x00,
0xeb,
0xfd,
0x04,
0x0a,
0xf4,
0xff,
0x07,
0xff,
0x02,
0xf1,
0xf0,
0xf8,
0xfd,
0xf9,
0x03,
0xf9,
0xfd,
0x04,
0xfc,
0x03,
0xfd,
0xfb,
0x0b,
0x09,
0xfa,
0x04,
0x0a,
0x0a,
0x0a,
0x01,
0x01,
0x08,
0x15,
0xf7,
0xfe,
0x05,
0x0c,
0x06,
0xe4,
0xfc,
0xf7,
0xfc,
0x05,
0x03,
0x06,
0xfe,
0x01,
0xf7,
0xfb,
0x03,
0x07,
0xff,
0xf2,
0xf3,
0x02,
0xfe,
0xf5,
0xfc,
0xfa,
0x03,
0x0a,
0x06,
0x0e,
0xf3,
0x02,
0xfb,
0xf0,
0xfb,
0xfe,
0xe7,
0x04,
0x03,
0x03,
0xf8,
0xf5,
0x02,
0x0a,
0xfe,
0xf9,
0xfb,
0xf5,
0x00,
0xfc,
0x01,
0x06,
0x1e,
0xf7,
0xf8,
0xfb,
0xfd,
0xfb,
0xff,
0x02,
0xff,
0x06,
0x04,
0xf1,
0x00,
0xfe,
0x0a,
0xf0,
0x10,
0xf4,
0x02,
0xf2,
0x04,
0xff,
0xf5,
0x04,
0xfe,
0xff,
0x03,
0xf6,
0x03,
0xff,
0xfc,
0x05,
0xec,
0xf8,
0x0c,
0x03,
0x07,
0x08,
0xf3,
0xf5,
0xff,
0xff,
0x0a,
0xf4,
0x05,
0x04,
0x06,
0x11,
0x0d,
0xfd,
0x1c,
0xfd,
0x0d,
0xfe,
0xee,
0xf4,
0x14,
0x02,
0x25,
0x17,
0xf3,
0x1d,
0x05,
0x1c,
0x23,
0xe2,
0xfb,
0x06,
0x06,
0x10,
0x03,
0x0d,
0xff,
0x08,
0x05,
0x0d,
0xf9,
0xff,
0xfc,
0xde,
0xf8,
0xf7,
0x05,
0xf6,
0xfb,
0x18,
0x04,
0x06,
0x07,
0xfd,
0x07,
0x01,
0xfd,
0x06,
0x06,
0x0b,
0x1c,
0xf4,
0xff,
0xfc,
0xf9,
0xe2,
0x06,
0x04,
0xf9,
0xf5,
0xff,
0xe4,
0xf5,
0xfc,
0x07,
0x00,
0xfd,
0x0e,
0xfe,
0x0e,
0xfb,
0x00,
0x06,
0xfd,
0xef,
0xf9,
0x09,
0x04,
0xf8,
0x0c,
0x04,
0x09,
0x05,
0x00,
0x01,
0x00,
0xfc,
0xff,
0xfc,
0x13,
0xfd,
0xf2,
0x0a,
0x01,
0xf5,
0xff,
0x02,
0x04,
0xf8,
0x07,
0x00,
0xfe,
0x03,
0x04,
0x06,
0xfd,
0x07,
0x08,
0x08,
0xfe,
0xfb,
0xff,
0x05,
0xf2,
0xf3,
0x05,
0xfc,
0x01,
0x09,
0x01,
0x07,
0xfe,
0x00,
0x08,
0xfe,
0xf4,
0x00,
0xfd,
0x00,
0xfe,
0x00,
0x02,
0x02,
0x08,
0x0b,
0x0b,
0xf7,
0x00,
0xf9,
0xf4,
0x12,
0xf7,
0xff,
0x05,
0x05,
0xf1,
0xe4,
0x07,
0x06,
0xfd,
0x07,
0xf1,
0xf8,
0x0a,
0x03,
0x06,
0xfe,
0x07,
0x11,
0xf0,
0xf8,
0xf0,
0xda,
0x28,
0x04,
0xfc,
0x00,
0x05,
0x0e,
0xfc,
0x06,
0xf6,
0x04,
0x04,
0xfb,
0x08,
0x01,
0xff,
0x01,
0xec,
0x05,
0xfe,
0x09,
0xf8,
0xf3,
0xfd,
0x0c,
0x04,
0xf9,
0xfc,
0x0b,
0x03,
0xff,
0x05,
0xf4,
0x11,
0x09,
0x00,
0xff,
0xf7,
0xfb,
0xff,
0x09,
0x06,
0xf0,
0xfe,
0xfe,
0x05,
0xf8,
0xf9,
0xf0,
0x16,
0xf5,
0x08,
0xf9,
0xfe,
0x0a,
0x07,
0x03,
0x08,
0x01,
0x00,
0xfc,
0xf6,
0x06,
0x08,
0x03,
0xef,
0x0b,
0x06,
0xef,
0x07,
0x02,
0x07,
0xfb,
0x06,
0xf8,
0xf7,
0x03,
0x03,
0x04,
0xf5,
0x08,
0x15,
0x05,
0xf7,
0xf4,
0xf1,
0xfc,
0xf4,
0x08,
0xfe,
0xf5,
0x04,
0x08,
0xf7,
0x04,
0xff,
0xf5,
0xf9,
0xf9,
0xff,
0xf7,
0xf7,
0x01,
0xf4,
0x0b,
0x01,
0x01,
0xfd,
0x00,
0x02,
0xfc,
0x00,
0xfa,
0x14,
0xfc,
0xf9,
0xff,
0xf3,
0x06,
0xf7,
0x08,
0xfc,
0x09,
0x01,
0x01,
0x01,
0xf9,
0xfe,
0xf5,
0x08,
0xff,
0x15,
0xee,
0xf1,
0xf8,
0xf8,
0x02,
0xef,
0xfc,
0x1b,
0xfc,
0xf4,
0x0b,
0xf2,
0xed,
0xff,
0x0f,
0x16,
0x06,
0x0f,
0xf9,
0x01,
0xf5,
0xfc,
0x0c,
0x02,
0xfb,
0xfe,
0xfb,
0x0c,
0x0c,
0xf7,
0x02,
0x07,
0x07,
0x14,
0x0d,
0x1f,
0xfd,
0xf4,
0xf0,
0x08,
0xf4,
0xfb,
0x09,
0xfe,
0x11,
0x14,
0xf6,
0xeb,
0xe4,
0xf6,
0x02,
0xfc,
0xf5,
0x04,
0xf1,
0xfd,
0x04,
0x0f,
0x04,
0xf5,
0xef,
0x11,
0xfb,
0x01,
0xf5,
0xfa,
0x02,
0x0e,
0xfc,
0x01,
0xf6,
0xf0,
0x02,
0xfd,
0x11,
0xdf,
0xdc,
0x18,
0x0d,
0xfb,
0xf9,
0xfa,
0xf8,
0x03,
0x11,
0x05,
0xff,
0x0f,
0x00,
0x00,
0xfe,
0xfb,
0x00,
0x06,
0xfe,
0x0c,
0xfe,
0xf8,
0xfc,
0x14,
0x05,
0xf5,
0x04,
0xe7,
0x05,
0xfc,
0x03,
0xfb,
0x12,
0xfe,
0xe8,
0x16,
0x07,
0xfd,
0xf7,
0xee,
0xfd,
0xfb,
0x05,
0xf9,
0x02,
0x03,
0xfa,
0x01,
0xee,
0x23,
0x0a,
0xf6,
0xf1,
0xfa,
0xec,
0x13,
0xf8,
0xfc,
0x03,
0x01,
0x04,
0xf3,
0xfe,
0x0a,
0x05,
0xf1,
0x05,
0x00,
0x03,
0xff,
0xe1,
0x17,
0xfb,
0xf8,
0xf9,
0xfd,
0x09,
0x05,
0xf7,
0xed,
0x04,
0x00,
0xef,
0xf6,
0x0d,
0x0f,
0x0d,
0x1e,
0xf4,
0x05,
0xf3,
0xf2,
0x04,
0xee,
0x06,
0xf4,
0xf7,
0x0d,
0x0e,
0xfc,
0x1e,
0x0e,
0xf7,
0x0b,
0xfb,
0xfa,
0x05,
0x0d,
0x02,
0x05,
0xff,
0x05,
0x01,
0xdb,
0x01,
0xe8,
0xf1,
0x0c,
0xfb,
0xf8,
0xfd,
0xf9,
0x02,
0x14,
0x12,
0xfd,
0x01,
0xf4,
0x09,
0xfa,
0x08,
0xee,
0xfc,
0xf0,
0x09,
0x0e,
0xf7,
0xfc,
0xf1,
0xfc,
0xf9,
0xfa,
0x07,
0xea,
0xf5,
0x00,
0x00,
0x0b,
0x0d,
0xf6,
0xf8,
0xf2,
0x0d,
0x08,
0x01,
0x03,
0xfd,
0x04,
0x04,
0xf9,
0x08,
0xf0,
0x0a,
0xff,
0x15,
0xee,
0x22,
0xfd,
0x0c,
0x01,
0xf1,
0xf4,
0x04,
0x0f,
0x08,
0xff,
0x1e,
0xf6,
0xe1,
0xeb,
0xf2,
0xf5,
0xf5,
0xf2,
0x19,
0xef,
0x06,
0xf6,
0xe3,
0xea,
0x10,
0xe8,
0x13,
0x06,
0x00,
0xe0,
0xd4,
0x14,
0x06,
0x06,
0x07,
0xf3,
0x26,
0x18,
0xf9,
0xf1,
0xe3,
0x0b,
0xfb,
0x0a,
0xec,
0x08,
0x00,
0xf1,
0x01,
0xee,
0x15,
0xee,
0x08,
0x03,
0x09,
0x04,
0x0e,
0xe7,
0xf6,
0xe7,
0x0b,
0x00,
0x03,
0xf7,
0x02,
0x19,
0x27,
0x22,
0x20,
0x04,
0x28,
0xf3,
0x10,
0x11,
0xeb,
0xf2,
0x11,
0xfe,
0xdf,
0x1b,
0x04,
0x0a,
0x0a,
0x15,
0x08,
0x01,
0x07,
0x22,
0x11,
0x07,
0x0b,
0x02,
0x1e,
0x05,
0xfe,
0x01,
0xf3,
0xf9,
0x07,
0xf6,
0x0b,
0xff,
0x12,
0x21,
0x12,
0xec,
0xe0,
0xf2,
0xee,
0xe7,
0x2d,
0x2c,
0x03,
0x08,
0xf4,
0xfa,
0xea,
0x06,
0xe9,
0x0e,
0xf0,
0x0a,
0x03,
0x0e,
0xfd,
0xf9,
0x0c,
0xf0,
0xf9,
0xfa,
0x00,
0x10,
0xf9,
0x10,
0xdb,
0x05,
0x04,
0x19,
0x0d,
0xfc,
0xfc,
0xfc,
0xc9,
0xfc,
0xf6,
0x11,
0xe1,
0xef,
0x2c,
0x12,
0x02,
0xe9,
0xe5,
0xf0,
0xec,
0x17,
0x0a,
0x0e,
0x03,
0xde,
0x10,
0xf1,
0xf2,
0x17,
0x18,
0x00,
0x02,
0x17,
0xff,
0x0d,
0x02,
0xfe,
0x15,
0xf8,
0x0a,
0x01,
0x09,
0xff,
0x0d,
0x22,
0x00,
0xfd,
0xff,
0x04,
0x06,
0xe9,
0x05,
0x00,
0xf2,
0x04,
0x0d,
0x00,
0xe0,
0xed,
0xf0,
0x0b,
0xf9,
0xf3,
0x0f,
0xff,
0x05,
0x09,
0xff,
0xff,
0x0e,
0x0a,
0x0b,
0x18,
0x07,
0xe8,
0xe9,
0x14,
0xf2,
0x06,
0xf1,
0x14,
0xff,
0xf2,
0x02,
0xff,
0xfa,
0x1a,
0xfb,
0x06,
0x25,
0xdf,
0xe9,
0xfb,
0x07,
0xf3,
0x1f,
0x07,
0xf9,
0x0b,
0xf1,
0x00,
0x19,
0xee,
0xff,
0xf2,
0xf0,
0x09,
0xe6,
0xf2,
0x0e,
0x14,
0x2d,
0xe5,
0xf0,
0xfa,
0x30,
0x21,
0xf0,
0xec,
0xf3,
0xfc,
0xe9,
0xfb,
0xf7,
0x0b,
0xfd,
0xea,
0xfc,
0x05,
0xf6,
0x0f,
0xfa,
0xfd,
0x00,
0xfb,
0xf9,
0xf4,
0x05,
0xfe,
0xf1,
0xf5,
0xfb,
0x02,
0x06,
0x03,
0xfd,
0x05,
0x06,
0x03,
0xff,
0x13,
0x15,
0xf7,
0xf2,
0xf6,
0x04,
0x07,
0xf8,
0x13,
0xfb,
0x01,
0x0b,
0x05,
0x0a,
0xe1,
0xf7,
0x02,
0xf9,
0xfd,
0x0a,
0x0a,
0x02,
0xf8,
0xf4,
0xef,
0xf7,
0x05,
0x11,
0x07,
0x05,
0x0b,
0xfb,
0x1e,
0x01,
0x05,
0xee,
0x00,
0x00,
0x1b,
0xf8,
0x17,
0x04,
0x07,
0x12,
0x05,
0xfe,
0x03,
0x02,
0xf2,
0x02,
0xfb,
0x10,
0x04,
0x03,
0x00,
0xfe,
0xe6,
0x09,
0x02,
0x04,
0xf7,
0x11,
0x06,
0x08,
0xed,
0xfe,
0x01,
0x02,
0xf5,
0x04,
0x05,
0xfa,
0xf1,
0xfa,
0x05,
0x08,
0xff,
0x00,
0xff,
0x09,
0x08,
0xf9,
0x06,
0x0a,
0xf6,
0xfc,
0xfd,
0xfc,
0xf8,
0xfc,
0x05,
0xfe,
0xfa,
0xee,
0xe9,
0xfe,
0xee,
0x09,
0x00,
0xf5,
0x05,
0x03,
0x13,
0x04,
0xf1,
0xfe,
0xf1,
0xf8,
0x02,
0x0c,
0xfa,
0x01,
0xf5,
0x0e,
0xfc,
0x04,
0xff,
0xfa,
0x01,
0xfd,
0x0c,
0x01,
0x07,
0x09,
0x03,
0x0a,
0x08,
0x01,
0xf7,
0x02,
0x04,
0xfc,
0x0a,
0x06,
0x14,
0x00,
0x13,
0x09,
0x02,
0x01,
0xff,
0x01,
0xfa,
0xfc,
0xfe,
0x05,
0x0d,
0x00,
0xf9,
0x0a,
0xf4,
0x06,
0x10,
0x03,
0x03,
0xfc,
0xf9,
0xfd,
0x00,
0x05,
0x04,
0xf2,
0xf6,
0xe7,
0x07,
0x07,
0x0d,
0xea,
0xf2,
0x08,
0x05,
0x0b,
0xfe,
0xeb,
0xff,
0x04,
0x09,
0x04,
0xf8,
0x0b,
0x01,
0x08,
0xf0,
0x03,
0x1a,
0xf7,
0xfb,
0x0d,
0x07,
0x03,
0xf6,
0x0f,
0x15,
0x0c,
0xf0,
0xf4,
0x0b,
0x05,
0x05,
0xf8,
0x0e,
0xf7,
0xfc,
0x02,
0xff,
0x14,
0x04,
0xf1,
0x01,
0x00,
0x04,
0x18,
0x14,
0x1b,
0xde,
0xfd,
0x25,
0x08,
0xe2,
0xfa,
0x00,
0xff,
0x12,
0x08,
0x27,
0x0a,
0xf1,
0xfb,
0xfa,
0x05,
0xff,
0x08,
0x20,
0x09,
0xf9,
0x09,
0xfe,
0x0c,
0xf2,
0xff,
0x05,
0x02,
0xfa,
0xf0,
0xfd,
0x14,
0x0e,
0xf0,
0xfc,
0x00,
0xff,
0xf6,
0xfd,
0x01,
0x09,
0xfb,
0xf6,
0xf5,
0x0b,
0x0a,
0xf7,
0xfc,
0x03,
0x09,
0xff,
0xf6,
0x02,
0xf7,
0xf5,
0x0e,
0xf7,
0x06,
0x04,
0x0c,
0x09,
0x01,
0xf7,
0x01,
0xfd,
0x0a,
0x02,
0xff,
0xfc,
0x06,
0xf7,
0x16,
0x0a,
0xfe,
0xf9,
0xfa,
0xff,
0xfc,
0x05,
0x0b,
0xff,
0x0e,
0x06,
0xf8,
0x03,
0x0a,
0x03,
0xfe,
0xf9,
0x03,
0x12,
0xf8,
0x04,
0x05,
0x01,
0x02,
0xfa,
0xf6,
0x08,
0xfe,
0xfa,
0x04,
0xfa,
0xf6,
0x0d,
0x00,
0x06,
0x01,
0x05,
0x08,
0x0a,
0xfc,
0xea,
0xf9,
0x08,
0xf3,
0x02,
0xf5,
0x04,
0xfc,
0xfe,
0x02,
0xef,
0xf0,
0x03,
0x0e,
0xfe,
0xfa,
0xf8,
0x10,
0xfe,
0xfa,
0x09,
0xf8,
0x04,
0xf1,
0xfa,
0xf0,
0xf1,
0x00,
0x02,
0x0a,
0x08,
0x0d,
0xee,
0xfe,
0xf4,
0x04,
0x04,
0x1b,
0x07,
0xf3,
0x1a,
0xfb,
0x01,
0xfc,
0xf7,
0xf8,
0x06,
0xfd,
0x05,
0xfd,
0xfd,
0x05,
0xfd,
0xf9,
0x03,
0x0d,
0x19,
0x12,
0xed,
0x10,
0xfd,
0x0b,
0xfc,
0xfc,
0x02,
0xff,
0xfc,
0x10,
0x0a,
0x15,
0xfe,
0xf4,
0xfd,
0x03,
0xf8,
0xff,
0x05,
0x10,
0x00,
0xf9,
0x18,
0xf9,
0xfe,
0x08,
0xf7,
0x10,
0x0b,
0x02,
0x06,
0xfd,
0xf8,
0x02,
0xf9,
0xf9,
0xff,
0x00,
0xfc,
0x02,
0x01,
0xfd,
0x01,
0x10,
0xf8,
0xf6,
0xf7,
0xff,
0x0c,
0x0f,
0xf5,
0x07,
0x01,
0xf3,
0xfb,
0x06,
0xf7,
0x02,
0x05,
0x08,
0x01,
0x01,
0xfc,
0xf4,
0xf1,
0x00,
0x0a,
0x0a,
0xef,
0xfc,
0xfb,
0x02,
0xe2,
0x01,
0x03,
0xf2,
0xfe,
0x05,
0xfc,
0xfc,
0xfa,
0xfe,
0xf8,
0x0a,
0x01,
0xf8,
0xf6,
0xfd,
0xf7,
0xfb,
0x04,
0x0a,
0x05,
0xfa,
0x05,
0x0b,
0x10,
0xf3,
0xf6,
0xfb,
0x02,
0x00,
0x0b,
0xff,
0x14,
0x05,
0xfe,
0xfe,
0x0a,
0x03,
0x0d,
0x03,
0x3f,
0xe9,
0x00,
0x05,
0x0b,
0xee,
0x15,
0x03,
0x17,
0xfa,
0xf9,
0xfa,
0x0b,
0xfc,
0xe1,
0x0e,
0x11,
0x08,
0x01,
0xfe,
0xf1,
0x02,
0x12,
0xfa,
0x02,
0x00,
0xf3,
0xfe,
0xf7,
0x0e,
0xf6,
0xf5,
0x04,
0xfb,
0x09,
0xff,
0xf9,
0x07,
0x1e,
0x01,
0x0c,
0x09,
0xff,
0x0f,
0xfa,
0x0c,
0xfe,
0x17,
0x02,
0x01,
0xff,
0x04,
0xf4,
0x09,
0xf9,
0x09,
0xf8,
0xff,
0x0a,
0xe9,
0xfd,
0xf0,
0xfc,
0xfb,
0xff,
0xf8,
0xe5,
0xff,
0x07,
0xf8,
0xee,
0x04,
0xf3,
0xed,
0x0a,
0xf9,
0x0b,
0x01,
0xfc,
0x09,
0xf5,
0xf6,
0x13,
0xfc,
0x02,
0x08,
0xf6,
0xf1,
0x04,
0x04,
0x00,
0x00,
0x05,
0x01,
0x03,
0xf5,
0x03,
0xfc,
0x07,
0xf5,
0xff,
0x15,
0xf8,
0xff,
0x0b,
0xfc,
0xf8,
0x06,
0xe9,
0x0a,
0x00,
0x06,
0xfa,
0xfa,
0xff,
0x00,
0x08,
0xf2,
0xf4,
0x08,
0xfb,
0x0f,
0x11,
0xf9,
0xfe,
0x06,
0xf1,
0xf8,
0xf6,
0xf7,
0x02,
0x03,
0xf9,
0xfd,
0x13,
0x02,
0xf9,
0xf7,
0x00,
0x03,
0x06,
0x03,
0xf4,
0xfe,
0xf2,
0x05,
0xfe,
0xf6,
0x09,
0x11,
0x0d,
0xf3,
0xf4,
0x12,
0x0d,
0x03,
0x07,
0xe9,
0x0b,
0xf5,
0xf5,
0x03,
0x03,
0xff,
0x07,
0xf2,
0xf6,
0x01,
0xef,
0x01,
0xfb,
0xfc,
0xf3,
0xf3,
0xfd,
0xf5,
0x02,
0x05,
0x0e,
0xf9,
0x0c,
0x0d,
0x12,
0xf3,
0xe8,
0x0a,
0xfb,
0x03,
0xf1,
0x07,
0x1e,
0xf9,
0x04,
0xfa,
0xf5,
0x00,
0xf2,
0x00,
0xfd,
0x01,
0xf9,
0xf1,
0xf8,
0x05,
0x0d,
0xf5,
0x04,
0xfc,
0xfb,
0xf3,
0x14,
0xfc,
0xfc,
0x14,
0xfd,
0x0a,
0x15,
0xf2,
0xfd,
0x05,
0x00,
0x05,
0xf4,
0xf5,
0x08,
0xf6,
0xf9,
0xf7,
0x0f,
0x00,
0xf2,
0x00,
0x0f,
0x05,
0xfe,
0x00,
0x02,
0x09,
0x06,
0x21,
0x00,
0x0f,
0x05,
0x33,
0x05,
0xf5,
0xf6,
0xfb,
0xfe,
0xea,
0x0d,
0xe4,
0x12,
0xec,
0xf7,
0x05,
0x0d,
0x12,
0x15,
0xe9,
0xe8,
0xf5,
0x06,
0x01,
0xea,
0x17,
0x15,
0x1e,
0xfc,
0xf3,
0xf1,
0xf2,
0x0f,
0xf8,
0x12,
0xe2,
0x06,
0x09,
0xfa,
0xe9,
0xfd,
0x04,
0xe6,
0xf6,
0xff,
0xff,
0xdf,
0x04,
0x02,
0xea,
0xf5,
0xf6,
0x12,
0xf5,
0x08,
0x2e,
0xed,
0x06,
0x04,
0xe7,
0x07,
0xfb,
0xf7,
0xf9,
0xf5,
0xfd,
0x04,
0xfa,
0xf3,
0xf5,
0x0e,
0xff,
0x08,
0x0e,
0xf5,
0x23,
0xf8,
0xfc,
0xe2,
0xf0,
0x0a,
0x15,
0xfa,
0x0d,
0x07,
0x05,
0x07,
0x17,
0xe7,
0xe7,
0xfd,
0x2e,
0xef,
0xde,
0xf3,
0xeb,
0xfd,
0xfd,
0x0b,
0xfa,
0xfe,
0xeb,
0xfe,
0xef,
0xfd,
0xe4,
0xf6,
0x25,
0x00,
0x1a,
0x05,
0xf9,
0x04,
0x10,
0xdf,
0xed,
0xf8,
0x08,
0x03,
0x1c,
0xfa,
0xe5,
0xea,
0x02,
0xf5,
0x0c,
0xfd,
0xf2,
0x01,
0x2e,
0xf4,
0x0f,
0x07,
0x14,
0xfd,
0x1f,
0xfc,
0x14,
0xef,
0xf0,
0x02,
0x03,
0x26,
0x0a,
0x14,
0x1d,
0x04,
0xf5,
0xf4,
0x24,
0x18,
0xf4,
0x14,
0xfc,
0xeb,
0x16,
0xf1,
0xf6,
0x11,
0xeb,
0x06,
0xf0,
0xfa,
0xf7,
0xfd,
0x0b,
0x0c,
0xef,
0xd0,
0x0e,
0x1c,
0x03,
0x05,
0x08,
0xf3,
0xfe,
0x02,
0x1f,
0xfe,
0xf3,
0xf5,
0xf2,
0xf9,
0xfc,
0xe9,
0xea,
0x11,
0xfb,
0xef,
0xfb,
0x1a,
0xf9,
0xe7,
0x21,
0x04,
0xf5,
0xe4,
0x02,
0x0f,
0x2c,
0x02,
0xf6,
0xf0,
0xd9,
0x1f,
0xfd,
0xfb,
0xfa,
0xfc,
0x03,
0x11,
0xf6,
0xfd,
0xef,
0xeb,
0x06,
0x01,
0x03,
0xe9,
0x0e,
0xfe,
0xf7,
0x1d,
0xf6,
0x02,
0x21,
0x16,
0xfb,
0x07,
0x24,
0xfa,
0xf5,
0x09,
0x09,
0x10,
0x03,
0x05,
0xfc,
0xea,
0xf3,
0x07,
0xf7,
0xfe,
0xfa,
0x12,
0xe8,
0x13,
0xf8,
0x02,
0xf8,
0xe8,
0x0b,
0xf6,
0x21,
0x15,
0x01,
0x01,
0xfc,
0xfe,
0x06,
0xfd,
0xfa,
0x0e,
0xfa,
0x07,
0x09,
0x05,
0xfb,
0x0d,
0x0f,
0x02,
0x00,
0xe8,
0x07,
0x02,
0x01,
0x09,
0x00,
0x05,
0x05,
0x01,
0xe6,
0xee,
0xf7,
0x05,
0xf2,
0xf0,
0xfe,
0x15,
0xec,
0xfc,
0xfc,
0x00,
0x06,
0x08,
0x06,
0x03,
0x17,
0xf3,
0xe1,
0xf3,
0x04,
0x03,
0x08,
0xfa,
0x04,
0x0f,
0xee,
0xee,
0xf0,
0xf8,
0x00,
0xf6,
0x09,
0xf3,
0xfe,
0x06,
0x03,
0x00,
0x00,
0xfc,
0x0e,
0xfd,
0x07,
0xf2,
0x03,
0x15,
0xfc,
0x04,
0x0d,
0xe4,
0xf7,
0x0c,
0x06,
0x04,
0x03,
0xf6,
0xff,
0x09,
0xf1,
0x0b,
0xe8,
0xef,
0xfb,
0xf5,
0xf9,
0xf1,
0xea,
0xf8,
0xfb,
0xe7,
0x01,
0x00,
0xff,
0xf7,
0x04,
0xfc,
0xfd,
0x02,
0x03,
0xff,
0xf4,
0xfb,
0x03,
0xf9,
0xfe,
0xfe,
0xf8,
0xfb,
0xf9,
0xf6,
0x10,
0xfc,
0xfe,
0xfc,
0x00,
0x04,
0xfd,
0xf9,
0xfe,
0x02,
0xf7,
0x03,
0xfb,
0xf5,
0x04,
0x02,
0xff,
0x0d,
0xfd,
0x0c,
0xf3,
0xff,
0x04,
0x14,
0xf2,
0x03,
0x07,
0x0d,
0x04,
0xfa,
0x05,
0x07,
0x02,
0xfb,
0x0d,
0x11,
0xfb,
0x07,
0xfe,
0xf3,
0xff,
0x01,
0x03,
0xfe,
0x03,
0x09,
0xf7,
0xff,
0xfc,
0x04,
0xfb,
0xf9,
0xf6,
0xf0,
0x06,
0xfa,
0xfe,
0x05,
0x0b,
0xfa,
0xed,
0xfe,
0x01,
0xf3,
0x03,
0x05,
0xfa,
0xfe,
0xfe,
0x02,
0xf8,
0x04,
0xfe,
0x05,
0xff,
0xf9,
0xf4,
0xdc,
0x00,
0xf8,
0xfd,
0x02,
0xf5,
0x03,
0xf9,
0x09,
0xec,
0xf8,
0xf9,
0xff,
0x01,
0x06,
0xf8,
0x00,
0x05,
0xfe,
0xfc,
0xf9,
0x06,
0xfd,
0xfd,
0x04,
0xfa,
0x0e,
0xf7,
0xf7,
0x02,
0xf0,
0xfd,
0xed,
0xf8,
0xff,
0xfb,
0x04,
0xfd,
0x04,
0xf6,
0xf9,
0x06,
0x05,
0x08,
0xfb,
0xfc,
0xfd,
0x0f,
0xd0,
0x01,
0x03,
0x07,
0x0f,
0x0c,
0x02,
0x04,
0xf4,
0x07,
0x26,
0x23,
0x0e,
0xfc,
0x01,
0xfd,
0xf6,
0xfb,
0x0f,
0xf6,
0x0f,
0x10,
0xf8,
0x03,
0xf3,
0x16,
0xfb,
0x02,
0xf4,
0x02,
0xf9,
0xf6,
0xf6,
0xff,
0xf6,
0xf9,
0x0e,
0x00,
0x05,
0xec,
0xfb,
0x04,
0x09,
0xf1,
0xfc,
0x03,
0xf7,
0xf1,
0xf6,
0xfe,
0xee,
0xfb,
0x0f,
0x0b,
0xf6,
0xfb,
0xf8,
0xfe,
0xff,
0xfd,
0x06,
0x06,
0xfa,
0x06,
0x19,
0xfa,
0xf7,
0x01,
0xf7,
0x02,
0x06,
0xff,
0x08,
0xf3,
0xfd,
0xff,
0x0b,
0x12,
0x09,
0x04,
0x1a,
0xf7,
0xfe,
0x02,
0xff,
0x08,
0x08,
0x08,
0xf5,
0x07,
0x06,
0xf1,
0x07,
0x0e,
0xfb,
0x04,
0xf1,
0x01,
0xfb,
0xfc,
0x05,
0xfb,
0xfe,
0xfb,
0xfd,
0xfb,
0x04,
0x05,
0x02,
0x04,
0xf8,
0x02,
0x08,
0xfc,
0x05,
0xfb,
0xf9,
0x01,
0xfe,
0x01,
0xfc,
0xf7,
0xf9,
0x09,
0x01,
0xfe,
0xfa,
0x07,
0x05,
0xfa,
0x01,
0x0a,
0x06,
0xfa,
0xf4,
0x00,
0x06,
0xef,
0xf0,
0x02,
0x05,
0x08,
0x06,
0xfc,
0x01,
0xf6,
0x00,
0xff,
0xf6,
0xf0,
0x0e,
0xf4,
0x01,
0x0b,
0xf8,
0x0f,
0x0a,
0xfb,
0xfc,
0xf8,
0xfd,
0xf4,
0x0f,
0xf7,
0x01,
0x0b,
0xff,
0x0b,
0x07,
0xf2,
0xfb,
0xfd,
0xf3,
0x02,
0x06,
0xff,
0x01,
0xec,
0xf9,
0xf9,
0xf5,
0xf3,
0x04,
0x10,
0xfd,
0xfe,
0xf4,
0xf8,
0xff,
0xf4,
0xfd,
0x00,
0x0e,
0x01,
0xfe,
0xf9,
0xfb,
0x02,
0xf6,
0xfd,
0xf7,
0x00,
0xfb,
0x0d,
0xff,
0xef,
0xf9,
0x03,
0xfd,
0x05,
0xf4,
0x01,
0xff,
0xef,
0xff,
0x09,
0x02,
0x03,
0x04,
0x05,
0x03,
0x05,
0xf9,
0x00,
0x06,
0xed,
0x05,
0xfc,
0xf6,
0xfc,
0x05,
0x01,
0x05,
0x08,
0xf5,
0x11,
0x01,
0xfa,
0x05,
0x04,
0x15,
0xfb,
0xf9,
0xf8,
0xfa,
0x0f,
0xf5,
0x02,
0x03,
0x01,
0xf4,
0x03,
0xf4,
0xf5,
0xfd,
0x09,
0x01,
0xfa,
0x03,
0x00,
0xf3,
0xf4,
0x04,
0x0a,
0x03,
0xf0,
0xf6,
0x08,
0xfa,
0x03,
0xf8,
0xfe,
0x07,
0xf7,
0x09,
0x05,
0x01,
0x02,
0xfa,
0x09,
0x01,
0xfd,
0xf6,
0x03,
0xf8,
0xf0,
0xef,
0xfa,
0xfa,
0x0e,
0xfd,
0x0e,
0x09,
0x13,
0x0a,
0xf6,
0x0c,
0x02,
0x05,
0xfc,
0xe8,
0x13,
0xf8,
0xf6,
0x09,
0x0f,
0xfc,
0x0f,
0x0d,
0x03,
0xf2,
0xfe,
0x09,
0x10,
0x08,
0xf0,
0xff,
0xfd,
0x14,
0xf2,
0xf5,
0x01,
0x01,
0xec,
0x0e,
0xff,
0x0f,
0xfd,
0xf7,
0xfc,
0x0a,
0xed,
0xfa,
0x0c,
0xfa,
0xf8,
0x06,
0x08,
0xf6,
0x02,
0x06,
0x0b,
0xea,
0xfe,
0x1d,
0xf7,
0x0d,
0x17,
0x0b,
0x05,
0x0f,
0xfb,
0x05,
0x09,
0x01,
0x05,
0x0d,
0x03,
0xf5,
0xf9,
0x09,
0xf3,
0xea,
0xfc,
0xee,
0x09,
0x04,
0x02,
0x0e,
0x07,
0xfa,
0x03,
0x03,
0xf4,
0xfc,
0xf8,
0xfa,
0xf9,
0x04,
0xf8,
0x00,
0xf2,
0xfc,
0xf5,
0xf7,
0x06,
0xfd,
0xfd,
0xfe,
0x0d,
0x06,
0xf6,
0x0a,
0xeb,
0x18,
0xf6,
0x0a,
0x01,
0xfb,
0x08,
0x13,
0xfb,
0x00,
0xf6,
0xfd,
0xfa,
0xf7,
0x03,
0x03,
0x10,
0xee,
0xff,
0xf8,
0x06,
0xfd,
0xeb,
0xed,
0x1d,
0x03,
0x06,
0x08,
0xff,
0x06,
0xed,
0x0a,
0x0e,
0x12,
0x02,
0x03,
0x00,
0xf9,
0xf1,
0xef,
0x08,
0x03,
0x03,
0x07,
0xfc,
0xfb,
0x08,
0x04,
0xe4,
0xef,
0xef,
0xf8,
0x03,
0x05,
0x04,
0xf8,
0xfb,
0x16,
0xfa,
0xfd,
0x00,
0x01,
0x06,
0x00,
0x02,
0x00,
0x06,
0x07,
0xee,
0x05,
0xfb,
0xf7,
0x0f,
0x0c,
0xfd,
0xfd,
0x06,
0x05,
0xf7,
0x11,
0xf2,
0x05,
0xf3,
0x08,
0xf8,
0x02,
0xeb,
0xf6,
0x0e,
0xeb,
0x0b,
0x0c,
0x12,
0xf7,
0x03,
0x18,
0x00,
0x09,
0xfa,
0xf7,
0x09,
0xfa,
0xed,
0x0d,
0x0f,
0xf8,
0x03,
0x10,
0x14,
0xf6,
0xf8,
0x08,
0xf7,
0xfd,
0xf7,
0x04,
0xe8,
0xf4,
0x07,
0xf9,
0x0b,
0xf3,
0xfe,
0x0a,
0xfc,
0xfe,
0xf8,
0x01,
0xf2,
0xfb,
0xfe,
0x07,
0x0e,
0xfc,
0x08,
0x07,
0x07,
0x0f,
0x22,
0x13,
0xef,
0x05,
0xf4,
0xdb,
0x09,
0xf3,
0x07,
0x03,
0xf7,
0x03,
0xff,
0x08,
0xf9,
0x0f,
0x18,
0x06,
0x1f,
0xfc,
0xf0,
0x00,
0x02,
0x1c,
0x04,
0xf9,
0xf0,
0x14,
0x06,
0xf3,
0xec,
0xee,
0xec,
0xe1,
0x09,
0x23,
0x02,
0xdf,
0x06,
0xfa,
0xf3,
0xf6,
0x09,
0xdd,
0xdb,
0xee,
0x0e,
0x21,
0xe5,
0xfd,
0xf4,
0xff,
0xea,
0xff,
0x09,
0x05,
0x00,
0x08,
0x03,
0xfc,
0xfd,
0xf2,
0x01,
0xf9,
0x12,
0x05,
0x03,
0xf5,
0xf0,
0xeb,
0xfd,
0x00,
0xfd,
0xf8,
0xf6,
0x0c,
0x1a,
0xdb,
0xfe,
0xfd,
0xf1,
0x1c,
0x11,
0xf6,
0x15,
0xfd,
0xf0,
0xe4,
0x00,
0x0a,
0xec,
0xfa,
0xf9,
0x05,
0x04,
0xf3,
0xfc,
0x22,
0xfe,
0x0a,
0xfa,
0xf0,
0xfa,
0x0b,
0x12,
0x32,
0xf8,
0xff,
0xf7,
0x15,
0x07,
0x0d,
0xf2,
0x04,
0xf1,
0x18,
0xf3,
0xf9,
0xe4,
0xfc,
0xff,
0xfb,
0xea,
0x01,
0x07,
0xf4,
0x05,
0xf1,
0x02,
0x0c,
0x0b,
0x01,
0x04,
0xf1,
0xe0,
0x0e,
0x08,
0xfd,
0x0e,
0x0a,
0xed,
0xe3,
0xfc,
0xe0,
0x05,
0x06,
0xfa,
0x05,
0x05,
0x0d,
0x09,
0xf3,
0x36,
0xf5,
0xf1,
0xf2,
0xec,
0x04,
0xf0,
0xf3,
0xfc,
0xf9,
0x33,
0xf5,
0x23,
0x01,
0x0a,
0xf7,
0x0b,
0xf6,
0xf2,
0x07,
0xee,
0x0e,
0xff,
0x10,
0x04,
0x0d,
0xf8,
0xf4,
0xf1,
0x0b,
0x0b,
0xf8,
0x06,
0x18,
0x10,
0xf3,
0x09,
0x18,
0xfa,
0xfb,
0xf7,
0x0c,
0x24,
0xfd,
0xef,
0x0c,
0x14,
0xeb,
0xf0,
0xf8,
0xf7,
0xfc,
0xe6,
0x04,
0x07,
0x26,
0x10,
0xed,
0xed,
0xfc,
0x16,
0x08,
0xeb,
0x1e,
0xfa,
0xfb,
0x06,
0xfb,
0x23,
0x12,
0x11,
0x14,
0xf3,
0xfe,
0xf3,
0xf3,
0xf6,
0x0c,
0xee,
0x04,
0xf4,
0xfb,
0x00,
0xfd,
0xff,
0xf2,
0xf6,
0xfc,
0xfa,
0x01,
0x0c,
0x01,
0x10,
0xee,
0x0d,
0xf1,
0xeb,
0xfe,
0x1e,
0xed,
0xdf,
0x0a,
0x05,
0x26,
0x0a,
0xef,
0x09,
0x26,
0x08,
0x01,
0xe4,
0x09,
0x2f,
0x37,
0x0d,
0xdf,
0x32,
0xec,
0xe3,
0xfe,
0x2b,
0x19,
0x09,
0xe8,
0xf9,
0x0b,
0x42,
0x17,
0xda,
0x0d,
0x06,
0xfe};
