/* SPDX-License-Identifier: GPL-2.0 */
/*
 * Copyright (c) 2020 MediaTek Inc.
 *
 * Author: Ya-Wen Hsu <Ya-Wen.Hsu@mediatek.com>
 *
 */
char fdvt_kernel_bias_loop77_1_frame01[] = {
0xfd,
0xfe,
0x04,
0x03,
0x01,
0xfd,
0x00,
0x02,
0xfd,
0xff,
0x04,
0x02,
0xff,
0xff,
0x02,
0x01,
0xfe,
0xff,
0xdd,
0xf5,
0x05,
0xfe,
0xdc,
0xf5,
0xfa,
0x07,
0xdd,
0xf6,
0x01,
0x06,
0xda,
0xf4,
0x02,
0xf8,
0xfe,
0xfa,
0x03,
0xf8,
0xfb,
0xfa,
0x02,
0xf5,
0x04,
0xfb,
0x05,
0xf4,
0x02,
0xfe,
0xfa,
0xfe,
0x36,
0x19,
0x01,
0x00,
0x30,
0x16,
0xf9,
0x08,
0x35,
0x19,
0x00,
0x07,
0x30,
0x15,
0xef,
0xff,
0x2f,
0x18,
0xeb,
0xff,
0x31,
0x17,
0xf0,
0xff,
0x31,
0x16,
0xed,
0x01,
0x33,
0x15,
0x04,
0x08,
0xf7,
0xfd,
0xfc,
0x09,
0xf8,
0xfd,
0x04,
0x03,
0xf7,
0xfe,
0xfd,
0x04,
0xf7,
0xfd,
0xff,
0xff,
0xf9,
0x02,
0xff,
0x00,
0xfa,
0x02,
0x00,
0xfe,
0xfa,
0x03,
0x00,
0xfe,
0xfa,
0x03,
0x02,
0xfd,
0xec,
0xf9,
0x06,
0xfc,
0xee,
0xf9,
0x02,
0xfb,
0xec,
0xfa,
0x07,
0xfa,
0xee,
0xfa,
0xf8,
0x01,
0xf6,
0xfc,
0x04,
0x04,
0xf2,
0xf7,
0xfc,
0x03,
0xf7,
0xfb,
0x08,
0x05,
0xf1,
0xf6,
0x0a,
0xed,
0xee,
0xec,
0x02,
0xed,
0xef,
0xed,
0x0b,
0xed,
0xec,
0xea,
0x01,
0xeb,
0xee,
0xea,
0x0c,
0x03,
0xfa,
0xf4,
0x04,
0x03,
0xfa,
0xf4,
0x0c,
0xfe,
0xfa,
0xf3,
0x04,
0xff,
0xfa,
0xf4,
0x03,
0xf8,
0x0c,
0x17,
0xfe,
0xf9,
0x0c,
0x17,
0x03,
0xf6,
0x0d,
0x18,
0xff,
0xf7,
0x0c,
0x18,
0xf6,
0xfd,
0x11,
0xfd,
0xf3,
0xfd,
0x11,
0xfd,
0xf6,
0xfc,
0x10,
0xfc,
0xf3,
0xfc,
0x11,
0xfd,
0xff,
0x08,
0xf3,
0xfa,
0xfe,
0x07,
0xf4,
0xfa,
0x00,
0x07,
0xf3,
0xf7,
0xfc,
0x07,
0xf3,
0xf8,
0x03,
0x01,
0xf4,
0xfd,
0x02,
0x00,
0xf3,
0xfd,
0x03,
0x00,
0xf2,
0xfb,
0x02,
0xff,
0xf2,
0xfc,
0x01,
0xfb,
0xfa,
0xf4,
0x02,
0xfb,
0xfb,
0xf6,
0x01,
0xfa,
0xfa,
0xf5,
0x04,
0xfa,
0xfa,
0xf6,
0x02,
0xfe,
0xfc,
0x05,
0x11,
0xf9,
0x0c,
0x0a,
0x01,
0xfc,
0xff,
0x08,
0x12,
0xff,
0x0e,
0x0f,
0x02,
0x00,
0xff,
0x02,
0x03,
0x00,
0x00,
0x02,
0x01,
0x01,
0x00,
0x03,
0x04,
0x00,
0x01,
0x04,
0xfd,
0x01,
0x05,
0xfd,
0xf5,
0x03,
0x09,
0xfe,
0xfd,
0xff,
0x06,
0xfc,
0xf8,
0x00,
0x0a,
0xfe,
0x04,
0xfc,
0xf9,
0xfe,
0x03,
0xfe,
0xf8,
0xfd,
0x05,
0xf9,
0xfa,
0x00,
0x03,
0xfd,
0xfa,
0xfe,
0xf4,
0xfe,
0x00,
0xfe,
0xf9,
0x03,
0x03,
0xf9,
0xf7,
0x03,
0xfc,
0xfa,
0xf8,
0x07,
0xfc,
0xf5,
0xfe,
0x05,
0xfb,
0xfe,
0xfe,
0x05,
0xf8,
0xfb,
0xfd,
0x05,
0x00,
0x00,
0xfd,
0x05,
0xfc,
0xfc,
0xda,
0x03,
0xf8,
0xff,
0xdc,
0x01,
0x02,
0x04,
0xd9,
0xff,
0xf8,
0x00,
0xd9,
0xfe,
0x04,
0x06,
0x03,
0x05,
0x0a,
0x0e,
0x04,
0x04,
0x0b,
0x0f,
0x03,
0x07,
0x0b,
0x0d,
0x03,
0x05,
0x0c,
0x0e,
0x01,
0xff,
0x03,
0xf8,
0x02,
0xfa,
0x03,
0xfb,
0xfd,
0x02,
0x02,
0xf5,
0xfe,
0xfd,
0x02,
0xfa,
0x0a,
0x14,
0x19,
0x07,
0x17,
0x0c,
0x0a,
0x02,
0x0b,
0x15,
0x0e,
0xff,
0x14,
0x0a,
0x08,
0xff,
0xfd,
0xfe,
0xfc,
0xfe,
0xfd,
0xfc,
0xf9,
0xfc,
0xfc,
0xfe,
0xfb,
0xfe,
0xfc,
0xfe,
0xf9,
0xfc,
0xff,
0x00,
0xf5,
0xfd,
0xfb,
0x01,
0xf5,
0xfa,
0xff,
0x05,
0xf9,
0xff,
0xf8,
0x04,
0xf6,
0xfc,
0xfa,
0xf2,
0x00,
0xfb,
0xff,
0xf1,
0xff,
0xf8,
0xf8,
0xf4,
0x00,
0xfe,
0xff,
0xf3,
0xff,
0xfb,
0xff,
0x0f,
0x04,
0x0a,
0xfa,
0x0f,
0x06,
0x0c,
0xfd,
0x0d,
0x02,
0x06,
0xfa,
0x0e,
0x04,
0x09,
0x01,
0xfb,
0x06,
0x0d,
0x0a,
0xfa,
0x06,
0x0d,
0x01,
0xfb,
0x08,
0x0f,
0x0b,
0xfb,
0x08,
0x0f,
0xff,
0x01,
0xfe,
0x01,
0xff,
0x01,
0xfa,
0xff,
0xff,
0xff,
0xfc,
0x01,
0xfe,
0xff,
0xfa,
0xff,
0xfd,
0xfc,
0x04,
0x03,
0x00,
0xfc,
0x02,
0x03,
0xfd,
0xfe,
0x04,
0x02,
0x00,
0xfd,
0x03,
0x02,
0xf8,
0xfd,
0xea,
0xf7,
0x06,
0xfb,
0xeb,
0xfb,
0xf6,
0x07,
0xea,
0xf7,
0x04,
0x06,
0xec,
0xfc,
0x00,
0xfb,
0xfa,
0xf3,
0x00,
0xfc,
0xf9,
0xf0,
0x01,
0xfa,
0xfc,
0xf7,
0x06,
0xfc,
0xfe,
0xf5,
0xfa,
0x01,
0x20,
0x24,
0xfe,
0x01,
0x1d,
0x22,
0xfa,
0x06,
0x1e,
0x21,
0xfc,
0x03,
0x1b,
0x21,
0xf6,
0xfd,
0x2a,
0x2f,
0xf4,
0xfd,
0x2b,
0x2b,
0xf6,
0xfd,
0x2a,
0x2d,
0xf5,
0xfe,
0x2d,
0x2a,
0xf0,
0xfe,
0x0c,
0x0c,
0xfb,
0x05,
0x0f,
0x17,
0xfc,
0x02,
0x01,
0x01,
0xfd,
0x05,
0x03,
0x07,
0x01,
0xfc,
0xf9,
0x03,
0xff,
0xfe,
0xfb,
0x05,
0x02,
0xfb,
0xf9,
0x03,
0x00,
0xfc,
0xfb,
0x05,
0x03,
0xf8,
0xf4,
0xf7,
0x07,
0xf9,
0xf6,
0xf7,
0x05,
0xf4,
0xf3,
0xf9,
0x09,
0xf8,
0xf6,
0xf9,
0xfd,
0xff,
0xf6,
0xf8,
0x01,
0x01,
0xf6,
0xf4,
0x00,
0x02,
0xf6,
0xf8,
0x04,
0x04,
0xf6,
0xf2,
0x0d,
0xe7,
0xfe,
0xf0,
0x03,
0xe8,
0xfb,
0xf0,
0x0d,
0xe9,
0x03,
0xf5,
0x03,
0xe8,
0xfe,
0xf2,
0x0a,
0x04,
0xf8,
0xeb,
0x01,
0x04,
0xf8,
0xed,
0x0a,
0x01,
0xf9,
0xeb,
0x02,
0x01,
0xfa,
0xee,
0x00,
0xf8,
0x04,
0x18,
0xfd,
0xf9,
0x04,
0x1b,
0x00,
0xf6,
0x04,
0x19,
0xfe,
0xf7,
0x04,
0x1c,
0xf9,
0xfe,
0x03,
0xf7,
0xf6,
0xff,
0x04,
0xf7,
0xf9,
0xfd,
0x04,
0xf6,
0xf6,
0xfe,
0x05,
0xf8,
0x01,
0x08,
0xfe,
0xfe,
0x00,
0x08,
0xfe,
0xfc,
0x02,
0x07,
0xfb,
0xf7,
0xff,
0x06,
0xfc,
0xf5,
0x03,
0x03,
0xfb,
0xfd,
0x01,
0x02,
0xf9,
0xfc,
0x02,
0x01,
0xf9,
0xfa,
0x01,
0x01,
0xf8,
0xf9,
0x00,
0xf7,
0xfd,
0xf6,
0x01,
0xf7,
0xfd,
0xf8,
0x01,
0xf6,
0xfc,
0xf5,
0x03,
0xf7,
0xfc,
0xf7,
0xfe,
0x00,
0xff,
0x03,
0xff,
0xfd,
0x02,
0x08,
0xfe,
0xfc,
0xff,
0x03,
0xfd,
0xfa,
0x02,
0x08,
0x02,
0x02,
0x01,
0x03,
0x03,
0x01,
0x01,
0x04,
0x02,
0x02,
0x02,
0x04,
0x03,
0x02,
0x02,
0x04,
0x00,
0x04,
0x06,
0x05,
0xfd,
0x02,
0x07,
0x05,
0x00,
0x04,
0x08,
0x05,
0xfd,
0x02,
0x08,
0x06,
0x04,
0xfc,
0xf8,
0xf7,
0xfd,
0xfd,
0xf9,
0xf8,
0x05,
0xfa,
0xf8,
0xf6,
0xfe,
0xfb,
0xf9,
0xf8,
0xf5,
0xfb,
0x02,
0xfb,
0xf2,
0xfd,
0x00,
0xf8,
0xf5,
0xfe,
0x02,
0xfd,
0xf4,
0x01,
0x00,
0xfc,
0xfe,
0x0d,
0xff,
0xfb,
0xfe,
0x0d,
0xfd,
0xfa,
0xfd,
0x0d,
0x00,
0xf9,
0xfe,
0x0d,
0xfd,
0xf9,
0xe4,
0x08,
0xf1,
0xf6,
0xdf,
0x08,
0xf4,
0xf7,
0xe3,
0x05,
0xf1,
0xf5,
0xdd,
0x04,
0xf5,
0xf8,
0x02,
0x08,
0x06,
0x13,
0x02,
0x08,
0x06,
0x13,
0x02,
0x07,
0x05,
0x11,
0x02,
0x07,
0x06,
0x12,
0x00,
0xfe,
0x04,
0xfb,
0x01,
0xfa,
0x04,
0xfc,
0xfb,
0xff,
0x04,
0xf7,
0xfc,
0xfb,
0x05,
0xf9,
0x10,
0x12,
0x03,
0xff,
0x12,
0x0e,
0xfc,
0xf5,
0x0d,
0x10,
0xfe,
0xf7,
0x11,
0x0d,
0xfb,
0xf1,
0xfe,
0xfc,
0xfd,
0x02,
0x00,
0xf9,
0xfe,
0x03,
0xfe,
0xfd,
0xfe,
0x02,
0xff,
0xfb,
0xff,
0x02,
0xfe,
0x0a,
0x0b,
0x14,
0xfb,
0x0b,
0x0d,
0x13,
0xfd,
0x16,
0x0c,
0x15,
0xfa,
0x17,
0x10,
0x18,
0xf9,
0xf5,
0xfd,
0xf1,
0xfd,
0xf3,
0xfe,
0xf0,
0xf6,
0xf7,
0x01,
0xf6,
0xfc,
0xf6,
0x01,
0xf5,
0x03,
0x0a,
0x05,
0x0f,
0xff,
0x0b,
0x07,
0x14,
0x05,
0x0c,
0x06,
0x0f,
0xfe,
0x11,
0x05,
0x13,
0x01,
0xfa,
0xfb,
0x04,
0x06,
0xf9,
0xfc,
0x08,
0x01,
0xfa,
0xfc,
0x06,
0x06,
0xfa,
0xfd,
0x09,
0x03,
0xff,
0xfb,
0xfc,
0x01,
0x00,
0xf9,
0xf7,
0x03,
0xfe,
0xfa,
0xfc,
0x00,
0xfe,
0xf9,
0xf6,
0x03,
0x04,
0x33,
0x48,
0x02,
0x04,
0x33,
0x48,
0x03,
0xff,
0x31,
0x46,
0x01,
0xff,
0x31,
0x45};
