/* SPDX-License-Identifier: GPL-2.0 */
/*
 * Copyright (c) 2020 MediaTek Inc.
 *
 * Author: Ya-Wen Hsu <Ya-Wen.Hsu@mediatek.com>
 *
 */

char fdvt_kernel_bias_loop49_0_frame01[] = {
0x07,
0xfd,
0x05,
0x0d,
0xf8,
0x03,
0xfe,
0x07,
0x08,
0x06,
0x04,
0x0d,
0xf4,
0xfd,
0xfe,
0x06,
0x00,
0xfd,
0xee,
0xf2,
0xf7,
0xfe,
0xee,
0xf0,
0x06,
0x01,
0xe9,
0xf0,
0xf6,
0x03,
0xe8,
0xee,
0x11,
0x00,
0x0a,
0x06,
0x0e,
0x02,
0x0b,
0x0a,
0x14,
0x01,
0x06,
0x04,
0x0c,
0xfe,
0x08,
0x08,
0xff,
0x05,
0x26,
0x0e,
0xff,
0x06,
0x2b,
0x0f,
0xff,
0xff,
0x22,
0x0a,
0xfd,
0xfe,
0x29,
0x0d,
0xfe,
0xfd,
0xe8,
0xf1,
0xf6,
0xfc,
0xec,
0xf3,
0xff,
0xfb,
0xe6,
0xf1,
0xf3,
0xfa,
0xec,
0xf4,
0x08,
0xfe,
0x01,
0x00,
0xfe,
0xfe,
0x00,
0xff,
0x09,
0xfc,
0x06,
0x02,
0xfe,
0xfe,
0x04,
0x00,
0x25,
0x0b,
0x1c,
0x0b,
0x29,
0x08,
0x2b,
0x16,
0x23,
0x01,
0x1d,
0x09,
0x26,
0x00,
0x2e,
0x16,
0xed,
0xf8,
0x02,
0xfd,
0x09,
0xf9,
0x04,
0x00,
0xef,
0x0a,
0x04,
0x02,
0x0b,
0x0c,
0x02,
0x00,
0xfd,
0x07,
0xeb,
0xf4,
0x0b,
0x04,
0xf0,
0xf3,
0xfd,
0x00,
0xf3,
0xf9,
0x0c,
0x04,
0xfb,
0xf8,
0xfc,
0x03,
0xf3,
0xf6,
0x04,
0x00,
0xe7,
0xed,
0xf4,
0x10,
0x11,
0x05,
0x03,
0x08,
0x06,
0xff,
0x00,
0xfc,
0xf6,
0xf6,
0x04,
0xfb,
0x04,
0xfe,
0xfc,
0xfc,
0xf2,
0xf2,
0xfd,
0xfe,
0xfb,
0xf7,
0x03,
0x16,
0x02,
0xfd,
0xfa,
0x17,
0x06,
0x02,
0x05,
0x14,
0x08,
0x00,
0xfa,
0x13,
0x0d,
0x04,
0xfb,
0x08,
0x0e,
0x0b,
0x0b,
0xfe,
0x02,
0x07,
0xfa,
0x0a,
0x04,
0x07,
0xf8,
0x0b,
0x04,
0x09,
0xfd,
0xdf,
0x0c,
0x31,
0xf8,
0xdf,
0x06,
0x2c,
0x00,
0xdc,
0x05,
0x30,
0xf8,
0xdf,
0xff,
0x2c,
0xfe,
0xe8,
0xfa,
0x04,
0xfc,
0xe8,
0xfa,
0x05,
0xfd,
0xea,
0xf0,
0x02,
0xfe,
0xe6,
0xf1,
0x03,
0xfe,
0xff,
0xec,
0xf9,
0xf9,
0x01,
0xe6,
0xf3,
0x00,
0xfc,
0xee,
0xfb,
0xfd,
0xfe,
0xeb,
0xf7,
0x07,
0xff,
0xff,
0x03,
0xf6,
0x00,
0x04,
0x08,
0x08,
0xff,
0x00,
0x03,
0xf6,
0xff,
0x06,
0x07,
0x01,
0x05,
0x06,
0x00,
0x02,
0x04,
0x0c,
0x04,
0x00,
0x00,
0x02,
0xfd,
0x01,
0x02,
0x08,
0x01,
0xfd,
0x01,
0x02,
0xfd,
0x01,
0x05,
0x07,
0x02,
0xfa,
0x02,
0x06,
0xfe,
0xff,
0x04,
0x09,
0x04,
0xf7,
0xfd,
0xf6,
0xfe,
0x02,
0x02,
0xfc,
0x00,
0xfb,
0xfb,
0xf5,
0xfe,
0x06,
0xf9,
0xfc,
0xff,
0x07,
0x02,
0x0c,
0x09,
0x01,
0xfe,
0xfd,
0xff,
0x00,
0xf9,
0x00,
0x00,
0xff,
0xf5,
0xf4,
0xf9,
0x07,
0xde,
0xf1,
0xf7,
0xf6,
0xe1,
0xe9,
0xf3,
0x07,
0xd6,
0xf7,
0xfa,
0xf9,
0xd4,
0xec,
0xf4,
0xff,
0xfe,
0xf7,
0xff,
0xfb,
0xfd,
0xf6,
0xfe,
0xff,
0xfd,
0xfa,
0x00,
0xfa,
0xfc,
0xf7,
0xfe,
0xf3,
0x05,
0x03,
0xfe,
0xf8,
0x04,
0xf3,
0xf8,
0xf0,
0x02,
0xfc,
0xf8,
0xf5,
0xfa,
0xec,
0xf2,
0xfa,
0xe0,
0xf2,
0xf8,
0x07,
0xe3,
0xf8,
0xf9,
0xfb,
0x08,
0xf3,
0xfa,
0x0b,
0x0c,
0xf9,
0xfb,
0xed,
0x03,
0x13,
0x0a,
0xf0,
0x04,
0x0e,
0x04,
0xef,
0x00,
0x13,
0x0a,
0xed,
0xfe,
0x0c,
0x03,
0xd1,
0x04,
0xff,
0x00,
0xbe,
0x01,
0x15,
0x0e,
0xcf,
0xfc,
0x00,
0x00,
0xbd,
0x00,
0x17,
0x0f,
0xfe,
0x00,
0xff,
0xfe,
0x03,
0x06,
0x01,
0xfe,
0x01,
0xfd,
0x00,
0xff,
0x02,
0x03,
0x00,
0xfc,
0xff,
0xfd,
0xf6,
0xfc,
0x09,
0xff,
0xf6,
0xf8,
0x00,
0xfe,
0xf7,
0xfd,
0x0b,
0x00,
0xf7,
0xf9,
0x35,
0x03,
0x16,
0x0b,
0x31,
0x08,
0x06,
0x03,
0x3b,
0xfa,
0x17,
0x0c,
0x31,
0xfc,
0x04,
0x03,
0xff,
0x01,
0x04,
0xfd,
0xff,
0x01,
0x02,
0xfd,
0xfe,
0x00,
0x03,
0xfd,
0x00,
0x01,
0x00,
0xfd,
0xf0,
0xfd,
0x48,
0xe1,
0xf5,
0xff,
0x48,
0xe3,
0xf4,
0xfe,
0x3e,
0xde,
0xf9,
0x00,
0x3d,
0xde,
0x08,
0x00,
0xfd,
0x09,
0xf9,
0x00,
0xfb,
0x05,
0x08,
0xfe,
0xfa,
0x06,
0xf6,
0xfd,
0xf9,
0x01,
0xff,
0xfc,
0xf8,
0xf1,
0xfc,
0xfe,
0xf6,
0xef,
0x03,
0x03,
0xf3,
0xee,
0xfd,
0x04,
0xf4,
0xee,
0x0a,
0x02,
0x07,
0x08,
0x0b,
0x04,
0x07,
0x0b,
0x0b,
0x02,
0x04,
0x04,
0x09,
0xff,
0x05,
0x09,
0xfc,
0x05,
0x0f,
0x08,
0xff,
0x06,
0x11,
0x0a,
0xfc,
0xfb,
0x0c,
0x03,
0x00,
0xfb,
0x0f,
0x06,
0x00,
0xfc,
0xf1,
0xee,
0xf9,
0xfa,
0xf3,
0xf0,
0x03,
0xf8,
0xf2,
0xed,
0xf9,
0xf9,
0xf5,
0xf0,
0x05,
0xfb,
0xfc,
0xfc,
0xfe,
0xfb,
0xf9,
0xf6,
0x06,
0xfd,
0xfe,
0xff,
0xfc,
0xfd,
0xfd,
0xf9,
0x10,
0x0a,
0x05,
0xfd,
0x17,
0x0a,
0x11,
0x12,
0x10,
0x02,
0x08,
0xfd,
0x18,
0x02,
0x15,
0x16,
0xf4,
0xf6,
0x02,
0xf8,
0x0a,
0xfb,
0x0a,
0x06,
0xf1,
0x03,
0x05,
0x00,
0x0b,
0xfe,
0x05,
0x05,
0xfd,
0x09,
0xef,
0xec,
0x04,
0x05,
0xf0,
0xeb,
0xfd,
0x00,
0xf4,
0xef,
0x01,
0x04,
0xf6,
0xf0,
0xfe,
0x0b,
0x01,
0xff,
0x03,
0x09,
0xfc,
0xf6,
0xf8,
0x18,
0x11,
0x10,
0x01,
0x15,
0x10,
0x0d,
0x02,
0xfb,
0xfc,
0xf3,
0x06,
0xf7,
0x02,
0xfd,
0xfe,
0xf9,
0xf7,
0xef,
0x02,
0xf7,
0xfd,
0xf6,
0x01,
0x1d,
0x07,
0x01,
0xfd,
0x1e,
0x09,
0x07,
0x04,
0x17,
0x05,
0xfd,
0xfe,
0x1a,
0x09,
0x02,
0xf2,
0x0a,
0x04,
0x0b,
0x0b,
0xfd,
0xfc,
0x06,
0xf9,
0x0c,
0xff,
0x06,
0xfa,
0x09,
0xfe,
0x06,
0x01,
0xc6,
0x16,
0x53,
0xf7,
0xc6,
0x12,
0x4f,
0x03,
0xc2,
0x12,
0x4f,
0xf8,
0xc5,
0x10,
0x4e,
0xfe,
0xe2,
0xff,
0x0a,
0xff,
0xe4,
0x00,
0x0a,
0xfe,
0xe2,
0xfb,
0x08,
0xff,
0xe2,
0xfd,
0x09,
0x00,
0x01,
0xf3,
0xf2,
0xfe,
0x00,
0xf4,
0xef,
0xff,
0x02,
0xf5,
0xf6,
0x01,
0x05,
0xf8,
0xf6,
0x05,
0x00,
0xf4,
0xf8,
0xf8,
0x01,
0xf4,
0xf7,
0x05,
0x00,
0xf8,
0xfc,
0xf9,
0x00,
0xf8,
0xfb,
0xff,
0x03,
0x05,
0x00,
0xff,
0x02,
0x08,
0x06,
0xfe,
0xfc,
0x03,
0xfb,
0x00,
0xfd,
0x06,
0x00,
0xfc,
0x00,
0x04,
0x01,
0xf8,
0x01,
0x09,
0x09,
0xfa,
0x04,
0x06,
0x04,
0xfc,
0x03,
0x08,
0x08,
0x09,
0xff,
0xfc,
0xfe,
0x08,
0x08,
0xfb,
0xfc,
0x0a,
0xfb,
0xfd,
0x00,
0x09,
0xfb,
0xfd,
0xfc,
0x07,
0xfe,
0xf7,
0xf9,
0x01,
0xfb,
0xee,
0xed,
0x01,
0xf8,
0xf7,
0xf9,
0x01,
0xf6,
0xf1,
0xf2,
0x07,
0xd9,
0xf7,
0xf4,
0xfb,
0xde,
0xf2,
0xee,
0x08,
0xd8,
0x02,
0x02,
0xfc,
0xd9,
0xff,
0xfc,
0x01,
0xfe,
0xfc,
0xff,
0xfc,
0xfd,
0xfc,
0xfe,
0x01,
0xfe,
0xfd,
0x01,
0xfc,
0xfd,
0xfd,
0xff,
0xf5,
0x02,
0xf5,
0xee,
0xf6,
0x01,
0xf6,
0xf3,
0xf1,
0xfe,
0xf2,
0xe7,
0xee,
0xf7,
0xf3,
0xec,
0xf0,
0xe9,
0xf9,
0xfa,
0x10,
0xeb,
0xfc,
0xfb,
0xf0,
0xf7,
0xf8,
0xfd,
0x17,
0xfd,
0xf8,
0xfb,
0xf2,
0x03,
0x0a,
0x0b,
0xf9,
0x03,
0x01,
0xff,
0xf3,
0x02,
0x0b,
0x09,
0xf7,
0xff,
0x00,
0xfd,
0xde,
0x06,
0xf8,
0xf8,
0xcb,
0x04,
0xfe,
0xfd,
0xde,
0xfc,
0xf9,
0xf9,
0xcc,
0xff,
0x00,
0xfd,
0xfc,
0x03,
0x00,
0x00,
0xfb,
0x03,
0x00,
0xfc,
0x00,
0x02,
0x02,
0xff,
0xfd,
0x04,
0x01,
0xfb,
0xfe,
0xfe,
0xfa,
0xf8,
0x03,
0xff,
0xfb,
0xf8,
0x00,
0xfe,
0xfc,
0xf9,
0x07,
0xff,
0xfd,
0xfa,
0x29,
0x07,
0xfc,
0xfb,
0x24,
0x0a,
0xfa,
0xf7,
0x2e,
0xfa,
0xfe,
0xfb,
0x23,
0xfc,
0xfa,
0xf5,
0xff,
0x00,
0x06,
0xfe,
0xfe,
0xff,
0x04,
0xfe,
0xff,
0x01,
0x05,
0xfe,
0xfe,
0x00,
0x03,
0xfd,
0xf5,
0xfb,
0x36,
0xda,
0xfb,
0xfe,
0x32,
0xd8,
0xf7,
0xfb,
0x31,
0xd7,
0xfe,
0xfd,
0x2e,
0xd5,
0x04,
0x05,
0x42,
0x31,
0xfb,
0x05,
0x42,
0x31,
0x04,
0xff,
0x43,
0x31,
0xfc,
0xff,
0x42,
0x31};
