/* SPDX-License-Identifier: GPL-2.0 */
/*
 * Copyright (c) 2020 MediaTek Inc.
 *
 * Author: Ya-Wen Hsu <Ya-Wen.Hsu@mediatek.com>
 *
 */
char gender_kernel_bias_loop09_1_frame01[] = {
0xe7,
0xe1,
0x04,
0x1a,
0xec,
0x19,
0x11,
0x06,
0x09,
0x1a,
0xf7,
0xee,
0xf0,
0xfc,
0x23,
0x00,
0xfa,
0xeb,
0x0c,
0xf1,
0x02,
0xe6,
0xf5,
0x08,
0x09,
0x11,
0x21,
0x18,
0xf3,
0x08,
0x12,
0x16,
0xe9,
0xf4,
0xef,
0x15,
0xf3,
0xfc,
0xd3,
0xf3,
0xf5,
0xf2,
0x0a,
0xd8,
0xfd,
0x01,
0xe3,
0x18,
0xf6,
0xf2,
0xf8,
0xdf,
0xd2,
0x04,
0x1a,
0xfb,
0xf1,
0x1b,
0x02,
0x06,
0x1b,
0x05,
0x0b,
0xef,
0xf0,
0x04,
0xfc,
0xfe,
0x16,
0x1a,
0xf5,
0xf7,
0xfd,
0x17,
0x1c,
0x13,
0x20,
0x15,
0x15,
0xf4,
0xf9,
0xf5,
0x18,
0xf4,
0x31,
0x0f,
0xee,
0x16,
0xf8,
0x05,
0xe9,
0x12,
0xeb,
0x05,
0xfc,
0xea,
0x0b,
0x01,
0x03,
0x00,
0xfd,
0xf4,
0xf4,
0x28,
0x10,
0xea,
0xff,
0xfa,
0x00,
0xf5,
0xeb,
0x04,
0xf1,
0x0e,
0xf4,
0xe7,
0x09,
0xf6,
0x0a,
0x17,
0x03,
0xfc,
0xfd,
0xfc,
0x0f,
0x00,
0x0c,
0xfa,
0x0b,
0x03,
0x0e,
0x19,
0x06,
0x17,
0xe9,
0xf5,
0xf3,
0xfc,
0xeb,
0xfa,
0x10,
0x0e,
0xf6,
0x05,
0xfa,
0x04,
0xf5,
0xf6,
0xf7,
0x12,
0xec,
0x04,
0xeb,
0xf7,
0x17,
0xf2,
0xf5,
0x13,
0x15,
0xff,
0xec,
0xfa,
0xe0,
0x14,
0x04,
0xf2,
0xfc,
0xec,
0xf4,
0x09,
0xf5,
0xf5,
0xfd,
0x04,
0x02,
0x02,
0xf1,
0x23,
0x20,
0x18,
0xfd,
0x0f,
0xe2,
0xe4,
0xf4,
0xff,
0x0a,
0xe4,
0x19,
0x10,
0x21,
0x0c,
0x07,
0xfd,
0x0c,
0x00,
0x09,
0x0a,
0xf8,
0xfa,
0xe9,
0x00,
0x01,
0xf0,
0x04,
0xf8,
0x07,
0x06,
0x00,
0xff,
0xf7,
0x0d,
0x06,
0x0f,
0x0b,
0x1d,
0xee,
0x08,
0xf3,
0x08,
0x0a,
0xf6,
0xfa,
0xf1,
0xe7,
0xfb,
0xff,
0xe7,
0x20,
0xed,
0xff,
0x08,
0xf4,
0xf3,
0x06,
0x08,
0xf2,
0xf0,
0x19,
0x08,
0xfe,
0x02,
0xf0,
0xdf,
0xf2,
0x07,
0xe1,
0xee,
0x26,
0x11,
0xf1,
0xf5,
0xeb,
0x1e,
0x0c,
0xf1,
0xf0,
0xec,
0x0a,
0xf8,
0xe2,
0x11,
0x09,
0x01,
0xf6,
0xdd,
0x03,
0x1c,
0x10,
0xff,
0xfe,
0x04,
0x1c,
0xfe,
0xfe,
0x05,
0xec,
0xfd,
0xef,
0x0f,
0x03,
0xf5,
0x17,
0x1c,
0x01,
0xf9,
0x0e,
0x00,
0x13,
0x16,
0x05,
0xf1,
0xf2,
0x0f,
0xf9,
0xff,
0x01,
0xe2,
0xdb,
0xfe,
0xee,
0x0a,
0x39,
0x10,
0x09,
0x3d,
0x0d,
0x19,
0x04,
0x04,
0xee,
0x0d,
0x01,
0x04,
0x1a,
0x01,
0x21,
0xf8,
0x16,
0xe9,
0x0f,
0x03,
0xed,
0xfb,
0x09,
0x0f,
0xf5,
0x10,
0x1d,
0xeb,
0x14,
0xf7,
0x0c,
0x01,
0xef,
0x08,
0x09,
0x08,
0xfa,
0x06,
0xf5,
0xe7,
0xfe,
0xf7,
0xdf,
0x16,
0x13,
0x50,
0xeb,
0x05,
0x06,
0xf7,
0xde,
0xea,
0xed,
0x03,
0xe8,
0xec,
0xf2,
0xfe,
0x03,
0xdf,
0xff,
0xf5,
0xd8,
0x02,
0xfc,
0xf1,
0x06,
0x0e,
0x01,
0x0d,
0x02,
0xee,
0xe5,
0x18,
0xf5,
0xf0,
0x03,
0x13,
0xf9,
0x01,
0xfe,
0x28,
0xd8,
0x0b,
0x14,
0xfc,
0x2f,
0xe3,
0x04,
0xfd,
0x1d,
0x02,
0x14,
0xfc,
0x12,
0xfa,
0xeb,
0x15,
0x1c,
0xf9,
0x19,
0xe9,
0x16,
0x0e,
0xfa,
0x02,
0xf5,
0xfe,
0x16,
0xec,
0xfa,
0x0a,
0xd7,
0xfb,
0x23,
0xdf,
0xf5,
0x01,
0x16,
0x13,
0x09,
0xee,
0xdf,
0xfe,
0x24,
0xf6,
0x0b,
0x14,
0x13,
0xff,
0xee,
0x01,
0x02,
0xfc,
0x04,
0x0e,
0x0d,
0x05,
0x00,
0xe6,
0x07,
0x12,
0x08,
0x03,
0xe2,
0xf2,
0x0b,
0xfe,
0xdb,
0xec,
0xfe,
0xe4,
0x24,
0x0c,
0x1e,
0xe5,
0xfb,
0x03,
0x18,
0x0d,
0x08,
0x24,
0xfb,
0xff,
0x02,
0x01,
0xee,
0xf1,
0xef,
0xf2,
0x06,
0xf9,
0x03,
0xe2,
0xee,
0x02,
0x05,
0xf3,
0xfb,
0xff,
0x18,
0x08,
0x01,
0xf6,
0xfc,
0xec,
0x00,
0x05,
0xff,
0x09,
0x02,
0x09,
0x0d,
0xf0,
0x04,
0xe1,
0x03,
0x01,
0xf8,
0xfc,
0x02,
0x00,
0x14,
0x0a,
0x05,
0xfc,
0xe7,
0x11,
0xf3,
0xdf,
0xf9,
0x05,
0x07,
0x00,
0xf7,
0xf7,
0x15,
0xf8,
0xfb,
0xfa,
0x08,
0x05,
0x03,
0xe8,
0xfc,
0xe7,
0x0a,
0xf6,
0x16,
0x0b,
0x03,
0xfc,
0x13,
0xf0,
0x17,
0xf2,
0x00,
0x07,
0x05,
0xf2,
0x0c,
0xfd,
0x00,
0x25,
0xfc,
0xe9,
0x32,
0xf5,
0xe8,
0xea,
0x13,
0xe7,
0xe2,
0xf1,
0xe1,
0xf8,
0xf5,
0xfd,
0x1a,
0x24,
0x09,
0xf0,
0xf1,
0x05,
0xfe,
0x08,
0x02,
0x01,
0x3f,
0xda,
0x07,
0x01,
0xed,
0xf3,
0xe0,
0xeb,
0x0d,
0xf4,
0xfc,
0x11,
0x07,
0x14,
0x0d,
0xe7,
0xf7,
0xff,
0xf9,
0x00,
0xfa,
0xeb,
0x03,
0xe0,
0x10,
0xfe,
0xfb,
0xf4,
0xed,
0xf4,
0xff,
0xfb,
0x0b,
0x08,
0x07,
0x00,
0xf5,
0xed,
0x07,
0x02,
0x09,
0x03,
0xfc,
0xfa,
0xfc,
0xfa,
0x0c,
0xf5,
0xf9,
0xf4,
0x15,
0xf8,
0x0c,
0xe9,
0xf9,
0xe7,
0xf5,
0x05,
0x0d,
0xfe,
0xf2,
0xe9,
0x2f,
0x09,
0x11,
0xf7,
0x00,
0x03,
0xe5,
0x0e,
0x05,
0xd7,
0xf0,
0xe5,
0xf2,
0xfc,
0xfd,
0x2a,
0x0c,
0xfd,
0xe4,
0xeb,
0x02,
0x15,
0x02,
0x06,
0x13,
0x08,
0x02,
0xf3,
0x03,
0xfc,
0x10,
0xe9,
0xea,
0xfd,
0xfd,
0xf1,
0xf4,
0x0c,
0xf5,
0xff,
0xfb,
0xf5,
0x08,
0x00,
0x05,
0x0c,
0xfc,
0xfb,
0xfd,
0x04,
0x04,
0x03,
0xfd,
0x00,
0x02,
0xf7,
0xf7,
0x09,
0xe0,
0x07,
0x00,
0xff,
0x00,
0x04,
0x02,
0x0b,
0x15,
0xf2,
0xee,
0xed,
0x29,
0xdf,
0xf1,
0xf2,
0x0f,
0xe5,
0x0f,
0xf1,
0x11,
0x08,
0xe5,
0x04,
0x25,
0x0c,
0xe6,
0x0a,
0xe9,
0x0a,
0x03,
0x14,
0x14,
0xf0,
0xff,
0xfe,
0xe2,
0xf9,
0x05,
0xf9,
0xff,
0xfe,
0xfb,
0x0b,
0xf4,
0x41,
0xec,
0xfc,
0xf4,
0x03,
0xf2,
0xd8,
0x15,
0xf7,
0x0a,
0x0b,
0xce,
0x1e,
0xf1,
0x0e,
0x18,
0xf4,
0xf1,
0x18,
0xfc,
0xe5,
0xff,
0xf1,
0xfc,
0xf7,
0x15,
0xe7,
0x05,
0x11,
0xfc,
0xf3,
0xf3,
0xe3,
0x0d,
0xe2,
0xf3,
0x07,
0x14,
0xf7,
0x01,
0x14,
0xed,
0xdf,
0x36,
0x36,
0x10,
0xfc,
0x0d,
0xf9,
0x1a,
0xef,
0x02,
0xe0,
0x04,
0x0e,
0x10,
0xe5,
0x1d,
0xf3,
0xff,
0xf7,
0x0d,
0x25,
0xfb,
0xeb,
0xeb,
0xf8,
0xfc,
0xf7,
0xfb,
0xeb,
0xfc,
0x0c,
0xfd,
0x0a,
0xec,
0xff,
0x0a,
0xe9,
0xe8,
0x01,
0xfa,
0xfc,
0x18,
0xe7,
0x1c,
0x1a,
0xfa,
0xfd,
0xf6,
0xff,
0xec,
0x11,
0x02,
0xf2,
0x15,
0x01,
0x05,
0x04,
0xef,
0xfb,
0xec,
0x06,
0xf4,
0x06,
0x22,
0xe2,
0x05,
0x19,
0x04,
0xdb,
0x0f,
0x16,
0x18,
0xf0,
0xe4,
0xec,
0x07,
0xde,
0xf6,
0xe3,
0xf0,
0x06,
0xdf,
0xfc,
0xe6,
0xe6,
0xde,
0x0a,
0x0f,
0x09,
0xf9,
0xf2,
0xe8,
0x19,
0x0f,
0xdc,
0x03,
0x04,
0x04,
0xf7,
0xfe,
0xf0,
0xe1,
0xfe,
0x01,
0x05,
0xf8,
0xf8,
0x10,
0x08,
0xe8,
0xf3,
0xf8,
0xfe,
0x15,
0x0f,
0x01,
0x05,
0xf1,
0xf7,
0xe9,
0xf2,
0x05,
0xe3,
0x23,
0xf9,
0x08,
0x12,
0xe4,
0x10,
0x03,
0xed,
0x17,
0x00,
0xff,
0xfa,
0xdf,
0xf8,
0x0b,
0xfa,
0xef,
0xed,
0x04,
0x16,
0x0e,
0x0a,
0x1c,
0xfb,
0xc8,
0xe8,
0x12,
0x0a,
0x00,
0x01,
0x14,
0x09,
0x00,
0xe9,
0xf1,
0x28,
0x1a,
0x01,
0xdc,
0xf9,
0x13,
0xff,
0xe1,
0xe8,
0x0f,
0x3b,
0x0a,
0x07,
0x03,
0x0d,
0xed,
0xf7,
0x10,
0xff,
0xfd,
0x08,
0x16,
0x03,
0x01,
0xf7,
0xf8,
0xf7,
0x10,
0xf0,
0x02,
0x0e,
0x16,
0x05,
0xf8,
0x0c,
0x03,
0xdf,
0xe9,
0x05,
0xdd,
0xf3,
0x06,
0xf2,
0x02,
0xf9,
0xff,
0x06,
0x16,
0xdc,
0x0b,
0xf2,
0xfc,
0xe6,
0xfc,
0xf9,
0xf9,
0xff,
0xfb,
0x0e,
0x0f,
0xf6,
0xfa,
0xf7,
0x04,
0xf0,
0x03,
0xe0,
0xea,
0xfd,
0xfd,
0xfc,
0x19,
0x02,
0xff,
0x00,
0xdf,
0xc6,
0x24,
0xf1,
0x09,
0xe2,
0x00,
0xea,
0x03,
0x18,
0xf9,
0x20,
0x04,
0xf7,
0xf9,
0x19,
0x11,
0x20,
0xeb,
0x0e,
0x08,
0xe4,
0x0e,
0x47,
0x14,
0x39,
0x37,
0x16,
0x05,
0x08};
