/* SPDX-License-Identifier: GPL-2.0 */
/*
 * Copyright (c) 2020 MediaTek Inc.
 *
 * Author: Ya-Wen Hsu <Ya-Wen.Hsu@mediatek.com>
 *
 */
char gender_kernel_bias_loop02_1_frame01[] = {
0x03,
0x0d,
0xe3,
0x08,
0xfe,
0x0a,
0x12,
0x1a,
0x15,
0x06,
0x16,
0xf8,
0xf3,
0xb3,
0xf4,
0xf1,
0x08,
0xd5,
0x03,
0xcb,
0xfd,
0x06,
0xfc,
0x18,
0x0b,
0xfe,
0xdb,
0x01,
0x05,
0x09,
0xa9,
0x05,
0xf9,
0x03,
0xf2,
0xf5,
0x02,
0x1e,
0x08,
0x11,
0x26,
0xfb,
0xf2,
0xbd,
0x22,
0xf4,
0x06,
0x22,
0x05,
0x0b,
0x03,
0x08,
0x09,
0x0b,
0xe3,
0xbf,
0xfd,
0xea,
0x44,
0x12,
0x00,
0xfa,
0xe2,
0xf9,
0x0a,
0xf5,
0x01,
0x0d,
0x06,
0xfe,
0xfb,
0xda,
0x04,
0xf8,
0x01,
0x06,
0x05,
0x09,
0xf7,
0x06,
0x05,
0xca,
0xd9,
0x0f,
0x06,
0xfb,
0x0c,
0xce,
0x07,
0x0a,
0xe0,
0xfb,
0x10,
0x03,
0x17,
0xf9,
0xf0,
0x03,
0xfc,
0x0e,
0x2a,
0x0e,
0xf3,
0x01,
0x03,
0xfd,
0x09,
0xf0,
0x10,
0x04,
0x01,
0x0e,
0xf0,
0x09,
0xfc,
0x03,
0xee,
0x3a,
0xf5,
0x14,
0x13,
0x04,
0xf7,
0xcf,
0x10,
0xf8,
0x02,
0x25,
0x02,
0xf2,
0xf7,
0x1d,
0xf7,
0xdd,
0xf0,
0xe6,
0x1c,
0xf8,
0x0d,
0xfb,
0xfd,
0x14,
0xff,
0xe5,
0x13,
0xf6,
0x1d,
0xe2,
0xe9,
0x9c,
0xf0,
0x01,
0xdf,
0x10,
0xee,
0xf9,
0x0c,
0x09,
0x11,
0x19,
0xea,
0x1d,
0x04,
0xf8,
0x23,
0xd7,
0xea,
0xff,
0xeb,
0x1f,
0xcd,
0x0f,
0x1d,
0x0e,
0xfe,
0xe4,
0x85,
0xfe,
0x05,
0x01,
0xe4,
0x08,
0xf5,
0xf6,
0xfe,
0xfb,
0x12,
0x0b,
0x0b,
0xfe,
0x00,
0xf7,
0x08,
0xfe,
0x03,
0xe5,
0xfe,
0xe2,
0xec,
0x04,
0x11,
0x04,
0x07,
0x03,
0xf6,
0xfe,
0xe5,
0xf0,
0xe3,
0xfc,
0xda,
0xbd,
0xf1,
0xe4,
0x07,
0xfd,
0xf7,
0xe4,
0x3b,
0xd6,
0xd6,
0xde,
0x00,
0xdb,
0x12,
0xeb,
0x05,
0xf1,
0x11,
0x24,
0x0b,
0xf9,
0xeb,
0xfd,
0xf7,
0xff,
0xf7,
0xfa,
0x05,
0xef,
0x03,
0xfc,
0xf1,
0xfd,
0x11,
0xfb,
0x82,
0x0b,
0xfd,
0xf8,
0x08,
0xdf,
0xfd,
0xf8,
0x08,
0xe9,
0x00,
0x00,
0x00,
0x00,
0x00,
0x00,
0x00,
0x00,
0x00,
0x00,
0x00,
0x00,
0x00,
0x00,
0x00,
0x00};
