/* SPDX-License-Identifier: GPL-2.0 */
/*
 * Copyright (c) 2020 MediaTek Inc.
 *
 * Author: Ya-Wen Hsu <Ya-Wen.Hsu@mediatek.com>
 *
 */
char gender_kernel_bias_loop08_0_frame01[] = {
0x00,
0xfa,
0x03,
0xff,
0x01,
0x00,
0x03,
0x00,
0x09,
0x04,
0x00,
0x03,
0x03,
0xe7,
0x0b,
0xfd,
0xf8,
0x0a,
0x02,
0x05,
0xfb,
0x0f,
0xfe,
0xff,
0x00,
0x01,
0xfa,
0x00,
0x0a,
0x01,
0x16,
0xf8,
0x03,
0x05,
0x0c,
0xfe,
0x06,
0x09,
0x0c,
0xef,
0x00,
0x06,
0xff,
0x02,
0x03,
0x03,
0xf4,
0xfd,
0x0b,
0xff,
0x02,
0xfe,
0xf8,
0x04,
0xfc,
0xfb,
0x06,
0x02,
0x03,
0x04,
0x09,
0xfc,
0xf8,
0xff,
0x03,
0x00,
0x05,
0x03,
0x03,
0xfc,
0x1d,
0xff,
0x09,
0xfe,
0xfa,
0x0e,
0xfc,
0x00,
0xf4,
0x05,
0x14,
0x05,
0xf7,
0x0c,
0x03,
0xf6,
0x17,
0x02,
0xf8,
0xf4,
0xfd,
0xef,
0x07,
0x0a,
0xfb,
0xff,
0x0e,
0x01,
0xfe,
0xfc,
0x06,
0xfb,
0x08,
0x06,
0x00,
0xfd,
0x0f,
0xf6,
0xf9,
0xfd,
0xf7,
0x0d,
0xfd,
0xf7,
0x05,
0xf5,
0xff,
0xfe,
0x0d,
0xfb,
0x0b,
0x02,
0xfc,
0xf3,
0xf9,
0x05,
0xff,
0x10,
0xfe,
0x01,
0xfc,
0x00,
0x13,
0x02,
0x14,
0x03,
0xfc,
0x0a,
0x05,
0xf5,
0x05,
0x05,
0x0a,
0x03,
0x08,
0xfa,
0x02,
0xfa,
0x0b,
0x00,
0xe0,
0x03,
0x01,
0x10,
0xfd,
0xfb,
0xf2,
0xfb,
0x03,
0xf9,
0x02,
0x01,
0x02,
0xf7,
0x01,
0x00,
0x16,
0x04,
0x0b,
0xfe,
0x00,
0xf8,
0xf5,
0xfa,
0xfa,
0x07,
0x0b,
0x02,
0xfa,
0x09,
0x09,
0x01,
0xff,
0xfc,
0xfb,
0xfd,
0x00,
0x08,
0x08,
0x07,
0xfd,
0x09,
0x10,
0xf7,
0xf6,
0xfc,
0x03,
0xfc,
0x0f,
0xfd,
0x13,
0xf4,
0x09,
0xee,
0x00,
0x06,
0xf7,
0x0d,
0xfd,
0xfc,
0xfc,
0x0d,
0x04,
0x04,
0xeb,
0x0a,
0x00,
0xff,
0x05,
0xf7,
0xfc,
0xfc,
0xef,
0xf8,
0x00,
0xfc,
0xf9,
0xf7,
0xf5,
0xf7,
0x14,
0x03,
0xfc,
0x04,
0x0c,
0x0e,
0xfd,
0x09,
0x06,
0x0d,
0x12,
0xff,
0xfd,
0x03,
0x09,
0x0d,
0xfa,
0xfb,
0xff,
0x00,
0x05,
0x02,
0x07,
0xfe,
0x06,
0x0a,
0x03,
0xfd,
0xfb,
0x01,
0x0b,
0xee,
0x0f,
0xfa,
0xf7,
0xfe,
0x08,
0x06,
0xf7,
0xf3,
0x0f,
0x03,
0x09,
0xf4,
0x06,
0x00,
0xf6,
0x09,
0xf9,
0xfb,
0xfe,
0xf9,
0x00,
0x03,
0xf3,
0x08,
0xf7,
0x06,
0x06,
0x0a,
0xfe,
0x06,
0xf8,
0x01,
0xf8,
0xfc,
0xf8,
0xf8,
0xf8,
0x01,
0xfe,
0xfb,
0x01,
0xfb,
0x1a,
0xf9,
0x02,
0x09,
0x0f,
0xec,
0xea,
0x16,
0xf8,
0xfb,
0xf7,
0xfa,
0xf0,
0x07,
0xfb,
0xfa,
0xf8,
0x05,
0x07,
0x00,
0xf9,
0x11,
0x08,
0x07,
0xfb,
0xfa,
0xf4,
0xfd,
0x07,
0xf7,
0xf9,
0x03,
0x03,
0xf2,
0x03,
0x10,
0xfb,
0x00,
0x02,
0x02,
0xfe,
0xfa,
0xf6,
0x05,
0xfa,
0x06,
0xfd,
0xfa,
0xfa,
0x11,
0x07,
0x09,
0xf8,
0x12,
0x04,
0x00,
0x0c,
0xfe,
0x05,
0xfa,
0x07,
0xfc,
0x08,
0xff,
0x00,
0xf5,
0xfd,
0xff,
0x03,
0x05,
0x06,
0x00,
0x0c,
0xfc,
0xfa,
0xff,
0xf7,
0xfb,
0xf3,
0x00,
0x04,
0x0a,
0x01,
0x05,
0xf8,
0x01,
0xed,
0xf9,
0x01,
0x00,
0xfe,
0xf7,
0xfc,
0xf8,
0x01,
0xfe,
0xff,
0xfa,
0x07,
0x0a,
0xf8,
0xfd,
0xf2,
0x01,
0xf8,
0x07,
0x00,
0xfe,
0x04,
0x02,
0xfa,
0xfc,
0x03,
0x01,
0x01,
0xff,
0xfd,
0xfc,
0x06,
0x04,
0xf7,
0xfe,
0xf6,
0x01,
0x03,
0xf9,
0x04,
0xfd,
0x02,
0x05,
0x08,
0x00,
0xff,
0x01,
0xfd,
0x07,
0xf6,
0xfd,
0xfe,
0xff,
0xfc,
0x04,
0x04,
0xf4,
0xfe,
0x04,
0xfb,
0xf8,
0x08,
0x00,
0xf8,
0xf4,
0xfe,
0xfe,
0x06,
0x00,
0x03,
0x03,
0x01,
0x01,
0xf6,
0xe4,
0xfa,
0xf4,
0x0d,
0x05,
0x12,
0xf4,
0x0d,
0xfb,
0x11,
0xfa,
0xf6,
0x09,
0xff,
0x0c,
0x02,
0x01,
0x06,
0x03,
0x02,
0x03,
0x0c,
0xf7,
0x02,
0x01,
0x05,
0x01,
0x00,
0x08,
0xfc,
0x0a,
0xfc,
0x08,
0x05,
0x08,
0x00,
0x04,
0x06,
0x06,
0xfc,
0xfd,
0xfa,
0x0a,
0xf4,
0xfe,
0x13,
0xfe,
0x0e,
0x05,
0x08,
0x10,
0xef,
0x01,
0xfe,
0x01,
0xf3,
0xf8,
0xe2,
0x18,
0x18,
0x0c,
0xf8,
0xf5,
0xf4,
0x07,
0xf7,
0xe6,
0xfa,
0x03,
0x11,
0xf3,
0x0b,
0xf4,
0xff,
0x06,
0xf6,
0xf5,
0x11,
0xfe,
0x05,
0xfc,
0x07,
0xf7,
0x04,
0xfd,
0x01,
0x04,
0x10,
0x02,
0x02,
0x00,
0xec,
0xfd,
0xff,
0x06,
0x02,
0x09,
0xee,
0x06,
0xf2,
0xf3,
0xfc,
0xf7,
0xfc,
0x06,
0x02,
0xf6,
0x07,
0xf7,
0x02,
0x11,
0x04,
0xfc,
0x03,
0x09,
0x06,
0xfc,
0x06,
0xff,
0xe8,
0xf7,
0x02,
0x01,
0xfb,
0x09,
0xff,
0xfb,
0xf9,
0xf2,
0xff,
0x00,
0x0b,
0xf4,
0xf9,
0x08,
0xef,
0x02,
0xf8,
0xef,
0x0a,
0x0b,
0xfe,
0x16,
0x01,
0x05,
0x10,
0x03,
0x0f,
0x03,
0x06,
0x06,
0xf1,
0x02,
0x0e,
0xe8,
0x08,
0xf3,
0x05,
0xf5,
0xff,
0x14,
0xfe,
0xfa,
0x07,
0xfb,
0xf5,
0xf1,
0x0d,
0x05,
0xfc,
0x11,
0x01,
0x01,
0xf5,
0x04,
0x01,
0x0c,
0x08,
0x07,
0x03,
0xf3,
0xf9,
0x02,
0xf2,
0x00,
0x13,
0x06,
0x04,
0xfa,
0x00,
0x14,
0x09,
0x00,
0xf8,
0x0f,
0x10,
0xfc,
0x0b,
0xfa,
0xfc,
0x01,
0xf1,
0xf2,
0xfb,
0x02,
0xf9,
0x0b,
0xf9,
0x03,
0x06,
0x02,
0x06,
0xfd,
0x10,
0xfb,
0x0b,
0x04,
0xfb,
0x0c,
0xf6,
0xfc,
0xfb,
0x15,
0xf9,
0xfb,
0xf9,
0xf9,
0xfb,
0xf6,
0x01,
0x04,
0xf9,
0x0f,
0xf8,
0xfa,
0xfe,
0x08,
0xf5,
0xf5,
0xee,
0x15,
0xf5,
0xfe,
0x02,
0xfa,
0x08,
0xfd,
0xf8,
0xfe,
0x0f,
0xfa,
0xfc,
0xf5,
0x02,
0x02,
0xff,
0xfd,
0x07,
0xf6,
0xfb,
0x0c,
0x05,
0xf2,
0x06,
0xff,
0x00,
0x0e,
0xf9,
0xff,
0x00,
0xd0,
0xf3,
0x02,
0x00,
0xfd,
0xfe,
0xff,
0xfb,
0xfe,
0x0d,
0xfe,
0x05,
0xfc,
0xf6,
0x03,
0xff,
0x0a,
0xfa,
0x0b,
0x04,
0xf1,
0x00,
0x0e,
0xff,
0x05,
0xf9,
0xeb,
0xff,
0xec,
0xf1,
0xfd,
0xea,
0x02,
0x13,
0xfd,
0xf6,
0x0a,
0x01,
0x08,
0x00,
0x01,
0xe2,
0x06,
0x07,
0xe8,
0x03,
0xed,
0x12,
0x0f,
0x0a,
0xf6,
0xee,
0x02,
0xff,
0x11,
0xdc,
0xe0,
0x01,
0x05,
0xeb,
0xe1,
0xc0,
0xf4,
0x0b,
0x0a,
0x10,
0xf7,
0xeb,
0xfa,
0xf0,
0x07,
0xff,
0xf6,
0x0a,
0x14,
0x04,
0xed,
0xff,
0xf6,
0x11,
0x32,
0xf3,
0x23,
0xeb,
0xeb,
0xf0,
0xf5,
0xf0,
0xea,
0x13,
0xf0,
0x10,
0x14,
0xf8,
0x05,
0xf5,
0xf3,
0xdf,
0xf7,
0xef,
0xee,
0xf8,
0xfc,
0xe5,
0xfe,
0xea,
0xfd,
0x12,
0x08,
0x03,
0x0e,
0x00,
0xfe,
0x09,
0xf6,
0xfe,
0x02,
0xfa,
0xe7,
0x07,
0xea,
0xf7,
0xec,
0x04,
0xff,
0x0a,
0x14,
0xfe,
0x00,
0x07,
0x1a,
0x0b,
0xe8,
0xf3,
0xfa,
0xfc,
0x0d,
0xe2,
0x22,
0xf9,
0x04,
0x01,
0xe2,
0xf6,
0xf7,
0x02,
0x32,
0xee,
0x02,
0xed,
0x01,
0xf1,
0x15,
0x06,
0x10,
0x1b,
0x00,
0xf7,
0xfe,
0xf9,
0xed,
0xf8,
0x24,
0xd5,
0x26,
0xfe,
0x0b,
0xed,
0xf7,
0x1a,
0x15,
0xea,
0x18,
0x1b,
0x06,
0x09,
0xf6,
0x15,
0xef,
0xf8,
0x14,
0xe9,
0x0b,
0x07,
0x03,
0xeb,
0x0a,
0xde,
0x13,
0xe7,
0x24,
0x06,
0x07,
0x07,
0xfa,
0x00,
0x18,
0x04,
0xf6,
0xeb,
0xea,
0x07,
0x02,
0xfa,
0xfd,
0x15,
0x34,
0x0e,
0xe9,
0x06,
0x06,
0x04,
0x0b,
0x1e,
0xf2,
0xf9,
0xeb,
0xed,
0x0c,
0xe7,
0x07,
0x09,
0xeb,
0xde,
0xfb,
0x13,
0x03,
0x22,
0x10,
0xee,
0x01,
0xf6,
0xe0,
0xf6,
0x0c,
0x09,
0x18,
0x04,
0x02,
0x10,
0xf7,
0x11,
0x20,
0x1f,
0xf5,
0x05,
0x18,
0xf2,
0x04,
0xfd,
0x03,
0xf5,
0xe9,
0xfa,
0x11,
0xfe,
0xe3,
0x24,
0x0d,
0xf4,
0x18,
0xf2,
0xfd,
0xf4,
0x07,
0xee,
0xe4,
0x01,
0x08,
0x0b,
0x23,
0x01,
0xf6,
0xef,
0xff,
0x0b,
0x1c,
0xfc,
0x10,
0x18,
0xfa,
0x16,
0xf1,
0x0e,
0xfe,
0xf3,
0x00,
0xce,
0xfe,
0x07,
0x04,
0x00,
0x04,
0x04,
0x08,
0x00,
0xfe,
0x09,
0xf8,
0xfa,
0xf4,
0x00,
0xfb,
0x0e,
0xf7,
0x0c,
0x0b,
0xff,
0xfe,
0xf8,
0x0a,
0x05,
0x08,
0xfc,
0xf6,
0x02,
0x00,
0x00,
0xfa,
0xfc,
0x05,
0x01,
0xfe,
0xf9,
0xfd,
0x01,
0xf0,
0xfe,
0x03,
0xff,
0x05,
0x02,
0xfc,
0x06,
0xf6,
0x04,
0x01,
0xfa,
0xfe,
0x00,
0xff,
0x09,
0xfc,
0xfa,
0xef,
0xf7,
0xff,
0xf8,
0xff,
0xfd,
0xf8,
0xfa,
0xfe,
0xed,
0x01,
0x04,
0xf3,
0x08,
0x01,
0xf7,
0x01,
0x1a,
0x04,
0x05,
0xfb,
0x04,
0x03,
0x06,
0xfd,
0xf4,
0xf5,
0x0b,
0x08,
0x0d,
0xec,
0xfc,
0xf8,
0x12,
0x07,
0x09,
0x02,
0x06,
0x01,
0x05,
0xff,
0x04,
0xf8,
0xf7,
0xfa,
0x03,
0x09,
0xff,
0x03,
0x01,
0x0b,
0x03,
0xfa,
0x00,
0x01,
0x03,
0xfa,
0xf7,
0xfb,
0x05,
0xfe,
0x06,
0x05,
0x02,
0x07,
0x03,
0x0a,
0xfb,
0x07,
0x06,
0x04,
0xfe,
0x05,
0xf8,
0x00,
0xf9,
0xff,
0x05,
0x01,
0x04,
0x07,
0xfc,
0x05,
0x01,
0x04,
0xfd,
0xf9,
0xf7,
0x09,
0x08,
0x04,
0x05,
0xff,
0xf4,
0xf2,
0xfb,
0x05,
0xff,
0xfd,
0xfc,
0x01,
0x01,
0xf8,
0x07,
0x06,
0xff,
0x06,
0x05,
0xf9,
0x02,
0xfd,
0x0a,
0x06,
0x05,
0x0c,
0xfb,
0x07,
0x00,
0xf5,
0xfb,
0xfc,
0x0c,
0xf6,
0x06,
0x03,
0x04,
0xef,
0xfb,
0xf3,
0xf9,
0xf9,
0x10,
0xfe,
0xf5,
0x06,
0xf7,
0x06,
0x05,
0x02,
0xfc,
0xfe,
0x0a,
0x07,
0xfa,
0x09,
0x01,
0x09,
0x01,
0x06,
0xfb,
0xff,
0x01,
0x01,
0xfb,
0xf9,
0x08,
0xfa,
0xf5,
0xfb,
0x04,
0x02,
0x05,
0x09,
0x09,
0x08,
0x07,
0xff,
0x02,
0xfe,
0x0b,
0x03,
0x09,
0xfa,
0x03,
0xf3,
0x01,
0xf9,
0xf9,
0x02,
0x04,
0xff,
0x09,
0xff,
0x09,
0xfd,
0xff,
0xfc,
0xf7,
0x03,
0xff,
0x05,
0xf7,
0x06,
0xfd,
0x04,
0xfa,
0xf6,
0xfd,
0x0f,
0x01,
0x01,
0xf8,
0x08,
0xfe,
0x00,
0xff,
0xfc,
0x06,
0x00,
0x01,
0x05,
0x08,
0xfa,
0xff,
0x09,
0x10,
0x09,
0x03,
0xf9,
0x08,
0xff,
0xf3,
0x01,
0xfe,
0x0f,
0x00,
0x03,
0x0c,
0xf8,
0x02,
0xfa,
0xf1,
0x03,
0xff,
0x03,
0x03,
0xff,
0xf7,
0xfa,
0xfd,
0x03,
0x06,
0x02,
0xf7,
0xfd,
0x00,
0xfd,
0x06,
0x02,
0x09,
0x00,
0xfc,
0xfb,
0xfe,
0xfd,
0xf2,
0xfd,
0x06,
0xf5,
0xf6,
0x01,
0x03,
0xfd,
0xfb,
0xf7,
0xfe,
0xf5,
0x13,
0xf7,
0xfc,
0xff,
0xf7,
0xfc,
0x16,
0x0a,
0xeb,
0xff,
0x09,
0x05,
0xf1,
0xfb,
0xed,
0x02,
0x07,
0x04,
0x08,
0x00,
0xfd,
0xf7,
0x0c,
0x04,
0xf1,
0x00,
0xff,
0x04,
0x0c,
0x02,
0x05,
0xeb,
0x06,
0xf6,
0xfb,
0xf4,
0xf3,
0x0a,
0xf6,
0x09,
0xf1,
0x09,
0xfa,
0x02,
0xfd,
0x01,
0xfe,
0xfc,
0x04,
0xff,
0x07,
0x00,
0xfa,
0x03,
0xfe,
0x0a,
0xf6,
0x01,
0xfa,
0x01,
0xfe,
0xfe,
0xfd,
0xfa,
0x03,
0x07,
0xf6,
0x03,
0x09,
0x01,
0x05,
0x03,
0x06,
0x01,
0xff,
0x0b,
0xfe,
0x06,
0x00,
0x04,
0x01,
0x03,
0xff,
0x08,
0xff,
0xf4,
0x0f,
0xfe,
0xfa,
0xff,
0x03,
0xff,
0xee,
0xfb,
0xfd,
0xfa,
0x05,
0xf9,
0xfc,
0x0b,
0xfc,
0xf7,
0x00,
0x05,
0xfd,
0xfb,
0xf6,
0xfc,
0x01,
0xfd,
0x0d,
0x07,
0x02,
0xfb,
0x02,
0xfa,
0xff,
0xee,
0x09,
0xf4,
0x01,
0xfa,
0xfe,
0x04,
0xfa,
0xf9,
0x01,
0xfd,
0xf8,
0x00,
0x00,
0x02,
0xf5,
0xfd,
0x05,
0x03,
0xff,
0x01,
0xf9,
0xf8,
0x06,
0xfe,
0x07,
0xf5,
0xfc,
0xeb,
0x01,
0x05,
0x00,
0xf6,
0xfa,
0x00,
0x00,
0x01,
0xf6,
0xf5,
0xfc,
0x05,
0x08,
0xfd,
0xfe,
0x04,
0x07,
0xfd,
0xfe,
0x00,
0x00,
0x04,
0x00,
0xfb,
0x03,
0x09,
0x0d,
0x00,
0x08,
0xf8,
0x06,
0xf9,
0x07,
0xf7,
0xf9,
0xfa,
0x06,
0xf8,
0xfa,
0xfd,
0x05,
0x01,
0x05,
0xf6,
0xf9,
0xf3,
0x00,
0xf1,
0x06,
0xff,
0x07,
0xe8,
0xfd,
0xf3,
0x16,
0x03,
0x12,
0x07,
0xfa,
0x09,
0xf9,
0x00,
0xf7,
0x01,
0x04,
0x18,
0xfc,
0xee,
0xdb,
0xf0,
0x08,
0xe8,
0xf7,
0x0b,
0x0a,
0xf6,
0x00,
0x07,
0x03,
0xfc,
0x03,
0xf6,
0x03,
0xf0,
0x08,
0xfe,
0xf4,
0xfe,
0x07,
0xfc,
0xf6,
0xfe,
0x04,
0x14,
0x0c,
0xff,
0x03,
0x06,
0x09,
0x06,
0x0b,
0x03,
0xf9,
0xfd,
0xfc,
0x0d,
0xff,
0xef,
0x03,
0x06,
0xfa,
0x00,
0xfd,
0x07,
0xfe,
0x12,
0xf7,
0x06,
0x12,
0xf3,
0xfd,
0x00,
0x0b,
0xf5,
0x00,
0x02,
0x00,
0x02,
0xf8,
0x0c,
0x09,
0xec,
0x10,
0x0b,
0x04,
0x27,
0x0a,
0xfa,
0x08,
0x06,
0xfb,
0xfb,
0xfc,
0x03,
0x03,
0xef,
0x0b,
0x0a,
0x04,
0xf1,
0x0c,
0x03,
0x03,
0x0c,
0x06,
0xf7,
0xf6,
0x0a,
0x13,
0xfd,
0xf5,
0x03,
0x0c,
0xe7,
0xf8,
0x1b,
0xfc,
0x0f,
0x05,
0x0f,
0x0c,
0x08,
0x19,
0xef,
0x01,
0x04,
0xed,
0x08,
0x07,
0xfd,
0x07,
0x06,
0x00,
0xfa,
0x02,
0x06,
0xf6,
0x01,
0xf7,
0x09,
0xfe,
0x05,
0x06,
0x08,
0xff,
0x0d,
0x10,
0x07,
0xf6,
0xfa,
0x03,
0x09,
0x00,
0x01,
0x04,
0xf9,
0x0a,
0x11,
0xf1,
0xff,
0x04,
0xf8,
0x0a,
0xfe,
0xf4,
0xfb,
0xf5,
0x03,
0x13,
0x00,
0xf7,
0x05,
0x03,
0xfe,
0x09,
0xfc,
0x04,
0xf6,
0x02,
0x13,
0x02,
0x04,
0xfc,
0x0d,
0xf7,
0xfb,
0xfc,
0xf3,
0xf4,
0x0c,
0x0f,
0xf6,
0xf6,
0xfc,
0xf8,
0xec,
0x02,
0xef,
0xf3,
0xf3,
0xfd,
0x0b,
0xff,
0xf7,
0x03,
0x12,
0xed,
0xe9,
0xe4,
0x04,
0xff,
0x08,
0x00,
0x01,
0x02,
0xff,
0x05,
0x0e,
0x0a,
0x0b,
0xfc,
0x05,
0x03,
0x14,
0x00,
0xfe,
0x00,
0xf9,
0xfb,
0x03,
0x01,
0xfe,
0xfd,
0x0b,
0x03,
0xf2,
0xfc,
0xf0,
0xf4,
0xf9,
0xef,
0xfb,
0x0f,
0x09,
0xf9,
0xfa,
0xec,
0xf8,
0x06,
0xe3,
0x0f,
0xf5,
0xfc,
0x15,
0xfb,
0x05,
0xee,
0x09,
0x0f,
0xdc,
0xfd,
0xee,
0xe4,
0xf2,
0x1d,
0x13,
0xfd,
0xf2,
0xf8,
0xef,
0x0a,
0xfa,
0x0b,
0x15,
0xdd,
0xf1,
0x05,
0xf3,
0x17,
0x17,
0xec,
0x19,
0x02,
0xeb,
0xff,
0xe1,
0x04,
0x12,
0xf2,
0xed,
0xf0,
0xfd,
0xe8,
0x12,
0xe5,
0x16,
0xfe,
0xfa,
0x0b,
0x16,
0xfe,
0xf6,
0x17,
0xfb,
0xfb,
0xec,
0x23,
0xf3,
0xf2,
0x08,
0x05,
0x18,
0xf5,
0xf9,
0x11,
0x1a,
0xe8,
0xf6,
0xe8,
0x0e,
0x05,
0x1b,
0xfb,
0xfb,
0x1a,
0x02,
0x0f,
0xf0,
0x25,
0x1b,
0xeb,
0x01,
0xff,
0x03,
0xe3,
0xf2,
0x00,
0x0f,
0x00,
0x1c,
0x01,
0xf9,
0xf8,
0x17,
0x13,
0xfb,
0x0b,
0x0b,
0x0a,
0x14,
0xe2,
0x01,
0x01,
0x00,
0xef,
0x0d,
0x10,
0x0a,
0xfe,
0xf4,
0x00,
0x07,
0xee,
0xf7,
0xef,
0xf6,
0xff,
0x27,
0xfa,
0x10,
0xfb,
0x0f,
0xee,
0xfc,
0x14,
0xfa,
0x10,
0xfe,
0x00,
0xe9,
0x0c,
0x11,
0xfe,
0xf5,
0xe7,
0x02,
0x0b,
0xf8,
0x10,
0xff,
0x1c,
0xf3,
0x13,
0x0f,
0xe3,
0xfe,
0x0b,
0x18,
0x0c,
0xfd,
0x08,
0x12,
0x13,
0x04,
0xfe,
0xfc,
0xf3,
0xe3,
0xe0,
0x01,
0xe7,
0xfd,
0x05,
0x0c,
0xef,
0xfe,
0xf1,
0x11,
0xf0,
0xe7,
0xf9,
0xfd,
0x01,
0x14,
0x2f,
0xd5,
0xf4,
0x08,
0x0d,
0x04,
0x04,
0x2c,
0x0c,
0xff,
0xf2,
0x06,
0x04,
0xe5,
0xec,
0x09,
0x15,
0xfe,
0xf3,
0x0d,
0xf0,
0xff,
0x0b,
0x0a,
0x00,
0x0b,
0xfc,
0xfb,
0x09,
0x0f,
0x0b,
0x23,
0xf5,
0x17,
0xeb,
0xf8,
0xeb,
0xef,
0x11,
0xf4,
0xef,
0xf8,
0xd1,
0xf4,
0x19,
0x20,
0xf3,
0xf7,
0xf3,
0xf3,
0xf8,
0x06,
0xf0,
0x21,
0x26,
0xf9,
0x19,
0x12,
0xec,
0xf2,
0xff,
0x01,
0xe6,
0xf2,
0x00,
0x10,
0x14,
0xdf,
0xed,
0x26,
0xf8,
0x18,
0xe2,
0xff,
0x14,
0x24,
0x17,
0xf4,
0x01,
0x04,
0xff,
0x03,
0xfc,
0x10,
0xf4,
0x04,
0xfd,
0xfb,
0xfd,
0x01,
0xfd,
0x05,
0xfa,
0x04,
0xea,
0xfe,
0x00,
0x05,
0xfc,
0xf9,
0xfb,
0xf7,
0x05,
0x00,
0x01,
0x00,
0x07,
0x0b,
0xe9,
0x0b,
0xfb,
0x00,
0x04,
0xfe,
0xfa,
0x0d,
0x11,
0xfd,
0xfe,
0xff,
0xf7,
0xfe,
0x09,
0x03,
0xf9,
0x04,
0xea,
0xf4,
0xfd,
0x00,
0xfd,
0x01,
0x09,
0x00,
0x02,
0x07,
0x09,
0x14,
0x02,
0xf9,
0xfb,
0xff,
0x07,
0xfc,
0xf9,
0x04,
0x03,
0x05,
0x07,
0x1c,
0xf7,
0xed,
0x09,
0xfe,
0x07,
0xf7,
0xee,
0xfc,
0x01,
0x08,
0x0b,
0x07,
0xed,
0xfb,
0xf7,
0xf4,
0x01,
0x0a,
0x07,
0xf8,
0xf8,
0x08,
0xf1,
0x0a,
0x02,
0x0d,
0xf8,
0x0a,
0xf6,
0x00,
0xfe,
0xfd,
0xf6,
0xf9,
0xf6,
0xff,
0xed,
0xfb,
0x06,
0xfc,
0x0c,
0xfb,
0xff,
0xfe,
0xfb,
0x04,
0xf3,
0xfe,
0x02,
0xfb,
0xf9,
0x00,
0xff,
0x02,
0xf9,
0xf7,
0xfa,
0xff,
0xff,
0x06,
0xff,
0x06,
0xf2,
0x0d,
0xfd,
0x14,
0x08,
0x01,
0xf6,
0x02,
0x04,
0x00,
0x19,
0x07,
0x04,
0x00,
0x13,
0xfd,
0x01,
0xf8,
0xf9,
0xfc,
0xef,
0x08,
0x04,
0xfe,
0xfd,
0xfa,
0x02,
0xf7,
0xff,
0x18,
0xfe,
0xf5,
0xf3,
0x01,
0xfc,
0xfd,
0x06,
0xf4,
0x11,
0xfa,
0xfc,
0xfc,
0x0e,
0x04,
0xfd,
0x02,
0xfa,
0xf5,
0x15,
0x06,
0xfd,
0xf5,
0xff,
0xfe,
0xfd,
0xe9,
0xfe,
0x02,
0x01,
0x00,
0x07,
0xfb,
0x08,
0xf2,
0xf9,
0xfc,
0xf6,
0x01,
0xf8,
0xfb,
0x05,
0xf4,
0x07,
0xfc,
0xf6,
0xfe,
0xfc,
0x0a,
0x00,
0xff,
0x0d,
0xf8,
0x04,
0xf7,
0x03,
0x00,
0xec,
0x05,
0x07,
0xf3,
0xe8,
0x01,
0xf8,
0x0d,
0x02,
0x01,
0x0c,
0xec,
0xf6,
0xf3,
0x06,
0xf3,
0xfe,
0x01,
0x04,
0xfa,
0x16,
0x05,
0xf2,
0xfb,
0xf7,
0x07,
0xf7,
0x07,
0xfd,
0x19,
0xfd,
0xf5,
0xf4,
0xfb,
0xf8,
0x04,
0x08,
0x04,
0x09,
0xf5,
0x0f,
0x00,
0xf8,
0xf4,
0xfe,
0xfb,
0xfb,
0xf6,
0xf5,
0xfc,
0xf4,
0xfd,
0x04,
0x01,
0x04,
0xff,
0xfa,
0xf6,
0xfb,
0x03,
0x05,
0x07,
0xf6,
0xf9,
0xfc,
0xf0,
0x09,
0x09,
0x03,
0xfd,
0x08,
0xfc,
0x03,
0xfd,
0x09,
0xfd,
0x02,
0x08,
0x01,
0x00,
0xfe,
0x03,
0xff,
0xfb,
0xf2,
0x06,
0x03,
0xfe,
0x07,
0xfa,
0xfd,
0x1b,
0x02,
0x0d,
0xfb,
0xe6,
0xef,
0xf6,
0x0d,
0xfa,
0x10,
0x00,
0xf5,
0x12,
0xea,
0x0c,
0xfa,
0xff,
0x1a,
0x00,
0x04,
0xf7,
0x04,
0xfd,
0x10,
0x03,
0xf9,
0xf6,
0xfe,
0x07,
0x01,
0x01,
0xfb,
0xfd,
0x02,
0x01,
0x05,
0x04,
0xfc,
0x15,
0xfe,
0xfc,
0xf5,
0xfc,
0xf9,
0xff,
0xef,
0x04,
0x03,
0xfa,
0x14,
0xfd,
0x03,
0x04,
0xf4,
0x08,
0xf9,
0xf3,
0x14,
0xf7,
0x02,
0x09,
0x02,
0x04,
0xf8,
0x02,
0xf9,
0xfb,
0x05,
0xfd,
0xf7,
0x06,
0xff,
0xf9,
0x02,
0xff,
0xfd,
0x09,
0x07,
0xf7,
0x0f,
0x01,
0x02,
0xf7,
0xfb,
0xfd,
0xfa,
0x10,
0xfb,
0xfa,
0xf9,
0xfe,
0x03,
0xff,
0x01,
0x01,
0x0e,
0x02,
0x02,
0x07,
0x00,
0x08,
0x07,
0xff,
0xff,
0x08,
0xf7,
0xff,
0xfd,
0x04,
0x06,
0x09,
0x02,
0x02,
0x05,
0xfd,
0xf8,
0xfa,
0xfb,
0x01,
0xfe,
0xff,
0xfa,
0xfc,
0xfe,
0x04,
0x00,
0xf7,
0x0a,
0xfd,
0xfb,
0x01,
0xfe,
0xfc,
0xfb,
0xfd,
0x0e,
0x05,
0xf5,
0xfa,
0xfc,
0xfe,
0x05,
0xf9,
0xfd,
0xf5,
0xff,
0xf3,
0xf7,
0xfd,
0x01,
0xf0,
0x0c,
0xfe,
0x06,
0xfe,
0xfb,
0xf4,
0x07,
0x00,
0xf7,
0xe4,
0xfc,
0x08,
0xfe,
0xfc,
0xfe,
0x07,
0x06,
0x0d,
0x2b,
0xfb,
0x0e,
0xf1,
0x01,
0xf5,
0x09,
0x03,
0xfc,
0xff,
0xf6,
0x09,
0xff,
0x05,
0x05,
0x00,
0x03,
0xf9,
0x07,
0xfc,
0xf5,
0x0e,
0xfd,
0xfd,
0x02,
0x00,
0x05,
0xed,
0xf5,
0x04,
0x14,
0xf0,
0xfc,
0x02,
0x08,
0x06,
0xed,
0xfc,
0x0d,
0xff,
0x0a,
0xf7,
0xeb,
0x11,
0xff,
0xfa,
0xed,
0x14,
0xfd,
0x0c,
0x1b,
0x07,
0xfb,
0x00,
0xe6,
0x00,
0xfc,
0x14,
0xef,
0x10,
0xf5,
0x0a,
0x04,
0x11,
0xee,
0x09,
0x0d,
0xfc,
0xf3,
0x0a,
0xf0,
0x05,
0x09,
0x13,
0x04,
0xfa,
0x05,
0xf5,
0xf0,
0xe9,
0xf4,
0x0a,
0xf4,
0xf3,
0x03,
0x07,
0x08,
0xfa,
0x07,
0xfd,
0xf1,
0x0d,
0xf4,
0x05,
0x15,
0xf2,
0xf7,
0xfd,
0x0a,
0xf9,
0x05,
0x04,
0xf1,
0xfd,
0x04,
0x11,
0x01,
0x00,
0x01,
0x0c,
0xf2,
0x0a,
0x16,
0x0e,
0x0b,
0xf9,
0xfa,
0x10,
0xfe,
0x0e,
0xf1,
0xf0,
0xfb,
0x12,
0xfe,
0x29,
0x17,
0xfc,
0x00,
0xff,
0xfd,
0xf5,
0xe9,
0x04,
0x06,
0xf7,
0xfd,
0xef,
0x07,
0x09,
0xfd,
0x14,
0x0a,
0x0e,
0x05,
0x09,
0x08,
0x08,
0xfd,
0xed,
0x07,
0xf4,
0xf9,
0xf9,
0x09,
0xf1,
0x09,
0xf7,
0xeb,
0x03,
0x04,
0xfe,
0xf2,
0xf3,
0xf9,
0x10,
0x03,
0xf4,
0x0c,
0x0b,
0x0a,
0x10,
0xf6,
0x11,
0x0b,
0xf6,
0xf3,
0xfa,
0xf9,
0x08,
0x0a,
0xef,
0xf5,
0xf5,
0xff,
0x09,
0x02,
0x02,
0x03,
0xe4,
0x06,
0xfc,
0xff,
0xf9,
0x06,
0x15,
0x0f,
0x03,
0xf9,
0x06,
0x06,
0x06,
0x02,
0x03,
0x0e,
0xfa,
0x0d,
0xfb,
0xf6,
0xf8,
0x06,
0x05,
0x0b,
0xf6,
0xfc,
0xfc,
0x07,
0xe5,
0x0f,
0x07,
0xf6,
0xf7,
0xfb,
0xf3,
0xfd,
0x0f,
0xfe,
0x02,
0xf5,
0x04,
0xfb,
0xee,
0x01,
0x09,
0x08,
0x12,
0x0b,
0x12,
0x1f,
0x07,
0x11,
0xfa,
0xf2,
0x11,
0x02,
0xff,
0x07,
0x13,
0xf9,
0x0c,
0x1b,
0x09,
0xf7,
0x09,
0x0a,
0xfc,
0x20,
0xf8,
0xe3,
0x05,
0xfd,
0xfb,
0x01,
0x08,
0x01,
0x06,
0x14,
0xfd,
0xff,
0xfd,
0x01,
0xfe,
0x0e,
0x01,
0x05,
0x02,
0xef,
0x0f,
0x09,
0xf3,
0xf2,
0xfa,
0xf7,
0xdc,
0xfd,
0xf4,
0x0c,
0x05,
0x14,
0x07,
0x08,
0x07,
0x22,
0xf0,
0xf3,
0x05,
0x1a,
0x0f,
0x01,
0xd9,
0x06,
0x0b,
0xea,
0x2a,
0x11,
0xe8,
0xfe,
0xec,
0xfb,
0xfe,
0xf2,
0x07,
0x1b,
0x36,
0x00,
0x0f,
0x04,
0x0d,
0xf5,
0x09,
0xe3,
0x0d,
0xfd,
0x1c,
0x00,
0x07,
0xfa,
0x2a,
0xee,
0xe5,
0x0e,
0xfe,
0x18,
0x14,
0x18,
0xf5,
0x0e,
0xfe,
0x04,
0xf3,
0x05,
0x22,
0x08,
0xf8,
0x08,
0x0a,
0x23,
0xee,
0xe2,
0xee,
0xfb,
0xed,
0xf8,
0x0a,
0xf8,
0xfd,
0xdc,
0x22,
0x09,
0x13,
0xec,
0xfd,
0xfd,
0x0d,
0x07,
0xe8,
0xd9,
0x20,
0x11,
0x04,
0x0f,
0x07,
0x15,
0x07,
0x00,
0xfe,
0x0f,
0x1d,
0xe6,
0x06,
0x0f,
0x0e,
0x0d,
0x10,
0xfe,
0xe7,
0xde,
0x0c,
0x19,
0x22,
0xea,
0xfd,
0x06,
0x02,
0xee,
0xf8,
0x11,
0xfe,
0xfb,
0xf4,
0xfe,
0x41,
0xf1,
0xe8,
0xd5,
0xed,
0xe3,
0xdf,
0x12,
0xe1,
0x0b,
0xf4,
0x15,
0x0a,
0xfe,
0xe8,
0x0b,
0xfe,
0x05,
0xeb,
0x01,
0xdf,
0xf8,
0xfa,
0xe6,
0x15,
0xf9,
0xfa,
0xf9,
0xe9,
0x19,
0x0f,
0x13,
0xfe,
0xe5,
0xfd,
0x0f,
0x0e,
0xf7,
0xef,
0xf4,
0x01,
0xe2,
0xf8,
0x01,
0x0f,
0xef,
0xff,
0xf8,
0xe5,
0x21,
0x01,
0xed,
0x11,
0xf6,
0xff,
0x01,
0x02,
0x03,
0xfe,
0xf9,
0x01,
0x17,
0xf2,
0x05,
0x1d,
0x1d,
0x04,
0xe3,
0x01,
0xfa,
0x04,
0xfc,
0x19,
0x18,
0x04,
0xe9,
0x03,
0xee,
0xec,
0x00,
0xf1,
0xfb,
0xf6,
0xfd,
0x03,
0xf4,
0xfd,
0xfe,
0x13,
0xef,
0x01,
0xff,
0x0e,
0x06,
0xee,
0x18,
0xfd,
0x03,
0xe3,
0xdb,
0xf3,
0x17,
0x09,
0x08,
0xf0,
0x05,
0xee,
0xfb,
0xe9,
0xfa,
0x0c,
0xf8,
0xf5,
0xed,
0xfe,
0x04,
0x00,
0xe8,
0xfb,
0xea,
0x03,
0x04,
0xfc,
0x1b,
0xfd,
0x0f,
0xf1,
0x04,
0x0e,
0xed,
0x13,
0xef,
0x00,
0x0d,
0x14,
0x03,
0x12,
0xfb,
0x11,
0x0f,
0x0c,
0xf9,
0xf0,
0x05,
0x05,
0xf4,
0x0d,
0xfc,
0x0b,
0x05,
0x00,
0x02,
0xff,
0x02,
0x03,
0x0d,
0x07,
0xff,
0x0a,
0x03,
0x08,
0x00,
0xf8,
0x10,
0xf8,
0x00,
0xfe,
0xf9,
0x0f,
0x01,
0x0d,
0x05,
0x04,
0x09,
0xfd,
0xef,
0xf8,
0x00,
0x02,
0x04,
0xf6,
0x0b,
0xfd,
0xff,
0x00,
0x06,
0x02,
0x02,
0x05,
0xf1,
0x03,
0x08,
0x07,
0x0a,
0xfe,
0x00,
0xfa,
0xf4,
0xfd,
0x19,
0x02,
0x05,
0xf4,
0x02,
0x02,
0xfb,
0x08,
0xf8,
0xff,
0x01,
0xf7,
0x01,
0xf6,
0xfd,
0xf2,
0xf9,
0x03,
0xef,
0xf7,
0xfb,
0x09,
0x06,
0xff,
0x01,
0xfd,
0xfe,
0x18,
0xff,
0xfc,
0x06,
0xfa,
0xfe,
0x02,
0x02,
0x00,
0xff,
0xf7,
0x01,
0xfc,
0xfd,
0x04,
0xee,
0xfa,
0x01,
0x14,
0x01,
0x04,
0xfa,
0xfb,
0xfc,
0xfd,
0xf8,
0x05,
0x01,
0xf2,
0xfd,
0xff,
0xf7,
0xee,
0xfd,
0x01,
0x0a,
0xfc,
0x01,
0x02,
0xfd,
0xfc,
0xfe,
0x04,
0xf5,
0xff,
0xfa,
0x05,
0x06,
0xf3,
0x02,
0x07,
0xf5,
0x01,
0xf8,
0xf8,
0x02,
0xfd,
0x01,
0x0a,
0x04,
0xf6,
0x05,
0x00,
0x0e,
0x06,
0x0a,
0x04,
0xfa,
0x06,
0xff,
0x03,
0x01,
0xf5,
0x15,
0xfd,
0x04,
0xff,
0xfd,
0xe5,
0x09,
0x00,
0x03,
0xf5,
0x08,
0x04,
0x08,
0xfe,
0x01,
0xff,
0x06,
0xfe,
0xff,
0x0b,
0x00,
0x0b,
0xff,
0xfc,
0xf8,
0x02,
0x01,
0x0c,
0x09,
0x01,
0x04,
0xfd,
0x0a,
0x05,
0xfb,
0xfd,
0x26,
0x04,
0xf9,
0x14,
0xf7,
0xf5,
0xfc,
0xf8,
0x00,
0xf8,
0xfb,
0xfd,
0x02,
0xfc,
0xfc,
0xf4,
0xff,
0x00,
0xea,
0xf5,
0xfd,
0x13,
0x02,
0x01,
0xf9,
0xf7,
0xfd,
0x0d,
0x01,
0x06,
0x04,
0xfd,
0xfe,
0x03,
0xfb,
0xf7,
0xff,
0x16,
0x04,
0xf9,
0x11,
0x06,
0x09,
0xf8,
0xfd,
0x02,
0xfa,
0xf8,
0x0c,
0x08,
0x04,
0x0a,
0x07,
0x02,
0xfc,
0xfc,
0x02,
0x00,
0x0d,
0x09,
0x06,
0xfd,
0x08,
0xf4,
0x06,
0xfc,
0x09,
0x00,
0x02,
0xf9,
0x0c,
0x02,
0xf5,
0xf3,
0xff,
0xfe,
0xfc,
0xfd,
0x02,
0xfb,
0x03,
0x0a,
0xfe,
0xf6,
0x0c,
0x02,
0x0e,
0x11,
0xfc,
0x11,
0x08,
0xfe,
0x05,
0xf8,
0x05,
0xf1,
0xf9,
0xf6,
0x03,
0xfd,
0x07,
0x02,
0x0b,
0xff,
0x01,
0xfb,
0xf7,
0xfb,
0xf3,
0xff,
0x03,
0x05,
0xfc,
0x05,
0xf4,
0xfb,
0xf2,
0x04,
0xf8,
0x0d,
0xf8,
0x01,
0x01,
0xfc,
0x0a,
0xf6,
0xfb,
0xf7,
0x09,
0xf9,
0x02,
0x16,
0x09,
0xf1,
0xfe,
0xff,
0x07,
0x0d,
0xfa,
0xf8,
0xfb,
0xfc,
0x02,
0xf9,
0x0d,
0xfb,
0x0d,
0xec,
0xff,
0x08,
0x01,
0x00,
0xf4,
0x04,
0xfd,
0x02,
0xfe,
0xf9,
0x07,
0x04,
0x0b,
0xff,
0x01,
0x02,
0x1b,
0xfb,
0xff,
0x0a,
0x02,
0x0e,
0xf9,
0xfa,
0x0a,
0x02,
0xff,
0xf3,
0x09,
0x00,
0x0b,
0xf3,
0x02,
0xfe,
0x01,
0xed,
0xf3,
0x00,
0xfa,
0x02,
0xfe,
0x00,
0x05,
0x07,
0x01,
0x00,
0x0c,
0x03,
0xfe,
0x09,
0xfa,
0xfe,
0x03,
0x02,
0x0d,
0x02,
0x08,
0xfb,
0x02,
0x0a,
0xf9,
0x06,
0xf7,
0x05,
0xf7,
0x08,
0xf7,
0x06,
0x03,
0x0e,
0xf9,
0xf9,
0x0d,
0x01,
0x00,
0x08,
0xfc,
0xf1,
0x02,
0x09,
0x04,
0xfc,
0xfd,
0xf7,
0xfb,
0xf0,
0x03,
0x07,
0x04,
0xfe,
0xfb,
0x00,
0x0a,
0x08,
0x02,
0xf7,
0xf1,
0xfa,
0x07,
0xfc,
0xfa,
0xf5,
0xf5,
0xfd,
0xfd,
0xff,
0xfc,
0xf6,
0x04,
0xfe,
0xfa,
0xfe,
0xf9,
0xfd,
0x02,
0xfd,
0x02,
0xf4,
0x0d,
0xfb,
0xfe,
0xfb,
0xfe,
0x01,
0xfb,
0xfe,
0x0b,
0xfb,
0x06,
0x06,
0xfc,
0x01,
0xed,
0xfe,
0xf2,
0xf6,
0x06,
0xfb,
0xfd,
0xf1,
0xf3,
0xee,
0x02,
0xf0,
0xf7,
0x05,
0x0d,
0x04,
0xfc,
0x01,
0xfd,
0x10,
0xf1,
0x01,
0x05,
0x04,
0xfe,
0x03,
0xf7,
0xff,
0x0e,
0xf8,
0xfe,
0xfb,
0x0f,
0xfa,
0xf6,
0xfa,
0xf6,
0xf9,
0x00,
0xfe,
0x03,
0x04,
0x09,
0xfe,
0x04,
0x06,
0xdf,
0xf6,
0x25,
0xfd,
0x03,
0xed,
0x0b,
0xfa,
0xfd,
0x06,
0xfa,
0xf3,
0xee,
0xf0,
0xfd,
0xfd,
0x10,
0x12,
0x03,
0xe4,
0xfa,
0x1a,
0xf4,
0x0d,
0xf7,
0xee,
0xed,
0x23,
0xf0,
0xfe,
0xf9,
0xf8,
0xf7,
0xfc,
0x06,
0xf5,
0xf8,
0x01,
0x00,
0xfd,
0xfe,
0x14,
0xf7,
0xfd,
0xf9,
0xf9,
0x02,
0x1f,
0x05,
0x0a,
0xfe,
0x0e,
0x04,
0xff,
0x01,
0x06,
0xfe,
0x05,
0x03,
0xf4,
0xf8,
0x02,
0x09,
0xfb,
0xff,
0x04,
0xf5,
0xf9,
0x09,
0x01,
0x04,
0x05,
0x05,
0xff,
0xfb,
0xf9,
0xfc,
0x0c,
0x09,
0x00,
0x0d,
0x0d,
0x01,
0xf5,
0x02,
0x1d,
0x04,
0x0e,
0xff,
0x0c,
0xf1,
0x09,
0xf8,
0xfc,
0xec,
0xfe,
0xeb,
0x10,
0xef,
0x03,
0x03,
0x06,
0x10,
0x13,
0x0c,
0xe8,
0xf0,
0xfb,
0x01,
0x0a,
0x0b,
0xf0,
0x09,
0xff,
0xfc,
0x05,
0xef,
0x02,
0xfa,
0xef,
0x0c,
0x0f,
0xf4,
0x08,
0xff,
0xf2,
0xfb,
0x0c,
0xec,
0xfc,
0x02,
0x08,
0x07,
0xf4,
0xfb,
0xfc,
0xfe,
0x0e,
0xf4,
0x08,
0xea,
0xfc,
0xf9,
0x05,
0x0a,
0x0a,
0x04,
0x07,
0x0e,
0xfc,
0x01,
0xf7,
0x0d,
0xfc,
0x06,
0xe8,
0xf8,
0x01,
0xff,
0x08,
0xfb,
0xfb,
0xf9,
0xfa,
0xf5,
0x00,
0xfc,
0x06,
0x02,
0xfb,
0xf7,
0x04,
0xfd,
0x07,
0xf8,
0x04,
0x04,
0x04,
0xfe,
0xfa,
0x03,
0xfa,
0x02,
0xf5,
0xff,
0x04,
0xf7,
0x03,
0xff,
0x09,
0x00,
0xfc,
0xfb,
0x08,
0x0e,
0x0e,
0x06,
0xf8,
0xf8,
0x05,
0xfb,
0xf6,
0xf5,
0xfa,
0xf9,
0xf4,
0xf5,
0x08,
0xf5,
0xfd,
0x10,
0xff,
0xfc,
0xeb,
0x03,
0x10,
0x0c,
0x15,
0x13,
0x06,
0x07,
0x0c,
0x05,
0x04,
0xfe,
0x05,
0x03,
0x02,
0xfc,
0x03,
0xfe,
0x02,
0xfc,
0x08,
0x06,
0x04,
0xf6,
0xff,
0xef,
0xfa,
0xfb,
0xff,
0xfe,
0xfd,
0xf3,
0xf9,
0xf1,
0x01,
0xee,
0x02,
0x0b,
0x00,
0xf1,
0x02,
0x12,
0x00,
0xfc,
0x0e,
0x2c,
0x08,
0xf0,
0x01,
0xfc,
0xfb,
0xea,
0xf6,
0xe3,
0xfd,
0xec,
0xfc,
0x18,
0x0b,
0xf7,
0xf5,
0xff,
0xfc,
0x0e,
0xf2,
0xff,
0xf7,
0xf8,
0xfc,
0xff,
0xf9,
0xf7,
0x10,
0x06,
0xe5,
0xfb,
0x08,
0x06,
0x14,
0x09,
0x03,
0x13,
0xf7,
0x06,
0x09,
0x11,
0xfb,
0x08,
0xf2,
0x09,
0xf7,
0xf3,
0x22,
0x0a,
0xfe,
0x10,
0x06,
0x12,
0x0d,
0x03,
0x1b,
0xfa,
0x01,
0xef,
0x01,
0x05,
0xf3,
0x09,
0xf6,
0xff,
0x25,
0xe8,
0xe7,
0x20,
0x05,
0xf7,
0xf7,
0x16,
0x0f,
0xe9,
0x17,
0xf6,
0xf4,
0xee,
0xf7,
0xf6,
0xfd,
0xe5,
0x02,
0x34,
0x04,
0xf8,
0xed,
0xed,
0x1e,
0x17,
0xfe,
0x0d,
0x00,
0xf6,
0x05,
0xe7,
0xfa,
0x05,
0x06,
0x07,
0x11,
0xfd,
0x17,
0xff,
0x0e,
0xdf,
0xe9,
0x10,
0xde,
0x10,
0xf3,
0xfe,
0xff,
0xed,
0x09,
0x06,
0x0e,
0xf1,
0xe7,
0x01,
0x1e,
0x06,
0xf8,
0xfb,
0xfe,
0xf5,
0xf8,
0xe0,
0x11,
0x08,
0x26,
0x07,
0x01,
0xef,
0x0c,
0xf9,
0xfd,
0x04,
0x05,
0xff,
0x00,
0x13,
0x15,
0x24,
0x09,
0x01,
0x1a,
0x2a,
0xf1,
0x0f,
0xfd,
0xf7,
0x0d,
0x09,
0x00,
0x11,
0x13,
0xcf,
0x01,
0xf3,
0x03,
0xe2,
0x0d,
0xf8,
0xe4,
0xf0,
0xf5,
0x04,
0x0e,
0xe7,
0x0d,
0x26,
0x14,
0x11,
0x02,
0x0d,
0x01,
0x0f,
0xf2,
0x0c,
0x02,
0x0d,
0x22,
0x0f,
0x15,
0x1a,
0xe7,
0xf2,
0x15,
0xfd,
0x17,
0x06,
0x1c,
0xea,
0x0c,
0xdb,
0x02,
0x00,
0x13,
0x04,
0x23,
0x25,
0x17,
0xfb,
0x14,
0xed,
0x09,
0xed,
0x05,
0x06,
0xf9,
0x19,
0x04,
0x11,
0xf9,
0xe3,
0x01,
0xea,
0x1d,
0x1b,
0xf5,
0xed,
0xf5,
0x00,
0xe6,
0x04,
0xf6,
0xfc,
0x0c,
0x0c,
0x25,
0x08,
0xf6,
0xf4,
0x01,
0x01,
0x0f,
0xf5,
0x19,
0x0b,
0x15,
0x23,
0xf9,
0xfc,
0xf9,
0x15,
0xf1,
0x07,
0xf4,
0xed,
0xe8,
0x04,
0xa6,
0x4b,
0xbd,
0x51,
0xd1,
0x2d,
0x56,
0xf1,
0x13,
0x0a,
0xd1,
0x30,
0xd4,
0xf8,
0xe2,
0x43,
0xe9,
0x1b,
0xfa,
0x0a,
0xbe,
0x34,
0x4b,
0x02,
0x06,
0x07,
0x04,
0xd9,
0x19,
0x3e,
0xf1};
