/* SPDX-License-Identifier: GPL-2.0 */
/*
 * Copyright (c) 2020 MediaTek Inc.
 *
 * Author: Ya-Wen Hsu <Ya-Wen.Hsu@mediatek.com>
 *
 */
char gender_kernel_bias_loop24_0_frame01[] = {
0x03,
0x07,
0x0b,
0xfa,
0x00,
0xfe,
0xfc,
0xfa,
0x03,
0x00,
0xfa,
0xf7,
0x0a,
0xfe,
0xf8,
0xfa,
0xf7,
0x0a,
0x17,
0x0a,
0xf7,
0xf4,
0xf8,
0xfc,
0xfd,
0xfc,
0xfc,
0xff,
0x01,
0xf8,
0xfa,
0xf7,
0xf4,
0xf6,
0xfe,
0x03,
0xfc,
0xfb,
0x00,
0xf8,
0x05,
0xfc,
0x01,
0x0b,
0xfc,
0x00,
0x03,
0xf5,
0xf3,
0xf4,
0xf5,
0x04,
0x03,
0x00,
0x09,
0x06,
0xf7,
0x07,
0x0b,
0x05,
0xf5,
0xee,
0xed,
0xf5,
0x01,
0x02,
0xeb,
0xf3,
0xe0,
0xdc,
0xfc,
0xf5,
0xfc,
0x1c,
0xbd,
0x1e,
0x47,
0xe3,
0x11,
0x1d,
0xfa,
0xfe,
0x03,
0x01,
0xfd,
0x07,
0x0a,
0x07,
0xff,
0xff,
0x06,
0xfc,
0x01,
0xfe,
0xf7,
0xfc,
0xfb,
0x0a,
0xff,
0x01,
0x02,
0x0a,
0xfa,
0xfd,
0xfc,
0xff,
0x01,
0xfd,
0xf8,
0x07,
0xe6,
0x00,
0xf2,
0xfa,
0xff,
0x01,
0xff,
0xff,
0xfe,
0xfe,
0x01,
0xff,
0x02,
0x02,
0x01,
0x0c,
0x05,
0x02,
0x03,
0x02,
0xf6,
0xfd,
0xfe,
0x00,
0xfb,
0x03,
0x01,
0xff,
0x03,
0xfe,
0xff,
0x00,
0xf7,
0xfa,
0xf5,
0xf6,
0x02,
0xf5,
0x01,
0xed,
0x01,
0xf6,
0xfa,
0xf6,
0xf0,
0xfe,
0xf6,
0x05,
0x01,
0xf1,
0xf4,
0x03,
0xfd,
0xfd,
0xfe,
0xfb,
0x03,
0x02,
0x01,
0x06,
0xfb,
0xfb,
0xff,
0xfb,
0xfb,
0xfe,
0x0c,
0x0e,
0x16,
0xfe,
0x0b,
0x07,
0x11,
0x0a,
0xfd,
0xf5,
0xfd,
0xfa,
0xf7,
0xfc,
0x06,
0x05,
0xf4,
0xfe,
0x04,
0xfc,
0xfb,
0x03,
0xfc,
0x03,
0xfc,
0xfc,
0xfa,
0x05,
0xf5,
0xf4,
0xfb,
0xf4,
0xfb,
0x02,
0x03,
0x07,
0xfe,
0xfc,
0xf3,
0x06,
0xfb,
0x12,
0x18,
0xf3,
0xfb,
0x3b,
0xf1,
0xf4,
0x02,
0x00,
0xff,
0xf9,
0x02,
0xf6,
0xf9,
0xfd,
0xfa,
0xf7,
0x01,
0x03,
0x04,
0x02,
0x19,
0x16,
0xf3,
0xfb,
0x00,
0xf7,
0xf9,
0xf5,
0xfc,
0x05,
0x00,
0x01,
0x01,
0xee,
0xed,
0xfb,
0xf1,
0x0a,
0x03,
0xff,
0xf3,
0xfa,
0xfc,
0xfd,
0xff,
0xff,
0xfe,
0xff,
0x01,
0xfc,
0xff,
0x01,
0x04,
0x04,
0xf1,
0xfa,
0xfa,
0xfd,
0xf7,
0x01,
0xf2,
0xf9,
0x01,
0xfe,
0xf5,
0xff,
0xff,
0x04,
0x00,
0x04,
0xfe,
0xf4,
0x00,
0xfb,
0x01,
0x02,
0xfd,
0xeb,
0xfe,
0xfe,
0x00,
0x00,
0xff,
0x06,
0x06,
0x02,
0x00,
0xf5,
0x0e,
0x08,
0xff,
0x00,
0xfc,
0xf8,
0x00,
0xfd,
0xf8,
0xfa,
0xfc,
0xfe,
0x00,
0xf9,
0x02,
0xe6,
0xfd,
0xfa,
0xff,
0xff,
0x03,
0xfc,
0xfd,
0x00,
0x01,
0xf7,
0xfe,
0x03,
0x04,
0xf2,
0xfb,
0xf8,
0x00,
0x01,
0x01,
0x04,
0xfe,
0x05,
0x03,
0xf6,
0x07,
0x0b,
0xfc,
0xf8,
0xf3,
0xf9,
0xff,
0x03,
0x28,
0x05,
0x2f,
0x64,
0xfb,
0xf5,
0xfb,
0xff,
0xe8,
0xf2,
0xfc,
0xfc,
0x06,
0xfa,
0x07,
0xf8,
0x04,
0x04,
0xfb,
0x01,
0x12,
0x05,
0xe7,
0x00,
0xfa,
0x13,
0xfd,
0xff,
0xf9,
0x01,
0xfd,
0xfd,
0xfb,
0xf7,
0xf2,
0xff,
0x0c,
0x07,
0x02,
0x0a,
0xfb,
0x05,
0xf7,
0xfd,
0x01,
0x04,
0x02,
0xf7,
0x05,
0xfa,
0x06,
0x02,
0xfe,
0x04,
0x00,
0x00,
0xf9,
0xf9,
0xfd,
0xf1,
0xf7,
0xf9,
0x02,
0xfd,
0xf8,
0xfb,
0xff,
0x00,
0x02,
0x0f,
0x03,
0xf4,
0xfb,
0x03,
0xfd,
0x00,
0xf3,
0x05,
0xfc,
0xfe,
0x0e,
0xfd,
0x04,
0x03,
0xfa,
0xfc,
0x05,
0x02,
0xfa,
0xfb,
0xf3,
0x03,
0xf8,
0xf8,
0xec,
0x0c,
0x20,
0x04,
0xfd,
0x09,
0xfc,
0xf3,
0xf8,
0xfd,
0xfe,
0x02,
0x02,
0xff,
0xf3,
0xfe,
0xfb,
0xef,
0x00,
0xfb,
0xff,
0x00,
0x0c,
0x08,
0xf9,
0xf7,
0xf9,
0xfe,
0x04,
0xfb,
0xfd,
0x00,
0x08,
0xfa,
0x00,
0x05,
0xf6,
0xf5,
0xf8,
0xf9,
0xf7,
0x03,
0x12,
0x01,
0x02,
0x04,
0xf8,
0xfe,
0x0e,
0x08,
0xf4,
0x03,
0xd7,
0xf8,
0x01,
0xea,
0x04,
0xf2,
0x33,
0xfd,
0x03,
0xfa,
0x08,
0xfe,
0xfb,
0xf0,
0x00,
0x04,
0x03,
0x03,
0x00,
0x03,
0xf8,
0x04,
0x02,
0xfc,
0xf7,
0x06,
0xf0,
0xf0,
0x04,
0x03,
0x02,
0xfc,
0x07,
0xf5,
0xff,
0x03,
0x04,
0x00,
0x03,
0xf5,
0xfa,
0x00,
0xf1,
0x02,
0xfe,
0xff,
0x03,
0x02,
0x0e,
0x10,
0x03,
0xfe,
0x00,
0x00,
0x02,
0x00,
0x01,
0xff,
0x02,
0x03,
0x01,
0xfd,
0x04,
0xfb,
0xf3,
0x02,
0xfa,
0xf7,
0xfe,
0xfe,
0x00,
0xfc,
0x0a,
0x0d,
0xfc,
0x00,
0x04,
0x01,
0xf2,
0x00,
0xff,
0x00,
0x00,
0xfa,
0xf9,
0xff,
0x03,
0xfc,
0x04,
0xff,
0xff,
0x0e,
0xf6,
0xf3,
0xea,
0xf1,
0xf6,
0xfc,
0xef,
0xfb,
0xf3,
0xfa,
0xfc,
0x07,
0x03,
0x02,
0x05,
0xfc,
0xfd,
0x1b,
0x0c,
0xfd,
0x01,
0xf9,
0x07,
0x05,
0x01,
0xff,
0x01,
0x0d,
0xfb,
0x02,
0x00,
0x06,
0xfc,
0xf8,
0x02,
0x06,
0x03,
0x05,
0xf2,
0x00,
0xf8,
0x00,
0xf4,
0xf5,
0xf7,
0xfc,
0xfb,
0xf7,
0x02,
0xfe,
0x08,
0xf9,
0xfb,
0xfd,
0xeb,
0xe9,
0xf9,
0xf9,
0xfd,
0xe1,
0xf4,
0x20,
0x1b,
0xfb,
0x01,
0x03,
0xff,
0x08,
0xfc,
0xfe,
0xf6,
0xf9,
0x09,
0x00,
0xf1,
0x04,
0xff,
0x06,
0x02,
0xfe,
0x06,
0xff,
0x07,
0xf7,
0xf7,
0xf2,
0x0b,
0x08,
0x08,
0x04,
0xf9,
0xff,
0xf5,
0xec,
0xfc,
0xff,
0xf9,
0x01,
0xfe,
0xff,
0x0f,
0xf0,
0x04,
0xfd,
0xff,
0xff,
0xfa,
0x01,
0x01,
0xfb,
0x05,
0x01,
0x03,
0x03,
0xfc,
0xf6,
0xfc,
0xfe,
0xf4,
0xf2,
0xfe,
0x01,
0xfe,
0x07,
0x06,
0xf0,
0xf5,
0x02,
0xf3,
0xf2,
0xf4,
0xfd,
0xff,
0xf2,
0x01,
0xf0,
0xeb,
0xea,
0xe9,
0xfc,
0xff,
0xff,
0xf2,
0x09,
0x00,
0x12,
0xf4,
0xec,
0xfa,
0xfc,
0x02,
0x05,
0x03,
0x07,
0x03,
0x0d,
0x09,
0x02,
0xf8,
0xf6,
0xf3,
0x04,
0xf9,
0x07,
0x0a,
0xff,
0xfc,
0x07,
0xf5,
0xf6,
0xfa,
0xf5,
0xf5,
0xf5,
0xf7,
0xf3,
0xf8,
0x01,
0x08,
0xfa,
0xfd,
0x05,
0xfd,
0xee,
0xf4,
0xf6,
0xeb,
0xed,
0xf0,
0xf6,
0x06,
0xff,
0xfb,
0xf1,
0xf5,
0xef,
0xe7,
0xf3,
0x11,
0xf7,
0x10,
0x02,
0xec,
0x04,
0x01,
0x13,
0x15,
0xfb,
0xff,
0xfe,
0xfe,
0xfb,
0xfb,
0x05,
0xf4,
0xf9,
0xf6,
0xfb,
0xf4,
0x00,
0x01,
0x01,
0xfe,
0xfc,
0xfc,
0x02,
0x06,
0xfa,
0xef,
0x08,
0x01,
0xfe,
0x00,
0xf4,
0xf1,
0xfe,
0xf1,
0xf6,
0xfe,
0xfc,
0xf4,
0xfe,
0xf9,
0xfe,
0x05,
0xfe,
0x00,
0x01,
0x02,
0x00,
0x00,
0x02,
0x00,
0x0a,
0x10,
0x05,
0xf6,
0xfe,
0xf7,
0xf3,
0xfc,
0xf9,
0xf3,
0xf6,
0xff,
0xfb,
0xf7,
0xff,
0xfc,
0xfe,
0xfe,
0xff,
0x0c,
0x0a,
0x09,
0x06,
0xfd,
0x06,
0xff,
0x03,
0xfb,
0x03,
0xfe,
0x07,
0x06,
0xfb,
0x04,
0xfd,
0x01,
0x0c,
0xf9,
0xf9,
0x04,
0x0d,
0xf8,
0x04,
0xff,
0xfc,
0xff,
0x02,
0xf8,
0x04,
0x0f,
0xfe,
0x07,
0x00,
0xfb,
0xfd,
0xfc,
0xfe,
0x00,
0x08,
0xf5,
0x09,
0x05,
0xfc,
0x03,
0xff,
0xfc,
0x01,
0xf1,
0xf4,
0xe9,
0xf7,
0xf1,
0xf6,
0xfa,
0xf0,
0x01,
0x09,
0xfa,
0x00,
0x09,
0xfd,
0xff,
0x01,
0xf2,
0xe9,
0xf8,
0xf3,
0x08,
0x00,
0xfd,
0x06,
0x00,
0xf9,
0x04,
0xfe,
0x10,
0x01,
0x0f,
0xf8,
0xf1,
0xf4,
0xf5,
0xeb,
0xfa,
0x07,
0x04,
0xfc,
0x04,
0x0d,
0x11,
0xfe,
0x05,
0xfb,
0x02,
0xf8,
0x0c,
0xfa,
0xe9,
0x03,
0xf1,
0x0a,
0xf8,
0xf5,
0xfa,
0xfc,
0x01,
0xfc,
0x07,
0x20,
0x0d,
0xf8,
0xff,
0x05,
0x10,
0x00,
0xfe,
0xea,
0xf6,
0x03,
0xff,
0x03,
0xff,
0xf9,
0x00,
0xfc,
0xf4,
0xf6,
0xfd,
0xf1,
0xfb,
0x00,
0xff,
0xfb,
0xfa,
0x03,
0x02,
0x02,
0x0b,
0x02,
0xfb,
0xf0,
0xfd,
0x0f,
0x04,
0xfc,
0xfc,
0x06,
0xf9,
0xf9,
0xff,
0xf6,
0xfa,
0x08,
0xf1,
0xf8,
0x00,
0x04,
0x04,
0xfc,
0x16,
0x1e,
0xeb,
0xfa,
0xfc,
0xff,
0x02,
0x01,
0xfe,
0x05,
0x04,
0x0b,
0x03,
0x01,
0xfb,
0x05,
0xee,
0x0c,
0xfc,
0x04,
0x0a,
0xfd,
0x03,
0x09,
0x00,
0x09,
0x01,
0xfe,
0x03,
0x07,
0x02,
0x05,
0x01,
0x03,
0xfd,
0x07,
0x0b,
0x02,
0x0f,
0x06,
0x03,
0x0e,
0xf3,
0xf8,
0x02,
0x07,
0xff,
0xf3,
0x0d,
0xf2,
0x1a,
0x03,
0xe5,
0xf8,
0xec,
0xf7,
0x0a,
0x00,
0xfe,
0xe6,
0xfd,
0x0c,
0x32,
0xf7,
0x00,
0xfa,
0xfc,
0xfb,
0x00,
0x04,
0xf9,
0xfd,
0xfd,
0x03,
0xfa,
0x03,
0x02,
0x02,
0x04,
0x0d,
0xff,
0xfd,
0x03,
0xf7,
0xf7,
0xfd,
0xff,
0x01,
0x00,
0xfe,
0x00,
0xfc,
0xf1,
0xf8,
0xfd,
0xff,
0xf9,
0xfd,
0xf4,
0x01,
0xff,
0xfd,
0x00,
0xff,
0x00,
0xff,
0x02,
0x00,
0x00,
0x00,
0x06,
0x02,
0x02,
0x08,
0xf6,
0x0c,
0xfa,
0x01,
0xf7,
0xf8,
0x01,
0x00,
0xf2,
0x00,
0xff,
0x00,
0x01,
0x00,
0xfa,
0xfc,
0x04,
0xff,
0xf6,
0x00,
0xfa,
0xfa,
0xf8,
0xfe,
0xed,
0xfb,
0x05,
0x04,
0x08,
0x00,
0xf8,
0xee,
0xea,
0xee,
0xf6,
0xfe,
0x0b,
0xfc,
0xff,
0x02,
0xed,
0xf1,
0xf7,
0xf9,
0xf9,
0x00,
0xf5,
0xf6,
0xff,
0x08,
0x09,
0x00,
0xfe,
0xfe,
0xfb,
0xf5,
0xf9,
0xf5,
0x05,
0x01,
0xf9,
0xfa,
0x0a,
0x0c,
0x08,
0xec,
0xfb,
0x04,
0xfa,
0x00,
0x01,
0xf0,
0xec,
0xf6,
0xfd,
0xfe,
0x0e,
0x05,
0x06,
0xf2,
0xf4,
0xf2,
0xf2,
0xf4,
0xe8,
0xf9,
0x20,
0xfe,
0xf8,
0x15,
0xfe,
0xea,
0x05,
0x06,
0x09,
0x01,
0x0d,
0x02,
0x01,
0x06,
0xfa,
0x04,
0xff,
0x06,
0x06,
0x07,
0xfa,
0x01,
0xfb,
0xfe,
0xf4,
0xfe,
0x04,
0xf5,
0x04,
0x07,
0x04,
0xff,
0xfd,
0x05,
0x0e,
0x03,
0x0c,
0xec,
0xfe,
0xed,
0x03,
0xfc,
0xfd,
0xfe,
0xed,
0xf2,
0xfd,
0xfb,
0xfc,
0xfb,
0x02,
0x04,
0x04,
0x08,
0x04,
0x01,
0x0b,
0x02,
0x04,
0x08,
0x0d,
0xf5,
0x04,
0xee,
0xf3,
0xfa,
0xf4,
0xf3,
0xf8,
0xf6,
0x09,
0xff,
0xff,
0x01,
0x04,
0x00,
0x03,
0x00,
0xff,
0xfc,
0xfa,
0xff,
0x01,
0x02,
0x02,
0x09,
0xfa,
0xfd,
0x00,
0x00,
0x0c,
0x05,
0x02,
0x00,
0x02,
0xfe,
0xf5,
0xfc,
0xfa,
0xf6,
0x03,
0xfb,
0xf7,
0xfc,
0xfd,
0xed,
0x03,
0xfd,
0xf9,
0x00,
0xfe,
0x0b,
0xfd,
0xfc,
0x17,
0x04,
0x0b,
0x04,
0xfb,
0xfc,
0xff,
0x02,
0x06,
0xf8,
0xfe,
0xf3,
0xf8,
0xfe,
0xfc,
0xfe,
0x06,
0xf5,
0xff,
0xff,
0x09,
0xfd,
0x02,
0x0b,
0x19,
0xfa,
0xf0,
0xee,
0x19,
0xf0,
0x08,
0xfb,
0xed,
0xe9,
0x05,
0xf8,
0xfa,
0xfb,
0x07,
0x01,
0x05,
0xfd,
0xfe,
0x08,
0x08,
0xfb,
0xfa,
0xf8,
0xfc,
0x0d,
0x04,
0xf8,
0x0e,
0x11,
0x05,
0x07,
0x07,
0x0a,
0x0f,
0x0c,
0xfc,
0x01,
0xfc,
0x1b,
0xf8,
0x04,
0x0d,
0x04,
0xfc,
0x01,
0x00,
0xfb,
0xfa,
0xfd,
0xfd,
0x04,
0xfe,
0x02,
0x01,
0xfc,
0x04,
0xfc,
0x00,
0xfa,
0x05,
0x07,
0xff,
0xfe,
0xfd,
0xfe,
0xff,
0x00,
0x03,
0x02,
0xfc,
0xfe,
0x00,
0x08,
0xff,
0x07,
0xf0,
0xf9,
0xfa,
0xf6,
0xf8,
0xfe,
0x03,
0x06,
0xf9,
0xfb,
0x01,
0xf6,
0x0c,
0x01,
0xfe,
0x0c,
0x0b,
0x08,
0x02,
0xf2,
0x02,
0xec,
0xfb,
0x04,
0x07,
0xfa,
0xf7,
0xfd,
0x00,
0x00,
0xfa,
0x03,
0x03,
0x08,
0xfc,
0x00,
0xfd,
0xf9,
0xf1,
0xff,
0xf9,
0xf0,
0xff,
0x06,
0x04,
0xff,
0xfe,
0xff,
0xee,
0x03,
0x04,
0xfc,
0x04,
0x00,
0xff,
0xff,
0x00,
0x00,
0x01,
0xe4,
0xf6,
0xf0,
0xf9,
0x09,
0x02,
0xff,
0x00,
0xf9,
0xf7,
0xfc,
0x06,
0xfc,
0xff,
0xf9,
0xfa,
0xfe,
0xe1,
0xf8,
0x01,
0xe7,
0xfc,
0xfe,
0x01,
0x03,
0x00,
0xf9,
0xfd,
0xf1,
0x07,
0x04,
0x00,
0x02,
0xff,
0xfd,
0x06,
0x06,
0xf9,
0xf5,
0x06,
0x0d,
0x0b,
0xf3,
0xf8,
0x04,
0x00,
0x02,
0x02,
0x0a,
0x01,
0x01,
0xec,
0x0f,
0xfc,
0xfd,
0x02,
0x16,
0x1e,
0x02,
0x0c,
0xfd,
0xff,
0x03,
0xfe,
0x01,
0xfb,
0xfe,
0x06,
0xfe,
0x01,
0x03,
0xf9,
0xff,
0xf7,
0xf8,
0x09,
0x02,
0xf0,
0xff,
0x04,
0x09,
0x13,
0x02,
0x0a,
0xff,
0xf8,
0xfa,
0x0c,
0x03,
0x07,
0x0e,
0x0b,
0x11,
0x0a,
0xf8,
0x04,
0x11,
0xfd,
0xf4,
0xf8,
0xfe,
0x0e,
0xfc,
0xfb,
0x02,
0x1f,
0xf9,
0xff,
0x00,
0xf7,
0x00,
0xff,
0x00,
0xf6,
0xf6,
0xf7,
0xfe,
0x05,
0xf6,
0xfe,
0x09,
0xfa,
0xfa,
0xf3,
0xfb,
0xfa,
0xf6,
0x00,
0x03,
0xed,
0x02,
0x01,
0x0b,
0x00,
0xed,
0xec,
0x01,
0xf2,
0x02,
0xfe,
0x01,
0x05,
0x06,
0xff,
0x02,
0x0e,
0xfd,
0xfa,
0x00,
0xf4,
0xee,
0xf6,
0x0b,
0xf9,
0xf1,
0xf5,
0x00,
0xff,
0xff,
0x0b,
0x00,
0x0f,
0xfc,
0xcd,
0xef,
0xf3,
0x26,
0xfb,
0x08,
0xf7,
0xfd,
0xf5,
0x0c,
0x14,
0xfb,
0x0c,
0xfd,
0xfb,
0x02,
0x04,
0xf8,
0x06,
0xfb,
0x06,
0x08,
0x03,
0x00,
0x0b,
0xfd,
0xf3,
0xfa,
0xf3,
0xf0,
0x00,
0xf2,
0x11,
0x17,
0x01,
0xf9,
0x02,
0x06,
0x13,
0x00,
0xf2,
0xf0,
0xfa,
0x02,
0x00,
0x00,
0x09,
0x07,
0x00,
0x03,
0x06,
0x07,
0xfb,
0x04,
0x04,
0x04,
0x02,
0xfe,
0x06,
0x0f,
0x03,
0x03,
0x0d,
0xf4,
0xf1,
0xf0,
0xf9,
0xe9,
0xfd,
0xf5,
0xfe,
0xfd,
0xf4,
0xf8,
0xfd,
0xfb,
0xf9,
0xfe,
0x02,
0xfe,
0x0a,
0xf9,
0xf6,
0x01,
0xf8,
0xf6,
0x04,
0x06,
0xfd,
0xfa,
0xff,
0xf6,
0xf1,
0xf2,
0xfc,
0xf8,
0xfc,
0xfd,
0xfe,
0x0a,
0x13,
0xee,
0x06,
0x0a,
0x11,
0x06,
0x09,
0x09,
0xfd,
0xfe,
0x05,
0xff,
0xf9,
0x06,
0x08,
0x08,
0xfb,
0xfe,
0xff,
0x00,
0xff,
0x03,
0xfc,
0xf8,
0xfb,
0xf5,
0x06,
0x09,
0xfa,
0xf5,
0xfb,
0x04,
0xfe,
0xf1,
0xe2,
0x0b,
0x06,
0x0d,
0xfd,
0xf9,
0xfd,
0xfe,
0x21,
0xf6,
0x05,
0x5c,
0xeb,
0x08,
0xf1,
0xfc,
0x00,
0x01,
0xff,
0xfc,
0xea,
0xf9,
0xef,
0xe5,
0xf4,
0x00,
0x00,
0x00,
0x11,
0x20,
0x01,
0xf6,
0x03,
0xf9,
0xf5,
0xfe,
0x00,
0x03,
0x00,
0x03,
0xff,
0x01,
0xf5,
0xf3,
0x00,
0x00,
0xff,
0xef,
0xf8,
0xfe,
0xfd,
0xfe,
0x00,
0xff,
0xfe,
0xff,
0x00,
0xfd,
0xff,
0x00,
0xff,
0xfe,
0xee,
0xff,
0xfb,
0xf6,
0xfb,
0xfc,
0xf8,
0xf4,
0xfe,
0xf6,
0xf6,
0xff,
0xff,
0xfc,
0xfe,
0x01,
0xf9,
0x09,
0x00,
0x02,
0xfe,
0xfd,
0x08,
0xf9,
0x09,
0xf4,
0x15,
0x0a,
0x06,
0x02,
0x04,
0x03,
0x01,
0xff,
0xfe,
0xfe,
0xfc,
0x08,
0x00,
0xf9,
0xec,
0xfe,
0xfb,
0xf7,
0xfe,
0xf6,
0x05,
0x02,
0x01,
0xf9,
0xff,
0xfb,
0xf7,
0x09,
0xfa,
0x00,
0x06,
0x0c,
0xf7,
0x0a,
0xf3,
0x07,
0x02,
0xef,
0xed,
0xec,
0xef,
0x04,
0x01,
0x02,
0xf8,
0xf2,
0xff,
0xe4,
0xe8,
0x00,
0xfd,
0x06,
0xf7,
0xf9,
0x14,
0xf0,
0xf2,
0x0e,
0xff,
0xfb,
0xff,
0x03,
0x0a,
0xff,
0x00,
0xef,
0x0d,
0xf9,
0x06,
0xf9,
0x01,
0xfd,
0xfc,
0xfa,
0xff,
0xf3,
0xf2,
0xfd,
0x08,
0x09,
0x00,
0xfe,
0xff,
0xfe,
0xff,
0x01,
0xfa,
0xfa,
0x03,
0xff,
0x05,
0x00,
0xff,
0xfe,
0xfe,
0xf5,
0xfa,
0x03,
0xed,
0xf9,
0xfe,
0xfc,
0x01,
0xf9,
0x07,
0x01,
0xf5,
0x1a,
0xff,
0xff,
0x01,
0x00,
0x03,
0x02,
0x01,
0x0a,
0x05,
0xff,
0xfe,
0x00,
0xfa,
0xff,
0xfd,
0xff,
0xf1,
0xff,
0xfb,
0xf7,
0x03,
0xfa,
0xfd,
0x0e,
0xfc,
0xfd,
0x00,
0xfe,
0x16,
0xff,
0x04,
0x04,
0x05,
0xfb,
0xfe,
0x07,
0x0c,
0xfc,
0x0a,
0x00,
0xf5,
0xf3,
0x00,
0x10,
0x1a,
0x18,
0xfa,
0xfb,
0xfd,
0xfe,
0x07,
0x09,
0xfc,
0xff,
0x01,
0xfc,
0xfc,
0xfc,
0xf3,
0xeb,
0xfc,
0xf4,
0xf8,
0x00,
0xfb,
0x08,
0xfe,
0x03,
0xf2,
0x05,
0x01,
0xfb,
0xf4,
0xe8,
0x04,
0x02,
0x04,
0xfd,
0x03,
0xfd,
0xf3,
0xfa,
0xfa,
0x06,
0x0b,
0x0b,
0xfa,
0xf6,
0x00,
0x04,
0xfc,
0xf7,
0x16,
0x1c,
0x05,
0x0b,
0x26,
0x01,
0xd9,
0xfb,
0x0a,
0xf7,
0x04,
0x01,
0xdd,
0xfe,
0xf6,
0xfe,
0xfd,
0xfe,
0xfd,
0x04,
0xfb,
0xff,
0x09,
0x03,
0xfd,
0xfb,
0xfe,
0xfe,
0xfe,
0x05,
0x02,
0x00,
0xfd,
0x14,
0x05,
0x0c,
0xff,
0xfe,
0xff,
0xff,
0xff,
0x02,
0x05,
0x02,
0x04,
0xff,
0x08,
0x23,
0x1a,
0x01,
0x09,
0xfd,
0xf9,
0x03,
0xfd,
0xff,
0xff,
0x00,
0x02,
0x01,
0x05,
0xff,
0xee,
0xfe,
0x0a,
0xfa,
0xff,
0x01,
0xfc,
0x0e,
0x05,
0x20,
0x16,
0x01,
0x0e,
0x05,
0xff,
0xfe,
0xfd,
0xf8,
0x00,
0x02,
0x04,
0xfb,
0xea,
0xfa,
0xff,
0x00,
0xeb,
0xef,
0x07,
0x12,
0x06,
0xfd,
0xf6,
0xee,
0xf4,
0xfa,
0xfd,
0xf7,
0xfc,
0x05,
0x01,
0x06,
0xf0,
0xf4,
0xfe,
0xfb,
0xf5,
0xf8,
0x13,
0x1c,
0x07,
0xf1,
0x05,
0x1d,
0xf8,
0x07,
0xf9,
0xea,
0xfa,
0x0a,
0x15,
0x08,
0xfd,
0x09,
0x17,
0x0f,
0x02,
0xf1,
0xf3,
0xf6,
0x08,
0x00,
0xf9,
0x08,
0x06,
0xfa,
0x04,
0xf7,
0xf8,
0x03,
0xf9,
0xf7,
0xee,
0xfb,
0x02,
0xea,
0xf3,
0xf0,
0xf9,
0xec,
0xf7,
0x00,
0x14,
0x11,
0xf8,
0xf6,
0xf8,
0xfd,
0xfd,
0xfe,
0xfe,
0xfc,
0xfb,
0xfd,
0x00,
0x04,
0xf2,
0xf7,
0xfd,
0xfc,
0xff,
0x04,
0x02,
0xfb,
0xf6,
0x07,
0xfd,
0x01,
0xfd,
0xf9,
0xfe,
0xfe,
0x00,
0x00,
0x00,
0xfc,
0x05,
0x02,
0xf8,
0x15,
0x20,
0x01,
0x14,
0x19,
0x04,
0x02,
0x00,
0xfd,
0x02,
0x00,
0x00,
0x03,
0x00,
0xff,
0xff,
0xfb,
0xfe,
0xf8,
0xfc,
0x01,
0xfc,
0xff,
0x01,
0x0f,
0x1a,
0x02,
0x11,
0x15,
0xfe,
0x0a,
0x0c,
0x0b,
0x01,
0xdc,
0x0e,
0x08,
0xf8,
0xea,
0x0b,
0xf1,
0x08,
0x09,
0x17,
0x00,
0xdb,
0xbd};
