/* SPDX-License-Identifier: GPL-2.0 */
/*
 * Copyright (c) 2020 MediaTek Inc.
 *
 * Author: Ya-Wen Hsu <Ya-Wen.Hsu@mediatek.com>
 *
 */
char gender_kernel_bias_loop19_0_frame01[] = {
0xea,
0xe9,
0x01,
0x09,
0x04,
0xff,
0xf7,
0xf7,
0xf6,
0x0e,
0x08,
0x0a,
0x09,
0x0a,
0x0c,
0x06,
0xf5,
0xfb,
0x0a,
0x05,
0x0b,
0x16,
0x07,
0x03,
0x17,
0x14,
0x06,
0x06,
0xfd,
0xf5,
0xeb,
0xfe,
0x03,
0xfe,
0x04,
0x05,
0x08,
0x09,
0xfb,
0xff,
0x0d,
0x1f,
0xf6,
0xeb,
0x1f,
0x0e,
0xf6,
0x27,
0x11,
0x0d,
0x01,
0x04,
0x26,
0x17,
0x05,
0x36,
0x06,
0x08,
0x0b,
0x00,
0xe1,
0xcc,
0xec,
0xe6,
0xee,
0x07,
0xfb,
0xee,
0x03,
0x01,
0xfb,
0xff,
0x26,
0xe7,
0xee,
0x1b,
0x08,
0xf9,
0xf9,
0xf7,
0x06,
0x06,
0x01,
0x06,
0x08,
0xfb,
0x11,
0x17,
0x0b,
0x14,
0x07,
0xfd,
0x03,
0x13,
0xf5,
0xfc,
0x04,
0xff,
0x08,
0x03,
0xf7,
0xf5,
0x14,
0x07,
0x0f,
0x08,
0xf9,
0xf9,
0xf9,
0xfa,
0x01,
0xf9,
0xfc,
0xfb,
0x00,
0xfc,
0xed,
0xf2,
0xff,
0xf5,
0x01,
0xfb,
0xff,
0x00,
0xf8,
0xfd,
0xfa,
0x11,
0xe2,
0xed,
0xf6,
0xfe,
0xf7,
0x00,
0x05,
0x06,
0x04,
0x03,
0x06,
0x00,
0x00,
0xff,
0x12,
0x08,
0x00,
0xff,
0xff,
0xf3,
0xe5,
0x03,
0xf9,
0xee,
0x05,
0xfc,
0xff,
0x05,
0xf1,
0xf3,
0xfb,
0xf3,
0xf7,
0x00,
0xfa,
0x00,
0xf8,
0xfb,
0xf9,
0xe4,
0xdd,
0xeb,
0xf9,
0xeb,
0xe3,
0xf9,
0x06,
0x04,
0xf9,
0x04,
0xf8,
0xf1,
0xf3,
0xf8,
0xf8,
0xf8,
0xfc,
0xfc,
0x03,
0x07,
0x03,
0xff,
0xfe,
0xff,
0xff,
0x00,
0x00,
0x08,
0x0b,
0x03,
0xf2,
0x14,
0x14,
0x0d,
0x17,
0x20,
0x0c,
0x13,
0x08,
0xfa,
0x01,
0x0d,
0x09,
0xfe,
0x0c,
0x10,
0xfc,
0x04,
0xfa,
0x02,
0xf3,
0xee,
0xff,
0x01,
0xef,
0x05,
0x06,
0xfb,
0x00,
0xfc,
0xfe,
0x03,
0xfe,
0xf7,
0x00,
0x0b,
0x02,
0xff,
0x0e,
0x27,
0xff,
0x02,
0xff,
0xf9,
0xf8,
0xfb,
0xfd,
0xf2,
0x18,
0x18,
0xf8,
0x1a,
0x25,
0xfb,
0x0a,
0x1b,
0x05,
0xfd,
0xfe,
0xfe,
0x0b,
0x05,
0xf7,
0xfc,
0xfa,
0xfb,
0xf6,
0x04,
0x01,
0xfb,
0xfb,
0xfa,
0x0b,
0xfd,
0xf6,
0xf2,
0xf6,
0xff,
0xfb,
0xf5,
0x02,
0xff,
0xf4,
0xf1,
0x01,
0xfd,
0xf8,
0x05,
0x0e,
0x0a,
0x00,
0xfd,
0x09,
0xff,
0x09,
0x1c,
0x05,
0x18,
0x15,
0xf5,
0xf9,
0xf5,
0xf2,
0xfe,
0xfd,
0xfb,
0x01,
0xf5,
0x01,
0x02,
0xf5,
0xf4,
0xf0,
0xfb,
0xf5,
0xfa,
0x02,
0x1d,
0x20,
0x0f,
0x13,
0xed,
0xfa,
0xf7,
0xf8,
0xf9,
0x05,
0x08,
0x0f,
0x17,
0xfc,
0xfb,
0xec,
0x03,
0x02,
0x04,
0xfc,
0x03,
0xfc,
0x0b,
0x0f,
0xf6,
0xff,
0x19,
0xe9,
0x05,
0xfb,
0xf6,
0xfb,
0xe7,
0x08,
0xf0,
0xf7,
0x00,
0xf5,
0xfb,
0xf1,
0xf5,
0xf9,
0xf6,
0xf5,
0xfe,
0xfa,
0xfd,
0x00,
0x03,
0x18,
0x02,
0x17,
0x0f,
0xff,
0xf5,
0x08,
0xf6,
0xf4,
0x08,
0x0c,
0xfe,
0x17,
0x10,
0x19,
0xf6,
0xf7,
0x2a,
0xec,
0xee,
0x1b,
0x11,
0x0c,
0x08,
0x04,
0x02,
0x14,
0xfe,
0xf9,
0x05,
0x09,
0xfc,
0x08,
0xfe,
0xfe,
0x03,
0xd2,
0x0c,
0x1f,
0x25,
0x03,
0xfd,
0xff,
0x0f,
0xf8,
0xf4,
0xfb,
0x06,
0xec,
0x06,
0x12,
0xf2,
0xf2,
0xef,
0x06,
0xfe,
0xe6,
0xec,
0xfc,
0x0e,
0xf2,
0x05,
0x0c,
0xf3,
0x00,
0xff,
0x14,
0x03,
0x04,
0xfe,
0xfd,
0x01,
0xfe,
0x05,
0x04,
0x1e,
0x14,
0xfe,
0xfc,
0xfe,
0xfd,
0xf4,
0xfc,
0x01,
0x0e,
0x01,
0xfc,
0x01,
0xfb,
0xf5,
0xf2,
0xfa,
0xea,
0xe6,
0xfb,
0xf5,
0xfa,
0x06,
0xfe,
0x02,
0xfe,
0xff,
0xfe,
0xfc,
0xef,
0xfb,
0xfb,
0xfb,
0xff,
0xfa,
0x00,
0xfe,
0xf3,
0xf8,
0xfb,
0xf4,
0xfe,
0xf2,
0x00,
0xfe,
0x01,
0x00,
0xfa,
0xef,
0xf8,
0xfe,
0xf6,
0xfb,
0x1e,
0x21,
0x24,
0x12,
0x07,
0x08,
0x23,
0x09,
0x0b,
0x11,
0xff,
0x0d,
0xfe,
0xf6,
0x11,
0xed,
0xe7,
0xf9,
0x0c,
0x09,
0xf7,
0xf5,
0x02,
0x02,
0x02,
0xfd,
0xfe,
0xfa,
0x06,
0x13,
0x18,
0x00,
0xfd,
0x07,
0x00,
0xfc,
0xfc,
0xfc,
0x05,
0xfd,
0xf4,
0xfd,
0xf7,
0xfe,
0x05,
0x17,
0x11,
0x1e,
0x0f,
0x14,
0x0a,
0xfb,
0x01,
0xfe,
0x03,
0x00,
0x00,
0x02,
0xf8,
0xfa,
0xf2,
0xf9,
0xfb,
0xff,
0xfc,
0x00,
0x07,
0xfe,
0xfb,
0xf3,
0x07,
0x02,
0x03,
0xff,
0x01,
0x00,
0xf4,
0xfc,
0xf7,
0xfe,
0xf6,
0x00,
0xfc,
0xfd,
0xff,
0xfc,
0x06,
0xfe,
0xfd,
0xf4,
0xfe,
0xfd,
0x01,
0xfd,
0x00,
0xfc,
0xf7,
0xfe,
0xf5,
0xf2,
0x08,
0xfe,
0xff,
0x00,
0xf7,
0x07,
0x0b,
0xf8,
0xfb,
0xef,
0xf6,
0xf0,
0xec,
0x03,
0x02,
0xfe,
0x0b,
0x12,
0xfd,
0xff,
0xf4,
0xf4,
0xfa,
0xf1,
0x03,
0xff,
0xff,
0x00,
0x09,
0x01,
0x01,
0xfb,
0x01,
0xfd,
0xf1,
0x0b,
0xfd,
0xf6,
0xfc,
0xfa,
0xf1,
0xf8,
0xef,
0xe7,
0x07,
0x0d,
0x0e,
0x0e,
0xfe,
0x03,
0x08,
0x09,
0x0c,
0x1a,
0x05,
0x05,
0x02,
0xfd,
0x09,
0xfc,
0xf3,
0x01,
0x00,
0xf3,
0x01,
0xff,
0xfb,
0xfc,
0xfe,
0x06,
0xec,
0xfb,
0x03,
0x01,
0x02,
0xfd,
0x07,
0xfb,
0x01,
0x0c,
0x01,
0x02,
0x01,
0x0e,
0x0a,
0x03,
0xf9,
0xf8,
0xf7,
0xfd,
0xfe,
0x00,
0x0c,
0x03,
0x04,
0x15,
0x02,
0x08,
0xfb,
0xfd,
0x20,
0x19,
0x0a,
0x05,
0x05,
0x00,
0xfe,
0x02,
0xfd,
0x07,
0xf7,
0xfa,
0x0f,
0x04,
0x05,
0x05,
0x02,
0x00,
0xf0,
0xf2,
0x03,
0x02,
0xff,
0x01,
0x03,
0x04,
0xf4,
0xf4,
0xf5,
0xf8,
0x03,
0xfe,
0xfb,
0x07,
0x06,
0x04,
0x13,
0xfa,
0xf9,
0xf9,
0xf5,
0xee,
0xfc,
0xfe,
0x05,
0x02,
0xff,
0xff,
0x02,
0xfa,
0xfc,
0xf9,
0xfb,
0xf2,
0xfe,
0xfe,
0xfd,
0xfb,
0xfa,
0x03,
0xf1,
0xf6,
0xf7,
0xed,
0xf3,
0xfe,
0x02,
0x03,
0xfe,
0x02,
0x02,
0x03,
0x09,
0x03,
0x04,
0x08,
0xfb,
0xfd,
0xf8,
0x00,
0x03,
0xfa,
0xf7,
0xf0,
0x0f,
0x02,
0xf3,
0xf5,
0x09,
0x04,
0x0f,
0xff,
0x03,
0x0f,
0x15,
0x00,
0x00,
0x08,
0x02,
0xfb,
0xf8,
0xfa,
0xff,
0xf5,
0xef,
0x03,
0x03,
0x01,
0xff,
0xfe,
0x01,
0xfb,
0xfd,
0xfc,
0xf6,
0xf5,
0x01,
0x02,
0xfb,
0xfc,
0xf9,
0xf0,
0x00,
0xff,
0x0b,
0x08,
0x07,
0x06,
0x07,
0x07,
0x0d,
0x13,
0x14,
0xfb,
0x02,
0x15,
0xff,
0xfe,
0x01,
0xf9,
0xfb,
0xff,
0xf4,
0xff,
0x06,
0xfc,
0xff,
0x06,
0x07,
0x04,
0xfe,
0x00,
0x01,
0x01,
0x08,
0xf9,
0xfb,
0xf5,
0x01,
0x02,
0xff,
0xfc,
0xf7,
0xf5,
0xfe,
0xfb,
0xfd,
0x02,
0x02,
0xff,
0x0a,
0x0e,
0xfc,
0x00,
0xf5,
0xfc,
0xfe,
0xf7,
0xfa,
0x00,
0x05,
0xfd,
0x01,
0xfb,
0xff,
0xff,
0x01,
0xfc,
0xf6,
0x04,
0x05,
0xfb,
0x01,
0x04,
0xe3,
0x02,
0xfe,
0xf2,
0x02,
0xfe,
0x01,
0x02,
0x02,
0xfc,
0xf5,
0xf2,
0x01,
0x00,
0xfa,
0xff,
0x02,
0xfc,
0x01,
0x0a,
0x02,
0xfe,
0x04,
0xfc,
0xfe,
0xfe,
0x01,
0x04,
0x03,
0x0e,
0x05,
0x1d,
0x05,
0xfc,
0xf9,
0x04,
0xf7,
0xf9,
0xff,
0xf7,
0xfb,
0x03,
0x14,
0xfc,
0x06,
0x1d,
0xfd,
0x02,
0x16,
0x00,
0xff,
0xfb,
0x05,
0x08,
0xf5,
0xfd,
0xfd,
0xfe,
0xfe,
0xfe,
0xfe,
0xf7,
0xec,
0x03,
0xf6,
0xf9,
0x00,
0x00,
0x03,
0xfe,
0xfe,
0xf4,
0x00,
0x03,
0x16,
0x09,
0x07,
0x18,
0x0f,
0x0a,
0xf8,
0xf2,
0xf6,
0xf1,
0xf3,
0xfe,
0xfd,
0x01,
0xff,
0xfe,
0xff,
0x0c,
0xfa,
0x0c,
0x1a,
0x20,
0x18,
0x09,
0x05,
0x03,
0xf8,
0xf9,
0xf4,
0x04,
0x02,
0x08,
0x03,
0x00,
0x02,
0x03,
0x03,
0x04,
0xfc,
0xec,
0x09,
0x04,
0xfd,
0x05,
0x01,
0x05,
0xf7,
0xf7,
0x01,
0xfd,
0x19,
0xf9,
0xfb,
0x18,
0x02,
0x00,
0x14,
0xec,
0xfe,
0x0e,
0xed,
0xf9,
0xfc,
0xf1,
0x01,
0xfd,
0xff,
0x03,
0xf7,
0x10,
0x05,
0xf8,
0xfc,
0xfc,
0xf4,
0xf8,
0xf7,
0xf0,
0xf2,
0xf0,
0xf8,
0x03,
0xf8,
0xfa,
0xfd,
0xf3,
0xf5,
0xf8,
0x0f,
0x07,
0xf4,
0x01,
0x0b,
0x04,
0xfd,
0x03,
0x06,
0x03,
0xfd,
0xf1,
0x00,
0xfc,
0xf6,
0x10,
0xff,
0xf3,
0xf8,
0x06,
0x06,
0x07,
0x10,
0x09,
0xf5,
0x14,
0x00,
0x01,
0x11,
0x0d,
0xfd,
0xfa,
0xf1,
0x02,
0xff,
0xf4,
0x0a,
0x12,
0x04,
0x03,
0x19,
0x13,
0x00,
0xfc,
0x06,
0x07,
0x00,
0x04,
0x03,
0xff,
0xfe,
0xf6,
0x0b,
0xf9,
0xfe,
0xfe,
0xf1,
0xfa,
0xfc,
0xfb,
0xf0,
0xf6,
0xfb,
0xf9,
0xfb,
0xfd,
0x02,
0xfb,
0xfe,
0xfd,
0xf7,
0x01,
0xfa,
0xfb,
0xfb,
0x02,
0xf9,
0xed,
0x00,
0xf7,
0xfd,
0xf4,
0xfe,
0x00,
0xff,
0x00,
0xfc,
0xf6,
0xfb,
0xfd,
0xf7,
0xf1,
0xf9,
0x01,
0x00,
0xfc,
0x04,
0xf6,
0xfa,
0xfb,
0xf4,
0xf3,
0xf9,
0x01,
0xfd,
0xfc,
0xfb,
0xfb,
0xf1,
0xef,
0xff,
0xf9,
0xfe,
0xf1,
0xf3,
0xf4,
0xe2,
0xf3,
0xde,
0xf9,
0xf4,
0x01,
0xff,
0x03,
0xf5,
0xef,
0xf7,
0xf5,
0xfb,
0x09,
0x02,
0xfb,
0xfa,
0xf0,
0xe3,
0x03,
0xfe,
0xff,
0xf3,
0xf9,
0xf8,
0xf9,
0xfa,
0xf9,
0x05,
0xfd,
0xfe,
0x0b,
0xfe,
0xfb,
0x03,
0x00,
0x14,
0x09,
0xff,
0xf9,
0xf0,
0xf9,
0x17,
0x05,
0x1d,
0xfd,
0x06,
0x0d,
0xf3,
0x07,
0x00,
0x0a,
0xf8,
0xfc,
0xfb,
0xed,
0xfd,
0xf6,
0xfb,
0xfa,
0x09,
0x0c,
0xee,
0xee,
0x16,
0x0c,
0xfb,
0x05,
0x06,
0x08,
0x00,
0xff,
0xfd,
0xfb,
0xed,
0xea,
0x01,
0x01,
0x00,
0x01,
0x0e,
0xf5,
0xfe,
0x07,
0xf1,
0xe8,
0xfa,
0x15,
0x19,
0x05,
0xed,
0xf1,
0xed,
0xf0,
0xea,
0xf1,
0xff,
0xf9,
0xfe,
0x04,
0x0b,
0xfe,
0xfa,
0xfb,
0x02,
0xed,
0x08,
0x0b,
0x09,
0x06,
0xf6,
0xfb,
0x00,
0xf7,
0xe9,
0xef,
0xfa,
0xf5,
0x02,
0x07,
0xfc,
0xf6,
0xf3,
0xeb,
0xf7,
0xf8,
0xec,
0x01,
0x06,
0xfe,
0xf7,
0xf2,
0xf8,
0xfe,
0x06,
0xf2,
0xf4,
0x0a,
0xf6,
0xfe,
0x06,
0xee,
0xf1,
0xfa,
0xec,
0xf7,
0xf8,
0xf8,
0xf9,
0x04,
0x03,
0x02,
0xe6,
0xf2,
0xf6,
0xe6,
0xe1,
0xf9,
0xf9,
0xfb,
0x00,
0xf8,
0x0e,
0xfe,
0xf3,
0xfa,
0xee,
0xee,
0xf8,
0xf7,
0xf9,
0xff,
0xff,
0xfb,
0xff,
0xfb,
0xf9,
0x00,
0xfd,
0xfb,
0x07,
0x06,
0x02,
0xfc,
0xee,
0xf2,
0xf6,
0xf4,
0xf9,
0xfd,
0x02,
0x04,
0xf7,
0xfb,
0x04,
0xf0,
0xfe,
0x11,
0x10,
0x02,
0x05,
0x06,
0x02,
0xf8,
0xf0,
0xee,
0xfb,
0xee,
0x07,
0x02,
0x00,
0xfe,
0xff,
0x02,
0x01,
0x02,
0x00,
0xfe,
0xfd,
0x01,
0xfa,
0xf2,
0xf5,
0xfe,
0x00,
0x02,
0xfe,
0xfa,
0x07,
0xf5,
0x13,
0xfb,
0xe7,
0x0b,
0xfc,
0xfd,
0x00,
0xf2,
0xe9,
0xfd,
0xf3,
0xf3,
0xfc,
0xfe,
0xf5,
0x00,
0xff,
0xff,
0xf9,
0xfc,
0xf4,
0x08,
0x0d,
0x12,
0x03,
0x02,
0x02,
0xfa,
0xfd,
0x01,
0xfe,
0xfa,
0xfd,
0xf0,
0xef,
0x07,
0x05,
0x07,
0x09,
0xf9,
0xf8,
0x02,
0xf2,
0xf2,
0xf8,
0xfa,
0xfe,
0x09,
0x0a,
0xf2,
0x07,
0x06,
0xf8,
0xfa,
0x0a,
0x05,
0x00,
0x06,
0xf9,
0xff,
0x02,
0x07,
0x00,
0x01,
0xf8,
0x07,
0x1a,
0x0c,
0x0d,
0x23,
0x02,
0xf8,
0x15,
0x03,
0xf9,
0xfa,
0x00,
0xfb,
0x08,
0x02,
0x1c,
0x04,
0xfc,
0x12,
0x07,
0xff,
0x02,
0xf6,
0x01,
0x06,
0x03,
0xfb,
0x03,
0x16,
0xf5,
0xfc,
0xf8,
0x06,
0xfd,
0xfe,
0xfb,
0x0b,
0x06,
0xef,
0x05,
0x07,
0xf2,
0x05,
0x02,
0x06,
0xf6,
0xfa,
0x00,
0xfb,
0xf5,
0xf4,
0xf8,
0xfe,
0xfa,
0x01,
0xf4,
0xfa,
0xf0,
0xef,
0x0d,
0x0f,
0xf0,
0xf4,
0x03,
0x03,
0x01,
0x08,
0xfc,
0xf1,
0xfc,
0xfd,
0x00,
0x04,
0xfd,
0xfe,
0xfb,
0x04,
0xfb,
0xfe,
0xf8,
0xf7,
0x0c,
0x06,
0x01,
0x0c,
0x20,
0xee,
0x16,
0x15,
0xfd,
0x0d,
0x12,
0xfb,
0xe2,
0x00,
0x05,
0x07,
0xfb,
0x03,
0xfb,
0xfc,
0xf7,
0xf5,
0xfc,
0xfe,
0xf5,
0x04,
0xfb,
0xf8,
0xf9,
0xf2,
0xfa,
0x03,
0xfc,
0x03,
0xf6,
0xef,
0xfd,
0xfb,
0xf6,
0x04,
0x04,
0x00,
0x01,
0x08,
0x00,
0xf3,
0xf9,
0x02,
0xf6,
0xf1,
0x01,
0x00,
0x04,
0x0b,
0x08,
0x07,
0x15,
0x0f,
0x07,
0x05,
0xff,
0x00,
0x05,
0x0b,
0x0e,
0x17,
0x12,
0xf3,
0x0b,
0x08,
0xfe,
0x02,
0xfb,
0xe7,
0xf6,
0x07,
0x16,
0x0f,
0x02,
0x0e,
0x08,
0x00,
0xfe,
0x00,
0xfc,
0xf4,
0xfb,
0xfb,
0xec,
0x05,
0xfa,
0xfa,
0x13,
0x13,
0x0e,
0x00,
0xfe,
0xf5,
0x03,
0xf6,
0xfe,
0x05,
0xf9,
0x13,
0xfe,
0xfc,
0xff,
0x03,
0xf5,
0xfa,
0xf6,
0xfc,
0x01,
0x00,
0x06,
0xf9,
0xf0,
0xd5,
0xe9,
0x06,
0xf9,
0xfb,
0xff,
0x03,
0x01,
0x00,
0xfb,
0xfc,
0xfc,
0x04,
0x0f,
0x15,
0x08,
0x11,
0x0f,
0x02,
0xfa,
0xfa,
0x00,
0x06,
0xf8,
0xfa,
0xfa,
0x05,
0x06,
0x04,
0x14,
0x24,
0x08,
0x0e,
0x10,
0x14,
0xf6,
0xfc,
0xff,
0xf6,
0xf7,
0xf2,
0xef,
0xfd,
0xf9,
0xf0,
0xf7,
0x00,
0xff,
0xfb,
0xfc,
0xff,
0xfa,
0x0d,
0x0f,
0x0d,
0x01,
0xf9,
0x0a,
0x07,
0x02,
0xf6,
0xf5,
0x0c,
0xf7,
0xfd,
0x00,
0x06,
0x05,
0x05,
0x0f,
0x14,
0xfe,
0x01,
0xfa,
0x07,
0x01,
0xf4,
0x01,
0xee,
0xea,
0x0f,
0x0a,
0x04,
0x08,
0x01,
0x06,
0xf7,
0x1c,
0xf5,
0xef,
0xf0,
0x11,
0xf3,
0xf2,
0xff,
0xf3,
0x00,
0x12,
0xfb,
0x18,
0x0b,
0x0b,
0x19,
0xeb,
0xe6,
0x0c,
0xfc,
0xf7,
0x0a,
0xfa,
0x00,
0xd9,
0xdb,
0x1b,
0xed,
0xf6,
0x1f,
0xf7,
0xe1,
0x00,
0xec,
0xd9,
0xf7,
0xe5,
0xf3,
0x03,
0x02,
0xfb,
0x23,
0x1e,
0x06,
0x00,
0x09,
0x0d,
0x00,
0xee,
0xf8,
0xff,
0x04,
0xfa,
0x00,
0x07,
0xda,
0xdb,
0xfc,
0xf8,
0xfc,
0x04,
0x0e,
0x04,
0x01,
0xfd,
0xfa,
0x16,
0x07,
0x0e,
0xff,
0xef,
0xf1,
0x02,
0xf3,
0xf0,
0xfb,
0xf6,
0xdc,
0x16,
0x08,
0x0a,
0x0d,
0x0c,
0xf5,
0x0e,
0x05,
0xf8,
0x02,
0x02,
0xf6,
0x01,
0xfa,
0xf9,
0x03,
0xf7,
0xfc,
0xfc,
0x05,
0x0b,
0x08,
0x0d,
0x04,
0x07,
0xfa,
0xed,
0xf2,
0xfe,
0x23,
0x12,
0x00,
0x09,
0x0b,
0x22,
0x00,
0x0b,
0x14,
0xfb,
0x0e,
0x13,
0x02,
0x07,
0x19,
0x09,
0x09,
0x15,
0x08,
0xf4,
0xf9,
0xfd,
0xf9,
0x01,
0xfe,
0x0c,
0x05,
0x00,
0x04,
0x02,
0xe8,
0xe7,
0xe8,
0xfb,
0xf5,
0xfd,
0x02,
0x03,
0x00,
0x02,
0xff,
0xef,
0xe0,
0xd5,
0xf7,
0xef,
0xf1,
0xff,
0xf7,
0xf7,
0xf3,
0xf2,
0xfc,
0xf0,
0xf2,
0xf8,
0xf7,
0xfb,
0x01,
0xfd,
0x01,
0x05,
0xf4,
0xfc,
0x06,
0xfc,
0xfc,
0x03,
0xfc,
0x01,
0x10,
0x07,
0xfd,
0xf1,
0xee,
0x00,
0xfe,
0x0a,
0xff,
0x00,
0x09,
0xfe,
0xf1,
0xef,
0x04,
0x00,
0x09,
0x04,
0x02,
0xfb,
0xfc,
0xff,
0xf8,
0xe9,
0xfd,
0xf9,
0xff,
0x0b,
0x00,
0x08,
0x07,
0x01,
0x09,
0xfd,
0x03,
0xfc,
0x00,
0xf7,
0xf9,
0x01,
0xf7,
0xee,
0x01,
0xfd,
0x03,
0xfc,
0xf4,
0xf0,
0xec,
0xf8,
0x0c,
0x17,
0x0c,
0xf9,
0xf5,
0xff,
0xea,
0xdc,
0xe4,
0xf0,
0xf4,
0xee,
0xfd,
0xea,
0x00,
0xf8,
0xfc,
0xfb,
0x0a,
0xf6,
0xf6,
0x26,
0x1a,
0x00,
0xfa,
0x00,
0xf9,
0xf7,
0x09,
0xfa,
0xf9,
0xfb,
0xff,
0xf8,
0x05,
0x04,
0x07,
0x03,
0xf3,
0xe2,
0x02,
0xfd,
0xf5,
0xfc,
0xfc,
0x00,
0xf7,
0x04,
0xf8,
0xf8,
0xf9,
0xfd,
0xfe,
0x03,
0xf6,
0x01,
0x06,
0xf2,
0x05,
0x04,
0xfe,
0xef,
0xff,
0x03,
0xff,
0x00,
0x0b,
0x1e,
0x05,
0x11,
0x23,
0x01,
0x07,
0xfd,
0x22,
0xf3,
0xfa,
0x04,
0x14,
0xfc,
0x02,
0x16,
0xfe,
0xfe,
0xff,
0xff,
0x09,
0x07,
0x02,
0x04,
0xee,
0xfa,
0xff,
0x06,
0x02,
0x06,
0xfe,
0x04,
0xf8,
0x00,
0xfd,
0xe9,
0x00,
0xfc,
0x02,
0xfe,
0xe7,
0xf4,
0x05,
0xf2,
0xf4,
0xf1,
0xf6,
0xfb,
0x01,
0xfd,
0xfa,
0x04,
0x06,
0xfc,
0xf5,
0x06,
0xfd,
0x00,
0x04,
0x06,
0x15,
0xfd,
0xfe,
0xfe,
0x01,
0x00,
0x07,
0xfa,
0x07,
0xf3,
0x02,
0x0d,
0x00,
0xff,
0x00,
0x11,
0x01,
0xfa,
0xee,
0xea,
0x00,
0x02,
0xff,
0xf7,
0xfa,
0xf1,
0xf6,
0xfe,
0xf7,
0xf5,
0xfe,
0x0c,
0x00,
0x03,
0xfd,
0xfd,
0xf5,
0xfb,
0x0a,
0x06,
0x0d,
0xfd,
0x00,
0xff,
0x02,
0xfb,
0x09,
0xf8,
0xf0,
0xf4,
0xe6,
0xec,
0x05,
0x04,
0x06,
0x00,
0x07,
0xfd,
0xf6,
0xf3,
0xea,
0x04,
0x02,
0xfd,
0x0b,
0xfa,
0xf5,
0xf5,
0xf5,
0xfa,
0xfe,
0xfc,
0xf4,
0xdf,
0xea,
0xef,
0xe9,
0xe9,
0xfd,
0x0a,
0x00,
0xfe,
0xfb,
0xfb,
0xf3,
0xf1,
0xf9,
0xf9,
0xfc,
0xfa,
0xef,
0xe7,
0x02,
0x07,
0x04,
0xfc,
0xf8,
0xfc,
0xf3,
0xfb,
0xfd,
0xf9,
0xfe,
0x00,
0xfa,
0xfd,
0xfe,
0x00,
0x01,
0xfc,
0xff,
0xfa,
0x05,
0xfb,
0xf3,
0xf1,
0x0f,
0xfe,
0xf6,
0x1d,
0x00,
0x03,
0xfb,
0xfd,
0xfb,
0xf8,
0xf9,
0x09,
0x0a,
0x09,
0x04,
0xfe,
0xfc,
0x03,
0xf7,
0x02,
0x08,
0x00,
0xfe,
0xf6,
0xf9,
0x04,
0x04,
0x07,
0x08,
0xff,
0x05,
0xfa,
0xff,
0xf7,
0xf1,
0xfc,
0x08,
0xfd,
0x07,
0x11,
0x06,
0x02,
0x08,
0x09,
0x04,
0xf8,
0x06,
0x00,
0xf8,
0xfa,
0xfd,
0xfe,
0x0e,
0xef,
0xfe,
0x12,
0x05,
0xfa,
0x00,
0xfd,
0x09,
0xfc,
0xfc,
0x0f,
0x07,
0x02,
0xff,
0x0b,
0xfa,
0x04,
0xfc,
0x02,
0x0a,
0xfa,
0xf8,
0xfd,
0xf6,
0xfa,
0xf3,
0xf9,
0xff,
0x06,
0xfc,
0xfe,
0x11,
0x02,
0xfd,
0x02,
0x0e,
0xfa,
0xf8,
0x0a,
0x17,
0xfe,
0x00,
0xbc,
0xfe,
0xb3,
0x08,
0x07,
0xf9,
0x07,
0xd6,
0x16,
0x1e,
0x02,
0xe6};
