/* SPDX-License-Identifier: GPL-2.0 */
/*
 * Copyright (c) 2020 MediaTek Inc.
 *
 * Author: Ya-Wen Hsu <Ya-Wen.Hsu@mediatek.com>
 *
 */
char gender_kernel_bias_loop16_1_frame01[] = {
0xfb,
0x09,
0xfd,
0xeb,
0x1a,
0x09,
0xfd,
0x20,
0x04,
0xec,
0xfe,
0x0c,
0x00,
0x0d,
0x04,
0x03,
0x12,
0xf3,
0x00,
0x14,
0xea,
0x06,
0x16,
0x06,
0x04,
0x00,
0x17,
0x0b,
0x06,
0x06,
0x04,
0xe3,
0x11,
0x13,
0xf6,
0x04,
0x14,
0x0a,
0xf2,
0x21,
0x11,
0xec,
0xf9,
0x16,
0xfd,
0xe9,
0x0b,
0xe6,
0x09,
0x0b,
0x0a,
0x03,
0x04,
0x00,
0x03,
0x0b,
0xff,
0x04,
0x0a,
0x06,
0x05,
0x14,
0xf2,
0xff,
0xfd,
0x0b,
0xfd,
0xee,
0xf0,
0xf6,
0xf2,
0x10,
0xfe,
0x15,
0x0a,
0x01,
0x12,
0xf2,
0xe2,
0xea,
0x09,
0x08,
0x00,
0x02,
0xef,
0x02,
0xf7,
0x08,
0xf8,
0x01,
0xf0,
0x00,
0xf8,
0xff,
0xe9,
0xf6,
0x12,
0x0f,
0x06,
0xfa,
0xf5,
0x18,
0xf2,
0x07,
0xd9,
0xfd,
0xfd,
0xf4,
0xee,
0x0a,
0xff,
0xfa,
0xfc,
0xfd,
0x03,
0x00,
0x1c,
0xf0,
0xfc,
0xfd,
0xf0,
0x10,
0xfe,
0x09,
0x06,
0x08,
0x06,
0x02,
0xf6,
0xf2,
0x03,
0x16,
0x08,
0xfb,
0x05,
0xf4,
0x0d,
0x02,
0xf3,
0xfb,
0xf0,
0xef,
0x00,
0xfa,
0xe3,
0xfc,
0x30,
0x1b,
0xf4,
0x0d,
0x01,
0xe6,
0x12,
0x07,
0xde,
0xf9,
0xfb,
0x14,
0x01,
0xff,
0xe5,
0xc5,
0x08,
0x1c,
0x10,
0x17,
0x00,
0xed,
0x15,
0xf9,
0xf3,
0x18,
0x0f,
0xf7,
0x0d,
0x0a,
0xe9,
0xf6,
0x03,
0x0a,
0x05,
0xde,
0x06,
0x11,
0x0f,
0x03,
0xf7,
0x0c,
0xeb,
0xfa,
0xf3,
0xf6,
0x05,
0xfe,
0x00,
0x05,
0xf8,
0xf7,
0xf2,
0xf8,
0xf9,
0x08,
0xf7,
0xff,
0xf9,
0x07,
0xf8,
0xfa,
0xfc,
0x04,
0xf7,
0x01,
0xfb,
0xfc,
0x06,
0xfc,
0x0d,
0x16,
0xf9,
0x11,
0xff,
0x0e,
0xfd,
0xee,
0x02,
0x04,
0x03,
0xf4,
0x09,
0x01,
0xff,
0x17,
0x07,
0x21,
0xf0,
0xfa,
0x04,
0xfd,
0x03,
0x04,
0x07,
0x01,
0xe9,
0x05,
0x16,
0x15,
0x07,
0x2f,
0xee,
0xf8,
0x06,
0x16,
0xfc,
0x06,
0x12,
0x16,
0x1e,
0xf1,
0x16,
0x06,
0xff,
0x3b,
0xf7,
0xf3,
0x09,
0xfc,
0xf8,
0xfe,
0x01,
0xff,
0x00,
0xff,
0xf4,
0xf0,
0xf5,
0xff,
0x06,
0xec,
0x0a,
0x05,
0x0f,
0x14,
0x02,
0x02,
0x01,
0x0b,
0x1c,
0x0d,
0x01,
0x11,
0x0b,
0xf7,
0x0c,
0xff,
0xff,
0xf8,
0x13,
0x0c,
0xfc,
0x15,
0x1e,
0x0d,
0x02,
0xff,
0xf5,
0xee,
0xeb,
0xff,
0x0c,
0xf9,
0xf7,
0x19,
0x0d,
0xea,
0xea,
0x00,
0xfb,
0x02,
0x10,
0x08,
0xfa,
0xf4,
0xf4,
0xfc,
0xf5,
0xea,
0xf2,
0x07,
0x01,
0x05,
0xff,
0xf1,
0x24,
0xed,
0xfb,
0xfb,
0xfb,
0x06,
0x05,
0xff,
0x04,
0xf3,
0xf9,
0x0e,
0x05,
0x01,
0x01,
0x05,
0xfd,
0xfc,
0x07,
0x06,
0x00,
0x00,
0x00,
0x00,
0x00,
0x00,
0x00,
0x00,
0x00,
0x00,
0x00,
0x00,
0x00,
0x00,
0x00,
0x00,
0x00,
0x00,
0x00,
0x00,
0x00,
0x00,
0x00,
0x00,
0x00,
0x00,
0x00,
0x00,
0x00,
0x00,
0x00,
0x00,
0x00,
0x00,
0x00,
0x00,
0x00,
0x00,
0x00,
0x00,
0x00,
0x00,
0x00,
0x00,
0x00,
0x00,
0x00,
0x00,
0x00,
0x00,
0x00,
0x00,
0x00,
0x00,
0x00,
0x00,
0x00,
0x00,
0x00,
0x00,
0x00,
0x00,
0x00,
0x00,
0x00,
0x00,
0x00,
0x00,
0x00,
0x00,
0x00,
0x00,
0x00,
0x00,
0x00,
0x00,
0x00,
0x00,
0x00,
0x00,
0xdd,
0xfb,
0x10,
0x27,
0xfc,
0xf2,
0xeb,
0xe5,
0xec,
0xcf,
0xee,
0x02,
0xf0,
0xf1,
0x08,
0xf7,
0xf4,
0x10,
0xf5,
0x03,
0xf9,
0x04,
0x03,
0xf6,
0xee,
0xf0,
0xfd,
0xf7,
0xfe,
0xf2,
0x05,
0xf3,
0xfa,
0xf9,
0x02,
0xef,
0x14,
0x07,
0x09,
0xfb,
0x0b,
0xf4,
0xf9,
0x0e,
0x03,
0x02,
0xe8,
0xf5,
0x03,
0x02,
0x00,
0x01,
0x0d,
0xfa,
0x00,
0x00,
0x03,
0x09,
0x0a,
0x0a,
0x05,
0x0a,
0xf6,
0xf9,
0xfd,
0x15,
0x08,
0x0a,
0x06,
0xf3,
0x07,
0xf1,
0xfb,
0xfa,
0xfc,
0xf3,
0x15,
0xfb,
0x04,
0xff,
0xf0,
0x04,
0x1f,
0xfd,
0xe4,
0xf4,
0xec,
0xe4,
0xf1,
0xe8,
0xe8,
0xe7,
0xf5,
0x02,
0xfb,
0xff,
0xf9,
0x0d,
0xf5,
0xdf,
0x18,
0x07,
0xfd,
0xe7,
0xfd,
0xfc,
0x0b,
0xf8,
0x02,
0x07,
0x08,
0xdf,
0xe3,
0xdf,
0xe4,
0x0a,
0x12,
0x0c,
0x1a,
0x0e,
0x06,
0xfa,
0xf8,
0xfe,
0x06,
0x01,
0xfd,
0xfe,
0xf1,
0xf6,
0xf4,
0x04,
0xf9,
0xfc,
0x06,
0xfb,
0x0c,
0x08,
0x18,
0x05,
0x07,
0xf9,
0xf5,
0xf3,
0x19,
0xf1,
0xf8,
0x03,
0xf6,
0xf2,
0xfb,
0xfe,
0x01,
0x0d,
0xe9,
0x02,
0xfd,
0xf9,
0x02,
0x0a,
0x0c,
0x0f,
0x08,
0xfd,
0x0f,
0x02,
0x06,
0xfe,
0xf8,
0x09,
0xeb,
0xf3,
0xe3,
0xf4,
0xeb,
0x00,
0xf4,
0xfa,
0x13,
0x0d,
0x04,
0x05,
0x12,
0x0e,
0x0f,
0x0a,
0x08,
0x26,
0x1c,
0xff,
0xe7,
0x1a,
0x03,
0x01,
0x02,
0xfc,
0x01,
0x00,
0xf6,
0xfe,
0xff,
0x00,
0x01,
0x0c,
0x07,
0x01,
0x0c,
0x13,
0x00,
0xfa,
0xf5,
0xf6,
0xe7,
0xfb,
0xe9,
0x00,
0xfa,
0xfb,
0xf0,
0x00,
0xe7,
0xeb,
0xf7,
0x01,
0xff,
0xfa,
0x0b,
0xef,
0x26,
0x09,
0x12,
0x0f,
0xf2,
0x09,
0xff,
0x05,
0x08,
0x08,
0x00,
0x07,
0xfe,
0x00,
0x0c,
0xfd,
0x02,
0xf1,
0x0d,
0x0e,
0x09,
0xeb,
0x03,
0x04,
0x09,
0xec,
0x0f,
0x03,
0xe5,
0x04,
0x07,
0xee,
0xe4,
0x04,
0xf0,
0x20,
0xf9,
0xef,
0xfa,
0xeb,
0xfa,
0xfb,
0xf9,
0x02,
0xee,
0xec,
0xe2,
0xe0,
0xef,
0xed,
0xfb,
0xff,
0x00,
0x08,
0xfb,
0xf3,
0x00,
0x04,
0xf4,
0x15,
0x08,
0xf2,
0xf6,
0xe5,
0x04,
0xef,
0xf5,
0xe5,
0x08,
0xf3,
0xfd,
0x04,
0xf8,
0xfa,
0xfe,
0x17,
0xf1,
0x08,
0xf7,
0x17,
0x06,
0xf1,
0x0e,
0x00,
0x16,
0xf3,
0xfb,
0xfe,
0xff,
0x02,
0xf8,
0x02,
0xf4,
0x22,
0x0f,
0xfe,
0x00,
0xeb,
0xf1,
0xf9,
0xe9,
0xe4,
0x01,
0xec,
0xf7,
0x04,
0xef,
0xf0,
0x02,
0xfb,
0x09,
0x00,
0x07,
0x04,
0xfe,
0x05,
0x05,
0x01,
0x09,
0x07,
0x08,
0x0a,
0x03,
0x0f,
0xf9,
0x08,
0x14,
0x01,
0xf8,
0x07,
0x02,
0x08,
0xf0,
0xf8,
0xf1,
0xfb,
0xef,
0xf7,
0xfb,
0xf1,
0x02,
0xfe,
0x00,
0x04,
0x12,
0x08,
0x17,
0xf5,
0x18,
0x1b,
0xe2,
0x23,
0x22,
0x07,
0x10,
0x0b,
0x01,
0xe5,
0x08,
0x0b,
0xf8,
0x08,
0xf6,
0x09,
0xea,
0x01,
0x06,
0x17,
0x16,
0xf7,
0x22,
0x08,
0xfc,
0x01,
0xf3,
0x01,
0xe3,
0x00,
0xff,
0xfa,
0xf4,
0x06,
0x08,
0x08,
0xfd,
0xf9,
0xff,
0xfc,
0x0b,
0x0a,
0xe8,
0xfa,
0x18,
0x15,
0x15,
0x04,
0xf8,
0x0c,
0xf4,
0xff,
0xf8,
0x00,
0x0b,
0xf4,
0xed,
0xfd,
0x10,
0x04,
0xf3,
0x08,
0x0f,
0x1d,
0xfd,
0x0a,
0xff,
0x12,
0x05,
0x02,
0xf7,
0xf6,
0xf7,
0x14,
0x11,
0x1a,
0x0f,
0x1a,
0xfc,
0xf8,
0xee,
0xfd,
0x13,
0xf4,
0x03,
0xf7,
0xfe,
0x0f,
0xf4,
0xfd,
0xff,
0xfe,
0x0b,
0xf7,
0x03,
0x12,
0x03,
0x0c,
0x03,
0x0d,
0xf8,
0x04,
0x13,
0x01,
0x01,
0x01,
0x08,
0x03,
0x04,
0xfc,
0x01,
0x04,
0x0c,
0x0d,
0x0b,
0xff,
0x04,
0x08,
0xeb,
0x02,
0xfc,
0xfc,
0x04,
0xfe,
0x0a,
0xff,
0xf1,
0xf2,
0x02,
0x05,
0x00,
0xfd,
0x0f,
0x1b,
0x06,
0x0a,
0x02,
0xf9,
0x09,
0xfb,
0x41,
0x13,
0x41,
0x07,
0x19,
0x1e,
0x04,
0x11,
0x1f,
0x12,
0x1d,
0xef,
0xf9,
0x00,
0xf9,
0xf0,
0x01,
0xfa,
0x1d,
0xf0,
0x01,
0x0d,
0x02,
0x20,
0x39,
0x1a,
0x1b,
0x2d,
0x03,
0x0a,
0xf5,
0x25,
0xf3,
0x14,
0xe7,
0xfb,
0x12,
0xf5,
0xf2,
0x08,
0x04,
0x07,
0x03,
0x0b,
0xfd,
0x03,
0x04,
0xf9,
0x1e,
0x19,
0x13,
0x04,
0x24,
0x0e,
0xf9,
0x0c,
0x11,
0xeb,
0xf5,
0xf4,
0xf8,
0x01,
0xf3,
0xf0,
0xe5,
0xe7,
0x03,
0xf9,
0x0a,
0xe6,
0xfe,
0x06,
0x1a,
0x0d,
0x11,
0x17,
0x00,
0xfe,
0x0f,
0xff,
0x05,
0xfe,
0x02,
0xf2,
0x0f,
0xf8,
0x0b,
0xf9,
0xf9,
0xfe,
0xfb,
0xf8,
0x09,
0x05,
0xfd,
0xf5,
0x01,
0x0b,
0xf9,
0x0f,
0x0b,
0xf6,
0x07,
0x05,
0x05,
0x15,
0xfc,
0xfb,
0xfb,
0x05,
0x06,
0x04,
0x0b,
0x03,
0xfd,
0xfc,
0xf7,
0xf9,
0x02,
0x03,
0x04,
0xf8,
0xf4,
0x00,
0xfe,
0x00,
0x24,
0x06,
0x0d,
0xe8,
0x09,
0xf8,
0x0f,
0xf5,
0xf4,
0xf9,
0xed,
0xe1,
0x13,
0xeb,
0xf8,
0x17,
0x13,
0x28,
0xe6,
0x03,
0xef,
0xfe,
0xf2,
0xe5,
0xf1,
0xed,
0xe4,
0xe9,
0xe3,
0x00,
0xf1,
0x01,
0x0c,
0xeb,
0xfd,
0xf3,
0xfb,
0x03,
0x13,
0x01,
0x04,
0xec,
0x00,
0xf0,
0xea,
0xf8,
0xef,
0x0c,
0x17,
0xf9,
0x1b,
0x04,
0x39,
0x23,
0xe1,
0x14,
0x06,
0xfc,
0x0c,
0x06,
0x05,
0x0e,
0x08,
0x01,
0x0f,
0xf5,
0xed,
0x02,
0xf0,
0xfe,
0xfd,
0xe4,
0x00,
0x1f,
0xea,
0xfb,
0x0a,
0xf3,
0x01,
0x13,
0xeb,
0xfa,
0xf3,
0xf9,
0xfb,
0xee,
0xee,
0x04,
0x12,
0xf0,
0xfb,
0xf2,
0x01,
0xfd,
0xfc,
0xfb,
0xf5,
0xf4,
0xf2,
0xf2,
0xf2,
0x0a,
0x11,
0x11,
0x0e,
0xfd,
0xef,
0xfc,
0xfb,
0xfd,
0x08,
0x09,
0xf6,
0xf7,
0x05,
0xfa,
0x04,
0x02,
0x0e,
0xf3,
0xff,
0xe8,
0x00,
0x14,
0xfb,
0xf8,
0xfc,
0x04,
0xfc,
0xfc,
0xfd,
0xfb,
0xf5,
0xfb,
0xfa,
0x02,
0xfc,
0x00,
0x02,
0x04,
0xf9,
0x01,
0x1c,
0x11,
0xfb,
0xf6,
0x0d,
0x04,
0x03,
0xfe,
0xfc,
0x07,
0x08,
0xf7,
0x14,
0xff,
0xfe,
0x08,
0xed,
0xfe,
0xea,
0xee,
0x01,
0x0b,
0x12,
0x02,
0x0f,
0x02,
0xfc,
0xfd,
0xf6,
0x12,
0x18,
0xfb,
0xfe,
0xfc,
0x0d,
0xea,
0xf5,
0xf1,
0x02,
0x19,
0xff,
0xfe,
0xff,
0x09,
0xe5,
0xf3,
0x0a,
0xfd,
0x06,
0x04,
0x08,
0x00,
0x03,
0xf7,
0x09,
0xfa,
0xf1,
0x06,
0x06,
0xf5,
0xfa,
0xfd,
0xfa,
0x01,
0x07,
0x06,
0xfd,
0x1a,
0x00,
0x0a,
0xf5,
0x01,
0x0b,
0xff,
0x0d,
0xf4,
0x08,
0xed,
0xf5,
0xef,
0x0b,
0x0f,
0xf6,
0x13,
0x09,
0xf8,
0xf3,
0xfd,
0x05,
0x08,
0x05,
0xfb,
0x08,
0x13,
0x04,
0x12,
0x0d,
0xfd,
0x0b,
0x09,
0x0c,
0xff,
0xf6,
0x07,
0xf9,
0xed,
0xf0,
0x04,
0xf3,
0x0c,
0x05,
0x02,
0x01,
0xff,
0xff,
0xfd,
0xf3,
0xf6,
0xf0,
0x03,
0x0c,
0xff,
0x06,
0x01,
0xfe,
0x09,
0xf8,
0x05,
0xfa,
0xf8,
0x03,
0x03,
0x00,
0x00,
0x08,
0xf9,
0x00,
0xf3,
0xfa,
0x01,
0x09,
0x03,
0xf4,
0xf1,
0x02,
0xeb,
0xec,
0xfd,
0x0f,
0x1a,
0x08,
0x0b,
0x0d,
0x14,
0x09,
0x0d,
0x09,
0x08,
0x01,
0x00,
0xed,
0x00,
0xef,
0xf5,
0xf9,
0xf1,
0xf5,
0xde,
0x04,
0x00,
0xfb,
0xf8,
0x05,
0x08,
0x0d,
0x0c,
0xf8,
0xff,
0x05,
0x08,
0x1b,
0x08,
0xfc,
0x0e,
0x1a,
0xff,
0x00,
0xf8,
0xf7,
0x08,
0x00,
0xf5,
0x0f,
0x1d,
0xf8,
0x03,
0xee,
0x11,
0x11,
0x02,
0xf6,
0x03,
0xf3,
0xe7,
0x04,
0x06,
0x05,
0x00,
0x15,
0x07,
0xf0,
0x21,
0x03,
0x03,
0x03,
0x00,
0xf8,
0xf3,
0x13,
0x02,
0x06,
0x22,
0x03,
0x05,
0x0c,
0xe9,
0x0d,
0xfd,
0x01,
0xef,
0xf6,
0xef,
0xf4,
0x02,
0xf7,
0xfe,
0x04,
0xf6,
0x00,
0x12,
0xf9,
0x12,
0xfb,
0x11,
0x1a,
0x00,
0x0e,
0x0c,
0xfd,
0xfb,
0x01,
0x0d,
0xfe,
0x0f,
0xf6,
0xe5,
0xf7,
0xfe,
0xec,
0x06,
0x00,
0x0a,
0xf4,
0x08,
0x00,
0x0a,
0xfc,
0xdd,
0xda,
0x09,
0xf9,
0xf4,
0x04,
0x02,
0xfd,
0x06,
0xfb,
0xf2,
0xfc,
0x04,
0xfa,
0x01,
0x06,
0x07,
0x0e,
0x0c,
0xee,
0xdd,
0xf9,
0xf7,
0xf8,
0x08,
0xfa,
0xe5,
0xf9,
0x0f,
0x06,
0x0a,
0x03,
0xff,
0x05,
0x14,
0x0a,
0xf2,
0x04,
0x04,
0x09,
0x19,
0x0a,
0xfc,
0x00,
0xe3,
0xf4,
0xfa,
0xf9,
0x13,
0x04,
0xf3,
0xf8,
0x03,
0x14,
0xed,
0x0c,
0x0d,
0x0a,
0x02,
0x09,
0xf6,
0xe6,
0xe5,
0xdc,
0xf7,
0xf5,
0xe6,
0xf8,
0x14,
0xed,
0xe0,
0x0d,
0x1b,
0xf6,
0x10,
0xdc,
0xef,
0xfd,
0x10,
0xea,
0xdf,
0x04,
0xfa,
0x0b,
0xfe,
0xff,
0x05,
0xf9,
0x08,
0x0b,
0x05,
0x00,
0xff,
0xf7,
0x03,
0xeb,
0xfd,
0xfc,
0xef,
0x08,
0x0a,
0xf5,
0xed,
0x00,
0xf5,
0x08,
0xee,
0xf1,
0x0d,
0x18,
0x0c,
0x0c,
0x16,
0x06,
0x04,
0xf5,
0xfb,
0x04,
0x16,
0x06,
0x05,
0x10,
0xf8,
0x1b,
0xff,
0xf8,
0x05,
0x11,
0x06,
0xf7,
0x06,
0x0b,
0xec,
0x10,
0x0c,
0xfe,
0x01,
0xf7,
0x09,
0x0c,
0x0d,
0x08,
0x0b,
0xdf,
0x08,
0x0c,
0xfd,
0x0f,
0x13,
0x03,
0x06,
0x06,
0x06,
0x00,
0x08,
0x07,
0x03,
0x0b,
0xf8,
0x02,
0x0a,
0x07,
0xf9,
0xf5,
0x22,
0x04,
0x03,
0xfc,
0x05,
0x0c,
0xf9,
0x01,
0xf6,
0xf5,
0x05,
0x0c,
0x02,
0xf5,
0xf2,
0x0b,
0xf6,
0xfe,
0xf5,
0xf9,
0xff,
0x08,
0xfd,
0xf3,
0x08,
0xe1,
0xd2,
0xfe,
0xe6,
0x11,
0xfc,
0x0c,
0xeb,
0x00,
0x16,
0x19,
0xf1,
0xe9,
0xe9,
0x11,
0xdf,
0xf2,
0xf9,
0xec,
0xee,
0xfb,
0x06,
0xfd,
0xf5,
0x08,
0x0b,
0xec,
0xff,
0x10,
0x04,
0xed,
0xeb,
0xe5,
0xfc,
0xeb,
0x10,
0x04,
0x06,
0x01,
0xfe,
0xf8,
0xed,
0xf6,
0xf7,
0xf6,
0xf9,
0x17,
0x15,
0x0b,
0xe9,
0x0f,
0x03,
0xfd,
0x13,
0xfe,
0x03,
0x01,
0xf3,
0xf7,
0x01,
0x07,
0xe4,
0xf5,
0xf7,
0x06,
0x16,
0x06,
0xfd,
0xf8,
0xfc,
0xe7,
0xf7,
0x06,
0x00,
0x02,
0x0e,
0xf3,
0x1c,
0x07,
0x0f,
0x11,
0xef,
0xf4,
0x01,
0xe7,
0xf0,
0xea,
0xf6,
0xe6,
0x00,
0x00,
0xe3,
0xf4,
0xf8,
0xef,
0x0c,
0x09,
0xe9,
0x06,
0xf7,
0xf0,
0xf7,
0xfd,
0x03,
0x08,
0x04,
0x00,
0xfd,
0x00,
0x12,
0x14,
0x0e,
0x09,
0x0f,
0x06,
0x0a,
0x00,
0x08,
0x09,
0xf5,
0x0d,
0x10,
0x0d,
0xf7,
0xf9,
0x03,
0x03,
0xf5,
0xf9,
0x11,
0x07,
0x10,
0x03,
0xd7,
0xf2,
0x23,
0xed,
0xef,
0xf1,
0xf7,
0x2c,
0x0d,
0x1b,
0x27,
0x1c,
0x15,
0xf1,
0xf3,
0xf9,
0x00,
0x14,
0x15,
0x00,
0x21,
0x0b,
0x07,
0x00,
0xf9,
0xee,
0xfc,
0xec,
0x02,
0x1a,
0x21,
0x3b,
0xfb,
0xfc,
0xf6,
0xf4,
0xf0,
0x00,
0xf0,
0x00,
0xfb,
0x00,
0xf3,
0xec,
0x10,
0xe5,
0xf8,
0xff,
0xf7,
0xfb,
0xf1,
0x0a,
0x11,
0x0c,
0x01,
0x21,
0x0e,
0x07,
0x06,
0x0b,
0x06,
0x05,
0x17,
0xfb,
0xe6,
0xf2,
0xf0,
0xea,
0xed,
0xf8,
0xfb,
0x11,
0xf7,
0xf9,
0xf6,
0xe0,
0xec,
0xfb,
0x0d,
0xf1,
0xfd,
0xfb,
0xf6,
0xf0,
0xed,
0xf8,
0xfe,
0xf9,
0xef,
0x07,
0x13,
0xed,
0xfb,
0x0c,
0x10,
0x00,
0xff,
0xea,
0xe0,
0x03,
0x09,
0x0a,
0x03,
0x0c,
0x0d,
0x10,
0x07,
0xfb,
0x0b,
0xfe,
0xe4,
0x1b,
0x21,
0x0f,
0x0e,
0x04,
0x0b,
0x07,
0x0c,
0x0c,
0x18,
0x08,
0x0b,
0x06,
0x0b,
0x0f,
0xff,
0x06,
0x0b,
0x04,
0x23,
0xf7,
0x00,
0x03,
0xf6,
0xdf,
0xf1,
0x00,
0x16,
0x18,
0x16,
0xf6,
0x00,
0xf1,
0x00,
0x11,
0x00,
0xfd,
0x07,
0xf8,
0x04,
0xf1,
0x13,
0xf0,
0xfe,
0x0b,
0xe5,
0x13,
0x03,
0xf7,
0x0c,
0xec,
0x04,
0xe9,
0xfa,
0xf5,
0x0b,
0x0c,
0x00,
0xf0,
0xfb,
0x07,
0xf9,
0x07,
0xf3,
0xfd,
0x33,
0xf5,
0xf7,
0x04,
0x01,
0xe5,
0xff,
0x1d,
0x1f,
0x0a,
0x08,
0xe5,
0x0d,
0x1a,
0xf5,
0xf5,
0xf7,
0xfc,
0x06,
0x14,
0xf6,
0x0d,
0xe4,
0xfa,
0x06,
0xf5,
0xfa,
0x10,
0xec,
0x0c,
0x09,
0xfa,
0xf3,
0x10,
0xea,
0xec,
0xd0,
0x0a,
0x11,
0xe7,
0xe8,
0xde,
0xdf,
0xf4,
0xe9,
0xdc,
0x0b,
0xe0,
0xfd,
0xf3,
0xca,
0xf9,
0xf6,
0xe9,
0x0b,
0xfe,
0xe5,
0x02,
0x07,
0xfb,
0xf9,
0xfb,
0xf5,
0x06,
0xeb,
0xee,
0x16,
0xdc,
0x0c,
0x23,
0x34,
0x03,
0xee,
0x02,
0xfd,
0xf7,
0xff,
0xf0,
0x03,
0xf9,
0xf5,
0xe8,
0xeb,
0xd8,
0xe5,
0xee,
0xec,
0xdf,
0xe3,
0xeb,
0xf3,
0xde,
0xf1,
0xed,
0xe3,
0xec,
0xf0,
0x11,
0x01,
0x07,
0x04,
0xf5,
0xfb,
0xf8,
0xfa,
0x06,
0xfc,
0xf6,
0x11,
0x0b,
0xfd,
0x03,
0xff,
0x12,
0xf8,
0xee,
0x04,
0xf1,
0xee,
0x03,
0x0c,
0x04,
0x0c,
0xfd,
0x09,
0xe2,
0x02,
0x1d,
0x09,
0x06,
0x08,
0x17,
0x11,
0xf9,
0x24,
0x0b,
0x06,
0xed,
0xfa,
0xfd,
0x13,
0xfa,
0x09,
0xf3,
0x20,
0x02,
0xfe,
0xfe,
0x0e,
0xda,
0xfa,
0x00,
0xd2,
0x0f,
0xf6,
0xff,
0x1c,
0xfb,
0xf8,
0x03,
0x09,
0x01,
0xf7,
0xfe,
0x10,
0xfe,
0x05,
0xfc,
0xff,
0x00,
0x0e,
0x24,
0x06,
0xfd,
0x04,
0xfb,
0xe7,
0x01,
0xf2,
0xf9,
0xfe,
0x03,
0x05,
0x06,
0xf5,
0xf0,
0xff,
0xf8,
0x11,
0xfc,
0x04,
0x18,
0x11,
0x05,
0xfd,
0x00,
0xfa,
0x04,
0xe4,
0x01,
0x04,
0xea,
0xe7,
0xfe,
0xf6,
0xf7,
0xe9,
0xfb,
0xfc,
0x04,
0x32,
0xf7,
0x03,
0xfa,
0xe9,
0xfe,
0xf1,
0xe8,
0xf5,
0xfc,
0x09,
0x16,
0x03,
0x19,
0x04,
0xf1,
0x28,
0x06,
0x0b,
0x08,
0x0d,
0x03,
0xf6,
0xf1,
0x04,
0xf7,
0xf1,
0xff,
0x06,
0x02,
0x01,
0x0e,
0x00,
0x0c,
0x17,
0xf6,
0x0a,
0x14,
0xf0,
0x08,
0xe9,
0xfd,
0x03,
0x08,
0xea,
0x13,
0x02,
0xe2,
0x0b,
0xf7,
0xf7,
0xe8,
0x05,
0x0b,
0xef,
0xf9,
0xf0,
0xf3,
0xf1,
0xf5,
0x01,
0xee,
0xf5,
0x1a,
0x08,
0x07,
0x0b,
0xf2,
0xeb,
0xe4,
0x08,
0xf6,
0x12,
0xd6,
0xff,
0xf4,
0x00,
0xdf,
0xee,
0xf0,
0xf7,
0x15,
0xf2,
0x07,
0xf2,
0x0f,
0x04,
0xe6,
0x10,
0xfe,
0xfb,
0x11,
0x16,
0xfa,
0xf0,
0xf5,
0xef,
0x05,
0x06,
0xfb,
0xf7,
0x01,
0x00,
0x18,
0xf5,
0x0e,
0xfc,
0xf8,
0x0e,
0xf7,
0x0b,
0xfe,
0xfc,
0xff,
0xf2,
0x14,
0x00,
0xf6,
0xf2,
0xfd,
0xf0,
0xf8,
0x05,
0xeb,
0xf0,
0xf9,
0x00,
0xee,
0xe8,
0xff,
0x0b,
0xf4,
0x0f,
0xfd,
0x04,
0x0c,
0x05,
0x00,
0xfe,
0xfb,
0xf2,
0xff,
0x13,
0xe4,
0x09,
0x0a,
0xf0,
0xfe,
0xf6,
0xfe,
0xfd,
0xe4,
0x23,
0x05,
0x01,
0x10,
0xf6,
0xee,
0xe6,
0xef,
0xe1,
0xf8,
0x03,
0xfb,
0xf8,
0xf4,
0xfe,
0xf9,
0xf9,
0x00,
0xfe,
0xfb,
0xfb,
0xfa,
0xef,
0x14,
0xfa,
0x08,
0x0b,
0x01,
0x04,
0xf8,
0xf0,
0x00,
0x07,
0xee,
0x0b,
0x0a,
0xfa,
0xec,
0x0d,
0xfa,
0x12,
0xfc,
0xf5,
0xeb,
0xea,
0xf8,
0xcd,
0xf0,
0xef,
0xf8,
0xf1,
0x25,
0x16,
0x16,
0xfe,
0x01,
0x05,
0x11,
0x0c,
0x19,
0xf7,
0xfd,
0x0e,
0x06,
0x0a,
0xfb,
0xf1,
0x21,
0x16,
0xf0,
0x02,
0x03,
0x1e,
0x18,
0xe3,
0xff,
0x07,
0xf1,
0xf0,
0xf2,
0xf9,
0x10,
0x0b,
0x16,
0x13,
0xf4,
0x00,
0x02,
0xff,
0x08,
0xf5,
0xff,
0x00,
0xfa,
0x0f,
0x00,
0x0b,
0x02,
0xfc,
0x02,
0xfb,
0xfa,
0xf2,
0x04,
0xf2,
0xfa,
0x03,
0xe6,
0xf8,
0x1b,
0xf5,
0x09,
0x0c,
0xf4,
0x14,
0x09,
0x04,
0x08,
0x1a,
0xf9,
0x11,
0xf8,
0xec,
0xf5,
0x0f,
0x05,
0xf4,
0x03,
0x0f,
0x1b,
0xef,
0xe3,
0x15,
0x01,
0x08,
0xff,
0x01,
0x00,
0x1a,
0x05,
0xf5,
0xf3,
0xf4,
0x10,
0x06,
0x0a,
0x00,
0x0c,
0xfc,
0xf7,
0xf9,
0x15,
0x00,
0x04,
0xfb,
0xff,
0xfc,
0xfb,
0x03,
0x02,
0x07,
0x06,
0x00,
0xfb,
0xf7,
0x01,
0x02,
0x06,
0xf8,
0xf3,
0xf5,
0xf8,
0x08,
0xea,
0x09,
0x07,
0xf9,
0x05,
0x19,
0x11,
0xf4,
0x08,
0x09,
0x09,
0xf9,
0x06,
0x0e,
0x02,
0xfb,
0xee,
0xef,
0x15,
0x15,
0x09,
0x02,
0x0c,
0x0f,
0x0c,
0xf9,
0xf4,
0x05,
0x0d,
0xf8,
0xef,
0xfe,
0xfd,
0xea,
0xf0,
0xef,
0x01,
0x04,
0x00,
0x05,
0xf8,
0xee,
0x18,
0xff,
0xfc,
0xfa,
0x02,
0x13,
0x05,
0x04,
0x13,
0x02,
0x1a,
0x05,
0xec,
0x08,
0x06,
0x00,
0x0a,
0xfa,
0xfd,
0xf6,
0xfb,
0x00,
0xff,
0x0c,
0x08,
0xf0,
0x0c,
0x16,
0x06,
0xfc,
0xf9,
0xf6,
0x01,
0xfe,
0x0f,
0x0a,
0x03,
0x23,
0xfb,
0x19,
0xda,
0xe7,
0xf5,
0xf5,
0xfa,
0xfb,
0x07,
0xfb,
0x0c,
0x01,
0x10,
0xf2,
0x01,
0x01,
0x08,
0xf8,
0x02,
0xf6,
0x05,
0x06,
0xfa,
0x17,
0x00,
0x05,
0x05,
0x01,
0x18,
0x06,
0x13,
0xfc,
0x01,
0x14,
0x04,
0xee,
0x0e,
0x01,
0xfc,
0xff,
0xf4,
0xe2,
0xe8,
0x04,
0xfb,
0x01,
0xfc,
0xf9,
0xf9,
0xff,
0xfc,
0x01,
0xfc,
0x02,
0x02,
0xfc,
0x02,
0xf5,
0x06,
0x12,
0x03,
0xf7,
0x05,
0xfe,
0xe2,
0xf1,
0xfe,
0x0e,
0xf0,
0xfb,
0xe3,
0xff,
0xfa,
0x01,
0xff,
0xfb,
0xfd,
0x02,
0xe7,
0xf2,
0x08,
0xf0,
0xff,
0x02,
0xf5,
0x0f,
0xfa,
0x08,
0x15,
0x16,
0xf8,
0xff,
0xf1,
0xff,
0xeb,
0xf4,
0x05,
0x0c,
0xf7,
0xfb,
0xfd,
0xe9,
0xf0,
0x09,
0xd6,
0x02,
0x03,
0x10,
0x0c,
0x00,
0xe9,
0x07,
0xf3,
0x02,
0xf5,
0xf5,
0xf5,
0x02,
0x03,
0x03,
0xfb,
0xfe,
0x01,
0x01,
0x07,
0x1f,
0x16,
0x01,
0xff,
0x05,
0xfd,
0x06,
0xf2,
0x0e,
0x0b,
0xfb,
0x0c,
0xfa,
0xee,
0x09,
0x07,
0xfb,
0xf8,
0xf2,
0xe7,
0xfc,
0xf4,
0xfc,
0x11,
0x11,
0x02,
0xf8,
0x00,
0x03,
0x13,
0xff,
0x06,
0x12,
0x1d,
0x07,
0x05,
0x03,
0x12,
0x0d,
0x07,
0x05,
0x00,
0x03,
0xef,
0x03,
0x11,
0x1a,
0x0f,
0x01,
0xfb,
0xff,
0x05,
0xfa,
0x02,
0xf9,
0x0b,
0x00,
0xf9,
0xeb,
0x0c,
0x31,
0x06,
0x27,
0x01,
0xff,
0x05,
0x01,
0xfc,
0x02,
0x03,
0x07,
0x01,
0x0e,
0x09,
0x00,
0x01,
0x01,
0x11,
0x0d,
0x0b,
0xf5,
0x0d,
0x04,
0x06,
0x01,
0xfa,
0xf8,
0xe9,
0x11,
0x13,
0xf1,
0x08,
0x04,
0xfe,
0x07,
0x13,
0x0f,
0xfd,
0x04,
0xef,
0xf0,
0x08,
0xf3,
0x04,
0x0c,
0x07,
0xee,
0x10,
0xed,
0xfc,
0xe6,
0xdc,
0xe6,
0x12,
0xef,
0x0c,
0x11,
0xf6,
0x07,
0x19,
0xf8,
0x13,
0x0d,
0xf0,
0x05,
0x09,
0xf5,
0xf3,
0xf8,
0xfd,
0x15,
0x16,
0xfb,
0xee,
0x01,
0x08,
0x14,
0x13,
0xeb,
0xfe,
0x01,
0xff,
0x01,
0x04,
0xf9,
0xf9,
0xfd,
0x1b,
0x04,
0x0b,
0x05,
0x15,
0x10,
0xf3,
0xec,
0xf6,
0x14,
0x1b,
0x10,
0x01,
0xef,
0xfc,
0x11,
0xf8,
0x02,
0xf4,
0x0f,
0x0a,
0x04,
0x07,
0x02,
0x04,
0x15,
0x0e,
0x10,
0x00,
0x1f,
0xfe,
0xf5,
0xfe,
0x04,
0x01,
0xf4,
0xfc,
0xfe,
0x09,
0xf4,
0x08,
0x04,
0x06,
0x17,
0x16,
0xfd,
0xec,
0x00,
0xf9,
0xee,
0x05,
0x0f,
0x01,
0xff,
0xf5,
0x00,
0x00,
0xf5,
0xfe,
0x00,
0x0a,
0x09,
0x04,
0x03,
0xfd,
0xfd,
0xf4,
0xfb,
0x0c,
0x0a,
0x00,
0x06,
0x02,
0x06,
0xf9,
0x10,
0xf0,
0xfd,
0xf6,
0xf6,
0xf5,
0xfe,
0x00,
0x04,
0xf3,
0x0e,
0x10,
0xf9,
0xf5,
0xff,
0x01,
0xf6,
0xf3,
0x02,
0xfc,
0x05,
0x02,
0x0e,
0xec,
0x1c,
0xf6,
0xf0,
0x01,
0xf6,
0xf7,
0x00,
0xed,
0xf6,
0xfd,
0xef,
0xfa,
0xf0,
0xf2,
0x04,
0x13,
0xf4,
0x0d,
0xcd,
0x0b,
0xfe,
0xee,
0x0b,
0xe1,
0xeb,
0xf3,
0xfa,
0x07,
0x23,
0x00,
0xf8,
0x15,
0x29,
0xf2,
0xfe,
0x05,
0xfc,
0xfb,
0xf8,
0x04,
0xfd,
0x0b,
0x06,
0x10,
0xf4,
0xf2,
0xe2,
0xed,
0x0b,
0x05,
0xfb,
0x09,
0x13,
0x0a,
0xfd,
0xf1,
0xfc,
0xfc,
0x32,
0x00,
0x0a,
0xf9,
0xf3,
0xf7,
0x01,
0xf0,
0xfa,
0x07,
0x03,
0x04,
0xfe,
0xfb,
0x08,
0xfc,
0xf6,
0x02,
0xfd,
0xea,
0xf4,
0x07,
0x13,
0x23,
0x0e,
0x25,
0x00,
0x06,
0x17,
0x18,
0x01,
0x08,
0x07,
0x1f,
0x13,
0x01,
0x08,
0x0e,
0x16,
0x12,
0xf8,
0x1c,
0xec,
0x13,
0x08,
0x14,
0x42,
0xfa,
0x03,
0x01,
0x04,
0xfd,
0xfb,
0x05,
0x08,
0x00,
0xff,
0x0d,
0xf5,
0xfe,
0xff,
0x33,
0xf3,
0xdc,
0xe6,
0xf9,
0xd2,
0xe3,
0xf5,
0x02,
0x03,
0xf6,
0xfa,
0x17,
0x04,
0xf8,
0xf5,
0xe9,
0x0a,
0xf0,
0xf3,
0xe8,
0xf2,
0xf8,
0x04,
0xfe,
0xed,
0xdf,
0x01,
0xd6,
0x02,
0x04,
0x03,
0xfb,
0x1c,
0xea,
0xe9,
0xf9,
0xdf,
0xf6,
0xea,
0xf4,
0xf5,
0xf3,
0xfd,
0x16,
0xfa,
0xff,
0x01,
0x05,
0x06,
0xf3,
0x03,
0xf2,
0xdf,
0x0d,
0x0d,
0xeb,
0xde,
0xf8,
0x0a,
0x01,
0xf8,
0x0a,
0x0c,
0x12,
0x14,
0x05,
0xf5,
0xec,
0xe5,
0x0c,
0xfc,
0xfd,
0xf5,
0x04,
0x15,
0xf6,
0xf9,
0x05,
0x05,
0xf9,
0xd2,
0xee,
0xe8,
0xf9,
0xe5,
0x0c,
0xf1,
0x0a,
0xfd,
0x0c,
0xef,
0x08,
0x13,
0x05,
0x12,
0xfd,
0x11,
0xff,
0x01,
0xf8,
0x0f,
0x01,
0xf0,
0x1c,
0x09,
0x01,
0x0d,
0xf5,
0xfd,
0xf9,
0x02,
0xfe,
0xe9,
0xf8,
0xe8,
0xf1,
0x00,
0x00,
0xed,
0xfb,
0x11,
0xfc,
0xfe,
0xed,
0xf3,
0x1a,
0xf8,
0x1d,
0x1b,
0x07,
0xfa,
0xfd,
0x02,
0xf8,
0xff,
0xf6,
0xf9,
0xfb,
0xfc,
0xfc,
0xf1,
0xfd,
0xfc,
0x10,
0x0c,
0xfe,
0xf2,
0xf4,
0x06,
0x16,
0x04,
0xfb,
0x04,
0xfb,
0xfd,
0x03,
0xf4,
0x08,
0x12,
0x0b,
0xff,
0x04,
0x14,
0x0e,
0x04,
0x1e,
0xf3,
0x2a,
0xf2,
0x1c,
0xe6,
0xed,
0xed,
0xe7,
0xf4,
0x0a,
0xf8,
0xf7,
0xf2,
0xfc,
0x0a,
0xdd,
0xe6,
0x05,
0xf3,
0xe3,
0xee,
0xfb,
0x03,
0x04,
0x0c,
0xf1,
0x07,
0x00,
0x13,
0x18,
0x01,
0xe3,
0x0d,
0xf9,
0x2a,
0x19,
0xd4,
0xfb,
0xef,
0x01,
0xf7,
0xfd,
0x04,
0xf1,
0x05,
0x07,
0xeb,
0xf1,
0xf1,
0xd8,
0xf9,
0x01,
0xf7,
0xec,
0xe9,
0xf3,
0xf5,
0xf6,
0x08,
0x0a,
0x12,
0xe1,
0xe3,
0xf2,
0x23,
0x0d,
0xf7,
0x0f,
0xf8,
0x08,
0x09,
0xfa,
0x05,
0xfb,
0x02,
0x15,
0x07,
0x12,
0x07,
0x11,
0xf0,
0x07,
0x05,
0x01,
0x1f,
0xfe,
0x06,
0x07,
0xf6,
0xe4,
0xf3,
0xfe,
0xfb,
0x07,
0xf5,
0x06,
0xf6,
0xec,
0x03,
0xeb,
0xfa,
0x0f,
0xee,
0xf8,
0xfd,
0xf1,
0xfe,
0x06,
0x01,
0x0b,
0x05,
0xff,
0x0c,
0x11,
0xfd,
0x07,
0x0a,
0x06,
0x0a,
0x03,
0x01,
0xdb,
0x04,
0x18,
0x0e,
0xfe,
0x04,
0x01,
0xf4,
0x0e,
0x04,
0xee,
0x11,
0x14,
0xfd,
0xfb,
0xfc,
0xfc,
0x05,
0x10,
0x04,
0xef,
0xfc,
0xff,
0xf5,
0x00,
0x0b,
0xfe,
0x02,
0x15,
0x00,
0x12,
0x16,
0x01,
0x0f,
0xf0,
0xff,
0xe7,
0x15,
0x10,
0x03,
0xfb,
0x19,
0x15,
0x05,
0x05,
0xfd,
0x08,
0x09,
0xf5,
0x05,
0x09,
0x16,
0xe3,
0xfc,
0x10,
0x06,
0xfe,
0xf5,
0x07,
0x15,
0x0c,
0x16,
0x04,
0x05,
0x04,
0x01,
0xff,
0xfb,
0x00,
0xfd,
0x17,
0x02,
0xf9,
0x09,
0x06,
0xfc,
0x0f,
0xf5,
0xfc,
0x0d,
0x17,
0xe9,
0xf6,
0x06,
0x08,
0xf5,
0x0f,
0x03,
0xf4,
0xfb,
0xf7,
0x15,
0x0c,
0x01,
0x04,
0x02,
0x09,
0x26,
0xf5,
0x07,
0xfa,
0x10,
0x0e,
0xf8,
0xf9,
0xfc,
0x15,
0xfb,
0xef,
0xfc,
0x09,
0xf6,
0xfd,
0xe9,
0x04,
0x06,
0x0a,
0x13,
0x0b,
0x06,
0xf9,
0xe7,
0x04,
0xff,
0x0d,
0xef,
0x25,
0x00,
0xe8,
0x0c,
0x01,
0x02,
0x01,
0x04,
0xff,
0x03,
0x0c,
0x04,
0x02,
0x09,
0x0b,
0xfd,
0xf8,
0x04,
0x05,
0x05,
0x26,
0xf6,
0xfb,
0x15,
0x0a,
0x00,
0xf1,
0xf8,
0xf9,
0x01,
0x0e,
0xfc,
0x18,
0xf1,
0x05,
0x03,
0x0a,
0xfa,
0xfd,
0xfc,
0x08,
0x03,
0x22,
0xfb,
0xfb,
0xfb,
0xf7,
0xf6,
0xfb,
0x09,
0xff,
0xe7,
0xf1,
0x04,
0xf3,
0x18,
0xfb,
0xfc,
0x07,
0xfc,
0x01,
0xf4,
0xf9,
0xfe,
0x18,
0x19,
0x06,
0xfa,
0xf8,
0x04,
0x0b,
0xfd,
0x29,
0x11,
0x13,
0xe4,
0x06,
0xf7,
0xf0,
0xfa,
0xfb,
0xfe,
0x02,
0xfb,
0xfe,
0x00,
0x19,
0x0d,
0xf5,
0xea,
0x10,
0xfb,
0x04,
0x16,
0x01,
0x06,
0x0c,
0x09,
0xf1,
0xfd,
0x15,
0xee,
0xf4,
0x0d,
0xf6,
0x0d,
0xf4,
0x0e,
0xfa,
0xef,
0x07,
0xf1,
0xfc,
0xfa,
0xfe,
0xf6,
0x12,
0xfd,
0xf8,
0x08,
0xf0,
0xfe,
0xff,
0x03,
0x01,
0xf4,
0x05,
0xf4,
0xf5,
0xf2,
0xff,
0xf1,
0xfd,
0xfa,
0xfe,
0x1a,
0x0b,
0x12,
0x0f,
0xfc,
0x11,
0x04,
0x08,
0xee,
0xea,
0x09,
0x17,
0x0a,
0x03,
0x01,
0x07,
0x00,
0x09,
0x0f,
0xfb,
0x0b,
0x0c,
0x0c,
0xfc,
0x0f,
0xff,
0x05,
0xf8,
0x06,
0xf9,
0x0c,
0x0a,
0xf9,
0x01,
0xf5,
0xf6,
0xf2,
0x06,
0xfe,
0x08,
0xff,
0x09,
0x0e,
0xff,
0xe5,
0xfb,
0xf8,
0xf6,
0xf9,
0xf5,
0x13,
0xfe,
0xf1,
0xfe,
0xfd,
0x00,
0x19,
0x15,
0xf4,
0x16,
0x07,
0xf8,
0x06,
0xe1,
0x14,
0x08,
0xf4,
0xe8,
0x0a,
0x19,
0xf8,
0xf1,
0x19,
0x09,
0xfd,
0x10,
0x0e,
0x03,
0x1d,
0x18,
0xdc,
0xf7,
0xfd,
0x1b,
0x0b,
0x07,
0x0a,
0x1a,
0xf5,
0x0e,
0x04,
0x01,
0x02,
0x04,
0xf7,
0xfb,
0x29,
0x10,
0x11,
0x03,
0x19,
0xef,
0x08,
0xe8,
0xfe,
0x1c,
0x10,
0x10,
0x04,
0x13,
0x02,
0xe6,
0x0b,
0x0b,
0x07,
0xe7,
0x00,
0xe6,
0xf8,
0xef,
0x02,
0x0a,
0x02,
0x19,
0x12,
0xf4,
0xf9,
0xff,
0x05,
0x02,
0xf0,
0xfa,
0xff,
0x01,
0xf9,
0x03,
0xf5,
0x0c,
0xf0,
0xf6,
0x0d,
0xe5,
0xfa,
0x14,
0xff,
0xfe,
0xf3,
0xf7,
0xf6,
0xf7,
0xef,
0x0d,
0x11,
0xf5,
0x10,
0xf5,
0xe5,
0x08,
0x03,
0xff,
0x01,
0xf7,
0x09,
0x0e,
0x07,
0x02,
0x0a,
0xfc,
0xf5,
0xfa,
0xf2,
0x07,
0x03,
0xf7,
0x03,
0xf3,
0xea,
0x01,
0xf1,
0x0b,
0xee,
0x0d,
0x00,
0x0b,
0x15,
0x1e,
0xf2,
0xe8,
0xee,
0x08,
0xfa,
0x0d,
0x07,
0x03,
0xfd,
0xef,
0xee,
0xfd,
0x0e,
0xf8,
0x01,
0x08,
0x0e,
0xfa,
0x02,
0x06,
0x04,
0x11,
0x16,
0x03,
0x09,
0xdd,
0x10,
0x04,
0x0c,
0xf7,
0x0e,
0x04,
0x13,
0x1e,
0x17,
0x0c,
0xf7,
0xfc,
0x00,
0xf6,
0x05,
0x1f,
0xf4,
0x0f,
0x13,
0xd3,
0xef,
0xff,
0x00,
0xff,
0xf9,
0x02,
0xff,
0xea,
0xf9,
0x0d,
0x2f,
0x16,
0xee,
0xef,
0x00,
0x06,
0x07,
0xff,
0x0d,
0xfa,
0xf7,
0x07,
0x03,
0x00,
0xf6,
0x0b,
0xff,
0x03,
0xe8,
0xf9,
0xff,
0x0e,
0x0c,
0x22,
0x16,
0x09,
0x02,
0xf5,
0xf6,
0xf1,
0xff,
0x0f,
0x18,
0xfc,
0xf9,
0xfe,
0xf6,
0xf5,
0xf7,
0x07,
0xf8,
0xfb,
0x00,
0x06,
0x23,
0xf4,
0xfe,
0xfb,
0xff,
0xfc,
0x05,
0xfa,
0x03,
0x0e,
0xf6,
0xfe,
0xf8,
0xe6,
0x00,
0x05,
0x07,
0x01,
0x06,
0x05,
0x04,
0x01,
0x09,
0x02,
0x03,
0x07,
0xfd,
0xff,
0x03,
0xf3,
0x10,
0xef,
0xfb,
0xf9,
0x14,
0x11,
0xf0,
0xf5,
0xfe,
0x05,
0x1b,
0x05,
0xf3,
0x14,
0x0e,
0xf3,
0xf6,
0xf1,
0xf8,
0xf6,
0x0c,
0x00,
0x17,
0xf4,
0x0b,
0x13,
0x08,
0x12,
0xf6,
0x07,
0x04,
0x07,
0x06,
0xf3,
0xf0,
0xfb,
0xfe,
0x27,
0x2a,
0xed,
0x13,
0xf2,
0x40,
0x26,
0xe7,
0xec,
0xe7,
0xf2,
0xf8,
0x1f,
0x1b,
0x12,
0x19,
0xe6,
0xdf,
0x04,
0xe0,
0x0d,
0xf1,
0x13,
0xff,
0x09,
0x01,
0x09,
0x04,
0x10,
0xe4,
0x0f,
0x1e,
0xf0,
0xf8,
0x06,
0x02,
0xfe,
0x04,
0x05,
0x02,
0xfa,
0xea,
0xf8,
0x0c,
0x1b,
0xfb,
0xe2,
0xff,
0xf0,
0x1f,
0x0f,
0x09,
0xfe,
0x25,
0xf3,
0xec,
0xf3,
0xe6,
0xf7,
0x09,
0xfa,
0xf2,
0xf4,
0x15,
0xf9,
0xf7,
0xf0,
0x0d,
0x07,
0x0a,
0xfc,
0x00,
0x0c,
0x1c,
0x13,
0x01,
0x0d,
0x03,
0xfb,
0x03,
0x09,
0x15,
0xf0,
0x21,
0xfe,
0xfa,
0x0c,
0xf4,
0xff,
0x28,
0x15,
0xff,
0xfd,
0xff,
0xf9,
0xf7,
0xfd,
0xff,
0x05,
0x08,
0x01,
0x09,
0x02,
0x01,
0xfd,
0xff,
0xf0,
0x00,
0xf2,
0xea,
0x06,
0x07,
0xee,
0xe3,
0x06,
0x02,
0xfb,
0xfd,
0x07,
0xfb,
0x0e,
0x17,
0x09,
0x15,
0xf8,
0x0f,
0x00,
0x16,
0xe8,
0x03,
0xff,
0xf2,
0x11,
0x08,
0x17,
0x20,
0xf0,
0xf7,
0xea,
0xd6,
0x0b,
0x0d,
0xf0,
0xfc,
0xfd,
0x09,
0xf3,
0xf6,
0xe3,
0xde,
0xe4,
0xf9,
0xf7,
0x05,
0xff,
0xf2,
0xf6,
0x01,
0x0b,
0x2a,
0x01,
0xfb,
0x41,
0x11,
0x13,
0x06,
0x12,
0x13,
0x01,
0xf7,
0xff,
0x03,
0xfb,
0x00,
0xec,
0xf6,
0xfa,
0x0d,
0x05,
0x0f,
0xf4,
0xf7,
0x0c,
0xe3,
0xd9,
0x06,
0x0d,
0xe6,
0xe3,
0xfa,
0xfb,
0x06,
0x19,
0xe8,
0xe4,
0xfa,
0x05,
0x03,
0xfa,
0x0a,
0xfd,
0x0b,
0xfa,
0x10,
0xf4,
0xec,
0x08,
0x02,
0x04,
0x02,
0xfd,
0x06,
0x02,
0xf0,
0xed,
0x09,
0x01,
0x03,
0x05,
0xfb,
0xfb,
0xf1,
0xf4,
0xfe,
0xf5,
0xe9,
0xfc,
0x05,
0x03,
0x06,
0xf1,
0x0c,
0x11,
0xfb,
0xe8,
0x04,
0x0a,
0xfc,
0x03,
0x03,
0xfd,
0x05,
0x03,
0xfd,
0x06,
0x0b,
0xfb,
0xff,
0x04,
0xff,
0xf0,
0x1c,
0xd9,
0xe3,
0xec,
0x03,
0xf7,
0xf0,
0x08,
0xfd,
0xf5,
0xec,
0x0e,
0x06,
0xf2,
0xf3,
0x1b,
0xff,
0x0c,
0x00,
0x0d,
0x06,
0x07,
0xee,
0x0a,
0x00,
0xf7,
0x10,
0xf0,
0xf3,
0x06,
0xf7,
0xf7,
0x08,
0xfb,
0xfa,
0xff,
0xf1,
0x02,
0xe2,
0x1f,
0xda,
0x10,
0x19,
0x11,
0x06,
0x19,
0x16,
0xfe,
0xfc,
0x0d,
0xf8,
0xfe,
0x08,
0xe3,
0x1b,
0xe0,
0xe6,
0x0e,
0x07,
0x00,
0xf7,
0x04,
0xfe,
0xff,
0xfd,
0xe6,
0xe7,
0x07,
0x17,
0x06,
0x06,
0xfa,
0x0a,
0x08,
0x04,
0xeb,
0xe8,
0xfb,
0xeb,
0xed,
0xf4,
0x06,
0x16,
0x01,
0x0a,
0xf7,
0x16,
0xfd,
0x0b,
0xf6,
0x1f,
0x0d,
0xfe,
0x0d,
0xf2,
0x11,
0x03,
0xfa,
0xe6,
0x02,
0xff,
0xf9,
0x15,
0x01,
0x07,
0x06,
0xf3,
0x0a,
0x0a,
0xfb,
0xf2,
0x08,
0xfc,
0x1d,
0x05,
0x00,
0xf4,
0x05,
0xea,
0x01,
0x05,
0xf4,
0x0b,
0xed,
0x03,
0x0c,
0xfd,
0xfb,
0xfd,
0x00,
0x01,
0x01,
0xf8,
0xfc,
0xff,
0xfe,
0x04,
0x06,
0x0b,
0x0c,
0x03,
0x03,
0xfe,
0x08,
0x05,
0xf7,
0x0a,
0x0f,
0x0b,
0x05,
0x07,
0x17,
0x15,
0x0f,
0x0f,
0xf3,
0xf7,
0x2c,
0xff,
0xf5,
0xff,
0x06,
0x00,
0x03,
0xfd,
0x07,
0xeb,
0x0c,
0xef,
0x2f,
0xf0,
0xf9,
0x04,
0x08,
0x0f,
0xed,
0xfa,
0x0b,
0x03,
0x0a,
0x00,
0x06,
0xfa,
0x08,
0x10,
0x01,
0x1d,
0x0b,
0x31,
0x0a,
0x16,
0xfa,
0xfb,
0xe9,
0x0c,
0x0b,
0x2a,
0x0a,
0xfc,
0xff,
0x07,
0xfb,
0x02,
0xfd,
0xee,
0x06,
0x01,
0x02,
0xf0,
0xf1,
0xf2,
0x00,
0x22,
0xf0,
0xf5,
0xe5,
0xf9,
0xf9,
0xf5,
0xf8,
0x11,
0x06,
0xfe,
0xe3,
0x09,
0xef,
0xf7,
0x06,
0x02,
0x01,
0x01,
0x22,
0x01,
0xfd,
0xf3,
0xf5,
0x05,
0x0a,
0x00,
0x03,
0x05,
0xfe,
0xf7,
0xfd,
0x2b,
0xff,
0x17,
0xfc,
0x11,
0x13,
0xf6,
0xf9,
0x0d,
0xf2,
0x0c,
0x16,
0xf6,
0xf4,
0xf0,
0xee,
0xf6,
0x05,
0x0f,
0x0a,
0x10,
0x0e,
0x05,
0x03,
0x05,
0x0a,
0xf9,
0x07,
0x0c,
0x07,
0xff,
0x08,
0x03,
0x06,
0xf9,
0xfc,
0xfd,
0xfd,
0x07,
0xf7,
0x01,
0x06,
0x04,
0xfa,
0xff,
0xfa,
0x08,
0x01,
0x08,
0x0a,
0x08,
0x0f,
0x01,
0x01,
0x20,
0x0d,
0x0b,
0x07,
0xea,
0x0f,
0x01,
0xf0,
0x02,
0xf2,
0xfa,
0x1a,
0x04,
0xe4,
0x12,
0xfb,
0x03,
0x04,
0x25,
0xfd,
0xee,
0x0d,
0xfc,
0xf4,
0xee,
0xfb,
0x18,
0xff,
0xfb,
0x09,
0x0e,
0x0f,
0x12,
0x14,
0x0d,
0xfe,
0xf7,
0x0b,
0x13,
0x0d,
0x05,
0xf6,
0x00,
0x08,
0xf7,
0xf6,
0x3c,
0x0b,
0xec,
0x10,
0x10,
0xfe,
0x00,
0x04,
0x05,
0x23,
0x05,
0x09,
0xfb,
0x04,
0x0c,
0x08,
0x0c,
0x00,
0x04,
0xf4,
0xf6,
0xff,
0xf6,
0xfa,
0x00,
0x0f,
0xf6,
0x02,
0x03,
0x04,
0x02,
0x04,
0x03,
0xff,
0xfa,
0xd4,
0x0c,
0xff,
0x04,
0x18,
0x1e,
0x00,
0x09,
0x01,
0x01,
0xff,
0x1b,
0x0d,
0xf7,
0xfb,
0x0e,
0x1e,
0x1b,
0x02,
0xf5,
0x03,
0x08,
0x04,
0x02,
0x06,
0x05,
0xf0,
0x07,
0xfc,
0x05,
0x0a,
0x07,
0x03,
0xe1,
0xfc,
0x08,
0xfe,
0xfe,
0x13,
0xfe,
0x08,
0x08,
0xe7,
0x00,
0x05,
0x10,
0xff,
0x07,
0x08,
0x06,
0x07,
0x14,
0xf9,
0x00,
0xf8,
0xd5,
0xeb,
0x02,
0x04,
0xfa,
0xf7,
0xfc,
0xf3,
0xf3,
0xe3,
0xe4,
0xe7,
0xf1,
0xe6,
0xff,
0xf3,
0xe5,
0x00,
0x15,
0x04,
0x09,
0xf3,
0xe0,
0xf6,
0xfc,
0xeb,
0xf6,
0xfa,
0x14,
0x09,
0xff,
0x0c,
0xec,
0x03,
0xf7,
0xf7,
0xf1,
0xff,
0xf4,
0x00,
0xfe,
0xfa,
0xfd,
0x04,
0xf9,
0xff,
0xfc,
0xfe,
0xf9,
0x12,
0x03,
0xfe,
0xe9,
0xec,
0xfa,
0xe0,
0x15,
0xf7,
0xee,
0xfe,
0x1a,
0xf5,
0x04,
0x04,
0xfe,
0x07,
0xff,
0xfe,
0x04,
0xfb,
0xf9,
0xf2,
0xe5,
0xef,
0xe6,
0xe6,
0x05,
0x0d,
0xfe,
0x13,
0x0d,
0xef,
0xf1,
0x0c,
0xf8,
0xef,
0xed,
0xf1,
0x08,
0xfb,
0x04,
0x03,
0x08,
0x09,
0x00,
0x12,
0x1a,
0x08,
0x09,
0xff,
0x03,
0x06,
0x01,
0xf4,
0x06,
0xeb,
0xe1,
0x17,
0xfb,
0xf7,
0xf2,
0x01,
0x06,
0xfe,
0x03,
0x0c,
0xfa,
0x0c,
0x08,
0x07,
0x00,
0x04,
0xef,
0xef,
0x05,
0xda,
0x1d,
0xe5,
0x05,
0x0b,
0x16,
0x16,
0xf6,
0xf6,
0xf9,
0xf9,
0x04,
0xf3,
0x01,
0xf7,
0x07,
0xf5,
0xfe,
0xf4,
0x06,
0xe8,
0xfb,
0xfb,
0x03,
0x08,
0xf9,
0xea,
0x05,
0xf3,
0x12,
0x0d,
0x06,
0x02,
0x09,
0xec,
0x0e,
0x08,
0xf5,
0x02,
0x00,
0xef,
0xfd,
0xff,
0xfe,
0x15,
0xe0,
0xfa,
0xfe,
0x04,
0x0d,
0x15,
0xf3,
0xfd,
0x09,
0x04,
0x0a,
0x09,
0xfb,
0x03,
0xfc,
0xff,
0xfd,
0xf8,
0xfb,
0xfb,
0xfa,
0xf4,
0xe3,
0xf8,
0x09,
0x01,
0xec,
0x0b,
0xf6,
0x02,
0x0a,
0x0a,
0x13,
0xf2,
0x00,
0x0c,
0x02,
0xff,
0x04,
0x0c,
0x07,
0x0b,
0x0b,
0x08,
0xfc,
0xf6,
0xfd,
0x11,
0x10,
0x16,
0x0d,
0x0a,
0x16,
0x08,
0x0f,
0xed,
0x03,
0xed,
0xe5,
0xeb,
0x08,
0x02,
0xff,
0xfe,
0x06,
0x0e,
0xfe,
0x0e,
0xeb,
0xfd,
0x09,
0xf4,
0xff,
0x0b,
0xf9,
0xfa,
0xee,
0x01,
0x12,
0xfd,
0xe9,
0xf0,
0x02,
0x02,
0xf9,
0xfd,
0xfc,
0xf0,
0xfe,
0xf6,
0xf3,
0x01,
0xfb,
0xfd,
0x01,
0xf8,
0x08,
0xf1,
0xf0,
0x04,
0xe7,
0xf3,
0xed,
0xea,
0xf9,
0xee,
0xf7,
0xfa,
0x13,
0x05,
0xff,
0xfe,
0xfe,
0x01,
0xf3,
0xfe,
0xfe,
0x00,
0x00,
0x00,
0x00,
0x00,
0x00,
0x00,
0x00,
0x00,
0x00,
0x00,
0x00,
0x00,
0x00,
0x00,
0x00,
0x00,
0x00,
0x00,
0x00,
0x00,
0x00,
0x00,
0x00,
0x00,
0x00,
0x00,
0x00,
0x00,
0x00,
0x00,
0x00,
0x00,
0x00,
0x00,
0x00,
0x00,
0x00,
0x00,
0x00,
0x00,
0x00,
0x00,
0x00,
0x00,
0x00,
0x00,
0x00,
0x00,
0x00,
0x00,
0x00,
0x00,
0x00,
0x00,
0x00,
0x00,
0x00,
0x00,
0x00,
0x00,
0x00,
0x00,
0x00,
0x00,
0x00,
0x00,
0x00,
0x00,
0x00,
0x00,
0x00,
0x00,
0x00,
0x00,
0x00,
0x00,
0x00,
0x00,
0x00,
0xfd,
0xf2,
0x2a,
0x19,
0xf3,
0x0a,
0x0f,
0xf1,
0xf0,
0xfa,
0x01,
0xf2,
0xfb,
0x16,
0x1e,
0x0b,
0xf7,
0x06,
0xff,
0xf3,
0xf9,
0xf8,
0x08,
0x01,
0x00,
0x02,
0xeb,
0xf8,
0xf7,
0x02,
0xf7,
0xf1,
0x00,
0x03,
0x04,
0x0e,
0x02,
0x00,
0x09,
0xfc,
0x0b,
0xfe,
0xf4,
0xdc,
0xe6,
0x00,
0xf4,
0xf6,
0x0b,
0xfc,
0x03,
0x18,
0xf4,
0xf6,
0xfc,
0xfe,
0x02,
0x0b,
0x0a,
0x0e,
0x04,
0x07,
0x11,
0x0b,
0x04,
0xf3,
0xe8,
0xe1,
0x09,
0x05,
0xf2,
0xee,
0x02,
0xdd,
0xf0,
0xe4,
0xe9,
0xfd,
0xe9,
0xf1,
0xf4,
0xfa,
0xf9,
0x0b,
0xee,
0xf9,
0x00,
0x08,
0xeb,
0xf3,
0xfd,
0xef,
0xfa,
0xf7,
0x01,
0xf3,
0xf8,
0xff,
0xf3,
0xf5,
0xf2,
0xff,
0x00,
0xf5,
0xf9,
0x0b,
0x02,
0x04,
0x0a,
0x07,
0x06,
0x04,
0x29,
0x24,
0x17,
0x0a,
0xf8,
0xf5,
0x0d,
0x0a,
0x00,
0xf2,
0xf9,
0xef,
0xfd,
0x08,
0xe5,
0xe4,
0x02,
0x04,
0x00,
0x08,
0x02,
0xfc,
0xfd,
0xef,
0xff,
0xfe,
0x10,
0x11,
0x02,
0x18,
0xfc,
0xfb,
0x03,
0xfb,
0x14,
0xfe,
0x06,
0xf2,
0x03,
0x02,
0x06,
0x0a,
0xfc,
0x1f,
0x10,
0x0c,
0xe9,
0x0e,
0x04,
0xee,
0xf3,
0xf8,
0xf8,
0xe5,
0x10,
0xe8,
0xf2,
0x37,
0x2f,
0xf2,
0x09,
0x1c,
0x06,
0xf8,
0x09,
0x01,
0xff,
0x01,
0x12,
0xfa,
0x08,
0x0f,
0x03,
0x09,
0xf3,
0x1a,
0x15,
0xd5,
0xfb,
0xd6,
0xf3,
0x0d,
0xfe,
0x0c,
0x20,
0x00,
0xf9,
0xfd,
0xfe,
0x03,
0x0b,
0x12,
0x07,
0x02,
0xff,
0x01,
0xe1,
0xf9,
0xf6,
0xfd,
0xfb,
0x0e,
0x02,
0xf7,
0xf1,
0xfd,
0xfa,
0xf9,
0x12,
0x0a,
0x03,
0x13,
0xf7,
0x03,
0xec,
0x09,
0xfb,
0x09,
0x00,
0xf9,
0x0a,
0x06,
0xf1,
0xff,
0xed,
0xf0,
0xe3,
0xea,
0xf1,
0xec,
0xf4,
0x03,
0xef,
0xf9,
0xef,
0xf3,
0xfa,
0xf5,
0xfa,
0xff,
0xfa,
0xff,
0xff,
0xfe,
0x08,
0xf1,
0x24,
0xff,
0x00,
0x04,
0x0b,
0xec,
0x00,
0xfe,
0xf3,
0x01,
0x0e,
0xfc,
0xf6,
0xfe,
0xfa,
0x00,
0x0a,
0x03,
0x02,
0x0a,
0x02,
0xf1,
0x04,
0xfc,
0xff,
0xea,
0xfe,
0x04,
0xfd,
0xf6,
0xfd,
0xfe,
0xf5,
0x02,
0xf8,
0x08,
0xf9,
0xfa,
0xfc,
0x12,
0xf9,
0x08,
0x0e,
0xfe,
0xfa,
0xf6,
0x01,
0xf3,
0xec,
0xeb,
0xf5,
0xfc,
0xed,
0xee,
0x09,
0xee,
0x20,
0xf2,
0xe6,
0xec,
0x0a,
0x01,
0xfa,
0x00,
0x03,
0x08,
0xfa,
0xf9,
0xfe,
0xfb,
0xf7,
0xff,
0x07,
0xfa,
0x06,
0xe7,
0x07,
0xfc,
0xf2,
0xfb,
0xe8,
0xee,
0xf6,
0x07,
0xff,
0x0a,
0x08,
0x00,
0x0d,
0x05,
0x06,
0x0b,
0x04,
0x03,
0xf2,
0xf6,
0x02,
0x0a,
0xf0,
0x1f,
0xf6,
0xec,
0xf0,
0xf6,
0x01,
0x0b,
0xf8,
0x03,
0x03,
0x1a,
0x30,
0x16,
0xf9,
0xf2,
0x1e,
0x26,
0x02,
0x08,
0x05,
0xfa,
0xf5,
0xf4,
0xe2,
0x06,
0x00,
0x0e,
0xfb,
0xf1,
0x05,
0xfb,
0x0a,
0x05,
0xfc,
0x00,
0xfb,
0x02,
0xfe,
0xf6,
0xff,
0xf5,
0xfb,
0x04,
0x2a,
0x13,
0x27,
0xff,
0xff,
0x0e,
0xfe,
0xe1,
0xde,
0x0b,
0xf6,
0x0a,
0xeb,
0x1b,
0xf4,
0xe3,
0xfa,
0xf9,
0xf9,
0x03,
0x09,
0x01,
0xfe,
0x01,
0xf3,
0xf6,
0x01,
0x08,
0xf2,
0x08,
0x0a,
0x0b,
0x0d,
0x20,
0xff,
0x02,
0xf0,
0x17,
0x0e,
0x34,
0x06,
0x10,
0x02,
0xe7,
0x0b,
0x12,
0x09,
0x09,
0x0e,
0xfd,
0xf7,
0x07,
0x0f,
0xf8,
0x13,
0x14,
0xfb,
0x16,
0x24,
0xfd,
0x0b,
0x0f,
0x0f,
0xfe,
0x05,
0xf9,
0x06,
0x04,
0x06,
0x09,
0x07,
0x09,
0x08,
0x08,
0x02,
0x15,
0x03,
0x02,
0x44,
0x06,
0x06,
0xeb,
0x00,
0xff,
0x10,
0xfc,
0xfd,
0x04,
0x09,
0x15,
0x11,
0x00,
0x01,
0x07,
0x07,
0x06,
0x12,
0xe5,
0x17,
0x00,
0x02,
0x04,
0xe5,
0x15,
0xf6,
0x05,
0x07,
0x0f,
0x11,
0x1e,
0x13,
0x1d,
0x09,
0x06,
0x09,
0xdf,
0x30,
0x03,
0x06,
0xff,
0x12,
0x11,
0x02,
0xe5,
0xfb,
0xff,
0x08,
0x06,
0xfd,
0x00,
0x09,
0x04,
0x12,
0x10,
0x04,
0x03,
0xf8,
0xfb,
0xf1,
0xfa,
0x03,
0xf6,
0x01,
0x00,
0x29,
0x00,
0xfc,
0xfc,
0x0c,
0x04,
0x31,
0xf5,
0x09,
0x31,
0x0f,
0xf0,
0x16,
0x01,
0xda,
0x13,
0x01,
0x0e,
0x12,
0x0d,
0x03,
0x0a,
0x02,
0xf9,
0x04,
0xed,
0xf3,
0xfe,
0x04,
0x1c,
0x0e,
0x01,
0x08,
0x00,
0x05,
0xff,
0x15,
0x0d,
0x14,
0xf9,
0xf6,
0xf7,
0xf5,
0xfd,
0xf1,
0xfc,
0x0b,
0x11,
0x00,
0xf1,
0xe6,
0x0e,
0x0b,
0x04,
0x11,
0x0d,
0x01,
0x22,
0x02,
0xed,
0xde,
0xeb,
0xf1,
0xff,
0x05,
0xfc,
0xfc,
0xf9,
0x06,
0xfe,
0xfb,
0x03,
0xf9,
0x05,
0x0e,
0x01,
0x00,
0xe8,
0x0c,
0x19,
0x11,
0x05,
0xe4,
0xf5,
0x00,
0x02,
0xff,
0xfe,
0xf7,
0xfb,
0x00,
0x02,
0x03,
0xf7,
0x05,
0x02,
0x00,
0x0a,
0x01,
0xeb,
0x0e,
0x05,
0x12,
0xf4,
0xfe,
0xf6,
0xec,
0xf2,
0xed,
0x0b,
0x03,
0x07,
0xf3,
0xfe,
0x1d,
0xf9,
0xf3,
0xf3,
0xf1,
0x01,
0x17,
0x08,
0x07,
0xee,
0xf9,
0xee,
0x08,
0x04,
0xfe,
0xde,
0x00,
0xfb,
0x04,
0xfe,
0x03,
0x03,
0x0c,
0x0f,
0xfa,
0x06,
0x01,
0x02,
0xfb,
0xfa,
0xfd,
0x1d,
0xec,
0x08,
0xf4,
0xf4,
0xf3,
0x0d,
0xfd,
0x00,
0xf6,
0xf8,
0xf7,
0xfc,
0xf4,
0xf9,
0xff,
0x0b,
0x02,
0x0c,
0x09,
0x06,
0xfd,
0xe6,
0xee,
0xf0,
0x05,
0x15,
0x1a,
0x05,
0x05,
0x0b,
0xf3,
0xf8,
0xee,
0xf0,
0x12,
0x08,
0x19,
0xdd,
0xdb,
0xfb,
0xe6,
0xf4,
0xf2,
0x1c,
0xf8,
0xfc,
0x03,
0xfe,
0xf9,
0x06,
0x09,
0xfb,
0x0b,
0x00,
0x05,
0x09,
0x06,
0x0f,
0x10,
0x11,
0xf8,
0xf8,
0x02,
0xfc,
0xf7,
0x04,
0x04,
0xff,
0xf7,
0x0d,
0x03,
0x05,
0xfc,
0x0b,
0xe8,
0xe0,
0xee,
0x25,
0x11,
0xf5,
0x05,
0x08,
0xeb,
0xf5,
0xf4,
0xf4,
0xfc,
0x0a,
0xfe,
0xfd,
0x01,
0x08,
0x08,
0x05,
0x00,
0xfb,
0xff,
0x10,
0x11,
0x17,
0x03,
0xfc,
0x06,
0xfb,
0x05,
0x03,
0xf0,
0x09,
0x04,
0xe0,
0xef,
0x13,
0xea,
0xf1,
0x1c,
0xe3,
0xec,
0x23,
0x09,
0xe1,
0x20,
0x0a,
0xe3,
0x13,
0x08,
0x00,
0x0e,
0xf6,
0x08,
0xf1,
0x05,
0x0e,
0xf2,
0xf7,
0x05,
0x0b,
0x01,
0x04,
0x12,
0xff,
0x03,
0x0a,
0xeb,
0xd8,
0x1c,
0x0d,
0x05,
0x11,
0xf1,
0x0a,
0xfc,
0x02,
0xfb,
0x03,
0xe3,
0xe5,
0x03,
0xdf,
0xf9,
0xfb,
0xf8,
0xff,
0xf8,
0xf2,
0xf2,
0x05,
0x05,
0x09,
0xfd,
0x06,
0xfb,
0xe9,
0xec,
0xf9,
0xf9,
0x07,
0xff,
0x00,
0x04,
0xea,
0xf0,
0xf9,
0x00,
0x00,
0x07,
0x0b,
0xff,
0x10,
0xe4,
0x05,
0xfe,
0xfb,
0x01,
0xf8,
0x00,
0x05,
0x06,
0xf1,
0x0d,
0xfe,
0x00,
0xfd,
0x0c,
0xfe,
0x01,
0xf5,
0xff,
0xf6,
0xf5,
0x00,
0xf6,
0xf7,
0xfc,
0x01,
0xfc,
0xfe,
0x12,
0xfd,
0xfc,
0x0c,
0x09,
0x13,
0xec,
0xfb,
0xe9,
0xfc,
0xfd,
0x03,
0x07,
0xfc,
0x02,
0xf1,
0xfd,
0x04,
0x04,
0x01,
0xfb,
0xff,
0x01,
0x1a,
0xef,
0xfa,
0x0a,
0xea,
0x06,
0xfa,
0xfe,
0x04,
0x13,
0xf6,
0xe8,
0xfc,
0xfd,
0xf2,
0x0b,
0x06,
0x18,
0x01,
0x03,
0xf8,
0x0c,
0x08,
0x01,
0x15,
0xf3,
0xfc,
0x1c,
0x17,
0x11,
0x0a,
0x06,
0x09,
0xf4,
0x07,
0x09,
0x07,
0x03,
0x00,
0x04,
0xf9,
0x07,
0x05,
0xfe,
0xfb,
0xfc,
0xfa,
0x20,
0x0b,
0x0c,
0x11,
0xff,
0xfd,
0x1a,
0x03,
0xee,
0x03,
0xfb,
0x0f,
0xf5,
0x00,
0x0b,
0xfd,
0x05,
0x05,
0xf9,
0x04,
0x08,
0x13,
0x06,
0x0d,
0x04,
0x09,
0x00,
0xfd,
0x04,
0xf7,
0x02,
0xff,
0x07,
0x0c,
0xf0,
0xfa,
0xea,
0x03,
0x07,
0xff,
0xfa,
0xf3,
0xe6,
0x18,
0xf4,
0x0a,
0xfb,
0xfb,
0x0a,
0x0f,
0x08,
0xfd,
0xff,
0x00,
0x03,
0xed,
0x07,
0xf9,
0x06,
0xfb,
0x03,
0xfb,
0xdd,
0xef,
0x09,
0xfd,
0xfa,
0x01,
0xf7,
0x02,
0x06,
0xfc,
0x02,
0x0a,
0x08,
0xf8,
0xfe,
0x14,
0xef,
0x0e,
0xf9,
0x14,
0xff,
0xff,
0x0a,
0xf1,
0xfb,
0x03,
0xf9,
0xfe,
0x00,
0x0a,
0x07,
0x0d,
0x03,
0x01,
0x07,
0xdd,
0xde,
0xfa,
0x0f,
0x0f,
0x12,
0x0c,
0xf7,
0xf2,
0xee,
0xf9,
0x00,
0x06,
0xf6,
0xfd,
0x02,
0xfb,
0x08,
0xe4,
0xf4,
0xe6,
0xe1,
0xff,
0x06,
0x13,
0x06,
0xff,
0x01,
0xeb,
0xe6,
0xfa,
0xf1,
0xe6,
0xfa,
0xf9,
0xfb,
0x02,
0x02,
0x06,
0xf5,
0xf5,
0xf1,
0xf7,
0x01,
0xea,
0xf9,
0xf8,
0xf1,
0xec,
0x0c,
0x03,
0xe3,
0xf5,
0x03,
0xfe,
0xed,
0xe5,
0xfc,
0xfa,
0xf3,
0xf3,
0x09,
0xfa,
0x0b,
0x04,
0xfa,
0x00,
0x02,
0xfe,
0x04,
0xfd,
0xfa,
0xfa,
0x0b,
0x0e,
0x0a,
0xff,
0x01,
0x06,
0xfb,
0x08,
0xdf,
0x06,
0x06,
0xf4,
0x14,
0x08,
0xff,
0xfa,
0x00,
0x0d,
0x00,
0xfb,
0x0d,
0x18,
0x05,
0xf4,
0x06,
0xf6,
0xf4,
0xf8,
0x18,
0x09,
0x10,
0xf0,
0x23,
0x07,
0xf2,
0x0d,
0xff,
0x06,
0x01,
0xf6,
0xfd,
0x06,
0x05,
0x06,
0x00,
0xfa,
0xfa,
0x06,
0xfa,
0x0f,
0xfe,
0x0e,
0x14,
0xf8,
0xf9,
0x14,
0x0b,
0xe7,
0xf1,
0x0b,
0x07,
0x06,
0x0b,
0xf6,
0x04,
0x07,
0x0a,
0xf6,
0xff,
0x06,
0x09,
0xf2,
0xf2,
0x15,
0x03,
0xde,
0x05,
0xfd,
0x0b,
0x19,
0x0c,
0xff,
0x03,
0x02,
0xe5,
0xfc,
0xeb,
0x0d,
0xe6,
0xf8,
0xe9,
0xee,
0x15,
0x04,
0xfa,
0xfa,
0xf8,
0xda,
0xf8,
0x09,
0x03,
0x08,
0x0b,
0x01,
0xf9,
0xfa,
0xf2,
0xf5,
0x08,
0xfb,
0x03,
0x07,
0xfe,
0x03,
0x05,
0x05,
0xf0,
0xf5,
0x1d,
0x0f,
0x0c,
0x03,
0xf2,
0xf8,
0xf1,
0xda,
0x0c,
0xff,
0xfd,
0x0c,
0xfb,
0xfb,
0x02,
0x09,
0xff,
0x04,
0x07,
0x0f,
0x04,
0xff,
0x04,
0x09,
0x15,
0x0d,
0xfc,
0xf7,
0x02,
0xf9,
0xe6,
0xe9,
0xee,
0xee,
0x0d,
0x08,
0xf3,
0xe8,
0xfe,
0xff,
0x17,
0xf7,
0x10,
0xf1,
0xe2,
0x03,
0xec,
0xe5,
0xf4,
0xf5,
0xe6,
0xe8,
0x00,
0x06,
0x1a,
0x03,
0x01,
0x10,
0xeb,
0xf6,
0xf7,
0x02,
0x18,
0xf0,
0xf3,
0xfa,
0xf2,
0xf5,
0xf1,
0xee,
0xf3,
0xf6,
0xfe,
0xf8,
0x0e,
0xe6,
0x06,
0xe2,
0xe0,
0xfb,
0xeb,
0xf1,
0xf1,
0x01,
0xf1,
0x0f,
0x14,
0x0f,
0x06,
0x0e,
0x05,
0x06,
0x02,
0x06,
0x03,
0x07,
0x0d,
0x06,
0xfd,
0x0b,
0x17,
0x02,
0xfe,
0xfe,
0xef,
0x27,
0xfa,
0x11,
0x1d,
0xf4,
0x10,
0x0c,
0x30,
0xf2,
0xfb,
0xe7,
0x00,
0x1a,
0xe6,
0xf7,
0xf4,
0x12,
0x02,
0x01,
0xee,
0x15,
0x0c,
0x07,
0x16,
0x21,
0x18,
0xfa,
0x04,
0x10,
0xfc,
0xfc,
0x0b,
0x17,
0x0d,
0x1c,
0x16,
0x0f,
0x11,
0x0f,
0x0a,
0x1a,
0x05,
0x0d,
0x20,
0xfe,
0x1e,
0x17,
0xfb,
0x09,
0xe7,
0xf7,
0xf4,
0x16,
0xf4,
0xfe,
0xfa,
0xe7,
0xe9,
0xf6,
0xf6,
0xf3,
0xf3,
0xfa,
0x1f,
0x11,
0xf9,
0xf3,
0xf7,
0x1c,
0x02,
0xfe,
0x17,
0x04,
0xef,
0xf3,
0xf3,
0x0f,
0xf7,
0x09,
0xf4,
0x06,
0xf6,
0xf3,
0xe4,
0xe8,
0x2c,
0x02,
0x0a,
0x0c,
0x02,
0x16,
0xfd,
0x0e,
0xdd,
0xef,
0x04,
0xf4,
0xff,
0x06,
0xdf,
0xea,
0x0b,
0xfa,
0xfd,
0xfa,
0xfc,
0xfc,
0xfa,
0x09,
0xf2,
0x02,
0xfe,
0xfc,
0x03,
0x01,
0xec,
0xf9,
0xf7,
0xd7,
0xf1,
0xf4,
0xfc,
0xf8,
0x00,
0x17,
0x08,
0x0b,
0x03,
0x06,
0x0c,
0xfe,
0x04,
0x0b,
0x04,
0x08,
0x06,
0xf5,
0x03,
0xe7,
0x09,
0x14,
0xfa,
0xfe,
0xfa,
0xf7,
0xfb,
0xf6,
0xfc,
0xfe,
0xf2,
0x07,
0x01,
0xfa,
0x10,
0xef,
0xf6,
0xfc,
0xff,
0xf2,
0xfc,
0xfb,
0x00,
0xf7,
0xfa,
0x07,
0xfc,
0x09,
0xf0,
0x08,
0xf2,
0x03,
0xf0,
0xfd,
0x06,
0x06,
0xf4,
0xfa,
0xf2,
0xf7,
0xff,
0x05,
0x04,
0x09,
0x03,
0x01,
0x1e,
0x0a,
0xf9,
0xf9,
0x0b,
0x1e,
0xfc,
0x15,
0x0e,
0xfe,
0xfd,
0x13,
0x04,
0xfd,
0x00,
0x04,
0xf9,
0xf7,
0x07,
0xfd,
0x04,
0xfd,
0xf5,
0xf4,
0xfd,
0x05,
0xf5,
0xfc,
0x02,
0x0b,
0x04,
0x08,
0x03,
0x05,
0x06,
0xf9,
0x00,
0xef,
0xfa,
0xe7,
0xe7,
0xea,
0xf5,
0x09,
0xfe,
0xed,
0x14,
0xef,
0xf9,
0xfd,
0xeb,
0xd7,
0xdc,
0xf8,
0xf7,
0xe2,
0xf3,
0xe7,
0xdd,
0xf3,
0xcf,
0x04,
0x0c,
0x11,
0x14,
0x17,
0x23,
0x0f,
0x0a,
0x1f,
0x0c,
0x11,
0xf1,
0xf3,
0xf3,
0x0f,
0xef,
0xdf,
0x01,
0x13,
0xe4,
0x07,
0x12,
0xea,
0xf6,
0x02,
0xe6,
0xd0,
0xfe,
0xe8,
0xe6,
0xf2,
0xea,
0xed,
0xff,
0xe6,
0x0a,
0x16,
0x0f,
0xfa,
0x09,
0x1b,
0xfd,
0x0d,
0x09,
0xfd,
0x00,
0xfe,
0xec,
0x11,
0x1b,
0xfc,
0xdd,
0xf7,
0x08,
0x1a,
0x0c,
0xfb,
0x0c,
0xf8,
0x10,
0xec,
0xf6,
0xf8,
0xf1,
0xf2,
0x02,
0x03,
0x03,
0xff,
0x00,
0x0a,
0x08,
0x03,
0xfd,
0xf7,
0x09,
0xfa,
0x02,
0xfe,
0x03,
0xfe,
0xe6,
0x08,
0x13,
0x09,
0xff,
0x07,
0x03,
0x06,
0xff,
0x07,
0x02,
0xf3,
0x09,
0x01,
0xef,
0x00,
0x05,
0xff,
0x02,
0xff,
0xff,
0x02,
0x0c,
0x12,
0x0a,
0x06,
0xff,
0xfe,
0xf9,
0xff,
0xf7,
0xf8,
0xf3,
0xec,
0x0d,
0x05,
0xeb,
0x00,
0x05,
0xfc,
0xe7,
0x0d,
0xeb,
0xfd,
0x0d,
0xfa,
0xdc,
0x01,
0xfe,
0xfa,
0xf1,
0x00,
0x08,
0xfe,
0x29,
0xea,
0x01,
0xe5,
0xfa,
0x14,
0xf2,
0xeb,
0x0e,
0xfa,
0xfd,
0xf5,
0xf3,
0xf4,
0xe5,
0xdf,
0xf3,
0xf0,
0xf2,
0xf7,
0x27,
0xf4,
0x06,
0xef,
0xe4,
0xf7,
0xe2,
0xe2,
0xf9,
0xe0,
0xf7,
0xf6,
0xe9,
0x00,
0xf8,
0xf2,
0xfc,
0x0a,
0xfe,
0x01,
0x08,
0x0c,
0x0f,
0xed,
0x0b,
0x18,
0x06,
0xe3,
0xe8,
0x13,
0x17,
0xf3,
0xee,
0x09,
0xf7,
0xf3,
0x0b,
0xfb,
0x02,
0x36,
0x22,
0x24,
0x25,
0x04,
0xed,
0x13,
0xf1,
0xeb,
0xec,
0xee,
0x0a,
0x07,
0xf8,
0x03,
0xf9,
0x0b,
0xfa,
0x02,
0xf6,
0xfc,
0xfa,
0x09,
0xfb,
0x06,
0x07,
0x09,
0x00,
0x12,
0x05,
0x05,
0x04,
0x08,
0xfd,
0xee,
0xfa,
0xe6,
0xec,
0xde,
0xf4,
0xf5,
0xf7,
0x11,
0xfb,
0xfc,
0xfd,
0xf3,
0xfb,
0xf4,
0xed,
0xf2,
0xfc,
0xf3,
0xf6,
0x00,
0x0e,
0x0a,
0xe6,
0x00,
0xfe,
0x09,
0xfd,
0x02,
0xf7,
0x01,
0x03,
0x18,
0xf2,
0xfa,
0xee,
0x00,
0x04,
0xf4,
0xfd,
0x16,
0xf5,
0x02,
0x1a,
0xfb,
0x08,
0xfa,
0x00,
0xfd,
0xe7,
0x05,
0xff,
0xfa,
0xfa,
0xfa,
0x09,
0x0b,
0x02,
0xef,
0xfa,
0x0c,
0x08,
0x07,
0x0a,
0x04,
0xf8,
0xf7,
0xfe,
0x06,
0x07,
0x07,
0xe4,
0xe7,
0x0f,
0xfd,
0xe2,
0x14,
0xed,
0xf0,
0xfc,
0xfa,
0x05,
0xf9,
0xf9,
0xf9,
0xfe,
0xfe,
0xfd,
0xf7,
0xea,
0xf8,
0xf9,
0x00,
0x36,
0x23,
0x13,
0x17,
0xf4,
0xf9,
0x01,
0xe7,
0x0c,
0x17,
0x08,
0xf9,
0x02,
0x02,
0x07,
0x0b,
0xf5,
0xff,
0xfd,
0x05,
0x00,
0x01,
0x02,
0xfe,
0xf4,
0xf0,
0xfe,
0x01,
0xfa,
0x03,
0xfc,
0xf9,
0x06,
0xf8,
0x03,
0x00,
0x04,
0x05,
0xfd,
0xf6,
0x05,
0x07,
0xfc,
0x0c,
0x02,
0xf9,
0xf9,
0x03,
0xf8,
0xf3,
0x01,
0xfb,
0xec,
0x07,
0x06,
0x0c,
0x23,
0xf9,
0x12,
0x0c,
0xff,
0x0c,
0xf0,
0xfd,
0x03,
0xf9,
0x05,
0x0d,
0xff,
0xff,
0x04,
0xf8,
0xf3,
0xf9,
0xf7,
0x07,
0x06,
0x02,
0xff,
0xf1,
0xfb,
0x0a,
0x01,
0xf5,
0x1d,
0x01,
0xeb,
0xf7,
0x1c,
0x04,
0xf5,
0x1b,
0x11,
0xfd,
0x13,
0xfe,
0xf6,
0x0e,
0x07,
0x03,
0xef,
0x05,
0x0e,
0x10,
0x0c,
0x01,
0xf1,
0xfb,
0x0c,
0x00,
0x12,
0x01,
0xff,
0xfc,
0xf9,
0x00,
0x05,
0xf8,
0x09,
0xff,
0xff,
0xfd,
0xef,
0x12,
0xfc,
0xec,
0x38,
0x04,
0xff,
0x02,
0x27,
0x06,
0x08,
0x03,
0xff,
0x04,
0x06,
0x02,
0xfb,
0xf8,
0x06,
0x00,
0x06,
0x03,
0xef,
0xfe,
0x04,
0x07,
0xef,
0x02,
0xf7,
0xfd,
0xf3,
0x06,
0x15,
0x03,
0x15,
0x05,
0xff,
0xef,
0xfd,
0x02,
0xec,
0xd9,
0x05,
0x02,
0xfb,
0xf3,
0x0a,
0xf7,
0x0a,
0xf4,
0xeb,
0xf6,
0x0f,
0xff,
0xfa,
0x00,
0x0b,
0xf9,
0xf5,
0xfa,
0xff,
0x15,
0xfa,
0x01,
0x06,
0xfc,
0x01,
0xfc,
0xfb,
0x00,
0x14,
0xf7,
0x0c,
0x09,
0xeb,
0xfe,
0x11,
0x01,
0x03,
0xfc,
0x02,
0xfb,
0xf4,
0x1c,
0xfd,
0xf6,
0x09,
0xfb,
0x03,
0xf5,
0x08,
0x03,
0x0b,
0x0e,
0x0c,
0x05,
0x1c,
0x15,
0x09,
0x06,
0xfd,
0xf3,
0xfb,
0xf6,
0x09,
0x01,
0x0c,
0xff,
0x13,
0x05,
0x03,
0xf8,
0xf7,
0x02,
0x00,
0xfa,
0xe4,
0x0f,
0x0c,
0x16,
0xf4,
0x01,
0x13,
0x03,
0x18,
0x07,
0xf6,
0x00,
0xff,
0x0d,
0x0d,
0x31,
0x1c,
0x02,
0x0a,
0x0d,
0x14,
0x08,
0x06,
0x0a,
0x05,
0x01,
0x07,
0x08,
0xff,
0x0d,
0xfb,
0xf8,
0xfe,
0x09,
0xfd,
0x10,
0x01,
0x16,
0xfa,
0x03,
0x05,
0x04,
0xfd,
0x03,
0xff,
0xf6,
0x00,
0xf9,
0xf7,
0xf7,
0xf1,
0xfb,
0x0c,
0xeb,
0x14,
0x09,
0xee,
0x02,
0x02,
0xee,
0xf4,
0x02,
0xe9,
0xfa,
0xf6,
0xfe,
0x00,
0xfe,
0xf1,
0xf7,
0x07,
0xf4,
0x00,
0xf1,
0xeb,
0x05,
0x06,
0xfd,
0xf8,
0x06,
0x0e,
0x10,
0xf1,
0x02,
0xf2,
0x04,
0x04,
0xf6,
0xff,
0xec,
0x11,
0x04,
0x0a,
0x00,
0xfa,
0x04,
0x00,
0xfb,
0x06,
0x1f,
0xf4,
0xff,
0x09,
0xf7,
0x24,
0xe1,
0xdd,
0x06,
0x03,
0xfd,
0x07,
0x0b,
0x02,
0xfb,
0x06,
0xfd,
0xfb,
0xfe,
0x0b,
0x0f,
0x05,
0xfa,
0xf9,
0xf9,
0xfa,
0xf1,
0x07,
0x01,
0xef,
0xfe,
0x13,
0x03,
0x0b,
0xf1,
0xf8,
0x06,
0xf6,
0xf1,
0x0f,
0x02,
0x0c,
0x02,
0x13,
0x04,
0xf9,
0x00,
0x02,
0x0c,
0xf8,
0x0b,
0x05,
0xfb,
0x23,
0xf7,
0xe8,
0x07,
0x29,
0xf9,
0xfc,
0xf2,
0xea,
0x04,
0xfa,
0xfc,
0x02,
0xff,
0x09,
0xf9,
0xfe,
0xfc,
0x05,
0xfc,
0x05,
0x0c,
0x15,
0x15,
0xf2,
0x1d,
0x06,
0x00,
0xff,
0xf6,
0x08,
0x03,
0x06,
0x04,
0x07,
0x0f,
0x05,
0xfe,
0x02,
0x08,
0xf8,
0xff,
0x0e,
0x05,
0xfb,
0x2c,
0x0a,
0x05,
0x08,
0xf4,
0x15,
0xea,
0x02,
0xf9,
0xe8,
0xfc,
0xec,
0x27,
0x13,
0x1b,
0x15,
0x17,
0x0d,
0x10,
0x13,
0x1f,
0x0c,
0x1c,
0x18,
0x02,
0x04,
0xff,
0xfa,
0xfc,
0xee,
0xea,
0xf2,
0xe1,
0xd0,
0x18,
0x18,
0x1f,
0xfd,
0x08,
0xfb,
0xf7,
0x06,
0x05,
0x0e,
0x06,
0xfe,
0xf5,
0xfa,
0xf9,
0xef,
0xf3,
0xfc,
0xe5,
0xe8,
0x09,
0x10,
0x1d,
0x08,
0xf7,
0x01,
0x08,
0xfc,
0x0a,
0xfc,
0x00,
0xfd,
0x04,
0x01,
0xfb,
0xf0,
0xf6,
0xeb,
0xf4,
0xe2,
0x3b,
0x2f,
0x2c,
0xf7,
0x04,
0xee,
0x12,
0xf1,
0x08,
0xf5,
0xf7,
0xfd,
0x08,
0xf2,
0xe7,
0x07,
0xed,
0x1a,
0x10,
0xfb,
0xeb,
0xeb,
0x09,
0xf7,
0x0b,
0x20,
0x12,
0xff,
0xf1,
0xf7,
0xed,
0xfb,
0xfb,
0x0b,
0x03,
0x06,
0x00,
0x07,
0x02,
0xfa,
0xee,
0xfc,
0x04,
0xff,
0x06,
0xf1,
0xfc,
0xfb,
0xf6,
0xee,
0x0b,
0xef,
0x0c,
0xf5,
0x0b,
0x0a,
0xfc,
0xf2,
0xf9,
0x0c,
0x08,
0xfb,
0x07,
0x02,
0x07,
0x05,
0x02,
0x04,
0x00,
0xed,
0xfb,
0xf9,
0x20,
0x0b,
0x00,
0xe6,
0x00,
0xdb,
0xf4,
0x17,
0x07,
0x03,
0x0c,
0xf3,
0xef,
0xda,
0xfa,
0xdd,
0xe4,
0xf9,
0x12,
0x04,
0xfa,
0xe0,
0xde,
0x1f,
0x0f,
0x17,
0xf3,
0x00,
0xf1,
0x13,
0x0a,
0x05,
0xfe,
0xfb,
0x0b,
0x03,
0x0b,
0x03,
0x08,
0x01,
0x01,
0xf5,
0xfd,
0xed,
0x07,
0xf6,
0x03,
0x07,
0xf8,
0xe8,
0x00,
0xf1,
0xff,
0x05,
0x07,
0x06,
0x14,
0xe6,
0x1b,
0x00,
0x03,
0xf7,
0xfe,
0xfd,
0x09,
0x08,
0xf7,
0xfd,
0x00,
0xf8,
0xfd,
0x00,
0x12,
0x03,
0x0e,
0x03,
0x01,
0x0a,
0x03,
0xed,
0xf0,
0x12,
0x09,
0x14,
0x0d,
0xf5,
0x13,
0x0e,
0x0f,
0x0d,
0xe5,
0x0f,
0x06,
0x06,
0xff,
0x03,
0x07,
0xf8,
0x05,
0x11,
0x24,
0x00,
0x0d,
0x0c,
0x00,
0x12,
0x15,
0xfe,
0x0d,
0x0b,
0x03,
0x01,
0x0a,
0x02,
0x09,
0xff,
0xfa,
0x1b,
0xec,
0x09,
0x0d,
0x11,
0x1b,
0x20,
0x04,
0x13,
0x08,
0xf3,
0x02,
0x03,
0x0f,
0xfa,
0xfd,
0x0b,
0xf0,
0x01,
0xfe,
0x05,
0xf9,
0xd6,
0xeb,
0x03,
0x00,
0xc9,
0xd8,
0xed,
0xef,
0xdf,
0x0d,
0x0b,
0xf1,
0xfb,
0xfa,
0xff,
0x04,
0xfa,
0xe6,
0xe4,
0x16,
0xf1,
0xf5,
0xf4,
0xe4,
0xe1,
0xf4,
0xf2,
0xe6,
0x10,
0x0f,
0x0a,
0x0c,
0xfe,
0xfa,
0x0f,
0xef,
0xfc,
0xe7,
0xfa,
0xcd,
0xfd,
0xfb,
0xf6,
0xed,
0xf1,
0xef,
0xe6,
0xfa,
0xe7,
0xf0,
0xe4,
0x01,
0x01,
0x05,
0xeb,
0xfb,
0x01,
0x10,
0x0a,
0xec,
0x05,
0x06,
0x0a,
0xf5,
0x16,
0x19,
0x0b,
0x12,
0x05,
0x08,
0x0e,
0xff,
0x00,
0xf7,
0xfc,
0x07,
0x07,
0xfb,
0xfb,
0xea,
0xf6,
0xf7,
0xe8,
0x13,
0x02,
0x09,
0x12,
0x0e,
0xfd,
0xfe,
0xf0,
0xfd,
0xf0,
0x12,
0x12,
0x0d,
0xf4,
0xed,
0x06,
0x01,
0xf7,
0xf6,
0xe8,
0xff,
0xf8,
0xfe,
0x1e,
0xda,
0x19,
0x03,
0x02,
0xf1,
0x0f,
0xff,
0x08,
0x04,
0xf9,
0xf1,
0x04,
0x06,
0x05,
0x09,
0x10,
0xfa,
0x22,
0xf7,
0xea,
0xfe,
0xf6,
0xf1,
0xed,
0x17,
0x0b,
0x00,
0xf0,
0xfd,
0xfa,
0xfc,
0xfc,
0xee,
0xff,
0xfe,
0xfc,
0xfa,
0xda,
0xf5,
0xeb,
0x06,
0xfc,
0x14,
0x02,
0x0e,
0x02,
0x14,
0xf9,
0x00,
0x10,
0x09,
0x0b,
0xe7,
0xf1,
0xf5,
0xec,
0xdf,
0x0f,
0xf0,
0xf4,
0x00,
0x08,
0x19,
0x0d,
0xd8,
0x13,
0xf9,
0xf9,
0x05,
0xdf,
0x0b,
0x03,
0x12,
0x01,
0xe9,
0xf6,
0xf5,
0xf6,
0x04,
0x00,
0xfc,
0xfc,
0x00,
0x04,
0xfd,
0xfe,
0xee,
0xf0,
0x10,
0x09,
0x17,
0x13,
0xef,
0xfe,
0xf8,
0xf4,
0xeb,
0x0c,
0xfb,
0x0c,
0xfa,
0x04,
0x06,
0xff,
0x0c,
0xf9,
0x02,
0xfa,
0x01,
0x0a,
0x00,
0xf7,
0x14,
0x04,
0xfd,
0xfb,
0x03,
0x05,
0xf7,
0x1a,
0xf8,
0xf6,
0x18,
0xfc,
0x03,
0x05,
0x00,
0xf1,
0xf5,
0x0d,
0xf5,
0xec,
0xfc,
0xfe,
0xfa,
0xf8,
0x02,
0x03,
0xf9,
0xf6,
0x01,
0xf2,
0x03,
0x09,
0xe4,
0x0f,
0x10,
0x06,
0xf5,
0x07,
0x04,
0xf9,
0x04,
0xfe,
0xfd,
0xfc,
0xf6,
0x00,
0x0d,
0x0d,
0x0f,
0x0c,
0x1a,
0x22,
0x08,
0x00,
0x10,
0x08,
0x0e,
0xfa,
0x06,
0x12,
0x02,
0x07,
0x0b,
0x07,
0x0b,
0x01,
0xf8,
0x0a,
0x03,
0x19,
0xf0,
0x03,
0xe9,
0xfd,
0x05,
0x08,
0x02,
0x0d,
0x17,
0x05,
0x0a,
0x11,
0x01,
0x06,
0x05,
0x05,
0x22,
0x13,
0xf9,
0xfa,
0x2e,
0x23,
0xf9,
0x12,
0x05,
0x20,
0x01,
0xf4,
0x03,
0x03,
0x0e,
0x0d,
0xf0,
0xfb,
0xf0,
0x0f,
0xfa,
0x09,
0x07,
0x05,
0x05,
0x0b,
0xfd,
0x07,
0xfd,
0x02,
0xff,
0x08,
0x00,
0x0d,
0xf7,
0xf8,
0x12,
0x11,
0xec,
0x06,
0x17,
0x04,
0x03,
0x0e,
0x1b,
0x0b,
0x16,
0x08,
0xff,
0x00,
0x01,
0xf4,
0x02,
0xff,
0x19,
0xfe,
0x04,
0x06,
0xf2,
0x12,
0x06,
0xff,
0xf6,
0x06,
0xf4,
0x05,
0x01,
0x10,
0x04,
0x11,
0xf4,
0xef,
0xf4,
0xfd,
0x03,
0x08,
0xfd,
0xff,
0x0b,
0xfb,
0x03,
0xff,
0x05,
0x00,
0xfc,
0xfb,
0x0f,
0x06,
0x07,
0x0a,
0xf6,
0x03,
0x04,
0x02,
0x00,
0x06,
0x04,
0x06,
0xff,
0x02,
0x01,
0x06,
0xff,
0xfa,
0x04,
0x1d,
0xe9,
0x04,
0x10,
0xe4,
0xf6,
0x14,
0x1d,
0x09,
0xeb,
0x0b,
0x08,
0x0e,
0x03,
0x02,
0x02,
0x0a,
0xfd,
0xf8,
0x00,
0xfd,
0xff,
0x05,
0x1b,
0xfb,
0xfd,
0x14,
0x0b,
0x12,
0x0a,
0x19,
0x01,
0x13,
0x06,
0xfd,
0xef,
0xff,
0x18,
0x29,
0xfa,
0xf5,
0xf7,
0x0c,
0xe0,
0xc7,
0x02,
0x06,
0xf9,
0xf5,
0xf3,
0x06,
0x06,
0xf1,
0xef,
0x09,
0xf2,
0x05,
0xfa,
0xf7,
0x07,
0xf8,
0xf6,
0x04,
0xfe,
0x02,
0xff,
0x09,
0x07,
0x04,
0xff,
0x00,
0x16,
0x0a,
0x0c,
0xfe,
0x17,
0x17,
0x03,
0xfa,
0x06,
0xfd,
0x16,
0x1b,
0xff,
0x09,
0x15,
0xff,
0xff,
0xff,
0xff,
0x03,
0x09,
0x07,
0xf8,
0x01,
0xfd,
0x07,
0x08,
0x0d,
0x18,
0x0b,
0x11,
0xfd,
0xed,
0xf5,
0x07,
0xf2,
0x10,
0xea,
0x07,
0xfe,
0xf9,
0x08,
0x0d,
0x08,
0x02,
0xea,
0xec,
0x0a,
0x0a,
0x01,
0xee,
0xe7,
0xe4,
0x06,
0x1c,
0xf7,
0x0b,
0xed,
0xef,
0xe1,
0xfe,
0xf4,
0xf7,
0xec,
0xfc,
0xfb,
0xfc,
0x00,
0x03,
0xfb,
0xe9,
0xf0,
0xef,
0x08,
0xfb,
0x02,
0x25,
0x21,
0xf6,
0x0b,
0x05,
0xfa,
0xf9,
0xe6,
0x0c,
0xfd,
0x0a,
0x0e,
0x0a,
0xfd,
0x10,
0xfd,
0x01,
0xfc,
0x06,
0x08,
0x29,
0x00,
0xee,
0xfa,
0xf5,
0x00,
0xfd,
0xf9,
0x0d,
0x17,
0xff,
0x11,
0x11,
0x01,
0xf4,
0x0f,
0x0b,
0xf5,
0x01,
0x13,
0x21,
0x0f,
0x04,
0x00,
0x0b,
0xfd,
0xf9,
0x00,
0x04,
0x02,
0x10,
0x11,
0x0b,
0xfe,
0xf1,
0x08,
0xfd,
0xf8,
0x08,
0xf6,
0x00,
0xf8,
0xff,
0x0b,
0x05,
0x02,
0xfd,
0xdd,
0x04,
0x01,
0x0e,
0xfc,
0x07,
0xec,
0xec,
0xf8,
0x03,
0xe7,
0x00,
0xf7,
0x01,
0xe2,
0xf9,
0x04,
0x02,
0xf5,
0x07,
0x05,
0x02,
0x03,
0x00,
0x13,
0x0f,
0x09,
0xf6,
0x09,
0xf4,
0x03,
0x01,
0x01,
0xf2,
0x01,
0x03,
0xfd,
0x0e,
0x02,
0xee,
0xf7,
0xe7,
0x08,
0x04,
0xf8,
0xfd,
0x01,
0xf6,
0xfc,
0x0d,
0xfe,
0xfe,
0x05,
0xfa,
0x06,
0x04,
0xff,
0x13,
0x10,
0xf3,
0x06,
0x19,
0xfb,
0xeb,
0x01,
0xf6,
0xf7,
0x02,
0xf8,
0xef,
0xf8,
0xfe,
0xff,
0xfe,
0x21,
0xe3,
0x24,
0x0b,
0x1f,
0xfd,
0xdd,
0x04,
0x11,
0x08,
0xff,
0x07,
0x10,
0x0b,
0xff,
0x0a,
0xfb,
0xf1,
0xf5,
0xf1,
0x02,
0x09,
0xf4,
0xfb,
0x01,
0xd8,
0xfc,
0xf3,
0xfa,
0xfa,
0x05,
0xfc,
0xeb,
0x07,
0x00,
0x07,
0x05,
0x06,
0x05,
0xfe,
0x15,
0xf5,
0xeb,
0xf6,
0x05,
0xe2,
0x17,
0x07,
0xef,
0x0a,
0x03,
0xf7,
0xe8,
0xfc,
0xfb,
0xf2,
0xef,
0xea,
0xfe,
0x0a,
0x04,
0xf8,
0xfc,
0xfd,
0xf4,
0x0a,
0xff,
0xfd,
0xff,
0x03,
0xef,
0xf8,
0xfc,
0xfb,
0x00,
0xf1,
0x0f,
0xfb,
0x04,
0x1d,
0x0d,
0xfb,
0xfe,
0xf5,
0x06,
0x0e,
0xfa,
0xfa,
0x04,
0xf7,
0x05,
0x04,
0x04,
0xfc,
0xfe,
0x09,
0xf7,
0x0b,
0x00,
0x04,
0x13,
0x0b,
0xfc,
0xfe,
0xee,
0x24,
0xfb,
0xf6,
0xf2,
0xe3,
0x0e,
0xf0,
0x00,
0x14,
0xe3,
0x07,
0xf2,
0x13,
0x09,
0xf8,
0xfe,
0x08,
0x03,
0x08,
0xf9,
0x02,
0xf3,
0x01,
0x0d,
0xe9,
0xfb,
0x0b,
0x0a,
0x0a,
0xf8,
0xfc,
0x01,
0xfe,
0xf7,
0x06,
0x00,
0xfb,
0xfe,
0xff,
0xf4,
0x0b,
0xf6,
0xee,
0x11,
0xfc,
0xe1,
0x0e,
0xf7,
0x10,
0x02,
0x01,
0x02,
0x0b,
0xfe,
0x02,
0x05,
0xfb,
0xff,
0x03,
0xff,
0x04,
0x0b,
0x06,
0x00,
0x1f,
0x06,
0xff,
0x07,
0xfb,
0xe5,
0x02,
0x18,
0x17,
0xf4,
0x00,
0x0c,
0xf0,
0x18,
0xec,
0xf8,
0xfd,
0xdf,
0xed,
0xfc,
0xef,
0x07,
0xeb,
0x22,
0x0f,
0x0e,
0x12,
0x0f,
0x02,
0xef,
0xe7,
0x02,
0xfb,
0x10,
0xfb,
0xfc,
0xfb,
0xfd,
0x09,
0xf9,
0xfa,
0x00,
0xf5,
0xf2,
0xf4,
0x09,
0x06,
0x1f,
0xef,
0x0b,
0xfb,
0xea,
0x09,
0x06,
0xe4,
0x0b,
0xed,
0xf8,
0xed,
0xfb,
0xff,
0x08,
0x06,
0x05,
0x10,
0x06,
0xff,
0x00,
0xf3,
0xf4,
0xef,
0x0b,
0x0b,
0x0a,
0xf8,
0xff,
0xf3,
0x04,
0x09,
0xfb,
0xe2,
0xe6,
0xf7,
0xf7,
0xf3,
0x03,
0xde,
0xf4,
0xfc,
0xed,
0xe4,
0xd7,
0x06,
0xfc,
0x04,
0x01,
0x09,
0x16,
0x11,
0x1f,
0x03,
0xf5,
0xe8,
0x0a,
0x07,
0x03,
0x28,
0x04,
0xf3,
0x01,
0x00,
0x02,
0x08,
0x02,
0x05,
0x08,
0x0a,
0x12,
0x02,
0x22,
0x05,
0xf1,
0x17,
0x01,
0xef,
0x03,
0x04,
0x11,
0x24,
0xfc,
0x00,
0x01,
0x05,
0x02,
0x06,
0x02,
0x02,
0xfd,
0xfd,
0x00,
0x04,
0x10,
0x17,
0xee,
0xf5,
0xdb,
0xed,
0x12,
0x14,
0x19,
0xe0,
0xf5,
0xee,
0xe5,
0xf4,
0xf5,
0xf5,
0x0f,
0xef,
0xdd,
0x02,
0x03,
0x1e,
0xff,
0x01,
0x03,
0x19,
0x01,
0xe1,
0x17,
0xfc,
0x0a,
0xf7,
0xfd,
0xfb,
0xff,
0xfa,
0xe9,
0x0c,
0xf0,
0xf9,
0xfc,
0x10,
0x09,
0xfd,
0x08,
0x09,
0x02,
0x0f,
0xec,
0x1f,
0xf6,
0x09,
0xf2,
0xe2,
0xff,
0xef,
0xdc,
0x01,
0x0e,
0x0b,
0x0d,
0xf1,
0xf0,
0xf1,
0xfc,
0x01,
0x01,
0xfb,
0x05,
0xfd,
0x03,
0x02,
0xfc,
0xf9,
0xfb,
0x07,
0x0a,
0x0a,
0x03,
0x17,
0xfe,
0xfb,
0xf0,
0xff,
0xf7,
0xf3,
0x0b,
0xf9,
0xf7,
0xf3,
0x01,
0x00,
0x07,
0xf7,
0xfe,
0xeb,
0x04,
0xff,
0x01,
0x04,
0xfe,
0x04,
0xf2,
0xfd,
0x08,
0xfc,
0x0a,
0xf7,
0xf4,
0x0b,
0x03,
0x00,
0xff,
0xfb,
0xfa,
0x00,
0xf0,
0xf2,
0xfe,
0xfe,
0xf6,
0x00,
0xfb,
0x09,
0xf8,
0x01,
0xe3,
0xf9,
0xed,
0x00,
0xf7,
0xfb,
0x02,
0x05,
0x03,
0x01,
0x05,
0x0c,
0xfe,
0xff,
0x03,
0x03,
0x01,
0x04,
0x0a,
0x02,
0x0f,
0x0f,
0xf5,
0xfa,
0x01,
0x10,
0xfb,
0x04,
0x05,
0xfa,
0x13,
0xfd,
0x08,
0x05,
0x07,
0x01,
0x1e,
0xe5,
0x37,
0x16,
0x11,
0x0a,
0x2b,
0xec,
0x0a,
0x0e,
0x2b,
0xf5,
0x0a,
0x0b,
0xf9,
0xf4,
0x01,
0x03,
0xf9,
0x00,
0xf2,
0xfb,
0x0a,
0x00,
0x08,
0xfb,
0x02,
0xfd,
0xfa,
0xfa,
0x0a,
0xef,
0x0b,
0x0c,
0x17,
0x20,
0x1f,
0x0d,
0x1c,
0xfe,
0xf7,
0x0a,
0x01,
0xfd,
0xfc,
0xf8,
0xf5,
0xfd,
0xfc,
0x02,
0x06,
0x11,
0x0a,
0xea,
0x07,
0xfc,
0x04,
0xed,
0xfc,
0x03,
0xff,
0x06,
0xf3,
0x01,
0xec,
0x0d,
0xfd,
0x19,
0xf0,
0xf3,
0x0d,
0x18,
0x00,
0x04,
0x0f,
0xfd,
0xf4,
0x0f,
0xf0,
0x04,
0x00,
0x00,
0x04,
0x06,
0x1a,
0x03,
0x12,
0xf7,
0xfd,
0x0c,
0xff,
0xfa,
0x0d,
0x01,
0xf9,
0x07,
0xff,
0x0c,
0xfe,
0xfb,
0xfb,
0xfa,
0xfc,
0xff,
0x0f,
0xe4,
0xf1,
0x02,
0xec,
0xfa,
0xe6,
0xef,
0xf4,
0xf0,
0x09,
0x04,
0xfb,
0x04,
0x06,
0x09,
0x0e,
0x02,
0x01,
0x00,
0xf9,
0xfd,
0x00,
0x1a,
0xef,
0x1b,
0x18,
0xfe,
0xec,
0xe3,
0xf8,
0xf9,
0xfb,
0xfe,
0x0f,
0x0a,
0x09,
0x15,
0x0a,
0xf7,
0xf0,
0xec,
0xec,
0x0f,
0x0e,
0x17,
0x11,
0x18,
0xed,
0x09,
0xed,
0xed,
0xef,
0xf2,
0xef,
0xfb,
0xf9,
0xf6,
0xf9,
0x14,
0xfb,
0x00,
0x09,
0x12,
0x0b,
0x14,
0x14,
0x0a,
0x0e,
0x11,
0xfa,
0x14,
0xff,
0xfe,
0xf1,
0x09,
0x0f,
0x2b,
0x0f,
0x0f,
0x18,
0x11,
0x17,
0x03,
0xfc,
0xfd,
0x00,
0xed,
0xed,
0xf2,
0xfb,
0xf9,
0xfe,
0x0a,
0xf2,
0xfc,
0xf4,
0xfd,
0xe9,
0x16,
0x09,
0x02,
0x0c,
0x08,
0x03,
0xdb,
0xf0,
0xfd,
0xfc,
0x01,
0x0b,
0xf9,
0x0d,
0xf3,
0x16,
0xf4,
0x16,
0xfd,
0x0a,
0x0d,
0x0f,
0x0b,
0x0c,
0xf9,
0xf9,
0xfd,
0xf4,
0x07,
0x00,
0xf9,
0x09,
0xf7,
0xe7,
0x03,
0xf0,
0x04,
0xfd,
0xff,
0x0a,
0xfa,
0xfd,
0xf1,
0xfa,
0xee,
0x0e,
0xf2,
0x00,
0x0a,
0x00,
0xf7,
0x0d,
0x04,
0x0a,
0x0d,
0x03,
0xf5,
0xf8,
0x00,
0x01,
0x06,
0xf7,
0x01,
0x08,
0x00,
0x02,
0x07,
0xf1,
0x13,
0x1b,
0x19,
0xfd,
0xf6,
0xfe,
0x08,
0x01,
0xf8,
0x1c,
0xf6,
0xf2,
0x04,
0xfc,
0xff,
0xce,
0x2a,
0x3a,
0x0f,
0x04,
0x07,
0x1d,
0x17,
0x10,
0x13,
0xfa,
0x2b,
0x18,
0xf8,
0x0a,
0xfd,
0xfc,
0xf0,
0x0b,
0xf5,
0x00,
0xfb,
0x06,
0x0d,
0x03,
0xfe,
0xfe,
0x05,
0x06,
0xff,
0xf8,
0xfb,
0x08,
0x00,
0xf7,
0x14,
0x16,
0x04,
0xfb,
0x06,
0x06,
0x05,
0x13,
0x0a,
0x05,
0xfc,
0xfc,
0x01,
0x00,
0x04,
0x05,
0x0b,
0x08,
0x04,
0x07,
0x03,
0xfe,
0x0a,
0xff,
0xf8,
0x01,
0x03,
0xfb,
0xfa,
0xe1,
0xee,
0x06,
0xc0,
0xb2,
0xd7,
0xc2,
0x24,
0x0e,
0xed,
0xcf,
0xe7,
0xf8,
0xe1,
0xda,
0xf7};
