/* SPDX-License-Identifier: GPL-2.0 */
/*
 * Copyright (c) 2020 MediaTek Inc.
 *
 * Author: Ya-Wen Hsu <Ya-Wen.Hsu@mediatek.com>
 *
 */
char gender_kernel_bias_loop00_0_frame01[] = {
0xf9,
0xf9,
0xf8,
0xf9,
0xfa,
0xf9,
0xfb,
0xfa,
0xfb,
0xf6,
0xfa,
0x09,
0xf5,
0xfd,
0x0c,
0xf7,
0xf4,
0xfe,
0xf7,
0xf6,
0xfe,
0xff,
0xff,
0xfe,
0xff,
0xff,
0xfd,
0xfe,
0xfd,
0x01,
0x01,
0x01,
0xf5,
0xf4,
0xff,
0x00,
0xff,
0x0c,
0x0f,
0x0c,
0xfe,
0xfb,
0xfd,
0xfa,
0xf5,
0xfa,
0xf9,
0xf4,
0xfb,
0xf8,
0xf4,
0x01,
0x0b,
0x0b,
0xf8,
0x00,
0x09,
0xf2,
0xf6,
0xfd,
0xe4,
0xfd,
0xff,
0xe5,
0xfd,
0xfe,
0xfe,
0xfd,
0x00,
0x00,
0x00,
0x00,
0x00,
0x00,
0x02,
0x02,
0x08,
0x06,
0x00,
0x01,
0x07,
0x09,
0x05,
0xf8,
0xf9,
0x0d,
0xff,
0xf9,
0x09,
0x03,
0xfa,
0x0c,
0x0b,
0x02,
0x07,
0xfe,
0x01,
0x03,
0x01,
0xfd,
0x00,
0xfd,
0xf1,
0xf4,
0xf1,
0xf4,
0xf9,
0xf3,
0xef,
0xf2,
0xef,
0xf9,
0x07,
0x02,
0x08,
0x16,
0xee,
0xe5,
0xee,
0x14,
0x08,
0x00,
0xf1,
0xf3,
0xff,
0x19,
0x19,
0x14,
0x00,
0xc9,
0xdc,
0x02,
0x09,
0x01,
0xff,
0x01,
0xfd,
0xfb,
0xfd,
0xfe,
0xfc,
0xfc,
0x00,
0xff,
0x03,
0x08,
0x01,
0x03,
0x05,
0xff,
0x03,
0x00,
0x04,
0xfb,
0xfb,
0x04,
0xf7,
0xfe,
0x08,
0xfa,
0xf5,
0xfd,
0xf7,
0xfd,
0x00,
0xfe,
0x03,
0x01,
0xfe,
0x02,
0x00,
0xfe,
0x00,
0x03,
0x03,
0x03,
0xf9,
0xfb,
0x00,
0xff,
0x00,
0x06,
0x08,
0x07,
0x02,
0x05,
0x03,
0x03,
0x06,
0x02,
0x03,
0x04,
0xfc,
0xf7,
0xf2,
0x02,
0x0b,
0x08,
0xf8,
0xff,
0x06,
0xf8,
0xf7,
0xfd,
0xd2,
0xfe,
0x1e,
0xdd,
0xff,
0xfe,
0xfe,
0xfe,
0x00,
0x01,
0x00,
0xff,
0xfe,
0xff,
0xff,
0xff,
0xfd,
0xfd,
0xfd,
0xff,
0x4c,
0x14,
0x18,
0x11,
0x37,
0x42,
0x0a,
0x0d,
0x08,
0x0e,
0x07,
0x0f,
0x05,
0x0a,
0x36,
0x3b};
