/* SPDX-License-Identifier: GPL-2.0 */
/*
 * Copyright (c) 2020 MediaTek Inc.
 *
 * Author: Ya-Wen Hsu <Ya-Wen.Hsu@mediatek.com>
 *
 */
char gender_kernel_bias_loop07_1_frame01[] = {
0xf5,
0xf3,
0xeb,
0xe8,
0xf8,
0xf8,
0x00,
0xff,
0x07,
0x10,
0x00,
0x09,
0x00,
0xf9,
0xf5,
0xfe,
0xec,
0xd6,
0xcb,
0x01,
0xda,
0xda,
0xf2,
0x06,
0xfd,
0x07,
0x11,
0x1b,
0x05,
0x0a,
0x03,
0xfd,
0x02,
0xec,
0xf5,
0xfb,
0xf6,
0xf3,
0xf6,
0xf8,
0xf4,
0x00,
0xef,
0xf0,
0x08,
0xdd,
0xe9,
0x19,
0x12,
0x06,
0x18,
0x2d,
0x0d,
0x03,
0x34,
0x19,
0x18,
0x12,
0x03,
0xfc,
0xfb,
0xed,
0xea,
0xe1,
0xe9,
0xf1,
0xf2,
0xfd,
0x0a,
0x00,
0x07,
0x1f,
0xff,
0x05,
0xf9,
0xf4,
0x03,
0x17,
0x06,
0xeb,
0xf9,
0x07,
0xe5,
0xf1,
0x25,
0x1f,
0x0b,
0x25,
0x2f,
0x26,
0x06,
0x0a,
0x0b,
0x15,
0x0d,
0x02,
0xda,
0xfc,
0xe5,
0xe3,
0xf7,
0xfc,
0xf1,
0x00,
0x05,
0xf2,
0x05,
0x01,
0x07,
0xff,
0x09,
0x12,
0x11,
0x1f,
0x16,
0xeb,
0xeb,
0xf4,
0xda,
0xd0,
0xea,
0xde,
0xdd,
0x00,
0x15,
0xf7,
0x06,
0x10,
0x06,
0xf0,
0xf7,
0x0d,
0x03,
0xea,
0xfc,
0xff,
0x0d,
0x10,
0x0b,
0xfd,
0x15,
0xf8,
0xfb,
0x11,
0xeb,
0xf4,
0x0a,
0x20,
0x0c,
0x0e,
0x1d,
0x20,
0x0f,
0x20,
0x21,
0x1c,
0x2f,
0x23,
0x20,
0x1a,
0xf4,
0xd7,
0xe1,
0xf1,
0xd7,
0xdb,
0xd4,
0xd0,
0xde,
0xe4,
0xcb,
0xe6,
0xfc,
0xf6,
0x06,
0x07,
0x07,
0x33,
0x2d,
0x15,
0x10,
0x18,
0x23,
0x00,
0x00,
0x04,
0x0f,
0xff,
0x00,
0x0e,
0xf5,
0x00,
0x12,
0x17,
0x11,
0x0e,
0x15,
0xe7,
0x01,
0x03,
0xee,
0xf1,
0x02,
0xf6,
0xf1,
0xf8,
0xfc,
0xf4,
0xf3,
0xfd,
0xf6,
0xfd,
0x01,
0xf3,
0xec,
0xef,
0x04,
0xf1,
0xd9,
0x01,
0xdf,
0xf3,
0x0b,
0xfd,
0x10,
0x2f,
0x24,
0x0e,
0x00,
0x05,
0x15,
0xff,
0xf8,
0xff,
0x1e,
0x11,
0x08,
0xec,
0xfc,
0xea,
0x21,
0x10,
0x17,
0x31,
0x19,
0x00,
0x00,
0x13,
0xe4,
0xe5,
0xf5,
0xed,
0xe2,
0xf8,
0xf1,
0xdf,
0xf8,
0x06,
0xf0,
0xf7,
0xf1,
0xf1,
0xf7,
0xd8,
0xee,
0x09,
0xec,
0x06,
0x04,
0x07,
0x0b,
0x0e,
0x03,
0x03,
0x0f,
0x0a,
0x09,
0x1e,
0x04,
0xf9,
0xea,
0xf9,
0xe1,
0xdc,
0xe6,
0xef,
0xdd,
0xd9,
0xeb,
0xe6,
0x08,
0x1d,
0x25,
0x02,
0x12,
0x02,
0xfd,
0xed,
0xf6,
0xf7,
0xe6,
0xfc,
0xf4,
0xf9,
0x1d,
0x1b,
0x1a,
0x1b,
0x27,
0x17,
0x00,
0xfd,
0xf7,
0xfb,
0xf9,
0xfc,
0x00,
0xfa,
0x00,
0xfe,
0x1b,
0xfe,
0xf7,
0x02,
0xf3,
0x00,
0x01,
0xe6,
0xe2,
0x11,
0xf9,
0x00,
0xf9,
0xf3,
0xfa,
0x04,
0xdd,
0xe9,
0xf7,
0xef,
0xef,
0xf9,
0xf6,
0x03,
0xed,
0xdf,
0xf5,
0xe8,
0xdf,
0x06,
0x19,
0x17,
0x05,
0x0e,
0x25,
0x25,
0x14,
0x31,
0x27,
0x21,
0x3d,
0xfa,
0xed,
0xf0,
0xfe,
0xf8,
0xe9,
0x0c,
0x13,
0x17,
0x33,
0x1f,
0x1e,
0x2a,
0x0a,
0x1f,
0x23,
0x19,
0xfc,
0x0f,
0x00,
0x05,
0x07,
0xee,
0x19,
0x19,
0xf3,
0xff,
0x08,
0x00,
0xf2,
0x03,
0xf3,
0xf3,
0x04,
0x06,
0xf9,
0xf8,
0xf4,
0xfd,
0x0d,
0x01,
0xee,
0xfb,
0x00,
0x09,
0x04,
0x0f,
0x0d,
0xfe,
0x04,
0xf3,
0xf8,
0x01,
0xf5,
0xde,
0x11,
0xf0,
0xfd,
0x18,
0xfe,
0xf8,
0x11,
0xde,
0xec,
0x00,
0xd7,
0x03,
0x02,
0x00,
0x15,
0xf8,
0xf6,
0xfc,
0xf3,
0xeb,
0xeb,
0xc8,
0xc7,
0xdc,
0xf9,
0xdf,
0xec,
0x11,
0x0d,
0x02,
0x25,
0x20,
0x0b,
0x02,
0x04,
0xe4,
0xfa,
0x04,
0x02,
0x10,
0x24,
0x2c,
0x38,
0x33,
0x0f,
0x29,
0x08,
0xed,
0xff,
0x00,
0x04,
0xfa,
0xf2,
0xef,
0xdd,
0xef,
0xe4,
0xe8,
0x30,
0x24,
0x1e,
0x21,
0x16,
0x11,
0x04,
0xf3,
0xed,
0xeb,
0xe7,
0xf8,
0xf8,
0xed,
0xed,
0xee,
0xec,
0xd8,
0xe8,
0x07,
0x0a,
0xff,
0x38,
0x36,
0x24,
0x2b,
0x44,
0x37,
0x1b,
0x32,
0x15,
0x0c,
0x0d,
0xfc,
0x01,
0x00,
0x11,
0xfc,
0xf9,
0xf1,
0x04,
0xfc,
0x08,
0xe4,
0xe9,
0xef,
0xfe,
0x05,
0xea,
0xde,
0xf5,
0x04,
0x06,
0x0b,
0xfa,
0xf7,
0x07,
0x00,
0xfe,
0xf4,
0xfd,
0xfc,
0x18,
0x0c,
0xff,
0x15,
0x07,
0x03,
0x12,
0x17,
0x04,
0x10,
0x1b,
0x1d,
0x11,
0x12,
0x16,
0x27,
0x1e,
0x0b,
0x18,
0x0f,
0x07,
0xf1,
0xed,
0xf6,
0x02,
0xf7,
0x01,
0xee,
0xfe,
0xfd,
0x02,
0xf1,
0xf7,
0x04,
0x02,
0xfd,
0x01,
0x02,
0x0d,
0x0f,
0x1f,
0x0f,
0x14,
0x16,
0x00,
0xfc,
0x0c,
0x08,
0xf0,
0xe1,
0xfd,
0xff,
0xef,
0x02,
0xfe,
0xf2,
0xcf,
0xde,
0xd1,
0xd8,
0xd5,
0xe6,
0xe8,
0xe4,
0xfa,
0xf5,
0xe5,
0xff,
0xf9,
0xdf,
0x04,
0xee,
0xf9,
0xdb,
0xed,
0x09,
0xf7,
0xe0,
0xf9,
0xff,
0xe8,
0xec,
0xf0,
0xf6,
0xe9,
0xe7,
0xca,
0xec,
0x1f,
0x1e,
0x18,
0x14,
0x1c,
0x0a,
0x1d,
0x03,
0x0c,
0x21,
0x09,
0x06,
0x07,
0x04,
0xdd,
0xc9,
0xe5,
0xe0,
0xf3,
0xd8,
0xd0,
0xe2,
0xe6,
0xcf,
0xe8,
0x00,
0x00,
0x06,
0xfb,
0xfb,
0x05,
0xee,
0x03,
0x0c,
0xee,
0xe8,
0xea,
0xd3,
0xe2,
0xe4,
0x9f,
0xc3,
0xe0,
0xc1,
0xe7,
0xdd,
0xe9,
0xf6,
0xfd,
0x16,
0x01,
0x0d,
0x19,
0x1b,
0x1a,
0x08,
0xff,
0x07,
0x01,
0x07,
0xfc,
0xeb,
0xfc,
0x01,
0x19,
0x0f,
0x00,
0xfc,
0xf5,
0xfc,
0x06,
0xed,
0xe3,
0x0f,
0xec,
0xdb,
0xff,
0x05,
0x10,
0xf7,
0x0a,
0x03,
0x23,
0x13,
0x0e,
0x03,
0xf9,
0xf4,
0xf6,
0xfd,
0x04,
0xf5,
0xfb,
0x13,
0x00,
0x08,
0x00,
0x0b,
0x07,
0x09,
0xfe,
0x14,
0x17,
0x02,
0x04,
0x09,
0x15,
0x06,
0x1a,
0x10,
0x00,
0xf2,
0x06,
0x0a,
0x1e,
0xe9,
0x17,
0x1b,
0xf4,
0xd3,
0xf7,
0x0f,
0x29,
0x2b,
0x26,
0x54,
0x25,
0xf4,
0xe9,
0x0c,
0x12,
0x0f,
0x0c,
0x02,
0xf5,
0x10,
0xf7,
0x06,
0x19,
0x1d,
0x07,
0x00,
0xfc,
0xf7,
0xf2,
0xe0,
0x13,
0xe0,
0xe9,
0x2e,
0x2d,
0xe7,
0x2e,
0x17,
0xf4,
0x14,
0xf5,
0xf2,
0xf4,
0x05,
0x0a,
0xef,
0xe9,
0x06,
0xf9,
0xe4,
0x25,
0x03,
0x00,
0x11,
0x17,
0x15,
0x1b,
0x34,
0x38,
0xfe,
0xfd,
0xed,
0xe0,
0xe9,
0xce,
0xe5,
0xf2,
0xc8,
0xda,
0x03,
0xe3,
0xff,
0x09,
0x05,
0xff,
0x06,
0x11,
0x0c,
0x17,
0x29,
0x28,
0x12,
0x2c,
0x1e,
0x07,
0xf4,
0xf8,
0xe7,
0xee,
0xdf,
0xf3,
0xde,
0xe4,
0xfb,
0xf9,
0x10,
0x00,
0x00,
0x29,
0x13,
0x10,
0xf4,
0x0f,
0x0f,
0xeb,
0xe0,
0xe2,
0xdb,
0xf2,
0x00,
0x02,
0xfa,
0xfe,
0xf8,
0xef,
0xf9,
0xfc,
0xdc,
0xf0,
0xfe,
0xe4,
0xf5,
0xfd,
0x1a,
0x12,
0x0f,
0xea,
0xea,
0xf2,
0xe6,
0xe7,
0xe2,
0x00,
0xf3,
0xf4,
0xf8,
0x00,
0xff,
0x06,
0x0b,
0x0b,
0xdd,
0x02,
0x00,
0x04,
0xf9,
0xe9,
0xe4,
0xf1,
0xdb,
0xb9,
0xd2,
0xca,
0x9f,
0xc6,
0xf5,
0x05,
0xfd,
0x00,
0x03,
0xfe,
0x07,
0xfe,
0x07,
0x0b,
0x07,
0xf9,
0xdb,
0xd5,
0xe7,
0xd9,
0xe2,
0xdb,
0xe2,
0xfb,
0xec,
0xf3,
0xdb,
0xe1,
0xff,
0xef,
0xed,
0xfc,
0xec,
0xd7,
0xfa,
0x16,
0x17,
0x18,
0x0e,
0x0d,
0xfe,
0xf3,
0xe8,
0xdb,
0xfa,
0xff,
0x0d,
0x09,
0xec,
0xf2,
0xf4,
0xf5,
0xed,
0xe6,
0xf6,
0xeb,
0xdf,
0x1a,
0x05,
0xf0,
0xfc,
0x02,
0xe9,
0xfd,
0xfc,
0x04,
0x0b,
0x26,
0x0d,
0x18,
0x08,
0x04,
0xf6,
0x07,
0x0a,
0xf8,
0xfa,
0xdf,
0xe4,
0xef,
0xcd,
0xbe,
0xd6,
0xe4,
0xd9,
0x2f,
0x2a,
0x0e,
0x04,
0x0f,
0x0a,
0xf9,
0xf4,
0x02,
0xee,
0xf0,
0xe6,
0xe0,
0xdc,
0xed,
0xda,
0x00,
0xf6,
0x08,
0x02,
0x16,
0x12,
0x0b,
0x11,
0x22,
0x1d,
0x1b,
0x15,
0x24,
0x10,
0x12,
0x00,
0xf8,
0x0c,
0x0f,
0x17,
0xfd,
0x15,
0x25,
0x00,
0xf6,
0x08,
0x00,
0xfe,
0xfe,
0x06,
0xfd,
0xfd,
0xed,
0xcd,
0xd4,
0xf8,
0x00,
0xf1,
0x0e,
0xf7,
0xeb,
0x1a,
0x0e,
0xe2,
0xf3,
0xf7,
0x02,
0xec,
0xfd,
0xea,
0xd4,
0xeb,
0xf2,
0xfc,
0xef,
0x06,
0xf9,
0xf9,
0xf4,
0x02,
0xf6,
0xe8,
0xe7,
0xf5,
0xe2,
0xdc,
0xe2,
0xe0,
0xe9,
0x00,
0x15,
0x1c,
0x1b,
0xfd,
0xfd,
0x0a,
0xef,
0xec,
0xf8,
0xf6,
0x06,
0xfe,
0x01,
0xfa,
0xef,
0xfe,
0x08,
0x03,
0x01,
0xfb,
0x28,
0x15,
0x16,
0x1d,
0x0d,
0x00,
0xf1,
0x06,
0x02,
0xfa,
0x11,
0x39,
0x2b,
0x1a,
0x34,
0x3b,
0x02,
0x1f,
0x05,
0x1b,
0x18,
0x03,
0x21,
0x0e,
0x1d,
0x15,
0x1a,
0x09,
0x11,
0x03,
0xf3,
0xe7,
0xed,
0xdd,
0xcf,
0xdd,
0xe8,
0xd7,
0x19,
0x2f,
0x20,
0xfb,
0x03,
0x14,
0xe9,
0xd1,
0xef,
0xf4,
0xe4,
0xee,
0xfb,
0xf1,
0xf3,
0x1f,
0xeb,
0xf2,
0xed,
0xfc,
0xf4,
0xec,
0xf8,
0xec,
0xf0,
0xfa,
0xf1,
0xf9,
0x0c,
0x05,
0xe3,
0xf5,
0x24,
0x09,
0x0e,
0x13,
0x0a,
0x0d,
0x26,
0x1c,
0x07,
0x30,
0x10,
0xec,
0xdb,
0xed,
0xdb,
0xdf,
0xf1,
0x05,
0xf1,
0x0c,
0x0d,
0x02,
0x17,
0x3e,
0x1f,
0x2e,
0x2b,
0x28,
0x24,
0x31,
0x1e,
0x08,
0x13,
0x0c,
0x09,
0xff,
0x0a,
0x04,
0x10,
0x28,
0x19,
0x09,
0xf5,
0xf4,
0xf3,
0xf6,
0xcd,
0xe6,
0x41,
0x31,
0x1a,
0x38,
0x33,
0xed,
0xd7,
0x00,
0xe3,
0xea,
0xf3,
0xdf,
0xe6,
0xee,
0x0b,
0x0b,
0xfb,
0x09,
0xf0,
0x02,
0x02,
0xff,
0xff,
0x13,
0xfb,
0xf2,
0x21,
0x11,
0x0b,
0x1e,
0x23,
0x18,
0x08,
0x0c,
0xf6,
0x03,
0xf4,
0xe4,
0xf3,
0xf8,
0xd2,
0xee,
0xf7,
0xf4,
0xe8,
0x01,
0x07,
0x09,
0xe6,
0xfa,
0xd9,
0xe5,
0xdc,
0xe9,
0xd5,
0xe7,
0x15,
0x07,
0x04,
0x0d,
0x00,
0xf2,
0x06,
0xe4,
0xee,
0xdf,
0xde,
0xf4,
0xf5,
0xf2,
0xf2,
0xe8,
0x0c,
0xfc,
0x10,
0xfc,
0xed,
0x12,
0x01,
0xea,
0xfb,
0xe8,
0xe1,
0xe2,
0xe5,
0xd4,
0xe9,
0xf1,
0xee,
0xfd,
0xf8,
0xec,
0xe6,
0xf7,
0xf5,
0xee,
0x2d,
0x26,
0x11,
0x13,
0xf4,
0x16,
0x03,
0x08,
0x03,
0x18,
0x0d,
0x00,
0x00,
0x05,
0xea,
0xe7,
0xe0,
0xe6,
0xfb,
0xf8,
0xfc,
0x1c,
0xfa,
0xec,
0xe5,
0xfe,
0xe3,
0xef,
0x05,
0xea,
0xf0,
0xc2,
0x01,
0xf2,
0xff,
0xfc,
0xd8,
0xcb,
0xec,
0xe0,
0xd6,
0xe2,
0x16,
0x21,
0xf6,
0x1c,
0x14,
0x17,
0x1f,
0x15,
0x17,
0x17,
0x17,
0xe7,
0xd2,
0xeb,
0xd4,
0xfa,
0xd9,
0xf8,
0xf0,
0xf3,
0x12,
0x26,
0x0a,
0x13,
0x08,
0x09,
0x03,
0x13,
0x0a,
0x08,
0xfc,
0xff,
0xd0,
0xe2,
0xf6,
0xe4,
0xd3,
0xf5,
0x0b,
0x0d,
0x1e,
0x11,
0xde,
0xea,
0xf7,
0xec,
0xf7,
0xde,
0x06,
0xe8,
0xe8,
0x00,
0x08,
0x0b,
0xe4,
0xe8,
0x00,
0xf3,
0xf2,
0x09,
0xf1,
0xfc,
0xf6,
0x0b,
0x0c,
0xf9,
0xf0,
0xf7,
0x02,
0xfb,
0x19,
0x0d,
0xf4,
0x05,
0x0f,
0x11,
0x16,
0x1c,
0x28,
0x1a,
0x10,
0x13,
0xfa,
0xe1,
0x0b,
0xe3,
0xff,
0xdb,
0xf8,
0x00,
0xfa,
0x04,
0xfc,
0x0d,
0x1d,
0x0d,
0x23,
0x1b,
0x0d,
0x02,
0xfa,
0xff,
0xe2,
0xf1,
0xf1,
0xf2,
0xe6,
0xeb,
0xf3,
0x00,
0xf9,
0x06,
0x1c,
0x0b,
0x24,
0x13,
0x0a,
0x0d,
0xf3,
0x18,
0x33,
0xea,
0x2a,
0x3e,
0x04,
0x03,
0x15,
0xf1,
0x0a,
0x11,
0xf0,
0xed,
0x1b,
0xfc,
0xff,
0x18,
0x27,
0x0d,
0xf6,
0x03,
0x1c,
0xde,
0xe9,
0xfd,
0xec,
0xed,
0xee,
0xcc,
0xe3,
0xe3,
0xfc,
0x24,
0xfd,
0xfd,
0xf5,
0x20,
0x18,
0x17,
0x23,
0xff,
0x18,
0x09,
0xfb,
0xed,
0x03,
0xfa,
0x14,
0x20,
0x11,
0xf3,
0x03,
0x04,
0xe2,
0xf5,
0x01,
0xeb,
0xf0,
0x0f,
0xdc,
0xf5,
0x15,
0x08,
0x0c,
0x06,
0x15,
0xf9,
0x19,
0x10,
0x00,
0x0c,
0x19,
0x05,
0x08,
0x0d,
0x0e,
0x00,
0x09,
0x0d,
0x0d,
0x06,
0x04,
0x07,
0x03,
0xfb,
0x0c,
0x09,
0x02,
0x19,
0x0b,
0x0a,
0x14,
0x2b,
0x1c,
0x1c,
0xef,
0xf9,
0x0d,
0x0e,
0xfb,
0x07,
0xfb,
0xfe,
0xfe,
0xf5,
0xfc,
0x10,
0xf3,
0xf5,
0x09,
0xd1,
0x0e,
0xfa,
0x00,
0xf5,
0x01,
0xe7,
0xdf,
0x1c,
0x1f,
0xee,
0xff,
0x06,
0xf4,
0xe2,
0xf4,
0x0b,
0x00,
0x14,
0x03,
0xf4,
0xee,
0x14,
0x0d,
0xea,
0x0b,
0x04,
0xf0,
0xf8,
0xff,
0x01,
0xf8,
0xf6,
0xf0,
0xe6,
0x10,
0xfa,
0xe5,
0x05,
0x00,
0x08,
0x08,
0x27,
0x1f,
0xfc,
0x2b,
0x2d,
0x02,
0x08,
0x17,
0xec,
0xec,
0x10,
0xf8,
0xf7,
0xfa,
0x00,
0x0e,
0x09,
0x00,
0x1c,
0x08,
0xff,
0x19,
0x01,
0x16,
0x19,
0x14,
0x1e,
0xfb,
0xf8,
0x00,
0x04,
0x09,
0x1f,
0x0b,
0xf7,
0xff,
0x10,
0x09,
0x03,
0xfb,
0xfc,
0xfe,
0xfe,
0x02,
0x05,
0x22,
0x18,
0x0a,
0xf7,
0xfb,
0xf7,
0x11,
0x02,
0xfc,
0x1c,
0xf2,
0x01,
0xf4,
0xf4,
0x11,
0x22,
0x1a,
0xfe,
0x12,
0x07,
0xde,
0x06,
0xfc,
0xfd,
0xf6,
0x03,
0x0f,
0x14,
0xf6,
0x09,
0x0e,
0xfb,
0x08,
0xfd,
0x07,
0x06,
0xff,
0x0a,
0xed,
0x0f,
0xfd,
0x07,
0xe6,
0xf9,
0x11,
0x05,
0xf1,
0xef,
0xee,
0xdd,
0xdf,
0xef,
0xfc,
0xfa,
0x0b,
0x0d,
0x09,
0xf9,
0xf8,
0xee,
0xe1,
0xf5,
0xf6,
0xfe,
0xf2,
0xf9,
0xf6,
0x0c,
0xeb,
0xe8,
0xfc,
0xe8,
0xf4,
0x0b,
0x22,
0x19,
0xfa,
0xf8,
0xf2,
0xef,
0xf0,
0xf2,
0x0a,
0xf8,
0xf2,
0x0b,
0x08,
0xf3,
0x1f,
0x13,
0xfb,
0xf0,
0xf5,
0xf8,
0x0d,
0x01,
0xf0,
0xda,
0xee,
0xcf,
0xc0,
0xe6,
0xe9,
0xdf,
0xe8,
0x0d,
0x02,
0xfc,
0x00,
0x00,
0xef,
0xf5,
0xf7,
0x06,
0x04,
0x04,
0x07,
0x0a,
0x1b,
0x09,
0x16,
0x18,
0xe7,
0xec,
0x0d,
0xf9,
0xff,
0x03,
0x03,
0x03,
0x0a,
0x0b,
0xef,
0x0e,
0x02,
0xd2,
0x16,
0x1f,
0xe8,
0xc8,
0xd8,
0xde,
0xcc,
0xcc,
0xdc,
0xd6,
0xe7,
0xed,
0xf6,
0xf6,
0xef,
0x26,
0x19,
0x0a,
0x10,
0xea,
0xf3,
0xfa,
0x01,
0xfb,
0x16,
0x0b,
0x11,
0x0a,
0x0d,
0x14,
0x04,
0xe5,
0xf6,
0x09,
0x16,
0x0e,
0x08,
0x07,
0x1b,
0x04,
0x06,
0x13,
0xf3,
0xf0,
0xf8,
0xe0,
0xde,
0xe6,
0xf5,
0xe2,
0x13,
0x08,
0x13,
0xec,
0xf8,
0x10,
0x1d,
0x2c,
0x1d,
0x21,
0x30,
0x23,
0x21,
0x3a,
0x29,
0x2f,
0xf7,
0x09,
0x15,
0x11,
0x12,
0x23,
0x1c,
0xf7,
0xf4,
0xfe,
0xe4,
0xf6,
0x05,
0xf9,
0xfd,
0x0f,
0xe3,
0xcc,
0xf5,
0x06,
0x1d,
0xeb,
0xe3,
0x0a,
0xf3,
0xf2,
0xfc,
0xfb,
0xf5,
0x02,
0xec,
0xe6,
0x10,
0x0d,
0x01,
0xfc,
0x10,
0xe8,
0xf9,
0x22,
0x24,
0xfa,
0x11,
0x1b,
0xf7,
0x0b,
0x07,
0xee,
0x13,
0x06,
0x12,
0x1a,
0xf9,
0xfa,
0xff,
0xe1,
0xf7,
0x0b,
0xf7,
0xed,
0xf8,
0xee,
0xef,
0xf0,
0x40,
0x29,
0x17,
0x30,
0x01,
0xf9,
0xea,
0xe9,
0xf4,
0xe9,
0xe8,
0x0f,
0xf3,
0x07,
0xf6,
0xf8,
0x19,
0x16,
0xfd,
0x1a,
0x13,
0x05,
0x01,
0x18,
0x08,
0xf6,
0x10,
0x08,
0x08,
0x2a,
0x22,
0x07,
0x01,
0xf9,
0x08,
0xf8,
0xf6,
0xed,
0x03,
0xf9,
0xe7,
0x1c,
0xe7,
0xfa,
0x26,
0xcb,
0xcd,
0xdd,
0xf2,
0xff,
0x07,
0x13,
0xfe,
0xff,
0x15,
0x0b,
0x12,
0x05,
0x0f,
0x05,
0xfd,
0x0d,
0x15,
0x07,
0xf8,
0x01,
0x04,
0xfe,
0xe5,
0x00,
0x08,
0xf5,
0xfc,
0xf9,
0x08,
0xf9,
0xe6,
0xe4,
0xf7,
0xe9,
0x0c,
0xef,
0x02,
0xfd,
0x08,
0x20,
0x0e,
0x08,
0x12,
0x10,
0x09,
0x08,
0x26,
0x0c,
0x2a,
0x25,
0x01,
0xfa,
0xe8,
0xd3,
0xdd,
0xdf,
0xe4,
0xec,
0x08,
0xfd,
0xff,
0x00,
0xf9,
0xeb,
0xee,
0xee,
0xf5,
0xf2,
0xee,
0xf0,
0xcf,
0xd0,
0xf7,
0x15,
0x1e,
0xf2,
0x00,
0x18,
0x05,
0x0a,
0x02,
0x12,
0xfb,
0xe1,
0xce,
0xe4,
0xd2,
0xc8,
0xdf,
0xf2,
0xe1,
0xe8,
0x0d,
0xed,
0xf1,
0xe7,
0xe0,
0xf0,
0xfe,
0xee,
0xf8,
0xe6,
0xfe,
0x10,
0x0e,
0xf9,
0x22,
0x24,
0x1b,
0x16,
0x31,
0x1f,
0x0a,
0x10,
0x0c,
0xf5,
0x00,
0xf2,
0x00,
0x08,
0xef,
0xf1,
0x05,
0xf2,
0xe3,
0xff,
0xf6,
0xea,
0xf0,
0x0f,
0xff,
0xee,
0xf1,
0x02,
0x12,
0x44,
0x33,
0x32,
0x40,
0x18,
0x12,
0x11,
0x00,
0x0e,
0x2e,
0x22,
0x00,
0xfc,
0xf1,
0xdc,
0xe2,
0xfb,
0xfc,
0xed,
0xe5,
0xd7,
0xe3,
0xd9,
0xcf,
0xdd,
0xf6,
0x0c,
0xdc,
0xe5,
0x02,
0xf1,
0xee,
0x00,
0xdb,
0xd9,
0xe0,
0xf0,
0xf3,
0xfe,
0x04,
0x1f,
0x08,
0x11,
0xe5,
0xeb,
0xe8,
0xf7,
0xfc,
0xf7,
0xf2,
0x02,
0xe6,
0xf9,
0x05,
0xf0,
0xe3,
0xf9,
0x07,
0xfa,
0x43,
0x21,
0xfd,
0xf8,
0xf1,
0x06,
0x05,
0xe1,
0x08,
0xff,
0xd8,
0xfe,
0xf1,
0xfc,
0xfc,
0xea,
0x06,
0x05,
0x16,
0xfa,
0xf3,
0x04,
0x02,
0x0a,
0x08,
0xe3,
0xe4,
0x10,
0xe9,
0xe4,
0xf4,
0x23,
0xe6,
0xe6,
0xe2,
0xfc,
0xfe,
0xfa,
0xec,
0x09,
0x07,
0x05,
0xee,
0xed,
0xef,
0xec,
0xd7,
0xe2,
0x0d,
0xfa,
0x09,
0xfe,
0xea,
0x0b,
0x03,
0x00,
0xf7,
0xf0,
0xe9,
0x04,
0xf9,
0xe6,
0x0d,
0x23,
0x1b,
0x1f,
0x16,
0x19,
0x16,
0x17,
0x13,
0x07,
0xf9,
0xf2,
0xbf,
0xd5,
0xe6,
0xf4,
0xec,
0xed,
0xf8,
0xe5,
0xdb,
0xe4,
0x01,
0xfd,
0x04,
0x19,
0x03,
0xf2,
0x15,
0x12,
0xfa,
0xf1,
0xe6,
0xef,
0xda,
0xe8,
0xdd,
0xf5,
0xfd,
0xee,
0x13,
0xfc,
0xf1,
0x03,
0x03,
0x0b,
0x00,
0x07,
0x0c,
0x0c,
0xec,
0xfd,
0xf8,
0x15,
0x14,
0x09,
0x1c,
0xfe,
0x08,
0x0a,
0x1d,
0x14,
0xf7,
0xf6,
0xee,
0x01,
0x0b,
0x0b,
0x0a,
0x0f,
0x0b,
0x1b,
0x19,
0x02,
0x16,
0xfd,
0xfe,
0x14,
0x09,
0x03,
0x07,
0x01,
0x0b,
0xfe,
0xf2,
0xe2,
0xf7,
0xf0,
0xee,
0xf1,
0x07,
0x03,
0x09,
0x10,
0x0f,
0x02,
0xf6,
0xf8,
0x1b,
0x13,
0x19,
0x07,
0x06,
0xfc,
0x14,
0x09,
0xfd,
0x0e,
0x22,
0x0c,
0xe1,
0xe9,
0xef,
0xfe,
0xf7,
0xe6,
0xea,
0x03,
0xf6,
0xef,
0xf0,
0x04,
0x04,
0x09,
0x0a,
0x0c,
0xf7,
0x0f,
0x0a,
0xe6,
0xd7,
0xd3,
0xdb,
0xe5,
0xe3,
0xf9,
0xea,
0xe8,
0x05,
0xf4,
0x0a,
0x0b,
0x21,
0x22,
0xf2,
0x02,
0x10,
0x0a,
0x04,
0x0f,
0x02,
0xf2,
0xfb,
0x08,
0x05,
0x19,
0x27,
0x00,
0x1d,
0x05,
0xe8,
0x04,
0x07,
0x0a,
0x23,
0x0f,
0xf5,
0xeb,
0xee,
0xf9,
0xfb,
0xf6,
0xf8,
0x07,
0x06,
0x0c,
0x1e,
0x1b,
0x16,
0x15,
0x08,
0x08,
0x1b,
0xfd,
0x0a,
0x11,
0xff,
0x0d,
0x11,
0x02,
0xfa,
0xfc,
0xff,
0xf4,
0xfb,
0x01,
0xfc,
0x0d,
0x15,
0x0b,
0xfa,
0xf6,
0x00,
0xd7,
0xfa,
0x12,
0xf0,
0xe5,
0xf6,
0xef,
0x0a,
0xed,
0xf2,
0x0e,
0xdf,
0xff,
0x06,
0xf7,
0x23,
0x1e,
0x1c,
0x19,
0x11,
0x1e,
0x25,
0x0f,
0x33,
0x14,
0xf4,
0xf3,
0x09,
0xeb,
0xe3,
0xf6,
0xef,
0xe8,
0xe2,
0x0b,
0x10,
0x10,
0x00,
0x0e,
0x29,
0x29,
0x24,
0x11,
0x32,
0x1b,
0x30,
0x25,
0x05,
0x29,
0x17,
0x08,
0x13,
0xf4,
0xfd,
0xed,
0xf9,
0x02,
0xf2,
0x0e,
0x36,
0x1a,
0x0b,
0x12,
0x23,
0x0e,
0xec,
0xcc,
0xc9,
0xf3,
0xe4,
0xd9,
0xf8,
0xdb,
0xd9,
0xef,
0xcc,
0x1c,
0x21,
0x1a,
0x22,
0x26,
0x14,
0x27,
0x32,
0x07,
0xfc,
0xe2,
0xf7,
0xdf,
0xf6,
0xd2,
0xd7,
0xd4,
0xd9,
0xd0,
0xf1,
0xf9,
0xeb,
0xf6,
0x04,
0xf2,
0xe0,
0xf6,
0xdf,
0xee,
0xf0,
0xf4,
0x03,
0xed,
0xe3,
0xe1,
0xdf,
0xca,
0xf2,
0xf6,
0xdf,
0xe3,
0xe7,
0xfd,
0xfd,
0x08,
0x07,
0x14,
0x10,
0x10,
0x15,
0x09,
0x12,
0x22,
0x07,
0x30,
0x23,
0x02,
0x12,
0x18,
0xed,
0xfa,
0xe8,
0x0c,
0x18,
0x0f,
0x05,
0x0c,
0xeb,
0xe3,
0xe8,
0xdb,
0xf4,
0xfc,
0x08,
0xf8,
0xf6,
0x0c,
0x15,
0x0c,
0x14,
0x2a,
0x0b,
0xf3,
0xfa,
0x0a,
0x0c,
0x0b,
0x0d,
0xfa,
0xff,
0xfe,
0xdf,
0xf3,
0xf8,
0x06,
0xfa,
0x02,
0xfc,
0xfb,
0x1f,
0x00,
0x00,
0x01,
0xf6,
0xf9,
0xef,
0xeb,
0xea,
0x0f,
0x0d,
0xe1,
0x04,
0xf8,
0x00,
0x07,
0xf3,
0x00,
0xfb,
0x0d,
0x09,
0x23,
0x08,
0xee,
0xfd,
0x11,
0x0f,
0x09,
0x05,
0x03,
0x0a,
0xfa,
0x08,
0x0e,
0xfb,
0xf7,
0xf7,
0xfc,
0xfc,
0xed,
0xd2,
0xd7,
0xce,
0xce,
0xed,
0xf8,
0xf2,
0xfd,
0x0e,
0xea,
0xe3,
0xf8,
0xf2,
0x06,
0x05,
0x06,
0xe8,
0xef,
0xff,
0xff,
0x0e,
0x08,
0x20,
0x1f,
0xfa,
0xeb,
0xcc,
0xe3,
0xed,
0xba,
0xd1,
0x01,
0x20,
0x25,
0x25,
0x23,
0xdf,
0xe7,
0xf8,
0xd2,
0xe3,
0xe7,
0xf8,
0xfd,
0x0b,
0x00,
0x02,
0x09,
0x0a,
0xed,
0x14,
0xed,
0xee,
0x00,
0xe2,
0xf1,
0xeb,
0xf1,
0xf6,
0xfa,
0xf7,
0x05,
0xfd,
0x01,
0xfc,
0x13,
0xfa,
0xf9,
0xd7,
0xdc,
0xf1,
0xec,
0xf1,
0x01,
0xf7,
0x02,
0xd8,
0xe7,
0xee,
0xef,
0x01,
0xf1,
0xe9,
0xf7,
0xf0,
0xfa,
0x02,
0xec,
0x0a,
0xf7,
0xe8,
0x0a,
0xf8,
0xed,
0x00,
0x13,
0xe7,
0xeb,
0xd3,
0xd8,
0xf4,
0xda,
0xf8,
0xda,
0xf1,
0xf3,
0xff,
0x0e,
0x00,
0xf2,
0xfe,
0xf7,
0xf8,
0x05,
0xfb,
0x02,
0x0b,
0x06,
0xfb,
0x08,
0x0c,
0x0b,
0x02,
0x13,
0x17,
0x1f,
0x17,
0x21,
0xf8,
0x23,
0x30,
0x12,
0x28,
0x45,
0x30,
0x0e,
0x25,
0x14,
0xf8,
0xe5,
0x05,
0xf9,
0x07,
0x00,
0xee,
0xf5,
0xff,
0xf6,
0xfb,
0xfd,
0xe0,
0xe9,
0x02,
0x02,
0x06,
0xf0,
0x05,
0x09,
0x07,
0x29,
0x06,
0x02,
0xfe,
0x0b,
0x0e,
0x02,
0xf4,
0xf4,
0xe9,
0xeb,
0xde,
0xe2,
0x07,
0x01,
0x03,
0x1e,
0x22,
0xfa,
0xfe,
0x12,
0xf3,
0x1f,
0x1e,
0x1d,
0x1a,
0x25,
0x0e,
0x17,
0x13,
0xfc,
0xf3,
0xfc,
0x01,
0x07,
0xec,
0xe9,
0xf6,
0xef,
0xde,
0xe8,
0x2d,
0x21,
0x01,
0x05,
0xff,
0x01,
0xf8,
0xf8,
0x11,
0x1b,
0x18,
0x22,
0x44,
0x19,
0x4a,
0x4d,
0x3d,
0x3d,
0x4b,
0x31,
0xeb,
0xf0,
0xed,
0xec,
0x11,
0x0a,
0x0a,
0x0c,
0x02,
0xf8,
0x06,
0xfa,
0xf7,
0x04,
0x08,
0x07,
0x07,
0x05,
0x08,
0x07,
0xde,
0xf3,
0x1a,
0x0a,
0xf1,
0xf6,
0xff,
0xe4,
0xe6,
0xf5,
0xf4,
0xe6,
0xdf,
0xe6,
0xf1,
0x00,
0xfe,
0xf5,
0xf8,
0xec,
0xe7,
0x05,
0xe5,
0xca,
0xf5,
0xff,
0xf4,
0xdb,
0x02,
0x01,
0xf4,
0x19,
0x0d,
0xf6,
0x16,
0x12,
0x07,
0x05,
0x1b,
0xf6,
0xfa,
0x09,
0x05,
0x2c,
0x1d,
0x1e,
0x20,
0x17,
0x3d,
0x0e,
0x27,
0x2e,
0x10,
0x04,
0x0b,
0x00,
0x07,
0xf1,
0xf8,
0xf6,
0xcf,
0xe5,
0xfa,
0x0a,
0xfd,
0xfd,
0xf3,
0x08,
0x05,
0xfa,
0x0f,
0x14,
0x0d,
0x16,
0x2a,
0x12,
0x23,
0x55,
0x3b,
0x08,
0x0a,
0x02,
0xff,
0x0a,
0xea,
0xe9,
0xfb,
0xd4,
0xda,
0xff,
0xf2,
0xd7,
0xed,
0xff,
0xeb,
0x03,
0xe8,
0xd9,
0x14,
0x0e,
0xf9,
0x22,
0x0f,
0x0e,
0xf5,
0x11,
0x05,
0x00,
0x05,
0x07,
0x03,
0x0c,
0x24,
0x22,
0x0f,
0x0e,
0x07,
0xf2,
0xfe,
0x0b,
0xf3,
0xfc,
0xf3,
0x02,
0xe3,
0xca,
0xee,
0xe3,
0x07,
0xd9,
0xe9,
0x04,
0xd8,
0xdc,
0xf9,
0xf4,
0xe5,
0xe7,
0xf3,
0xea,
0xf8,
0x15,
0x05,
0xf2,
0x0b,
0x05,
0x1a,
0x14,
0x0b,
0xfb,
0x26,
0x1e,
0xf9,
0xfb,
0x09,
0xf4,
0xfd,
0xff,
0xfd,
0xfa,
0x05,
0xeb,
0xec,
0x05,
0xf9,
0xf2,
0xff,
0xfd,
0xf5,
0xea,
0xf0,
0xe5,
0xe9,
0xf0,
0xe7,
0x11,
0xee,
0xfa,
0x01,
0xfe,
0xfc,
0xfd,
0x01,
0xfc,
0xf1,
0xfd,
0x0e,
0xfc,
0xe9,
0xf8,
0x09,
0xfb,
0x28,
0x18,
0x1c,
0x21,
0x13,
0x0b,
0x0c,
0x04,
0x09,
0x04,
0x36,
0x0c,
0xed,
0x39,
0x0b,
0x01,
0xf5,
0xef,
0xf8,
0x00,
0x06,
0xff,
0x00,
0x12,
0x02,
0x0e,
0x1e,
0x08,
0x17,
0x1a,
0x02,
0xfe,
0xec,
0x02,
0x06,
0xfb,
0xdd,
0xe7,
0xfc,
0x00,
0xf0,
0x18,
0x0b,
0x34,
0x22,
0xff,
0xf4,
0xea,
0x0f,
0x0c,
0x0d,
0x13,
0x05,
0xe7,
0xf2,
0xfa,
0xf5,
0xe5,
0xfc,
0x0d,
0xfb,
0xf8,
0xfb,
0xfd,
0x17,
0x05,
0xf4,
0x12,
0x20,
0x03,
0x17,
0x0b,
0xff,
0xf8,
0x0f,
0xf9,
0xf0,
0xf7,
0x01,
0xf1,
0x03,
0x12,
0x15,
0x15,
0x0a,
0x27,
0x00,
0x0b,
0x24,
0x20,
0x0f,
0x21,
0x2a,
0xfe,
0x16,
0x16,
0x04,
0x05,
0xe5,
0xee,
0xea,
0xe6,
0xe4,
0xef,
0xfd,
0xf4,
0xf7,
0x13,
0x13,
0x07,
0x03,
0xe8,
0x09,
0x1b,
0x16,
0x20,
0x28,
0x24,
0xf8,
0xfc,
0x14,
0xff,
0xfb,
0x00,
0x11,
0xf9,
0xf6,
0xeb,
0xed,
0xfa,
0xf6,
0x05,
0x07,
0x02,
0xf6,
0xfd,
0x02,
0x09,
0x17,
0x02,
0xeb,
0xfd,
0x22,
0xfc,
0xe6,
0x03,
0xfa,
0x08,
0xe3,
0x24,
0xeb,
0xd0,
0x0e,
0xec,
0xc8,
0xf6,
0xea,
0xf6,
0x10,
0x1a,
0xf4,
0xdb,
0xf5,
0xcd,
0xc4,
0xe4,
0xdb,
0xbd,
0xda,
0x04,
0x13,
0x04,
0x08,
0x11,
0xee,
0xfd,
0x17,
0x13,
0x17,
0x18,
0x0a,
0x13,
0x14,
0x1b,
0xfb,
0x08,
0xf8,
0xfb,
0xe9,
0xf0,
0xda,
0x02,
0x14,
0x06,
0xec,
0xf0,
0xfb,
0xe9,
0xd6,
0xe2,
0xff,
0xfb,
0x10,
0x10,
0xfd,
0x11,
0x22,
0x28,
0x28,
0x1e,
0x02,
0xff,
0x08,
0xfb,
0xf3,
0xde,
0xf6,
0xec,
0xeb,
0xf4,
0xea,
0xed,
0xfd,
0xfe,
0xff,
0xe6,
0xe0,
0xdb,
0xdc,
0xc0,
0xd8,
0xf6,
0x02,
0x05,
0x11,
0x0f,
0x07,
0x17,
0x17,
0x09,
0x03,
0x02,
0xf0,
0xf0,
0xf4,
0x08,
0x0d,
0x05,
0xff,
0xff,
0x0f,
0x0d,
0xfe,
0xf6,
0x09,
0xf5,
0x06,
0xec,
0xeb,
0x11,
0xf8,
0xe8,
0x22,
0x19,
0x0c,
0x17,
0x04,
0xf1,
0x07,
0x07,
0x04,
0x00,
0xfb,
0xfe,
0xd5,
0xf0,
0x09,
0x0f,
0x0e,
0x16,
0x23,
0x27,
0xfe,
0x18,
0x01,
0xfd,
0x24,
0x1c,
0x06,
0x05,
0x11,
0xfb,
0x12,
0xea,
0x03,
0x0d,
0xfa,
0x01,
0x38,
0xf4,
0x08,
0x12,
0x04,
0x0c,
0xdc,
0xd2,
0xec,
0xca,
0xd7,
0xe0,
0xe2,
0xd5,
0xef,
0x06,
0x00,
0xf4,
0x00,
0x09,
0x07,
0x03,
0x00,
0xfb,
0xfa,
0xf2,
0xf0,
0xff,
0x0a,
0xe0,
0xe6,
0xfd,
0x01,
0xf9,
0x05,
0xdf,
0xd9,
0xf4,
0x11,
0xf8,
0xf9,
0xf1,
0xf3,
0xfc,
0xf5,
0xed,
0x03,
0x05,
0x06,
0x0c,
0x14,
0x12,
0x07,
0x0c,
0xec,
0xed,
0xee,
0x1e,
0x19,
0x03,
0x0e,
0x1f,
0x06,
0xfb,
0xff,
0xf4,
0xe8,
0x04,
0x0e,
0xe4,
0xf1,
0xe5,
0xde,
0xeb,
0xf9,
0xdb,
0xf2,
0xf4,
0xe8,
0xe8,
0xcf,
0xe8,
0xf2,
0xd9,
0xe1,
0xf8,
0xe6,
0xf0,
0xff,
0x0a,
0x1c,
0x0f,
0x0b,
0x25,
0x13,
0xfa,
0x14,
0x05,
0xfc,
0xf6,
0xeb,
0xe5,
0x09,
0x2f,
0x1d,
0x29,
0x21,
0x19,
0xe6,
0xf0,
0x05,
0xca,
0xe0,
0x09,
0xd4,
0xd6,
0x08,
0xfa,
0x17,
0x11,
0x0d,
0x05,
0x05,
0x1e,
0x19,
0x15,
0x13,
0xfa,
0x08,
0x12,
0x0c,
0x06,
0x0b,
0x14,
0xff,
0xfb,
0x07,
0x04,
0xf4,
0x17,
0x1f,
0xeb,
0x07,
0x0e,
0x0c,
0x08,
0x1b,
0x17,
0x0b,
0x24,
0x01,
0xee,
0xfb,
0x00,
0xfa,
0xf8,
0x03,
0x0c,
0x04,
0x04,
0xf9,
0x10,
0xeb,
0xf8,
0xf6,
0xee,
0x11,
0xfc,
0xf7,
0xff,
0xfe,
0xed,
0xef,
0xf7,
0x01,
0xf0,
0xd5,
0xdd,
0xe9,
0xfe,
0x0a,
0x12,
0xe9,
0xf5,
0xe0,
0xd2,
0xf3,
0xfd,
0xe8,
0xe8,
0xf1,
0xe4,
0xe2,
0xf2,
0xf1,
0xe6,
0x0a,
0xf4,
0x0e,
0x0e,
0xf9,
0x0a,
0xff,
0x08,
0x13,
0xfc,
0xf0,
0x0e,
0x09,
0xf0,
0x0c,
0x0f,
0x11,
0x1e,
0xe4,
0xef,
0xd3,
0xd3,
0xe6,
0xd4,
0xe9,
0xef,
0xf2,
0xf1,
0x05,
0xfc,
0xee,
0x0f,
0x19,
0x00,
0x0d,
0x07,
0x18,
0x0d,
0x10,
0x1c,
0x1b,
0x1a,
0x0c,
0x15,
0x10,
0xed,
0xfc,
0x0d,
0xfc,
0xff,
0x26,
0x0d,
0xef,
0x3a,
0x16,
0x08,
0xf9,
0x15,
0xf7,
0x0a,
0xf3,
0xfd,
0xf5,
0xf6,
0xec,
0x0a,
0x12,
0x01,
0x0f,
0x10,
0x2e,
0x22,
0x1b,
0x30,
0x16,
0x17,
0xf4,
0x0a,
0xf6,
0x11,
0x1e,
0x0c,
0x10,
0x0a,
0x0c,
0x13,
0x05,
0xe9,
0xf6,
0xf2,
0xe9,
0xff,
0x03,
0xff,
0xff,
0x05,
0x05,
0x25,
0x08,
0x17,
0x0d,
0x18,
0x1e,
0x1d,
0x22,
0x32,
0x26,
0xe5,
0xf2,
0xf9,
0xe0,
0xdb,
0xdd,
0xea,
0xe1,
0xe0,
0xe7,
0xde,
0x28,
0x1e,
0x0e,
0x09,
0x0e,
0x09,
0xf3,
0xe7,
0xe3,
0xfb,
0xef,
0xef,
0xe1,
0xfc,
0xf3,
0xf1,
0x00,
0xf2,
0x10,
0x1b,
0x12,
0x07,
0xf6,
0xef,
0xfc,
0xe8,
0xe2,
0xe5,
0x0e,
0x09,
0x09,
0xff,
0xfe,
0x09,
0xee,
0xf9,
0xfd,
0xf4,
0x02,
0xfc,
0xf8,
0xef,
0x02,
0xf1,
0xed,
0xe7,
0xdc,
0xec,
0xe8,
0xd4,
0xeb,
0x03,
0xf5,
0x03,
0xff,
0x08,
0x18,
0x03,
0x09,
0x17,
0x16,
0x16,
0x01,
0x15,
0x14,
0x20,
0x1d,
0x0f,
0x15,
0x0f,
0x14,
0x1a,
0x12,
0x07,
0x0e,
0x13,
0x16,
0x15,
0xf2,
0x05,
0xf8,
0xe9,
0x00,
0x18,
0x14,
0x01,
0x0b,
0x1b,
0x07,
0x11,
0x0b,
0xe5,
0x13,
0xed,
0xf2,
0x0b,
0xf4,
0xf4,
0x0c,
0xfe,
0x10,
0x16,
0xf5,
0xec,
0xe8,
0xe7,
0xd9,
0xeb,
0xf4,
0x05,
0x02,
0xf3,
0x0f,
0x2b,
0x38,
0x0e,
0x21,
0x2d,
0x1e,
0x0f,
0x04,
0x13,
0x11,
0x08,
0xed,
0xe9,
0xf1,
0xe5,
0xdb,
0xd8,
0xfc,
0xdf,
0xe2,
0xf0,
0xf6,
0xdc,
0xd1,
0xc4,
0xcb,
0xea,
0x02,
0x12,
0x17,
0x15,
0x00,
0x0c,
0x0b,
0xf4,
0xf7,
0x0d,
0xf2,
0xfb,
0x00,
0xf8,
0xf0,
0xfe,
0xe7,
0xde,
0xd3,
0xc7,
0xd0,
0xd9,
0xe0,
0xef,
0xf6,
0xf4,
0x08,
0xf6,
0xf9,
0xf5,
0x01,
0x03,
0xfb,
0x13,
0x18,
0x1b,
0x22,
0x08,
0x38,
0x38,
0x0f,
0x0c,
0x2e,
0x1d,
0xf5,
0xe9,
0xe9,
0xe9,
0xf5,
0xed,
0xe1,
0xee,
0xe6,
0x10,
0x0f,
0xfa,
0x05,
0xfe,
0x04,
0x06,
0x1f,
0x0a,
0x16,
0x10,
0x09,
0xf5,
0x25,
0x07,
0x01,
0x1d,
0x27,
0x0f,
0x00,
0x08,
0x15,
0xf7,
0xf1,
0xff,
0xff,
0x03,
0x0f,
0x0b,
0x0b,
0x0e,
0xff,
0x00,
0xfe,
0xfb,
0xf9,
0xf1,
0xdc,
0xd7,
0xfb,
0xe8,
0xf7,
0x03,
0xf5,
0x05,
0x07,
0xff,
0x2f,
0x2b,
0x10,
0x13,
0x2c,
0x15,
0xf5,
0xd8,
0xdf,
0xe1,
0xe2,
0xdf,
0xdf,
0x07,
0xf9,
0xf4,
0x03,
0xd8,
0xc4,
0xdf,
0xca,
0xc6,
0xe5,
0xc2,
0xcb,
0xe9,
0xf1,
0xe3,
0xfb,
0xf6,
0xee,
0xea,
0xe1,
0xd6,
0xee,
0xe3,
0xe3,
0xff,
0xeb,
0xf6,
0x12,
0x11,
0x11,
0x10,
0xf5,
0xf7,
0xe2,
0xea,
0xda,
0xf9,
0xec,
0xef,
0xe5,
0xe6,
0xfe,
0xf0,
0x0a,
0xe9,
0xcf,
0xf8,
0x0d,
0xfc,
0x12,
0x02,
0x01,
0x18,
0x11,
0x08,
0x16,
0x30,
0x2d,
0x03,
0x20,
0x3c,
0xfb,
0x08,
0x0e,
0x19,
0x17,
0x23,
0xfc,
0xec,
0x0c,
0x27,
0xfb,
0x01,
0x0c,
0xed,
0xf0,
0xf6,
0xf2,
0x07,
0xf5,
0xf7,
0xf6,
0xe8,
0xf8,
0xfd,
0xfb,
0xe3,
0xe7,
0xf2,
0xea,
0xfb,
0xfb,
0xf8,
0x1c,
0x1b,
0xf1,
0x15,
0x04,
0x07,
0xfd,
0xf4,
0xfb,
0xf3,
0xef,
0xe0,
0xef,
0x05,
0x07,
0x0b,
0x0a,
0xf1,
0x0d,
0xfd,
0x0a,
0x0c,
0x04,
0x07,
0x04,
0xf0,
0xd7,
0x0c,
0x0a,
0xf6,
0xef,
0x04,
0x0a,
0x09,
0xf3,
0x1a,
0x2d,
0x14,
0x23,
0x19,
0x06,
0x18,
0x0c,
0x06,
0x0c,
0x1d,
0x15,
0xf9,
0x0f,
0x05,
0xfd,
0x03,
0x18,
0x08,
0x0a,
0x10,
0x11,
0x0b,
0x18,
0x03,
0x06,
0x0a,
0xf8,
0xf5,
0xfb,
0xee,
0x09,
0xf5,
0xe8,
0x05,
0xf3,
0xe8,
0xf9,
0x04,
0xf7,
0xe8,
0xdd,
0xd8,
0xf1,
0xf3,
0xd9,
0xe5,
0x10,
0xd7,
0xeb,
0xfc,
0xf2,
0xf4,
0xf8,
0xec,
0xe4,
0xe1,
0xf8,
0xf0,
0xf0,
0xf8,
0x00,
0xfa,
0x0c,
0x03,
0x00,
0x0d,
0x05,
0x0c,
0xfc,
0xf8,
0x04,
0x0b,
0x0d,
0x01,
0x0f,
0x0b,
0x0d,
0x2a,
0xee,
0xed,
0xff,
0x1d,
0x23,
0xfd,
0x07,
0x21,
0x11,
0xfa,
0x18,
0x20,
0x2a,
0x35,
0x1f,
0x2b,
0x01,
0xfe,
0x13,
0x03,
0xfc,
0x0b,
0x0a,
0x0f,
0x0b,
0xf1,
0xee,
0xe4,
0xf4,
0xf1,
0xeb,
0xed,
0xff,
0xf4,
0xfe,
0xfc,
0xfb,
0x04,
0x09,
0x14,
0x10,
0x1b,
0x19,
0x0b,
0xfe,
0x04,
0x0f,
0x1d,
0xc9,
0xeb,
0xf1,
0xed,
0xd6,
0xe9,
0xf3,
0xff,
0x12,
0xfc,
0xf2,
0x10,
0x0b,
0x00,
0xed,
0x10,
0x1c,
0xc6,
0xe4,
0xee,
0xe7,
0xf9,
0xf8,
0x1e,
0x3a,
0x22,
0x02,
0x27,
0x25,
0xf6,
0x06,
0x1b,
0x17,
0x21,
0x0b,
0x00,
0xf8,
0x15,
0xef,
0xf1,
0x1c,
0x19,
0xfb,
0x13,
0x30,
0x16,
0x2a,
0x31,
0xf0,
0xf5,
0xe6,
0xe0,
0xe2,
0xf4,
0xf2,
0xdd,
0x05,
0xda,
0xeb,
0xf2,
0xdc,
0x06,
0xff,
0xf5,
0x19,
0xff,
0x07,
0x11,
0xf8,
0x17,
0x0c,
0xea,
0x01,
0x06,
0xfb,
0xfd,
0x0a,
0x2d,
0x37,
0x16,
0x04,
0x18,
0x10,
0x0e,
0x09,
0xf0,
0x0a,
0xfd,
0xe3,
0xed,
0x08,
0xdb,
0xeb,
0xf3,
0x03,
0x01,
0xdd,
0xf0,
0x05,
0x12,
0x02,
0x18,
0x01,
0x07,
0x23,
0xf0,
0x17,
0xfe,
0x17,
0x0f,
0x1a,
0x28,
0xf5,
0xec,
0xfc,
0xfc,
0x1f,
0x1b,
0xf0,
0x16,
0x23,
0x20,
0x12,
0x18,
0x25,
0x03,
0x12,
0x1d,
0xf4,
0x08,
0xf4,
0xf6,
0xee,
0xf1,
0xf0,
0xf2,
0xec,
0xfa,
0x02,
0xf9,
0xfe,
0x0f,
0xe0,
0xfa,
0xf2,
0xcd,
0xdd,
0xf2,
0xe4,
0xf2,
0x12,
0xea,
0xb9,
0xf7,
0xf8,
0xdf,
0xfd,
0xef,
0x06,
0xfc,
0x0f,
0xf7,
0xf1,
0xff,
0x0a,
0x0a,
0x15,
0x27,
0x31,
0x11,
0xec,
0xfd,
0x10,
0xe8,
0xe0,
0xf0,
0xfd,
0x18,
0xf4,
0x09,
0x29,
0xfc,
0x15,
0x21,
0x1f,
0x19,
0x0f,
0xff,
0x1d,
0xff,
0xea,
0xd8,
0x0e,
0x19,
0x00,
0x0f,
0x0d,
0x08,
0x00,
0x09,
0x0c,
0xe8,
0xed,
0xd4,
0x03,
0xf3,
0xf4,
0x0a,
0xfe,
0xf1,
0xe5,
0xfb,
0xf6,
0xfe,
0x05,
0x06,
0xf4,
0x12,
0xef,
0xfb,
0x02,
0xf8,
0xe8,
0xf8,
0x02,
0xec,
0x0e,
0x14,
0xfb,
0x26,
0x41,
0x13,
0x08,
0xf7,
0x01,
0xe3,
0xe6,
0xef,
0xee,
0xf0,
0xf1,
0x02,
0x14,
0xfc,
0xe0,
0xf5,
0x11,
0x03,
0x01,
0x14,
0x1d,
0x00,
0xe6,
0xe5,
0xf4,
0xde,
0x01,
0xfe,
0x16,
0x10,
0xff,
0x0a,
0x03,
0xf2,
0xf1,
0xf7,
0xeb,
0xe4,
0xe7,
0xef,
0xe3,
0xfd,
0x50,
0x15,
0xf9,
0xe6,
0xe6,
0x14,
0x03,
0xe8,
0x11,
0x2a,
0x15,
0x13,
0x15,
0x0d,
0x1d,
0x23,
0x13,
0x32,
0x14,
0x08,
0xfe,
0x0e,
0x12,
0x10,
0x09,
0x08,
0x01,
0x01,
0xfe,
0x02,
0x01,
0x0d,
0x18,
0x17,
0x35,
0x1d,
0x16,
0x09,
0xfb,
0x02,
0x09,
0x02,
0xfb,
0xfd,
0xf4,
0x05,
0x0a,
0x08,
0xdb,
0xf6,
0xee,
0xe8,
0xe0,
0xfa,
0xf7,
0xee,
0x02,
0xec,
0x0a,
0xfe,
0x0e,
0x03,
0xed,
0xec,
0xf6,
0xf9,
0xfd,
0x16,
0x1f,
0x1f,
0x1e,
0x2b,
0x27,
0x10,
0x29,
0x08,
0x16,
0x1f,
0x15,
0xf6,
0x0b,
0xdb,
0xec,
0x03,
0x17,
0x1c,
0xf6,
0x2e,
0x41,
0xfb,
0x2d,
0x1e,
0x0e,
0xf1,
0xee,
0x06,
0xcc,
0xce,
0xe5,
0xf5,
0xcd,
0x0c,
0xee,
0xfb,
0xf5,
0x0d,
0x19,
0xfc,
0x02,
0x06,
0xfc,
0xfe,
0x04,
0x0a,
0x19,
0xeb,
0xfe,
0xf4,
0xf0,
0xef,
0xe0,
0xf7,
0xff,
0xec,
0xf7,
0xf0,
0x15,
0xf3,
0x1b,
0xfe,
0xfb,
0x1b,
0xee,
0x05,
0x02,
0xf4,
0xfc,
0x02,
0xf5,
0x01,
0xf5,
0x0f,
0xfe,
0xff,
0xfe,
0x03,
0x0d,
0x1a,
0x1d,
0x0e,
0x10,
0x12,
0x04,
0xfc,
0x06,
0x1d,
0x20,
0x23,
0x0b,
0x10,
0x07,
0xf5,
0xfe,
0xfa,
0xfd,
0x07,
0x10,
0x2b,
0x0e,
0x14,
0x16,
0x09,
0x01,
0x0a,
0x05,
0x09,
0x09,
0xf3,
0xc1,
0xc8,
0x18,
0x26,
0x0c,
0x2f,
0x3e,
0x1d,
0xee,
0xfb,
0xea,
0xfc,
0x13,
0xe9,
0xe4,
0xdc,
0xf3,
0xe3,
0xe3,
0x06,
0x1f,
0x18,
0x06,
0x2b,
0x25,
0x0b,
0x28,
0x21,
0xf8,
0xf2,
0xfa,
0xed,
0xfd,
0x0b,
0xf2,
0x0a,
0x0f,
0x13,
0x20,
0x35,
0x09,
0x03,
0x3b,
0x2a,
0x15,
0x34,
0xfa,
0xfe,
0xe5,
0xf7,
0x09,
0x0b,
0x07,
0xf8,
0x06,
0x0a,
0xff,
0xf9,
0xf9,
0x13,
0x10,
0x03,
0xdb,
0xf5,
0xf6,
0xf7,
0x11,
0x05,
0x23,
0x23,
0x03,
0x20,
0x1d,
0xff,
0x09,
0x1f,
0x15,
0x12,
0xef,
0xef,
0xf7,
0x13,
0x13,
0x10,
0x1a,
0x25,
0x31,
0xde,
0xf6,
0x1b,
0xec,
0xf8,
0xf7,
0xf5,
0xfd,
0x0d,
0x04,
0x16,
0x16,
0x1a,
0x19,
0xfe,
0x06,
0xfe,
0x0e,
0xf7,
0xef,
0xf2,
0xf7,
0xf9,
0x1f,
0x00,
0xe8,
0xe8,
0xe7,
0xfa,
0xf0,
0xff,
0x0e,
0x0b,
0x0c,
0xfa,
0xf6,
0xdb,
0x07,
0xf3,
0x21,
0x10,
0x07,
0x04,
0x04,
0xfb,
0x0a,
0xf0,
0xed,
0xec,
0xd2,
0xe9,
0xfd,
0xf2,
0xf0,
0x18,
0x1c,
0x01,
0x2a,
0x31,
0x22,
0x49,
0x35,
0x04,
0x15,
0xfd,
0xdd,
0xe2,
0xf6,
0xdb,
0xe9,
0xda,
0x05,
0xf0,
0x13,
0x11,
0x08,
0x0e,
0x19,
0x02,
0xfb,
0xfd,
0xe5,
0xfd,
0xf8,
0xf0,
0x06,
0x0a,
0xef,
0xf6,
0xea,
0xe5,
0xed,
0xdc,
0xdd,
0xcc,
0xe9,
0xed,
0xe6,
0xff,
0xf5,
0xef,
0xfd,
0x08,
0x12,
0x07,
0x15,
0x04,
0x0e,
0x02,
0x0e,
0xfd,
0x08,
0x0d,
0x12,
0x0a,
0x0c,
0xf9,
0xef,
0xf6,
0x1b,
0x18,
0x27,
0x03,
0x0a,
0xfd,
0x10,
0xf9,
0x08,
0x09,
0x14,
0x13,
0xfd,
0xfd,
0xf8,
0x0a,
0x08,
0x0f,
0x14,
0xf0,
0xed,
0xf1,
0x03,
0xf9,
0x05,
0x14,
0x02,
0x0b,
0xfa,
0xec,
0xf7,
0xff,
0xfe,
0xf0,
0xfa,
0x02,
0xe5,
0xfa,
0xfc,
0xe6,
0xe9,
0xf2,
0xdc,
0xeb,
0xf0,
0xf2,
0xe9,
0xf4,
0xe5,
0xf7,
0xf7,
0xf0,
0xef,
0xd0,
0xdd,
0xd8,
0xe6,
0xeb,
0xeb,
0xff,
0xfc,
0xfe,
0xf4,
0xf2,
0x02,
0xf8,
0x04,
0x04,
0x06,
0x0f,
0xfb,
0x00,
0xf1,
0xf4,
0xfd,
0x08,
0xf3,
0x0c,
0x17,
0xe7,
0x00,
0xce,
0xcb,
0xeb,
0xd8,
0xce,
0xe0,
0xf5,
0xd8,
0xe6,
0xf8,
0xfb,
0xec,
0xf9,
0x0b,
0xd1,
0xe1,
0xea,
0xe7,
0xdb,
0xf0,
0xf1,
0xf8,
0x05,
0x01,
0x09,
0x02,
0xf8,
0xfe,
0xf2,
0xee,
0xf3,
0xfd,
0xec,
0xf3,
0xf0,
0x00,
0x05,
0xe9,
0xeb,
0xf6,
0x21,
0x17,
0x34,
0x14,
0x0e,
0x14,
0x0d,
0x04,
0x05,
0x21,
0x00,
0x15,
0xf4,
0xec,
0xfc,
0xdb,
0xd8,
0x14,
0xff,
0xf5,
0xf7,
0x1d,
0x11,
0x19,
0x12,
0xfe,
0x05,
0xf2,
0xe0,
0xda,
0xed,
0x07,
0xf4,
0xeb,
0x08,
0xf8,
0xea,
0xf7,
0xf1,
0x10,
0x1c,
0x13,
0x03,
0x0e,
0x0e,
0xe8,
0xd6,
0xdf,
0xd5,
0xed,
0xdb,
0x03,
0x05,
0x0f,
0xf0,
0xf8,
0x30,
0x17,
0xf3,
0x22,
0x0f,
0x05,
0xf7,
0x08,
0x16,
0x13,
0x20,
0x1d,
0x05,
0x06,
0x09,
0xf9,
0x0e,
0x04,
0x1c,
0x0b,
0x21,
0x2a,
0x25,
0x1b,
0x26,
0x13,
0x24,
0x10,
0x0c,
0x01,
0xff,
0x0d,
0x1c,
0x1d,
0x25,
0x29,
0x13,
0x05,
0xf1,
0xec,
0x01,
0xe4,
0xe5,
0x06,
0xff,
0xf2,
0x04,
0x09,
0x0a,
0x11,
0x05,
0xf7,
0xf7,
0xf7,
0xfb,
0xe7,
0xef,
0xe2,
0xf3,
0x00,
0xf7,
0xf9,
0x00,
0x19,
0x0a,
0x1c,
0x31,
0x20,
0xfd,
0xf6,
0x05,
0xeb,
0xdd,
0xe0,
0xdb,
0xdb,
0xdd,
0xfa,
0xfa,
0x08,
0x01,
0x1b,
0xf4,
0xfd,
0xee,
0xff,
0xfa,
0xf2,
0x05,
0x1a,
0x30,
0xf4,
0x01,
0x0a,
0x01,
0xef,
0xf4,
0xf0,
0xf6,
0xf9,
0xf6,
0xf9,
0xf5,
0xf5,
0xfc,
0xef,
0x09,
0xfc,
0x21,
0x28,
0x1a,
0x00,
0xf9,
0xfb,
0x03,
0xfc,
0xfc,
0xe2,
0xed,
0xdd,
0xe4,
0xfb,
0xed,
0xd6,
0xdc,
0xf7,
0xde,
0x2c,
0x14,
0x22,
0xfc,
0x01,
0x0c,
0x15,
0x06,
0x04,
0xfb,
0x00,
0x03,
0xfd,
0xff,
0x0d,
0xfa,
0x06,
0x0c,
0x01,
0x0d,
0x12,
0x01,
0xfc,
0xef,
0xfa,
0xff,
0xf3,
0xfd,
0x16,
0x09,
0xf4,
0xff,
0x1e,
0xeb,
0x14,
0xfd,
0x0b,
0x01,
0xcd,
0xdd,
0xfc,
0xe9,
0xe1,
0xef,
0xf6,
0xdd,
0xf9,
0x0b,
0xd6,
0xdc,
0xf3,
0xe7,
0xeb,
0x04,
0x07,
0xf9,
0xfa,
0x04,
0x01,
0x04,
0x0a,
0x14,
0xf7,
0xec,
0x0e,
0x22,
0x48,
0x36,
0x13,
0x2d,
0x24,
0x04,
0xf2,
0xf5,
0xe5,
0xda,
0xe8,
0xd9,
0xe1,
0xe5,
0xe5,
0xe7,
0xe2,
0xe8,
0xeb,
0x01,
0x06,
0x06,
0x04,
0x0a,
0x07,
0x09,
0x05,
0xfb,
0xf5,
0xf8,
0xe9,
0xf2,
0x05,
0x00,
0x01,
0xfc,
0x13,
0x1d,
0x08,
0xe9,
0xe4,
0x06,
0xfd,
0x06,
0xe6,
0x16,
0xec,
0xcb,
0xd8,
0xeb,
0x00,
0xf8,
0x02,
0xf8,
0xfa,
0xf4,
0xf2,
0xfb,
0xfd,
0x04,
0xfb,
0xf0,
0x0a,
0x05,
0x03,
0xf4,
0x04,
0x21,
0x2c,
0x26,
0x2b,
0x13,
0x0d,
0x16,
0x1a,
0x0c,
0x10,
0x0a,
0xd9,
0x01,
0xfb,
0xe0,
0xdf,
0xec,
0x08,
0x11,
0x1b,
0xfd,
0x03,
0xf9,
0x0d,
0x0f,
0xf8,
0x1c,
0x1a,
0xf3,
0x1c,
0x20,
0xf8,
0x1c,
0x22,
0xff,
0xfa,
0x0e,
0xf5,
0x02,
0x11,
0x0f,
0x0e,
0x07,
0xe9,
0xee,
0xf0,
0xf7,
0xfe,
0xed,
0xe1,
0xfe,
0xf9,
0xfa,
0x14,
0x26,
0x32,
0x11,
0x13,
0x31,
0xe4,
0xe8,
0x03,
0xf7,
0xe0,
0xf4,
0x0a,
0xe7,
0xf3,
0xf7,
0xd7,
0xdb,
0x01,
0xf6,
0xf2,
0x0b,
0xe9,
0xf3,
0xf9,
0x04,
0xf9,
0x04,
0xf7,
0xf8,
0xd0,
0xe1,
0xfd,
0xe0,
0xf5,
0xee,
0xea,
0xe5,
0xed,
0xeb,
0x06,
0xf5,
0xe9,
0xfc,
0xf8,
0x05,
0x1a,
0x16,
0x0a,
0x02,
0x1c,
0x0c,
0xf5,
0xf2,
0x12,
0xf3,
0xf1,
0xfa,
0xfc,
0xfb,
0xe0,
0xf1,
0xfc,
0x02,
0x03,
0x05,
0x06,
0xf2,
0x0a,
0xf1,
0xf0,
0xf4,
0xd7,
0xf1,
0xf6,
0x17,
0x19,
0xd7,
0xea,
0x06,
0xd6,
0xe5,
0xf5,
0xeb,
0xe6,
0xf7,
0x1d,
0xf7,
0x1f,
0x02,
0x08,
0x06,
0x0a,
0xfa,
0x08,
0x15,
0x17,
0x16,
0x06,
0xf8,
0x09,
0x03,
0xdd,
0xfb,
0xfa,
0x08,
0xfd,
0xec,
0x2d,
0x2f,
0x2a,
0x02,
0x2b,
0x0f,
0xe2,
0xe2,
0xf9,
0xdc,
0xea,
0xf4,
0xf2,
0xec,
0x10,
0x0b,
0x13,
0xf8,
0xd4,
0xde,
0xed,
0xe2,
0xd8,
0xf1,
0xe3,
0xf6,
0x0f,
0x13,
0x05,
0xfe,
0xfc,
0x0b,
0x01,
0x11,
0x03,
0x13,
0x01,
0x17,
0x1b,
0x04,
0x1d,
0x29,
0xef,
0xee,
0xf4,
0xe6,
0xe1,
0xf7,
0x0d,
0x1f,
0x1d,
0x25,
0x2d,
0x27,
0x2c,
0x31,
0x24,
0x09,
0xff,
0x02,
0x0b,
0x0f,
0x12,
0x0d,
0xff,
0x36,
0x1a,
0x08,
0xfa,
0xe5,
0xea,
0xef,
0xe9,
0xea,
0x1d,
0x1c,
0x14,
0x24,
0x19,
0x0f,
0x18,
0x0a,
0x00,
0x1e,
0x18,
0x00,
0xfe,
0xef,
0x10,
0x28,
0x1a,
0x1d,
0x15,
0x0a,
0x1c,
0x05,
0xf4,
0xf4,
0x00,
0x2a,
0xf2,
0xdc,
0x49,
0x57,
0xeb,
0x36,
0x38,
0x07,
0x1d,
0x2c,
0x16,
0x24,
0x09,
0x18,
0x2c,
0x1e,
0x12,
0x17,
0x0f,
0xea,
0xd7,
0xec,
0x12,
0x11,
0x0e,
0xff,
0x12,
0x08,
0x16,
0x08,
0x0f,
0x14,
0xf8,
0x26,
0x10,
0x04,
0x06,
0xf6,
0x24,
0x4a,
0x2d,
0xf6,
0x05,
0xfc,
0xf1,
0x11,
0x14,
0x04,
0x16,
0x32,
0x1b,
0x3b,
0x2f,
0x36,
0xf1,
0x03,
0xde,
0xf6,
0xe8,
0xef,
0xfd,
0x03,
0x09,
0xfe,
0x0d,
0x02,
0x0c,
0x0a,
0xfa,
0xf3,
0x15,
0xef,
0xfd,
0xef,
0xf3,
0xfd,
0xe6,
0xd0,
0x05,
0xe2,
0xcf,
0xe5,
0x07,
0x0a,
0x00,
0x01,
0xda,
0xd1,
0xe8,
0xe2,
0xd7,
0xf0,
0xea,
0xef,
0x01,
0xdc,
0xea,
0xf1,
0xee,
0xf0,
0xed,
0xee,
0xef,
0x1f,
0x0f,
0x16,
0x02,
0x21,
0x16,
0xeb,
0xe7,
0xe4,
0x06,
0xe8,
0xec,
0xfc,
0xe0,
0xef,
0xee,
0xfe,
0xf0,
0xe5,
0xf1,
0x06,
0xf8,
0xf3,
0x04,
0xfb,
0x06,
0xfe,
0xf6,
0x0b,
0xfd,
0x15,
0xed,
0xee,
0xfa,
0x00,
0x0e,
0x16,
0x21,
0x25,
0x03,
0x06,
0x0e,
0xfc,
0xe4,
0x09,
0xf6,
0xe4,
0xe3,
0x01,
0xf0,
0xec,
0x03,
0xf1,
0xf6,
0xef,
0xed,
0xf3,
0xf2,
0xf6,
0xfd,
0xf0,
0xf7,
0xef,
0xe8,
0xe6,
0xdc,
0xe3,
0xf6,
0xee,
0xf9,
0xf4,
0xfc,
0xf8,
0x02,
0x28,
0x14,
0x07,
0x32,
0x17,
0xf7,
0xf6,
0xfa,
0xef,
0xe1,
0xdf,
0xff,
0xfc,
0xd9,
0xea,
0x04,
0x0c,
0x11,
0x1f,
0x19,
0x16,
0xfd,
0xeb,
0xf5,
0xfb,
0xe4,
0xe0,
0xef,
0xfc,
0xfe,
0xfa,
0xf4,
0xea,
0xe9,
0xf8,
0xfc,
0x04,
0x24,
0x05,
0xf6,
0xe5,
0x11,
0xda,
0xdb,
0xe4,
0xcf,
0xbf,
0xd3,
0x06,
0x09,
0x05,
0xf8,
0x0a,
0x09,
0x0e,
0xf3,
0x00,
0xea,
0xea,
0x12,
0x12,
0x12,
0x03,
0x0a,
0x18,
0xf3,
0xe9,
0x00,
0x0f,
0x13,
0x19,
0x27,
0x0a,
0x31,
0x32,
0x16,
0x18,
0x09,
0x06,
0x2b,
0x42,
0x32,
0x1a,
0x1e,
0x36,
0x35,
0x25,
0x07,
0x1d,
0x12,
0x0a,
0xf9,
0xf8,
0x04,
0xeb,
0xe7,
0x08,
0xe8,
0xde,
0x02,
0xf2,
0xf1,
0xe7,
0x08,
0xf0,
0xf2,
0xfe,
0x08,
0x04,
0xf5,
0x05,
0xf8,
0xf4,
0x00,
0xf3,
0xec,
0x19,
0xf4,
0xee,
0xf1,
0xf3,
0x0d,
0x03,
0x05,
0xee,
0x03,
0x1c,
0x03,
0xf3,
0xfd,
0x14,
0x05,
0xfe,
0x30,
0x07,
0x3b,
0x4b,
0x12,
0x21,
0x32,
0x21,
0x27,
0x34,
0x0e,
0x22,
0x3c,
0x1b,
0x07,
0x1e,
0xff,
0x26,
0x2a,
0x04,
0xfb,
0x1b,
0x07,
0x1a,
0x24,
0x1a,
0x2b,
0x24,
0x0a,
0xff,
0xfe,
0xfc,
0x18,
0x10,
0x21,
0x16,
0xf2,
0x13,
0x12,
0x0b,
0x1a,
0x13,
0x1c,
0x2d,
0x2f,
0x12,
0x1a,
0x1e,
0x0d,
0xe5,
0x2a,
0x10,
0x02,
0x11,
0x01,
0xf9,
0xfc,
0x05,
0xfe,
0xfa,
0x01,
0x04,
0x0a,
0x1c,
0xf8,
0xfe,
0xf7,
0x02,
0x0b,
0xff,
0x07,
0x16,
0x1a,
0x13,
0x22,
0x1b,
0x0d,
0x0e,
0xfb,
0xff,
0xfc,
0x14,
0x23,
0x1a,
0x10,
0x05,
0xf2,
0xcd,
0xf1,
0xdd,
0xee,
0x0e,
0xf9,
0xe6,
0x12,
0x2e,
0x01,
0x14,
0x01,
0x10,
0x16,
0x12,
0xf5,
0x07,
0xe7,
0xe5,
0xf4,
0xde,
0xe7,
0xed,
0x12,
0x0a,
0x00,
0xf9,
0xf0,
0xe3,
0xe8,
0xf6,
0xe8,
0xdf,
0xf2,
0x0b,
0xfe,
0x04,
0xfb,
0xea,
0xed,
0xfd,
0xe5,
0xfe,
0xf6,
0x01,
0x09,
0x06,
0x08,
0x04,
0x0d,
0x05,
0x15,
0x24,
0x12,
0xfd,
0xf4,
0xea,
0xf6,
0xf9,
0xf2,
0xdd,
0xeb,
0x01,
0xe6,
0xf1,
0xfa,
0xf6,
0xef,
0x15,
0xf7,
0x06,
0x01,
0x06,
0x0d,
0x28,
0x08,
0xfa,
0xfd,
0xf7,
0xf1,
0xe7,
0xeb,
0x08,
0x01,
0xf5,
0xef,
0xfc,
0x13,
0xf9,
0x06,
0xf5,
0xff,
0xee,
0xdd,
0xe6,
0xe4,
0xee,
0xf8,
0xee,
0xf1,
0xfd,
0xed,
0xf8,
0xf7,
0x07,
0xf5,
0x04,
0xeb,
0xf0,
0xf2,
0x00,
0x05,
0x1f,
0x13,
0x2f,
0x38,
0xe0,
0xee,
0x08,
0xe2,
0xf1,
0x00,
0xfb,
0xf2,
0x06,
0x0c,
0x0b,
0xec,
0xfa,
0x02,
0xee,
0xf9,
0x17,
0xfd,
0x19,
0x18,
0x0c,
0x06,
0x0d,
0xf1,
0x12,
0xf7,
0xd7,
0xde,
0xfc,
0xe5,
0xff,
0xeb,
0x0a,
0xfe,
0xfa,
0xf1,
0x04,
0x1a,
0x1f,
0x0a,
0x16,
0xf6,
0xf9,
0x14,
0x1a,
0x07,
0x14,
0x27,
0x01,
0x15,
0x1e,
0xfe,
0x04,
0xf8,
0x0d,
0x0d,
0xe2,
0x01,
0x03,
0xe7,
0x04,
0xfc,
0xfa,
0xfb,
0x21,
0xfb,
0x14,
0x19,
0xfc,
0x2c,
0xf4,
0x0d,
0x0e,
0x08,
0xf0,
0xed,
0xf7,
0xe4,
0x01,
0xf6,
0xea,
0x09,
0x0c,
0x09,
0x07,
0xf9,
0xf0,
0xe4,
0xf3,
0x0e,
0xd9,
0xe9,
0x0a,
0x0a,
0x1e,
0x23,
0x17,
0x0b,
0x33,
0x1a,
0x21,
0x19,
0x00,
0xec,
0x09,
0x06,
0xf3,
0xef,
0xfc,
0xf9,
0xf0,
0xfe,
0x11,
0xf6,
0xea,
0x02,
0xdd,
0x14,
0x00,
0x05,
0x19,
0xfa,
0x0f,
0xfe,
0x00,
0xf9,
0xde,
0xfc,
0xef,
0xde,
0xf5,
0xe3,
0xf0,
0x28,
0xef,
0x0e,
0x1e,
0x02,
0x2c,
0x19,
0x06,
0x12,
0x0e,
0xfc,
0x0a,
0x47,
0x46,
0x28,
0x42,
0xfd,
0x08,
0x0d,
0xf2,
0x02,
0x09,
0x0f,
0x08,
0x06,
0xf0,
0xfc,
0xf9,
0xfb,
0xea,
0xf8,
0xdc,
0xe0,
0xff,
0x23,
0x2a,
0x17,
0x42,
0x32,
0xda,
0xe5,
0x07,
0x12,
0xf6,
0xe1,
0x07,
0xe8,
0xd1,
0x1b,
0x15,
0x0e,
0x1f,
0x19,
0xfb,
0xe0,
0xf5,
0xe9,
0xf3,
0xfc,
0xf9,
0xf8,
0xf5,
0xe7,
0xe4,
0xfc,
0xfa,
0x07,
0xfd,
0x0f,
0x05,
0x04,
0x06,
0x05,
0xfd,
0x0b,
0x0c,
0x00,
0x0e,
0x10,
0x01,
0x07,
0xea,
0xf1,
0x07,
0xfc,
0x01,
0x02,
0xfa,
0x05,
0x0a,
0x05,
0xed,
0xfa,
0xd3,
0xbb,
0xdd,
0x02,
0x09,
0xf7,
0xfd,
0x0f,
0x0f,
0x0b,
0xfb,
0xf7,
0x0e,
0x0e,
0x09,
0xfe,
0xf4,
0x02,
0xf0,
0xff,
0x04,
0xf7,
0xf4,
0xf2,
0xe7,
0xec,
0x03,
0xe1,
0x16,
0x21,
0xfd,
0x08,
0x01,
0x03,
0xf9,
0xf6,
0x0c,
0xfe,
0xfa,
0xf9,
0x07,
0x18,
0x04,
0x03,
0x03,
0x0e,
0x13,
0x0c,
0xf8,
0x14,
0xfd,
0x12,
0x1b,
0xf4,
0x05,
0x02,
0xf5,
0x0e,
0x10,
0x04,
0x03,
0x03,
0x02,
0x00,
0x10,
0xf2,
0x08,
0xdd,
0xd5,
0xd7,
0xef,
0xf1,
0xf5,
0x1a,
0x06,
0xf5,
0xf5,
0x06,
0xf3,
0xfa,
0xfd,
0xfa,
0x07,
0xff,
0xec,
0xed,
0x07,
0xde,
0xe0,
0xe5,
0xf3,
0x0b,
0xf9,
0xf6,
0xfd,
0xee,
0xf7,
0xea,
0x05,
0xdb,
0xe9,
0x02,
0xf2,
0xf2,
0xe9,
0x07,
0x02,
0xf6,
0x10,
0x19,
0xfe,
0x14,
0x1b,
0xe8,
0xf8,
0x1a,
0x0b,
0xfa,
0x13,
0x18,
0x1d,
0x18,
0x0d,
0x04,
0xfe,
0xff,
0xe8,
0x10,
0xeb,
0x03,
0xdc,
0xf7,
0x28,
0x30,
0x0e,
0x13,
0x10,
0x00,
0x24,
0x29,
0x12,
0x11,
0x23,
0x0a,
0x10,
0x1d,
0x0c,
0x10,
0x07,
0x2b,
0x27,
0x18,
0x19,
0x20,
0x0a,
0xff,
0xf4,
0xeb,
0x06,
0x16,
0xf0,
0x0d,
0x15,
0xf6,
0xed,
0xe6,
0x08,
0x05,
0x16,
0xc6,
0xb1,
0xdd,
0x05,
0xfe,
0xeb,
0xfa,
0x19,
0x16,
0xe5,
0x1b,
0x09,
0x06,
0xff,
0xff,
0xfa,
0xff,
0x03,
0x14,
0x01,
0x09,
0x0f,
0x0a,
0x05,
0x0f,
0x07,
0xc0,
0xf3,
0xf8,
0xdd,
0xd3,
0xe1,
0xdf,
0xf1,
0xea,
0x05,
0xe7,
0xfc,
0xf0,
0xf0,
0xfd,
0xdc,
0xf7,
0xf3,
0xf3,
0x02,
0x00,
0xfb,
0xf7,
0x13,
0xfe,
0xf7,
0x06,
0x08,
0xfc,
0x22,
0x1d,
0xd3,
0x0b,
0xd8,
0xc4,
0xda,
0xd1,
0xb3,
0xc7,
0xf4,
0xf0,
0xed,
0x13,
0xf4,
0xe0,
0x1c,
0xfd,
0xf8,
0xf8,
0xee,
0x09,
0xfa,
0xff,
0x0b,
0x1d,
0x0a,
0xf1,
0xf9,
0x00,
0xf4,
0xf3,
0xf9,
0xf9,
0xfa,
0x12,
0x08,
0x00,
0xfd,
0xfa,
0xfc,
0xec,
0xf3,
0x01,
0x17,
0x0a,
0xea,
0x20,
0x09,
0xd5,
0xff,
0xfd,
0x1e,
0x1d,
0x05,
0xff,
0x10,
0x0d,
0xfb,
0x1d,
0x04,
0x08,
0x01,
0x0e,
0xfa,
0xf8,
0xfa,
0xe1,
0xec,
0xfa,
0x02,
0xea,
0xf2,
0x03,
0x00,
0x10,
0x11,
0x0c,
0x15,
0x26,
0x24,
0x17,
0x24,
0x14,
0x24,
0x1e,
0x06,
0xf3,
0xf5,
0x06,
0x13,
0x11,
0x04,
0xf3,
0xfc,
0xff,
0xf8,
0x02,
0xfb,
0x0d,
0xe8,
0xfa,
0x25,
0x09,
0x0f,
0x10,
0x02,
0x01,
0x02,
0x0f,
0x05,
0x01,
0x06,
0x14,
0x12,
0xe9,
0x0a,
0xed,
0xf8,
0x11,
0x2f,
0x48,
0x2a,
0x20,
0x49,
0x2a,
0x11,
0xf5,
0xf6,
0xe5,
0xf6,
0x05,
0x08,
0x03,
0x04,
0x0a,
0x03,
0x07,
0x0e,
0x18,
0x22,
0x29,
0x28,
0x20,
0x24,
0x3d,
0x0a,
0x02,
0x13,
0xfe,
0x06,
0x05,
0x10,
0x0d,
0x23,
0x20,
0x1e,
0xf5,
0x04,
0x06,
0x11,
0x26,
0x11,
0xd2,
0xdb,
0xdc,
0xd5,
0xe3,
0xfa,
0xfd,
0xf5,
0xf2,
0xfe,
0xef,
0xe8,
0xd5,
0xfa,
0x0e,
0x01,
0x21,
0x16,
0xf4,
0x11,
0x1c,
0x05,
0x0a,
0x02,
0x10,
0xec,
0x01,
0xf9,
0xea,
0x06,
0x0c,
0xf0,
0xde,
0xfb,
0xdc,
0xfa,
0xf1,
0xef,
0xf4,
0xec,
0xdf,
0xe0,
0xd0,
0xe1,
0xec,
0xfa,
0x09,
0xfd,
0x04,
0x01,
0xfd,
0x07,
0x14,
0xeb,
0xf7,
0xff,
0xe1,
0xef,
0xed,
0xe1,
0xe4,
0xf6,
0x14,
0xe6,
0x20,
0x27,
0xff,
0x0c,
0x2b,
0x0f,
0xd4,
0xe2,
0xf0,
0xe0,
0xc9,
0xe0,
0xfe,
0xfd,
0x0d,
0xda,
0xef,
0xe9,
0xed,
0xe9,
0xeb,
0xde,
0xec,
0xf2,
0xf7,
0x10,
0xf8,
0xf7,
0x08,
0x18,
0x05,
0x02,
0xf1,
0xdc,
0x09,
0x10,
0x0e,
0xf2,
0x07,
0x1f,
0x0a,
0x06,
0x18,
0xee,
0xdf,
0xf0,
0xe9,
0xe8,
0x0a,
0x06,
0x04,
0x0c,
0x15,
0x04,
0x05,
0x12,
0xf8,
0xf7,
0xfe,
0x06,
0xf1,
0xf7,
0x01,
0xf1,
0xe8,
0xf3,
0x05,
0xf7,
0x1a,
0x0a,
0xdf,
0x2d,
0x25,
0xf7,
0xf3,
0xfa,
0xf7,
0xd6,
0xfd,
0x09,
0xfe,
0xe3,
0x17,
0xfc,
0xf3,
0xf9,
0xf7,
0x01,
0xf6,
0xf0,
0xdd,
0xfa,
0xda,
0xe1,
0x0b,
0xee,
0x10,
0x17,
0x14,
0x37,
0x26,
0x24,
0x32,
0x2f,
0x20,
0xea,
0xeb,
0xf7,
0xf3,
0xfe,
0xff,
0x25,
0xe6,
0xea,
0xf8,
0x06,
0xf1,
0xf9,
0xfa,
0xfe,
0x0e,
0x06,
0x0a,
0x00,
0xf2,
0x15,
0x15,
0x0b,
0xf7,
0xfd,
0xf2,
0xec,
0xdb,
0xf8,
0xeb,
0xe8,
0x1c,
0x1b,
0x0b,
0x1b,
0x20,
0x1c,
0xfe,
0x23,
0xfb,
0x19,
0xf9,
0xe0,
0xf8,
0xe6,
0x0d,
0xe4,
0xe0,
0xdd,
0xdc,
0xf2,
0xfb,
0xea,
0xe3,
0x11,
0xd9,
0xe1,
0xd0,
0xec,
0xda,
0xd0,
0xdb,
0xdb,
0xc7,
0xde,
0xe1,
0xe7,
0xf9,
0xf8,
0xec,
0xf6,
0x16,
0xeb,
0x20,
0x1e,
0x10,
0x0f,
0x25,
0xfe,
0x19,
0x09,
0xf8,
0xe3,
0xf1,
0x0d,
0xee,
0xf1,
0xf7,
0xf5,
0x0e,
0xf9,
0xfd,
0xf9,
0xee,
0xe6,
0xe8,
0x08,
0xf8,
0xef,
0xfd,
0xe9,
0xf3,
0x04,
0xf0,
0x07,
0x0b,
0x1e,
0x09,
0x14,
0x1d,
0xf6,
0x08,
0x00,
0xf8,
0xfa,
0xff,
0xf9,
0xff,
0xe7,
0x57,
0x3a,
0x28,
0x48,
0x28,
0xfb,
0xe4,
0xf8,
0xf8,
0x03,
0x00,
0x00,
0x08,
0x0a,
0xfc,
0xfb,
0xf7,
0xdd,
0xf7,
0xf4,
0xec,
0xe7,
0x01,
0xfa,
0xfb,
0xee,
0x05,
0x1e,
0xec,
0xeb,
0x16,
0xf1,
0x07,
0x17,
0x07,
0xef,
0x0b,
0x18,
0xfc,
0x06,
0x04,
0xf9,
0xfa,
0xe9,
0xf5,
0x01,
0x02,
0x10,
0x15,
0xfa,
0x1d,
0xff,
0xe8,
0x08,
0xf6,
0xe7,
0xf3,
0xe3,
0xff,
0xf7,
0x07,
0xfa,
0x05,
0xf1,
0xed,
0xf0,
0x03,
0x0e,
0xff,
0xf6,
0x0d,
0x07,
0xe8,
0x30,
0x28,
0xf8,
0xff,
0x08,
0xf9,
0x15,
0xf9,
0xea,
0xee,
0xdc,
0xef,
0xe0,
0xdd,
0xe4,
0xee,
0xf3,
0xe4,
0xef,
0xf0,
0xe9,
0xf7,
0xf3,
0x01,
0x0d,
0x14,
0x0f,
0xfd,
0x0e,
0x22,
0x10,
0x11,
0x10,
0x12,
0x01,
0x15,
0x1a,
0x28,
0x10,
0x05,
0xfd,
0x0d,
0x05,
0x0e,
0x06,
0x11,
0x0b,
0x21,
0x0e,
0x15,
0x0e,
0x07,
0x09,
0x06,
0xfb,
0xee,
0x1b,
0x1b,
0x08,
0xff,
0xdf,
0xe0,
0xea,
0xdf,
0xed,
0xed,
0x01,
0x05,
0x03,
0xf7,
0x0d,
0x12,
0x1d,
0x06,
0x0d,
0x07,
0x00,
0x13,
0x05,
0x06,
0x00,
0x02,
0x0f,
0x0a,
0x10,
0x08,
0x04,
0xd5,
0xbe,
0xda,
0xc3,
0xc2,
0xdb,
0xe8,
0xdb,
0xf7,
0x08,
0x10,
0x15,
0x26,
0x14,
0x29,
0x0b,
0xf7,
0x10,
0xf4,
0xf9,
0xf2,
0xed,
0xed,
0xdf,
0xe0,
0xe6,
0xde,
0xda,
0xe2,
0x05,
0x09,
0xfb,
0x05,
0x04,
0xe9,
0xea,
0xef,
0xe5,
0xd5,
0xf6,
0xf4,
0x07,
0xfd,
0xf7,
0xfe,
0xf6,
0x00,
0xf5,
0xec,
0xd6,
0xf2,
0x18,
0x1c,
0xfc,
0xfc,
0xe8,
0x1a,
0x05,
0xfc,
0x02,
0x19,
0x1c,
0x1d,
0xef,
0xff,
0x1f,
0x13,
0x11,
0xfe,
0x14,
0x06,
0x0a,
0x2b,
0x25,
0x1b,
0x0f,
0x23,
0x29,
0x16,
0x05,
0xf6,
0x09,
0xe1,
0xe8,
0x15,
0xd6,
0xe0,
0xf5,
0xe2,
0xce,
0xf2,
0x00,
0x05,
0x08,
0x1c,
0x1d,
0xe6,
0xec,
0xf5,
0xf6,
0xf1,
0x02,
0x14,
0x15,
0x0a,
0x25,
0x10,
0x13,
0x0b,
0x17,
0xfe,
0x1e,
0x08,
0x0f,
0x1b,
0x0f,
0x01,
0x09,
0x0c,
0xf6,
0xf1,
0xe3,
0x0d,
0x01,
0x00,
0x0e,
0xe8,
0xe7,
0x08,
0xfd,
0x17,
0x15,
0x06,
0xfb,
0x0e,
0x0c,
0x05,
0x10,
0xf9,
0xf1,
0xe7,
0x03,
0xf9,
0x0e,
0xf8,
0x00,
0xf8,
0x00,
0xfa,
0xf0,
0x00,
0x08,
0xfb,
0x0d,
0x12,
0xfa,
0x14,
0x22,
0x1c,
0x18,
0x08,
0x13,
0x38,
0x0b,
0x0d,
0x04,
0x03,
0x0a,
0x09,
0x19,
0x11,
0xf7,
0x02,
0xf7,
0xeb,
0xeb,
0xc8,
0xd5,
0xca,
0xda,
0xe9,
0xe2,
0xde,
0xf2,
0x0c,
0xef,
0xf1,
0x0e,
0xed,
0xeb,
0xf6,
0x00,
0xfb,
0x17,
0x0c,
0xee,
0xdc,
0xf6,
0xfc,
0xfa,
0xec,
0x00,
0x2c,
0x1a,
0xe1,
0xfc,
0x0d,
0xf4,
0x0b,
0x0f,
0x05,
0x13,
0x16,
0x16,
0x03,
0xe4,
0xf6,
0x09,
0xf6,
0xfd,
0xfe,
0x0b,
0x0f,
0x0c,
0xf2,
0x0d,
0x06,
0xf8,
0xf2,
0x09,
0x09,
0x01,
0xf6,
0xfd,
0x06,
0xf4,
0xf0,
0xe2,
0xea,
0xdc,
0xef,
0xfd,
0xff,
0xfd,
0xf7,
0xf4,
0x0c,
0x09,
0xf8,
0xfb,
0x01,
0xfd,
0x15,
0x1b,
0x07,
0x03,
0x00,
0xf2,
0xea,
0xff,
0x06,
0xfe,
0x05,
0xf2,
0xeb,
0xeb,
0x06,
0xf1,
0xed,
0xef,
0xe8,
0xea,
0xf5,
0xfd,
0xf8,
0x0c,
0x09,
0xe8,
0xe1,
0xfa,
0xef,
0xec,
0xf6,
0xf4,
0xf7,
0xf3,
0x01,
0x19,
0x02,
0xed,
0xe7,
0xfc,
0x0a,
0xe8,
0x00,
0xfb,
0xfa,
0xf6,
0xf1,
0x04,
0xfa,
0xdf,
0xdc,
0xee,
0xf9,
0x0c,
0x1a,
0x01,
0x0b,
0x04,
0x06,
0x12,
0x03,
0xfd,
0xfd,
0x14,
0xf6,
0xfb,
0xea,
0xe6,
0x50,
0x0d,
0x18,
0x04,
0x1a,
0xf2,
0xf0,
0x0b,
0xf7,
0x0e,
0x18,
0xf8,
0x24,
0x1d,
0x11,
0x1f,
0x15,
0x0c,
0x09,
0x0b,
0xf8,
0xe9,
0xe9,
0xda,
0xfe,
0x06,
0xee,
0xfd,
0xff,
0x0d,
0xfb,
0x0d,
0x0b,
0xea,
0x15,
0x1a,
0xe4,
0xfd,
0x11,
0x0b,
0x23,
0x11,
0x1c,
0x19,
0x18,
0x14,
0x34,
0x18,
0x33,
0x1d,
0xf7,
0x09,
0x10,
0xf8,
0xfd,
0xfb,
0xe1,
0xd7,
0xe3,
0x05,
0x0d,
0xf9,
0x09,
0x15,
0x04,
0x0c,
0x09,
0xf7,
0xf4,
0xf7,
0x04,
0x05,
0xf8,
0x01,
0xf9,
0x02,
0xf3,
0xe8,
0xfc,
0xf1,
0xfd,
0x09,
0xf7,
0xf6,
0x11,
0x23,
0x17,
0xfc,
0x18,
0x17,
0x05,
0xf8,
0x0c,
0xeb,
0x01,
0xfa,
0xf9,
0xf1,
0x13,
0x19,
0x11,
0xe3,
0xf6,
0x0c,
0xef,
0x0a,
0xf4,
0xfd,
0x01,
0x04,
0xf2,
0xeb,
0xff,
0x00,
0xfa,
0x22,
0x0a,
0x08,
0x1f,
0x19,
0x08,
0xe6,
0xea,
0xf1,
0xe7,
0xea,
0xf1,
0xde,
0xdf,
0x0d,
0xfe,
0xe7,
0xeb,
0xed,
0xf0,
0xf3,
0xee,
0xec,
0xee,
0xf0,
0xfb,
0xfd,
0xfa,
0x09,
0x09,
0xed,
0x13,
0xfa,
0xe4,
0x0a,
0x0a,
0x04,
0x09,
0x0a,
0xf3,
0x0d,
0xf8,
0xe3,
0x19,
0x15,
0xfe,
0xfc,
0xe8,
0x02,
0x00,
0xfb,
0x09,
0x15,
0xf6,
0x11,
0x23,
0x1c,
0xfa,
0xf6,
0xf8,
0xec,
0xf4,
0x02,
0x07,
0x06,
0x02,
0xf8,
0xf3,
0xf6,
0xed,
0xf3,
0x16,
0x12,
0x08,
0x03,
0x14,
0x08,
0x1a,
0x1b,
0x1b,
0xf7,
0xf0,
0x04,
0xfa,
0xe5,
0x0d,
0xf2,
0xf8,
0x0f,
0x09,
0xff,
0x23,
0x13,
0x18,
0x18,
0x23,
0x0d,
0x1e,
0x21,
0xe7,
0x11,
0x06,
0x19,
0x08,
0xe9,
0x11,
0x26,
0x10,
0x0c,
0xfe,
0x10,
0x1c,
0x10,
0xf2,
0xde,
0xed,
0xe8,
0xdf,
0xf4,
0x1f,
0x16,
0xfa,
0x0e,
0x12,
0x1b,
0xd9,
0xf2,
0xd4,
0xcf,
0xe1,
0x11,
0x11,
0x0b,
0xf9,
0x02,
0xf6,
0xea,
0xf1,
0xf5,
0x19,
0x0d,
0xf4,
0xef,
0xef,
0xf5,
0xfe,
0xf6,
0x0f,
0x21,
0x06,
0xfb,
0x0b,
0xf7,
0xdd,
0xf7,
0xf6,
0xec,
0xf2,
0x1e,
0xf9,
0xe0,
0x0a,
0xff,
0x11,
0x03,
0xfd,
0x01,
0xf1,
0x01,
0x08,
0xff,
0xee,
0xf9,
0x0c,
0x19,
0xf9,
0x00,
0x05,
0xe2,
0xf2,
0xfb,
0x00,
0xf2,
0xe4,
0x13,
0x0a,
0xff,
0x11,
0x38,
0xf1,
0x08,
0xfe,
0xf3,
0xf1,
0xf3,
0xf3,
0xeb,
0x09,
0x0d,
0xfd,
0x02,
0xf0,
0xf5,
0xfe,
0x07,
0xf4,
0xdd,
0xd3,
0xe3,
0xea,
0xd9,
0xe5,
0x06,
0x05,
0x07,
0x06,
0x0f,
0x02,
0x03,
0x07,
0x01,
0xf8,
0xf7,
0x07,
0xee,
0xe1,
0xfa,
0xdd,
0xd8,
0x05,
0x08,
0xf5,
0xfc,
0xf1,
0x00,
0x00,
0xfc,
0x14,
0x05,
0x00,
0x16,
0x05,
0xfd,
0x00,
0x15,
0x04,
0x06,
0xfa,
0xfc,
0xfa,
0xf4,
0xf6,
0xd9,
0xe5,
0x18,
0x29,
0x0b,
0xfb,
0xee,
0xf8,
0xf4,
0xe3,
0xd8,
0x05,
0x02,
0xfe,
0xfd,
0xf6,
0xf5,
0x08,
0x20,
0x06,
0x0c,
0x09,
0xfb,
0xf8,
0x00,
0xfa,
0x0e,
0x12,
0x01,
0x04,
0x0b,
0xf8,
0xef,
0xea,
0xdf,
0xf8,
0xd9,
0xd6,
0xdc,
0xf6,
0xd8,
0xd6,
0x0b,
0xf3,
0xec,
0x12,
0xfc,
0xf1,
0x0e,
0xf8,
0x07,
0x09,
0x05,
0xee,
0xde,
0xf1,
0xe6,
0xe4,
0xe6,
0xfc,
0xe8,
0xdf,
0xfc,
0xf9,
0xfb,
0x03,
0xfb,
0x0c,
0x13,
0x0a,
0x06,
0x1b,
0x03,
0x02,
0xf6,
0xf1,
0x1e,
0xfd,
0xf4,
0x04,
0x10,
0x03,
0x06,
0x05,
0x04,
0xf9,
0xfe,
0xf8,
0xea,
0xf6,
0x0d,
0xfb,
0xfe,
0xee,
0x0d,
0x0c,
0x03,
0x02,
0xe7,
0xea,
0xed,
0xe3,
0xf4,
0xfd,
0xdf,
0xe3,
0xf0,
0xd7,
0xdf,
0xe0,
0xf0,
0xeb,
0x06,
0x08,
0x06,
0x05,
0xf4,
0x01,
0x01,
0x0a,
0xea,
0x07,
0xf6,
0xf3,
0xeb,
0x0b,
0x12,
0x0f,
0xef,
0xc3,
0xb4,
0xcc,
0xd9,
0xd0,
0xe7,
0x01,
0x0a,
0x18,
0xfc,
0x05,
0x14,
0x08,
0x09,
0x02,
0xe6,
0x15,
0xf1,
0xf8,
0x08,
0xec,
0xf6,
0xef,
0x09,
0x02,
0xf8,
0x13,
0x25,
0x17,
0x16,
0x0a,
0x1b,
0x1f,
0x06,
0x15,
0x23,
0x17,
0x05,
0xf2,
0x03,
0x10,
0x0d,
0x02,
0x12,
0x0b,
0x13,
0xfc,
0xf6,
0x08,
0xef,
0xe5,
0x05,
0xee,
0xf1,
0x0e,
0x0c,
0x10,
0x03,
0xf4,
0xed,
0xec,
0x07,
0xf5,
0xfc,
0x0b,
0x16,
0x17,
0x18,
0xfc,
0xf7,
0x04,
0x10,
0x23,
0x18,
0x07,
0x14,
0x09,
0x0a,
0x0f,
0x04,
0xdc,
0xf2,
0xe0,
0xfa,
0x03,
0xff,
0x1d,
0x0a,
0xf2,
0xd7,
0xf1,
0x07,
0xfa,
0xf3,
0xf7,
0xe1,
0xeb,
0xf1,
0x03,
0x0c,
0x11,
0x12,
0xf5,
0x14,
0x02,
0x03,
0xfd,
0xe5,
0xf4,
0xf0,
0xed,
0xdf,
0xfb,
0xda,
0xec,
0xef,
0xea,
0xe6,
0xf8,
0x0b,
0x05,
0x01,
0xfb,
0x0d,
0x07,
0x08,
0x17,
0xff,
0xdf,
0xfa,
0x2e,
0x2e,
0x17,
0x1f,
0x1c,
0x28,
0x0a,
0x0e,
0x0b,
0x04,
0xf8,
0x0e,
0xf0,
0x05,
0x08,
0xf3,
0xfd,
0xfb,
0xec,
0xf7,
0x01,
0x04,
0xf7,
0x16,
0x10,
0x05,
0x11,
0x03,
0x00,
0x0d,
0xf6,
0x00,
0x00,
0xf8,
0x04,
0xf5,
0x04,
0x15,
0x10,
0x09,
0xf8,
0x1b,
0x1c,
0x27,
0x30,
0x15,
0x05,
0x0b,
0x08,
0xfc,
0xf5,
0xfa,
0x00,
0xfb,
0x01,
0x03,
0xfc,
0xf4,
0x06,
0x0f,
0xff,
0x07,
0xf3,
0xf2,
0xfb,
0xf7,
0xf6,
0xf9,
0xf8,
0xed,
0xe6,
0x09,
0xe6,
0xd2,
0x04,
0xe5,
0xd5,
0x00,
0x26,
0xf5,
0x21,
0x2f,
0x0c,
0x08,
0x00,
0x28,
0x2d,
0x14,
0x12,
0x24,
0x1f,
0xff,
0x00,
0x07,
0xf9,
0xf3,
0xfb,
0xef,
0xff,
0xeb,
0x02,
0x05,
0xd1,
0xdd,
0xed,
0xd7,
0xec,
0xe6,
0xf7,
0xe5,
0xfe,
0xfd,
0x06,
0xed,
0xe9,
0xf6,
0xee,
0x03,
0x03,
0x04,
0xe9,
0xf8,
0x00,
0xfa,
0xfc,
0xf7,
0x04,
0xf8,
0x06,
0xfa,
0xfe,
0xee,
0xfc,
0xef,
0xfa,
0x00,
0xf1,
0xf2,
0xea,
0x05,
0xf2,
0x06,
0x06,
0xf2,
0x20,
0x0e,
0xf7,
0x1b,
0x07,
0xdb,
0x04,
0xf5,
0xfd,
0xfd,
0x0e,
0x24,
0xfe,
0x1a,
0xf1,
0xf5,
0xea,
0xf9,
0xed,
0xf7,
0xfb,
0xe5,
0xff,
0xe5,
0xee,
0xe8,
0xfe,
0x04,
0x01,
0xdd,
0x01,
0xda,
0x0d,
0x05,
0xe0,
0xf6,
0x11,
0xde,
0xed,
0xeb,
0x06,
0x02,
0xf8,
0x1d,
0xfc,
0x09,
0xdc,
0xfb,
0xd0,
0xe6,
0xec,
0xe9,
0xe6,
0xed,
0xe8,
0xe5,
0xd9,
0xef,
0xe0,
0xe7,
0x10,
0x4a,
0xe8,
0xe8,
0xef,
0xec,
0xea,
0xe9,
0xfc,
0xf4,
0xe2,
0x21,
0x21,
0x08,
0x00,
0x06,
0xfc,
0xf5,
0xf2,
0xfa,
0xe7,
0xf6,
0x25,
0x1d,
0x09,
0xfe,
0x01,
0xf7,
0xf4,
0x0a,
0x0b,
0xfc,
0xf9,
0x06,
0xd8,
0xe9,
0xe3,
0xc3,
0xe4,
0x05,
0x0d,
0xfd,
0x09,
0x12,
0x08,
0x0c,
0x13,
0x03,
0x0c,
0xfa,
0xe6,
0xe1,
0xea,
0x14,
0x11,
0x10,
0x59,
0x57,
0x42,
0xfe,
0x0c,
0x02,
0x0f,
0x13,
0x13,
0x13,
0xf0,
0xfc,
0x0e,
0x04,
0x18,
0x19,
0x16,
0xef,
0xf8,
0xf3,
0xf3,
0xe5,
0x03,
0xf7,
0xeb,
0xf1,
0xee,
0xfe,
0xf0,
0x02,
0xff,
0x00,
0xfc,
0x0d,
0xfe,
0xf8,
0x0b,
0xfa,
0x02,
0x06,
0x0a,
0x11,
0xff,
0xdf,
0xe5,
0xfd,
0xf1,
0x02,
0x0c,
0x1c,
0x18,
0x1d,
0x15,
0x22,
0x03,
0x09,
0xf5,
0x1e,
0xf8,
0x0d,
0x1b,
0xfa,
0xfd,
0x1e,
0x16,
0x14,
0x17,
0xfc,
0xee,
0xee,
0xf6,
0xe7,
0xf7,
0x03,
0x06,
0x0c,
0xf9,
0x0a,
0x0d,
0xf5,
0x0b,
0x0f,
0x02,
0x0a,
0x23,
0x0a,
0x13,
0x13,
0x03,
0x05,
0x04,
0x04,
0xfb,
0xf5,
0xf8,
0x10,
0xfd,
0xf7,
0x0a,
0xf3,
0x0c,
0xf5,
0xe5,
0x05,
0x0d,
0xed,
0x01,
0xfa,
0xf7,
0xf7,
0x06,
0x08,
0x0b,
0xff,
0x1b,
0x0d,
0xfb,
0x0e,
0x0e,
0xf1,
0xdc,
0xec,
0xea,
0xea,
0xea,
0xd9,
0xdb,
0xee,
0xd1,
0xdd,
0x03,
0xdf,
0xf5,
0x13,
0xe6,
0xec,
0x13,
0xf6,
0xef,
0xf0,
0xef,
0x01,
0xf5,
0xef,
0xe8,
0xf3,
0x04,
0x28,
0x24,
0x22,
0xf3,
0x04,
0xfe,
0xe3,
0x19,
0x1f,
0x1d,
0x14,
0x0c,
0x1a,
0x06,
0x12,
0x1b,
0x15,
0x18,
0x0e,
0x0c,
0x0d,
0x12,
0x00,
0xfd,
0xf2,
0xf8,
0xde,
0x07,
0xee,
0xd8,
0xf8,
0xf6,
0xe7,
0x04,
0x19,
0x13,
0x12,
0x0d,
0x12,
0x22,
0x3c,
0x2a,
0x16,
0x20,
0x18,
0x00,
0x07,
0xf6,
0x06,
0x03,
0x18,
0x10,
0x20,
0x1e,
0x16,
0xf1,
0x06,
0xe6,
0xf5,
0x20,
0x16,
0x30,
0x08,
0x25,
0x13,
0x09,
0x09,
0x13,
0x21,
0x1f,
0x35,
0xf9,
0x04,
0xe1,
0xed,
0xfd,
0xf4,
0xf4,
0x01,
0x04,
0xf5,
0x05,
0x01,
0xf4,
0xf6,
0x1b,
0x32,
0x12,
0x0d,
0x04,
0x1e,
0x3f,
0x24,
0x0b,
0x2b,
0x1f,
0x29,
0xf4,
0xee,
0xfd,
0xf5,
0xcd,
0x1f,
0x08,
0x10,
0x33,
0x2d,
0x11,
0x22,
0x19,
0x15,
0x0a,
0x06,
0xee,
0xe6,
0xfa,
0xfd,
0x00,
0x0d,
0xfb,
0x15,
0x02,
0x12,
0x1b,
0x2a,
0x0e,
0x09,
0xf3,
0xe0,
0xeb,
0xca,
0xb9,
0xd2,
0xd8,
0xc8,
0xfa,
0x07,
0x12,
0x02,
0x06,
0x0e,
0x02,
0x12,
0x27,
0xfd,
0x1c,
0x1e,
0x01,
0x0d,
0xf7,
0x05,
0x16,
0x27,
0x22,
0x24,
0x13,
0x25,
0x06,
0x05,
0x02,
0x07,
0xfd,
0xf4,
0xf8,
0xf2,
0xf0,
0x03,
0x08,
0x0b,
0xd2,
0xe1,
0xeb,
0xe5,
0xdb,
0xd8,
0xfc,
0xfb,
0xf9,
0xd4,
0xc6,
0xd7,
0xdd,
0xed,
0xed,
0xe6,
0xed,
0x00,
0xf4,
0x04,
0xef,
0xf4,
0xf7,
0xe8,
0xe9,
0xf9,
0x0f,
0x0a,
0x09,
0x00,
0xe8,
0x12,
0x0c,
0x08,
0x01,
0xf0,
0xf0,
0xee,
0xf7,
0xf6,
0x2e,
0x2c,
0x14,
0x05,
0x11,
0x06,
0xe1,
0xe8,
0xdd,
0xd3,
0xdd,
0xef,
0xf3,
0xfd,
0xfd,
0x05,
0x01,
0x07,
0xfd,
0x14,
0xe9,
0xe1,
0x07,
0xf0,
0x05,
0xf6,
0xf7,
0xfb,
0xf5,
0xf9,
0x0e,
0x09,
0xfa,
0xde,
0x15,
0x1a,
0xeb,
0x37,
0x1a,
0xfe,
0x07,
0x09,
0xf0,
0xde,
0xf1,
0xe4,
0xec,
0xe9,
0xfb,
0xf2,
0xf2,
0xf9,
0xfe,
0x06,
0xdf,
0xe1,
0xf4,
0xde,
0xf7,
0xee,
0x00,
0x10,
0x0b,
0x21,
0x20,
0xdb,
0x11,
0x21,
0xd8,
0xed,
0xd1,
0xe8,
0x06,
0x21,
0xf2,
0xfb,
0x04,
0x03,
0x09,
0xf4,
0xe6,
0xf1,
0x01,
0xf7,
0x08,
0x0a,
0xdf,
0xd8,
0xd9,
0xc0,
0xfe,
0xd5,
0xcd,
0x15,
0xfc,
0xeb,
0x1a,
0xf3,
0xf1,
0x0f,
0x07,
0x18,
0xea,
0xe1,
0xfb,
0x01,
0x06,
0x03,
0x02,
0x28,
0xfa,
0x06,
0x02,
0x0d,
0x14,
0x0a,
0x08,
0x1c,
0x17,
0x27,
0x21,
0xf6,
0x02,
0x02,
0x11,
0x04,
0x07,
0x20,
0x07,
0x0d,
0x0e,
0xff,
0x00,
0x0e,
0xea,
0x07,
0xf6,
0xf7,
0x04,
0xec,
0xe7,
0x1f,
0x12,
0xf9,
0xd7,
0xee,
0xfd,
0xfa,
0xfe,
0xf3,
0x09,
0x06,
0xfa,
0x0f,
0xfe,
0xf5,
0xef,
0xf3,
0xff,
0xf1,
0xef,
0x0d,
0x05,
0xfb,
0x1e,
0x37,
0x14,
0x01,
0xf4,
0xf7,
0xfe,
0xfb,
0x00,
0xf7,
0xec,
0x0e,
0x09,
0x00,
0x05,
0x0a,
0x06,
0x02,
0xfe,
0xfb,
0xf9,
0xfd,
0xf6,
0xec,
0x09,
0xf8,
0xee,
0x09,
0x03,
0xf4,
0x00,
0xf2,
0xea,
0x06,
0x0a,
0x03,
0x16,
0x20,
0x1a,
0x14,
0x19,
0x0b,
0xfd,
0x0a,
0x07,
0x14,
0x23,
0x22,
0x0d,
0x20,
0x1a,
0x10,
0xee,
0x0b,
0xe7,
0xf3,
0xfb,
0xfc,
0xfd,
0xed,
0x00,
0x05,
0xfe,
0xf8,
0x07,
0xf3,
0xfe,
0xfc,
0x05,
0x04,
0xfa,
0x09,
0x11,
0xf4,
0xf3,
0xee,
0x0a,
0x07,
0xf0,
0x07,
0xfd,
0xfb,
0x0a,
0xfd,
0xf7,
0xe6,
0xe5,
0xe9,
0xe6,
0xf6,
0xf0,
0xf2,
0xf7,
0xeb,
0xf0,
0xf8,
0xec,
0xed,
0xf6,
0xee,
0xea,
0xf1,
0xf2,
0xf3,
0xf3,
0xe0,
0xee,
0xf8,
0xca,
0xde,
0xed,
0xdc,
0xf2,
0xff,
0x0e,
0xfa,
0x0e,
0x09,
0x05,
0x0e,
0xe3,
0xfc,
0xf1,
0xed,
0xf2,
0xf3,
0xf8,
0x0e,
0x01,
0xf7,
0xf0,
0xdf,
0xf8,
0xe3,
0xe4,
0xe3,
0xe1,
0xfe,
0xf9,
0xe7,
0xf5,
0x0b,
0x0a,
0xf5,
0x1d,
0x21,
0xeb,
0xee,
0xf1,
0xec,
0xdf,
0xf4,
0xf3,
0xf6,
0x05,
0xfa,
0x01,
0xfb,
0xf3,
0xfa,
0x0a,
0xec,
0xf5,
0xea,
0xdd,
0xe2,
0xfd,
0xef,
0xed,
0x0c,
0x0b,
0xfb,
0xfe,
0x09,
0x0c,
0xf3,
0xff,
0x02,
0xfe,
0xf8,
0xeb,
0xe9,
0xf7,
0xff,
0xe0,
0xe9,
0xfc,
0xf9,
0xf5,
0xfd,
0x0f,
0x0b,
0x04,
0x01,
0x0a,
0xfe,
0xf3,
0xd8,
0xc7,
0xd7,
0xf9,
0x06,
0xfd,
0x10,
0x32,
0x10,
0x05,
0x1b,
0x18,
0x34,
0xee,
0xf5,
0xf3,
0xf6,
0x03,
0x01,
0xfe,
0xf5,
0xfb,
0xfb,
0x02,
0x0c,
0x18,
0xf8,
0x0f,
0xfb,
0xf7,
0x0e,
0xee,
0x00,
0x12,
0x0b,
0xf3,
0x06,
0x21,
0x18,
0x19,
0xfb,
0xfa,
0xed,
0x09,
0xfb,
0xef,
0xe0,
0xee,
0xf1,
0xec,
0xf6,
0x0a,
0xe9,
0xf5,
0xfc,
0xf3,
0x00,
0xf9,
0x00,
0xf5,
0x03,
0x03,
0x01,
0x01,
0xf7,
0x02,
0x16,
0x0a,
0xf5,
0xfd,
0xff,
0xe1,
0xe7,
0xf2,
0xe9,
0xe9,
0xf1,
0x02,
0x07,
0x0e,
0x06,
0xf9,
0xf3,
0xfd,
0x09,
0xf6,
0xfa,
0x01,
0x04,
0xf6,
0x0f,
0xf6,
0xee,
0x04,
0xde,
0xe8,
0x09,
0xf4,
0xd9,
0xfd,
0xea,
0xf1,
0xfa,
0x0a,
0x14,
0xf1,
0xe9,
0xf9,
0xe8,
0xd4,
0xe6,
0xdf,
0xc2,
0x13,
0x12,
0xef,
0xf8,
0xeb,
0xec,
0xe8,
0xce,
0xe1,
0xfb,
0xfa,
0x04,
0xfd,
0xfc,
0x12,
0x09,
0xe6,
0xf2,
0xf1,
0x01,
0x0c,
0x07,
0x03,
0xde,
0xf6,
0xdf,
0xf2,
0xe5,
0xe6,
0xdb,
0xdc,
0x12,
0x18,
0x38,
0x31,
0x47,
0x3e,
0x21,
0xfe,
0xfe,
0x12,
0x06,
0xff,
0x16,
0xe7,
0xe1,
0xe6,
0xea,
0xfd,
0xf4,
0x09,
0x00,
0x2e,
0x19,
0xfd,
0x13,
0x2f,
0xf5,
0x02,
0x0e,
0x47,
0x05,
0x13,
0x0c,
0x2c,
0x48,
0x1c,
0x38,
0x40,
0x04,
0x18,
0x00,
0x23,
0x1a,
0x32,
0x39};
