/* SPDX-License-Identifier: GPL-2.0 */
/*
 * Copyright (c) 2020 MediaTek Inc.
 *
 * Author: Ya-Wen Hsu <Ya-Wen.Hsu@mediatek.com>
 *
 */
char gender_kernel_bias_loop00_1_frame01[] = {
0x05,
0x0c,
0x07,
0xf8,
0xf6,
0x0e,
0xfd,
0xf7,
0x0c,
0x02,
0xf9,
0x0e,
0x0c,
0x01,
0x08,
0xfd,
0x00,
0x01,
0x01,
0xff,
0x00,
0x00,
0x06,
0x07,
0x06,
0x06,
0x07,
0x06,
0x07,
0x09,
0x07,
0xf3,
0xfc,
0x06,
0x0d,
0x1d,
0xec,
0xe6,
0xee,
0x0d,
0x02,
0xfc,
0xf3,
0xf8,
0xfc,
0x0f,
0x15,
0x0d,
0x42,
0xf4,
0xec,
0x2f,
0xeb,
0x05,
0x07,
0x04,
0x0b,
0x0f,
0x0b,
0xfa,
0x04,
0x02,
0xfe,
0xff,
0xfe,
0x02,
0x02,
0x04,
0x04,
0x05,
0x05,
0x01,
0x07,
0xf9,
0xf9,
0x05,
0xf7,
0xff,
0x0a,
0xf9,
0xf6,
0xfd,
0xf7,
0xfa,
0xfe,
0xff,
0x00,
0xff,
0x00,
0xff,
0xfe,
0xff,
0xfe,
0x00,
0x01,
0xff,
0xf9,
0xf8,
0x00,
0xff,
0xfe,
0x07,
0x08,
0x06,
0x00,
0x02,
0x01,
0x03,
0x06,
0x05,
0x06,
0x07,
0xfa,
0xef,
0xef,
0x02,
0x0a,
0x09,
0xfa,
0x01,
0x08,
0xf7,
0xf7,
0xfc,
0x56,
0x14,
0xd0,
0x1c,
0xfe,
0xfe,
0xff,
0xfe,
0x00,
0x00,
0x00,
0x02,
0x01,
0x02,
0x04,
0x02,
0x01,
0x03,
0x05,
0x05,
0x06,
0x07,
0x05,
0xf7,
0xfa,
0x0d,
0xfd,
0xf8,
0x09,
0x02,
0xfa,
0x0a,
0x0a,
0x02,
0x05,
0xfb,
0x05,
0x05,
0x04,
0x02,
0x02,
0x01,
0x09,
0x05,
0x09,
0x06,
0x03,
0x07,
0x09,
0x05,
0x0a,
0xf9,
0x00,
0xfb,
0x00,
0x0a,
0xf8,
0xed,
0xf3,
0x13,
0x0a,
0x03,
0xee,
0xf4,
0xfc,
0x13,
0x1a,
0x11,
0x02,
0x10,
0x0e,
0x18,
0xfb,
0xfc,
0xfc,
0xfd,
0xf9,
0xf8,
0xfa,
0x01,
0xfe,
0xfd,
0x00,
0xff,
0x00,
0x00,
0x00,
0x00,
0x00,
0x00,
0x00,
0x00,
0x00,
0x00,
0x00,
0x00,
0x00,
0x00,
0x00,
0x00,
0x00,
0x00,
0x00,
0x00,
0x00,
0x00,
0x00,
0x00,
0x00,
0x00,
0x00,
0x00,
0x00,
0x00,
0x00,
0x00};
