/* SPDX-License-Identifier: GPL-2.0 */
/*
 * Copyright (c) 2020 MediaTek Inc.
 *
 * Author: Ya-Wen Hsu <Ya-Wen.Hsu@mediatek.com>
 *
 */
char gender_kernel_bias_loop08_1_frame01[] = {
0x06,
0xfa,
0xf8,
0xf5,
0x02,
0xff,
0x05,
0x04,
0x00,
0x07,
0x00,
0x05,
0xfd,
0x0a,
0x08,
0x11,
0x00,
0x05,
0xfc,
0x17,
0x04,
0xfb,
0x00,
0xff,
0xfa,
0xfb,
0x06,
0xff,
0x09,
0x02,
0xf0,
0xfe,
0x02,
0xfc,
0x01,
0xfc,
0xf4,
0xff,
0x1e,
0xfd,
0xfd,
0xf9,
0xff,
0x06,
0x0b,
0x04,
0x0b,
0xff,
0x01,
0x03,
0x04,
0x07,
0x02,
0xfc,
0xfe,
0xf9,
0x02,
0x03,
0x04,
0x0a,
0x01,
0x10,
0xff,
0x01,
0x02,
0x0b,
0xff,
0xf9,
0xf9,
0xff,
0x05,
0xff,
0x02,
0xfc,
0x0c,
0xf2,
0x00,
0xfb,
0x04,
0x11,
0x0d,
0xff,
0x00,
0x09,
0x03,
0xed,
0xf1,
0x0c,
0x0a,
0x0d,
0xfd,
0xf8,
0xe8,
0xfd,
0xf6,
0xfd,
0xfd,
0x00,
0x04,
0x04,
0x01,
0x05,
0xee,
0xfa,
0xfd,
0xfe,
0x00,
0xfc,
0x05,
0xfc,
0x06,
0x05,
0xf2,
0x05,
0xff,
0x0f,
0x06,
0x13,
0xfc,
0x06,
0xef,
0x04,
0xf5,
0x00,
0x08,
0xff,
0xff,
0xfc,
0x03,
0xff,
0x05,
0xfc,
0x06,
0xfe,
0x09,
0xf7,
0x1a,
0x06,
0xff,
0xf7,
0x0b,
0xec,
0xfa,
0x10,
0x0f,
0x02,
0x09,
0x07,
0xeb,
0x00,
0x07,
0x08,
0xff,
0xfe,
0x0c,
0x09,
0xef,
0xf6,
0x0d,
0xfc,
0xf8,
0x08,
0x04,
0x07,
0xfa,
0x02,
0x06,
0x06,
0x09,
0xf6,
0xf9,
0xf0,
0xf7,
0x0b,
0xfe,
0xff,
0xff,
0x06,
0xff,
0x02,
0xfd,
0xf6,
0x01,
0x0a,
0xfc,
0x02,
0x00,
0x05,
0xf8,
0x04,
0x03,
0x05,
0x00,
0xee,
0xf4,
0x01,
0x06,
0x02,
0xfe,
0x01,
0x04,
0xf2,
0xfb,
0x05,
0x01,
0xfc,
0xff,
0xfd,
0xf3,
0x01,
0xff,
0xff,
0x07,
0x01,
0xf7,
0xff,
0x00,
0xfb,
0x08,
0x00,
0xf3,
0xf5,
0x00,
0x03,
0x0b,
0x0c,
0xfb,
0xff,
0xfb,
0x00,
0x0e,
0x00,
0xfc,
0xfa,
0xfc,
0xff,
0xf0,
0xfe,
0xfa,
0xfd,
0xf6,
0xff,
0x00,
0x08,
0x0c,
0x0d,
0xf5,
0xfe,
0x08,
0x05,
0x07,
0xfc,
0x07,
0x06,
0x03,
0xfb,
0x0b,
0x0c,
0x08,
0xf8,
0xfa,
0xfb,
0x00,
0xf5,
0x00,
0x02,
0xff,
0xf4,
0xfe,
0x01,
0xf8,
0x02,
0xfa,
0xf2,
0xf6,
0x07,
0x0a,
0xf4,
0x04,
0xf9,
0x02,
0x0a,
0x07,
0xf8,
0xf3,
0xf3,
0x0a,
0xfa,
0xfa,
0xfc,
0xfe,
0xfd,
0xfe,
0x12,
0x01,
0x01,
0xff,
0x05,
0x01,
0xfd,
0x00,
0x05,
0x04,
0x0d,
0xf8,
0x07,
0x05,
0x04,
0xf8,
0x01,
0x0a,
0x07,
0xf7,
0x00,
0x01,
0x00,
0xf7,
0xfe,
0xfc,
0x11,
0x08,
0x01,
0x09,
0xfd,
0xf9,
0x04,
0xf8,
0x08,
0x06,
0x07,
0xf9,
0x11,
0x01,
0x05,
0x03,
0xfa,
0x01,
0x0a,
0xff,
0xff,
0xfe,
0x01,
0xfb,
0xf8,
0x12,
0x00,
0xf5,
0xf3,
0x05,
0xf5,
0x02,
0xf4,
0xfa,
0xfe,
0xff,
0xff,
0xfe,
0x04,
0xf7,
0xff,
0xf8,
0x01,
0xfe,
0xfe,
0xfb,
0xfe,
0xfd,
0xf0,
0x02,
0x14,
0x16,
0x04,
0xee,
0x0d,
0xfb,
0x04,
0x16,
0xfe,
0xff,
0x10,
0x19,
0xfc,
0x06,
0x01,
0x08,
0xfc,
0xf8,
0xfc,
0x05,
0xf4,
0x04,
0xff,
0x02,
0xfc,
0xfa,
0x0a,
0xfc,
0xfc,
0xfa,
0x03,
0x05,
0x01,
0xf6,
0x0a,
0x0a,
0x09,
0xfa,
0x05,
0x0a,
0x05,
0x01,
0x0d,
0xf9,
0x03,
0x0d,
0xf7,
0xfa,
0x09,
0x0a,
0xff,
0xfe,
0x06,
0x1a,
0x03,
0x04,
0xf8,
0x06,
0xf3,
0xfe,
0x16,
0xf8,
0x02,
0x0a,
0x07,
0xfc,
0x06,
0xfe,
0xfd,
0x09,
0x02,
0xfe,
0xfd,
0x0c,
0xfe,
0xff,
0x04,
0x01,
0xf9,
0x03,
0x00,
0xf8,
0xfc,
0x05,
0xf6,
0x16,
0x02,
0x06,
0xf6,
0x02,
0x02,
0xf7,
0xfd,
0xfc,
0x05,
0x03,
0x0b,
0x03,
0x04,
0xfc,
0x04,
0x0d,
0xff,
0x15,
0xf4,
0xf7,
0xf9,
0xf6,
0x01,
0xf5,
0xff,
0xf5,
0x00,
0x01,
0xfb,
0x00,
0xf9,
0xfb,
0x09,
0x03,
0x02,
0x04,
0x03,
0x06,
0xfb,
0x07,
0xf8,
0xf8,
0x12,
0x04,
0xfd,
0x06,
0xff,
0xfe,
0x05,
0xf8,
0xfd,
0x03,
0xf9,
0xf3,
0x05,
0xf9,
0x12,
0x13,
0xef,
0xfc,
0x07,
0x02,
0xf7,
0x10,
0xf8,
0xf9,
0x07,
0x03,
0xed,
0xfe,
0xfb,
0xf7,
0xff,
0x03,
0xf4,
0x09,
0x0c,
0x09,
0xea,
0x10,
0x0b,
0x03,
0xf5,
0xea,
0x14,
0xf3,
0x04,
0x0f,
0x06,
0x05,
0xfc,
0xfb,
0x10,
0x06,
0x04,
0xfe,
0xd9,
0x03,
0x05,
0xfa,
0xf6,
0x04,
0xfb,
0xf9,
0xf2,
0x00,
0x04,
0xff,
0xfe,
0xee,
0x03,
0xfa,
0x04,
0xfe,
0x03,
0xf1,
0xfb,
0x05,
0xf7,
0x04,
0x12,
0x12,
0xfa,
0xfa,
0x09,
0xf1,
0x05,
0x08,
0xfe,
0xfa,
0xff,
0x00,
0x01,
0x02,
0xfa,
0xfb,
0x05,
0xfd,
0xfe,
0x05,
0x0f,
0x03,
0xf1,
0xf0,
0x03,
0x01,
0xfb,
0x02,
0x0c,
0xf7,
0x10,
0xfe,
0x00,
0x02,
0x0c,
0x0d,
0xf1,
0x0d,
0x02,
0xfd,
0x01,
0x07,
0x0b,
0x09,
0xfc,
0x03,
0x06,
0x0b,
0x00,
0xfe,
0x03,
0xf6,
0x01,
0x00,
0x11,
0x13,
0xf8,
0x0e,
0xf7,
0x03,
0xf7,
0x05,
0x07,
0xfe,
0xef,
0x0f,
0x09,
0x03,
0x10,
0xf1,
0x02,
0x1e,
0x10,
0xff,
0xf1,
0x09,
0xff,
0xfa,
0x0c,
0x05,
0x01,
0x13,
0x19,
0xfc,
0x1a,
0xfd,
0x04,
0xed,
0xf8,
0xff,
0xfd,
0x0c,
0x08,
0x09,
0xea,
0x04,
0x0d,
0x0a,
0x04,
0xf8,
0x03,
0x07,
0xf5,
0xf7,
0x1b,
0xf8,
0x00,
0xfd,
0x09,
0xfa,
0xf0,
0xed,
0x0e,
0x0a,
0x00,
0x0e,
0x15,
0xf8,
0x02,
0x12,
0xfc,
0x04,
0xfc,
0xfc,
0x07,
0x13,
0xfe,
0xfd,
0x0d,
0xf6,
0xfa,
0x02,
0xfc,
0x03,
0x0a,
0xf6,
0xed,
0xf3,
0xf3,
0x01,
0xfe,
0x00,
0x13,
0x09,
0x06,
0xfd,
0x11,
0xf7,
0x12,
0xff,
0xeb,
0x0a,
0xfd,
0xf8,
0xfd,
0x07,
0x06,
0x00,
0xf2,
0xfb,
0x06,
0x01,
0x10,
0xf4,
0xf9,
0x06,
0x0f,
0x05,
0x10,
0x07,
0xfd,
0x04,
0x00,
0x11,
0xf6,
0xfd,
0x0d,
0x05,
0x04,
0xf4,
0x03,
0x02,
0x03,
0x06,
0x0c,
0x01,
0xfc,
0x07,
0x11,
0x02,
0x07,
0x04,
0xed,
0x19,
0x05,
0xf3,
0x15,
0x05,
0xe7,
0x1d,
0xff,
0x06,
0x1c,
0x2d,
0x1f,
0xea,
0xf8,
0xea,
0x07,
0xfa,
0x17,
0xf3,
0x04,
0x00,
0x36,
0x05,
0x00,
0xd9,
0xe9,
0x03,
0xed,
0x0e,
0x05,
0xfe,
0xda,
0xf7,
0x0f,
0xfe,
0x02,
0xde,
0x0f,
0xf7,
0x0b,
0x0b,
0xf8,
0xe9,
0x00,
0xff,
0x11,
0x11,
0x0d,
0xff,
0x17,
0x03,
0xf6,
0x02,
0x19,
0xfd,
0xee,
0xea,
0x02,
0x00,
0x18,
0xfa,
0x0e,
0xfe,
0x04,
0xf2,
0x1a,
0x27,
0xfb,
0xeb,
0xdf,
0x05,
0xec,
0xfe,
0xf9,
0xfa,
0xf5,
0xf4,
0xda,
0xed,
0xfa,
0xf7,
0xfa,
0xf5,
0x07,
0x00,
0x18,
0xf6,
0xf6,
0x1a,
0x02,
0x1e,
0x01,
0x18,
0xfe,
0xe8,
0x0e,
0x06,
0x01,
0x08,
0xf3,
0x0f,
0xfe,
0x02,
0xfc,
0x09,
0xfc,
0xfa,
0x17,
0xe1,
0xf1,
0x11,
0x15,
0x09,
0x0c,
0x0a,
0x1b,
0x30,
0x06,
0xef,
0x07,
0xff,
0xff,
0xfb,
0x03,
0xfc,
0x04,
0x0b,
0x09,
0x06,
0x06,
0x0e,
0xfb,
0x06,
0x29,
0x09,
0xf4,
0xf3,
0xee,
0x03,
0x06,
0xff,
0x1c,
0xfa,
0xf5,
0xf9,
0xf9,
0x06,
0xf0,
0xfc,
0x0a,
0x06,
0x0a,
0x14,
0xec,
0x21,
0xfc,
0xf7,
0x15,
0x01,
0x05,
0xe7,
0xfe,
0x02,
0xdb,
0xec,
0x0c,
0x00,
0x04,
0x13,
0x0d,
0x14,
0xfb,
0x02,
0xff,
0x20,
0xe7,
0xd5,
0xf3,
0x07,
0x16,
0x03,
0x03,
0xf1,
0xf4,
0x13,
0x17,
0x0a,
0xff,
0x23,
0x18,
0x14,
0x17,
0xfc,
0xf4,
0x0a,
0x12,
0x0a,
0x10,
0xf8,
0xef,
0x00,
0xfe,
0x19,
0x03,
0xef,
0x04,
0xee,
0xfe,
0x10,
0x0a,
0x16,
0xf0,
0x05,
0x08,
0x27,
0x0a,
0xe6,
0x0a,
0x04,
0x08,
0xfa,
0x01,
0x04,
0x0c,
0x05,
0x02,
0xf4,
0x06,
0x0e,
0x11,
0x17,
0x01,
0x14,
0xed,
0xe9,
0x01,
0xf7,
0xed,
0x12,
0x04,
0xfd,
0x0e,
0x0c,
0xff,
0x0a,
0x05,
0xf6,
0x07,
0x10,
0xf5,
0xfe,
0x2d,
0xf9,
0x10,
0xf7,
0x18,
0x00,
0x05,
0x03,
0x03,
0xf6,
0x0e,
0x03,
0x07,
0xf8,
0xfc,
0xf7,
0x03,
0x0a,
0xf5,
0xfc,
0xf5,
0xf6,
0xf8,
0x02,
0x07,
0xfe,
0xf5,
0xf5,
0xf5,
0x0d,
0xf7,
0x0d,
0x0c,
0x14,
0x07,
0xfa,
0x0b,
0xfa,
0xf8,
0xf9,
0xfc,
0x0e,
0x05,
0x01,
0xe8,
0x00,
0x15,
0x0d,
0xf8,
0x03,
0x06,
0xf9,
0x12,
0x02,
0xff,
0xf8,
0xfd,
0x01,
0xf6,
0x01,
0xfd,
0x02,
0x04,
0xfc,
0xfb,
0x08,
0x07,
0x05,
0x01,
0x00,
0xfd,
0x07,
0xfd,
0xfc,
0x08,
0xf9,
0x03,
0xfe,
0x04,
0xf1,
0x08,
0x03,
0x06,
0xfa,
0x00,
0x02,
0xff,
0x09,
0x01,
0xef,
0x10,
0x0a,
0xff,
0x00,
0xfc,
0xfc,
0x07,
0xf7,
0xfd,
0xfb,
0xfa,
0x06,
0x06,
0x02,
0xf8,
0x01,
0xfe,
0xfc,
0xf8,
0xfe,
0x05,
0xf8,
0xfc,
0x08,
0x08,
0x04,
0xf4,
0x0d,
0xfa,
0xfb,
0x07,
0x03,
0xf8,
0x08,
0x04,
0xff,
0xff,
0xfd,
0xf2,
0xfa,
0xf0,
0xf2,
0x06,
0xfa,
0x03,
0x04,
0x01,
0x00,
0x01,
0x05,
0x04,
0xf9,
0xff,
0xff,
0x05,
0x0a,
0x07,
0x00,
0xfd,
0xf9,
0xec,
0xfe,
0xf7,
0xfb,
0xed,
0x02,
0xfe,
0x10,
0x03,
0xfd,
0xfe,
0x13,
0x00,
0x10,
0x07,
0x02,
0x05,
0x01,
0xf7,
0xfd,
0x00,
0xf3,
0x02,
0x0e,
0x0e,
0xf8,
0xff,
0xf7,
0x00,
0xfb,
0x09,
0xfb,
0x03,
0x00,
0x06,
0x03,
0x01,
0x05,
0x0d,
0x04,
0x02,
0x06,
0xfe,
0x02,
0xfa,
0x02,
0x09,
0xf3,
0x11,
0xfd,
0xf8,
0xff,
0x07,
0xf2,
0x01,
0xfa,
0x21,
0xf8,
0xf5,
0x03,
0x03,
0x08,
0xfb,
0xfc,
0x04,
0x00,
0x00,
0xfd,
0xfa,
0xfd,
0xf3,
0xf6,
0xf1,
0x0c,
0xfb,
0xfd,
0x03,
0xfd,
0xea,
0x02,
0xff,
0xfb,
0xf8,
0xfd,
0x01,
0xfd,
0xf6,
0x12,
0x0a,
0xf8,
0xff,
0xfe,
0x05,
0xfb,
0xf4,
0xfd,
0x05,
0xfc,
0xf6,
0x02,
0x01,
0x06,
0xfb,
0xfc,
0xfa,
0xfc,
0xf5,
0xfc,
0xfc,
0xf6,
0xfc,
0xfc,
0xfa,
0xf6,
0x03,
0x01,
0xff,
0xff,
0xff,
0x0c,
0x09,
0x0b,
0xf6,
0x02,
0x05,
0x0f,
0xfd,
0x0e,
0xfe,
0x00,
0xf8,
0x07,
0xfb,
0x02,
0xfe,
0xf5,
0xf6,
0xff,
0x05,
0x0a,
0xff,
0x04,
0x00,
0x02,
0x0e,
0x02,
0xf5,
0x07,
0x0a,
0x08,
0x00,
0xfa,
0x09,
0xf4,
0x01,
0xf4,
0xfe,
0xf8,
0xfd,
0xfb,
0x00,
0xfc,
0xe6,
0xff,
0x0c,
0x08,
0xff,
0xfd,
0xf2,
0xff,
0xf9,
0xf8,
0x08,
0x03,
0xf8,
0xf5,
0x06,
0x06,
0x00,
0xf5,
0x07,
0xfb,
0xfc,
0x01,
0x00,
0xfd,
0xff,
0x03,
0x04,
0xfe,
0x03,
0x02,
0xfb,
0x08,
0x07,
0x06,
0x04,
0xfb,
0x05,
0x00,
0x11,
0xff,
0x00,
0xf9,
0xff,
0xfa,
0xf9,
0xfb,
0xfb,
0xfb,
0x04,
0x04,
0x06,
0xf9,
0xfa,
0xf6,
0xfa,
0xfd,
0x06,
0x07,
0x03,
0xfa,
0xf3,
0x0b,
0xfb,
0x02,
0x05,
0xfe,
0x13,
0xf5,
0x16,
0xf4,
0xf6,
0xf9,
0x09,
0x0e,
0xf6,
0xff,
0x05,
0xfa,
0x00,
0xfe,
0x02,
0xf9,
0xf9,
0x05,
0xf2,
0x0a,
0x07,
0xff,
0xfc,
0xfa,
0x00,
0x03,
0xf8,
0x0a,
0x0c,
0xf2,
0x01,
0xf9,
0x0a,
0x04,
0x0c,
0xef,
0x04,
0x0d,
0x06,
0xf2,
0xf4,
0xf4,
0x0a,
0xfd,
0xfd,
0xff,
0xf5,
0xfa,
0x08,
0x02,
0xf3,
0xf0,
0xef,
0x1c,
0xfb,
0xfc,
0x06,
0x00,
0xea,
0x00,
0xf6,
0xf5,
0x01,
0x03,
0xfb,
0x00,
0x04,
0xfc,
0x00,
0x01,
0x01,
0xff,
0xfd,
0xfd,
0x02,
0xfc,
0x02,
0xfb,
0xfa,
0x06,
0x07,
0x02,
0x07,
0xfd,
0x06,
0x01,
0x01,
0x00,
0x0b,
0x05,
0xfd,
0xff,
0xf7,
0x05,
0x05,
0x08,
0x02,
0xf2,
0x04,
0x0a,
0x12,
0xfc,
0x04,
0xf5,
0xfa,
0x00,
0x02,
0x02,
0xfd,
0x02,
0xf1,
0x00,
0x07,
0x03,
0xfa,
0x01,
0x03,
0x00,
0x01,
0x03,
0x0e,
0xf3,
0x00,
0xfc,
0x06,
0x07,
0xfb,
0xfc,
0x0b,
0xfc,
0xf8,
0xf4,
0xff,
0xfe,
0xfd,
0xff,
0xf9,
0x08,
0xf1,
0x0c,
0x09,
0xf1,
0x05,
0xf1,
0xfb,
0x0a,
0xfd,
0xec,
0x10,
0x01,
0x0d,
0x0e,
0xf5,
0x0b,
0xfe,
0xf3,
0x1a,
0x02,
0x07,
0xfd,
0x15,
0xf8,
0x01,
0x0c,
0x07,
0xfa,
0xf0,
0xfe,
0x00,
0x09,
0x03,
0xf8,
0xf7,
0xf9,
0x00,
0xf7,
0x03,
0x03,
0xfe,
0xfe,
0x04,
0xf4,
0xf9,
0xf9,
0x11,
0x05,
0x04,
0xf8,
0x01,
0x02,
0x03,
0xf8,
0x00,
0x03,
0xfe,
0xfd,
0x0e,
0xf7,
0x10,
0x06,
0x00,
0xfb,
0xfd,
0xf2,
0x05,
0xfc,
0xf8,
0xfe,
0x17,
0x02,
0xfd,
0xf9,
0x02,
0xf5,
0x0a,
0x03,
0x09,
0x0e,
0x0e,
0xf6,
0x04,
0xf8,
0x06,
0x0d,
0xfc,
0x03,
0xfb,
0x04,
0x0c,
0xf8,
0x1f,
0x02,
0x02,
0x07,
0x01,
0xf8,
0xf0,
0xfa,
0xfe,
0x04,
0x0c,
0x01,
0xf8,
0xf8,
0x00,
0xf0,
0xfa,
0xfb,
0xf2,
0xff,
0xf6,
0x02,
0xfa,
0xff,
0xff,
0xf4,
0x0b,
0xfe,
0xf5,
0x05,
0x08,
0x00,
0xf7,
0xfc,
0x06,
0xf9,
0xf0,
0xf7,
0xf9,
0x1b,
0xfa,
0xfc,
0x0b,
0xff,
0x02,
0x10,
0x03,
0x01,
0xf7,
0x11,
0xf1,
0xf2,
0xfb,
0x0c,
0xfd,
0x02,
0xf9,
0xf0,
0x18,
0x05,
0x05,
0xfe,
0x0e,
0xf0,
0xf2,
0x03,
0xfc,
0xec,
0xff,
0xfb,
0xf9,
0x08,
0x03,
0xfb,
0x02,
0x02,
0x03,
0x0e,
0x08,
0xfd,
0xf5,
0x0a,
0xfc,
0x05,
0x06,
0x08,
0xfc,
0x07,
0xfa,
0x04,
0x03,
0x10,
0xf8,
0xf7,
0xf2,
0x08,
0xf1,
0x00,
0x0f,
0x0d,
0x05,
0x0b,
0xf3,
0x02,
0xfb,
0x07,
0xfe,
0xfb,
0x13,
0x0f,
0xf8,
0xf7,
0xfe,
0x11,
0x08,
0xf7,
0xf1,
0x05,
0xf2,
0xfa,
0x10,
0x01,
0x0c,
0x0b,
0x00,
0x07,
0xfb,
0xee,
0xf0,
0x12,
0x0c,
0x08,
0x14,
0x09,
0xfa,
0x07,
0x04,
0xff,
0xf8,
0x09,
0x17,
0xf5,
0xf7,
0xfd,
0xfa,
0x04,
0xf9,
0xff,
0x01,
0x04,
0xf7,
0xfe,
0x0a,
0x00,
0x03,
0xfb,
0xf2,
0xe7,
0x15,
0xfd,
0xf8,
0xff,
0xf6,
0xfd,
0xf7,
0xeb,
0xeb,
0x0d,
0x09,
0x19,
0xed,
0x11,
0x1a,
0xfa,
0x0a,
0x13,
0xee,
0xed,
0x08,
0x1e,
0xfa,
0xe3,
0x0b,
0xf0,
0xe5,
0xe0,
0xfa,
0x12,
0x16,
0xeb,
0x01,
0xff,
0xf8,
0x13,
0xea,
0xe2,
0xfa,
0x0c,
0xf5,
0x05,
0x0b,
0xf8,
0xf9,
0x19,
0xf6,
0xe3,
0x1c,
0x00,
0xea,
0xf4,
0x06,
0x20,
0xfd,
0x07,
0xf1,
0xf5,
0x1c,
0xf0,
0xf3,
0x02,
0xc2,
0x05,
0xfc,
0xe1,
0x2e,
0xfe,
0x06,
0xfc,
0xf9,
0x0f,
0xfb,
0xf5,
0x0d,
0x09,
0x01,
0x03,
0xff,
0x09,
0xff,
0xf4,
0xfd,
0x05,
0xfa,
0x06,
0x08,
0x02,
0x0b,
0x06,
0x0d,
0x01,
0xec,
0x1a,
0xe6,
0xf7,
0x1b,
0xeb,
0x08,
0xf1,
0x03,
0xed,
0x14,
0x0c,
0xf8,
0xfd,
0xf4,
0xee,
0xf1,
0x14,
0xf8,
0xf8,
0xde,
0xf1,
0xe5,
0xff,
0xf9,
0x10,
0xf2,
0xf2,
0xf3,
0x04,
0x14,
0x0d,
0xf4,
0x11,
0xe1,
0x1a,
0xf0,
0x12,
0x07,
0x1b,
0x05,
0xfb,
0x07,
0x17,
0xf6,
0x1b,
0x05,
0x06,
0xf5,
0xef,
0xfe,
0xf7,
0x04,
0x0b,
0x01,
0xe7,
0x27,
0xf8,
0xfe,
0xe7,
0x04,
0x23,
0xf4,
0xed,
0x09,
0xfd,
0xfe,
0xfe,
0xe8,
0x05,
0x07,
0xf2,
0xee,
0xfb,
0x03,
0x0d,
0x18,
0x07,
0x24,
0x11,
0x27,
0x0e,
0x00,
0xe8,
0xe8,
0x10,
0x00,
0x17,
0x00,
0x0f,
0xd3,
0x03,
0x03,
0xe3,
0x00,
0x1b,
0x13,
0x11,
0x16,
0x29,
0x01,
0x0d,
0xf8,
0xf9,
0x0b,
0xef,
0xf3,
0xef,
0xed,
0x1c,
0xed,
0x08,
0x2c,
0x08,
0xfe,
0xf5,
0x01,
0xf5,
0x0c,
0x12,
0x11,
0xf1,
0x10,
0x31,
0x01,
0xfb,
0x07,
0x07,
0xf3,
0xf0,
0x18,
0x1d,
0x09,
0xf5,
0x07,
0xed,
0x0b,
0x17,
0x09,
0xff,
0xe4,
0xde,
0xf3,
0xd6,
0xf5,
0xfd,
0x0a,
0xf0,
0xf2,
0x00,
0xf9,
0xe5,
0x0a,
0xfb,
0x1a,
0xec,
0x09,
0xfd,
0xf9,
0xf9,
0xff,
0xf1,
0x0c,
0x0a,
0x0b,
0xdc,
0x2d,
0xf2,
0xea,
0x11,
0xfa,
0x00,
0x04,
0x00,
0xfc,
0x08,
0x02,
0x00,
0x03,
0x02,
0xf8,
0x05,
0xff,
0xfb,
0x05,
0x05,
0xfd,
0x01,
0xfd,
0x15,
0x13,
0x04,
0x02,
0x13,
0xfe,
0x05,
0x0e,
0x06,
0x00,
0x1e,
0x11,
0xf8,
0x01,
0xfe,
0x06,
0x02,
0xf8,
0x03,
0xfa,
0x0f,
0xf7,
0x11,
0x05,
0xf7,
0x02,
0xff,
0xfd,
0x06,
0xf1,
0x01,
0x01,
0x08,
0xf9,
0xf6,
0x01,
0x02,
0x05,
0x02,
0x00,
0x09,
0xf9,
0x01,
0x00,
0x00,
0x0f,
0xf8,
0x06,
0xfa,
0xf9,
0x00,
0xf8,
0x01,
0x0c,
0x02,
0xff,
0x02,
0x05,
0x09,
0x03,
0xf7,
0xfd,
0x02,
0x01,
0x07,
0x04,
0x0f,
0x0b,
0xfe,
0xfb,
0xfe,
0xfb,
0xfa,
0xff,
0xe3,
0xf7,
0xf7,
0x07,
0xfb,
0xfe,
0x00,
0x0b,
0x00,
0x0d,
0xf5,
0x01,
0x05,
0xff,
0xfb,
0x03,
0x01,
0xff,
0x00,
0xfe,
0xfc,
0x12,
0x06,
0xf0,
0x02,
0xfa,
0x02,
0xfb,
0xfc,
0xf6,
0xfb,
0xf9,
0xf5,
0xfe,
0x0b,
0xff,
0x05,
0xfe,
0xfc,
0x05,
0x09,
0xf4,
0x02,
0x02,
0x0c,
0xe9,
0xff,
0xf6,
0xfa,
0xf5,
0x06,
0xfe,
0x05,
0xff,
0xf8,
0x10,
0xfc,
0xe4,
0xf7,
0x02,
0x09,
0xfd,
0x0c,
0xf9,
0x02,
0xf8,
0x09,
0x0b,
0x00,
0xff,
0xfc,
0x02,
0x03,
0x06,
0xf5,
0x03,
0x02,
0x00,
0xff,
0xf5,
0x01,
0x0f,
0xf7,
0xfa,
0x09,
0xfe,
0xfc,
0xf5,
0xf5,
0xff,
0x0a,
0x04,
0x09,
0x0a,
0xf8,
0xf9,
0x0c,
0x07,
0xfd,
0xf9,
0x04,
0x08,
0x00,
0xea,
0xf9,
0x02,
0xff,
0xf2,
0xfc,
0xf6,
0x00,
0x01,
0xfd,
0xf8,
0xfb,
0xcd,
0xff,
0x04,
0x0e,
0xfe,
0x05,
0xf7,
0x01,
0x08,
0x04,
0x03,
0x09,
0xf5,
0x07,
0x00,
0x00,
0xfc,
0xfd,
0x06,
0x0d,
0xfd,
0x02,
0xfd,
0x09,
0xed,
0x10,
0xe9,
0x00,
0xfc,
0x1c,
0xfa,
0xfc,
0xf7,
0x06,
0x09,
0x04,
0xfa,
0x06,
0xfa,
0x05,
0x06,
0x0b,
0xf0,
0xfc,
0xf8,
0x04,
0xfb,
0xfe,
0x0c,
0xf6,
0xf7,
0x01,
0xf7,
0xf6,
0xf1,
0x03,
0x0b,
0xfc,
0x09,
0x0a,
0x02,
0xfb,
0x00,
0xf0,
0xff,
0x0e,
0xfa,
0xfd,
0x05,
0xfa,
0x07,
0xf8,
0x08,
0xf3,
0x13,
0x09,
0x0f,
0x03,
0xf6,
0x02,
0x01,
0xec,
0xfe,
0x00,
0xf9,
0x07,
0xff,
0xf7,
0x03,
0x00,
0xf9,
0xf5,
0x00,
0xfd,
0xfd,
0x0a,
0x0b,
0xf7,
0xff,
0xfa,
0x00,
0x0c,
0xf6,
0xfd,
0xf9,
0x0b,
0xf3,
0x08,
0x09,
0xfe,
0x07,
0x06,
0x0d,
0x02,
0xfc,
0x02,
0xfb,
0x02,
0x04,
0x01,
0x03,
0xf7,
0x05,
0xfb,
0xf5,
0xf6,
0x05,
0x02,
0x08,
0x01,
0xf7,
0xf2,
0xfa,
0x06,
0xf9,
0x09,
0x03,
0x04,
0x02,
0x03,
0xf9,
0xf0,
0xfd,
0x06,
0xfb,
0xfb,
0x09,
0x00,
0x0d,
0x01,
0x07,
0x02,
0x01,
0xff,
0x0c,
0x01,
0x02,
0xf8,
0x0c,
0x08,
0x07,
0x06,
0x10,
0xf5,
0x0c,
0x0e,
0xf9,
0x01,
0xfc,
0x01,
0xef,
0xf7,
0xf0,
0xf1,
0x01,
0x10,
0x0a,
0x08,
0x01,
0xfe,
0x05,
0xfa,
0x02,
0xfe,
0xf3,
0xfb,
0x01,
0x07,
0x01,
0xf7,
0xfe,
0xfd,
0xf7,
0xff,
0x04,
0x00,
0x01,
0xee,
0x01,
0xf6,
0xfc,
0x01,
0xfa,
0x04,
0xfe,
0x08,
0xf9,
0x1b,
0xf8,
0xfc,
0xfd,
0xfc,
0xf7,
0xf6,
0x0d,
0x01,
0xdf,
0x05,
0x03,
0x0d,
0xfe,
0xfc,
0xf7,
0x05,
0xef,
0xff,
0xff,
0x02,
0xfd,
0xec,
0xf9,
0x04,
0x00,
0xf9,
0xf8,
0xf7,
0x05,
0x25,
0x08,
0x0b,
0x12,
0x01,
0x04,
0xfe,
0x03,
0xf9,
0xfc,
0x06,
0xf6,
0xeb,
0x02,
0x03,
0xf1,
0x04,
0x05,
0xfa,
0x02,
0x05,
0xf9,
0xf1,
0x03,
0xfd,
0xf5,
0x05,
0xf3,
0x00,
0x00,
0xfc,
0xef,
0x03,
0x00,
0xfe,
0x09,
0x01,
0xf7,
0xfb,
0xff,
0xfd,
0x03,
0x07,
0x02,
0x04,
0xfc,
0xfc,
0xf7,
0xf6,
0x01,
0xfe,
0x10,
0xfc,
0x0c,
0x06,
0x04,
0xfb,
0xfc,
0xf8,
0xf0,
0xf1,
0xfa,
0x09,
0x07,
0x0b,
0xff,
0xff,
0xfb,
0x09,
0x01,
0x01,
0xfd,
0xf8,
0x01,
0xfe,
0xe7,
0xf8,
0xf7,
0xff,
0xef,
0xff,
0xfb,
0x0b,
0x07,
0xff,
0xff,
0x0a,
0x12,
0xfa,
0xfb,
0xec,
0x00,
0xfc,
0xf1,
0xf7,
0xfa,
0x04,
0xf9,
0xf9,
0x0d,
0xff,
0x09,
0xfe,
0x05,
0x08,
0x21,
0x04,
0xee,
0x14,
0xf5,
0x06,
0x13,
0x0a,
0xf8,
0xfb,
0x08,
0x0d,
0xf9,
0xf7,
0xf7,
0xf8,
0xfd,
0x01,
0xfc,
0x07,
0xf6,
0x03,
0xf2,
0x08,
0xfe,
0xf7,
0x09,
0x02,
0x03,
0x09,
0xf8,
0x0c,
0xfd,
0x00,
0xfc,
0xfd,
0xf3,
0xf0,
0x02,
0xee,
0x07,
0x0f,
0xfc,
0x02,
0xfc,
0x0a,
0xf8,
0x03,
0xed,
0x00,
0xf5,
0xfa,
0xff,
0xfd,
0xfe,
0x06,
0x04,
0x05,
0xf6,
0x02,
0x15,
0xfd,
0xfb,
0xfe,
0xfe,
0x11,
0xf5,
0x01,
0xf4,
0xfa,
0x05,
0x04,
0xf9,
0x03,
0xfc,
0x00,
0xf7,
0xff,
0xfe,
0x03,
0xf8,
0x08,
0x01,
0xfe,
0xfa,
0xf8,
0x06,
0xfc,
0x10,
0x05,
0xfd,
0xfd,
0xfe,
0xf7,
0x08,
0x1e,
0x02,
0xff,
0xe6,
0x00,
0x04,
0xfe,
0x17,
0xe2,
0xfd,
0x00,
0xf8,
0xf3,
0x1d,
0x02,
0xef,
0xf8,
0x00,
0xf8,
0xfa,
0x04,
0xf6,
0x05,
0xfe,
0x0a,
0xe9,
0x02,
0xe8,
0x07,
0x07,
0x02,
0x03,
0xed,
0xe5,
0xee,
0xf7,
0xf2,
0xfb,
0xf5,
0x00,
0xf7,
0xf0,
0xf1,
0x06,
0x18,
0xf5,
0xf8,
0xf8,
0xfa,
0x0c,
0xfd,
0xf6,
0xff,
0xf2,
0xf8,
0x04,
0x12,
0xf8,
0x05,
0x0c,
0x07,
0x04,
0x04,
0xf5,
0x06,
0x09,
0xf8,
0xef,
0xff,
0xf9,
0xf9,
0x00,
0xf4,
0xf7,
0x07,
0xfa,
0x03,
0x02,
0xfb,
0xf7,
0xf1,
0x05,
0x02,
0xfa,
0x09,
0xf9,
0x09,
0xfc,
0x13,
0x03,
0xf5,
0xf9,
0xf4,
0x04,
0x08,
0x03,
0x05,
0xfe,
0x04,
0xff,
0x16,
0x03,
0x16,
0xf5,
0x0b,
0x04,
0x02,
0xfb,
0x17,
0x10,
0xf6,
0xf1,
0xfd,
0x02,
0xfa,
0x17,
0x05,
0x01,
0xfb,
0x0d,
0xeb,
0xff,
0x07,
0xf8,
0xfe,
0x24,
0x0a,
0x04,
0x02,
0xff,
0xdf,
0x01,
0xec,
0xf1,
0x0c,
0x23,
0x05,
0xf0,
0x05,
0x0f,
0xf9,
0x08,
0x17,
0xe7,
0xf9,
0x0d,
0xef,
0xe3,
0xf8,
0x18,
0xf8,
0x1b,
0x0d,
0xeb,
0xf7,
0xf4,
0xf3,
0x0d,
0xfe,
0x0b,
0x11,
0xf5,
0x1b,
0xf3,
0xf8,
0xff,
0x16,
0x04,
0x07,
0xf4,
0xef,
0x0b,
0xfc,
0xfd,
0x15,
0xf6,
0xf8,
0x11,
0xee,
0xf1,
0xf8,
0x02,
0x19,
0x0d,
0x02,
0x01,
0x10,
0x1b,
0x0c,
0x02,
0xf6,
0xfc,
0xed,
0x0f,
0x13,
0xf8,
0xf8,
0x04,
0x1e,
0x14,
0x04,
0x04,
0x0b,
0xf0,
0xde,
0xf6,
0x09,
0xff,
0x00,
0xfe,
0xf7,
0xf4,
0x02,
0x01,
0xe3,
0x04,
0xf7,
0x06,
0x1c,
0x0a,
0xea,
0xec,
0x08,
0xed,
0xf0,
0x09,
0xde,
0xf5,
0x18,
0xfd,
0xf1,
0xf7,
0xf1,
0xea,
0xee,
0x02,
0xff,
0x1d,
0x1a,
0x0b,
0x0d,
0xef,
0x0e,
0xf9,
0x2b,
0x14,
0x0e,
0xf7,
0x04,
0xf6,
0x06,
0xea,
0xeb,
0xf4,
0xf1,
0xee,
0x03,
0xf5,
0x01,
0xf2,
0x07,
0xf3,
0xf3,
0x0b,
0x19,
0x08,
0xf6,
0xd9,
0xf7,
0xf4,
0xef,
0x22,
0x05,
0x21,
0x04,
0x0b,
0xf3,
0x13,
0x0c,
0xf7,
0x10,
0xfa,
0x0e,
0xe2,
0x00,
0x1f,
0xfc,
0x21,
0xff,
0x07,
0xf3,
0xf5,
0x0f,
0x0c,
0xf1,
0xf4,
0xfc,
0xed,
0xe5,
0x05,
0x10,
0xef,
0x06,
0x0c,
0x12,
0x0e,
0xe6,
0x02,
0xf2,
0x01,
0xfd,
0xf9,
0xef,
0x06,
0xf3,
0x14,
0xff,
0xff,
0x09,
0xf1,
0xf5,
0xe5,
0xf6,
0xe4,
0x0b,
0xff,
0xfe,
0xf9,
0xef,
0x25,
0xf2,
0x08,
0xf2,
0xf2,
0x02,
0x05,
0x1a,
0x05,
0xff,
0x0d,
0xfd,
0xfd,
0x00,
0xea,
0x0b,
0xf7,
0x19,
0xf4,
0x0c,
0x27,
0xf1,
0xe6,
0x04,
0xef,
0x00,
0xf7,
0xe6,
0x09,
0xf7,
0xdf,
0x08,
0xfa,
0x05,
0xfd,
0xff,
0x12,
0xd6,
0x0b,
0x09,
0xe1,
0xee,
0x0f,
0x00,
0xed,
0xef,
0x14,
0x05,
0x02,
0xdf,
0x01,
0xfc,
0x0b,
0xf2,
0x06,
0xfe,
0x05,
0x05,
0xf6,
0xfc,
0x03,
0x12,
0x05,
0x01,
0x04,
0x05,
0xff,
0xf0,
0x04,
0x00,
0x03,
0xf7,
0xff,
0x09,
0x0c,
0xff,
0xff,
0xfb,
0x0c,
0xf9,
0x0a,
0x06,
0x09,
0xf7,
0xf8,
0xf8,
0xf4,
0x11,
0xfa,
0xf4,
0xfd,
0xf9,
0x04,
0xe4,
0xfc,
0x08,
0xf2,
0xfa,
0x01,
0xfd,
0xfe,
0x01,
0x00,
0x05,
0x02,
0x01,
0x07,
0xf2,
0x01,
0xfc,
0x0a,
0xfd,
0x0b,
0xfa,
0x04,
0x06,
0xfe,
0xfc,
0xfc,
0x06,
0xff,
0xfe,
0x05,
0xfb,
0xfe,
0xfc,
0x03,
0xf4,
0xff,
0xfb,
0xf7,
0x03,
0x0d,
0xf0,
0xf8,
0xfc,
0xff,
0x04,
0x06,
0xf9,
0xf7,
0x04,
0x08,
0xf7,
0x06,
0xf8,
0xfc,
0xef,
0x06,
0xff,
0xff,
0xff,
0xfa,
0x02,
0xfa,
0xfe,
0xf7,
0xfd,
0xfe,
0xff,
0xfa,
0xfd,
0xfd,
0xfe,
0xf9,
0xff,
0x02,
0x04,
0x08,
0x08,
0x06,
0xfa,
0xfa,
0xfa,
0xff,
0xff,
0xef,
0xf7,
0xfc,
0xf6,
0x06,
0xf0,
0x09,
0x04,
0x00,
0xf6,
0x03,
0x05,
0x01,
0x04,
0x0d,
0x02,
0x04,
0x05,
0x01,
0x05,
0xf9,
0x00,
0x12,
0xfe,
0xfb,
0xfc,
0xfd,
0xfc,
0x06,
0xff,
0x03,
0x0b,
0x03,
0x0f,
0x07,
0x01,
0x03,
0x0f,
0xff,
0x04,
0xf8,
0xfa,
0xf4,
0xfe,
0xf8,
0xff,
0x07,
0x07,
0xfe,
0x08,
0xfc,
0x03,
0x01,
0x00,
0x02,
0xf3,
0xfd,
0xfb,
0x05,
0xf6,
0xfc,
0xff,
0x02,
0xf7,
0x07,
0xf8,
0xf4,
0xf2,
0x00,
0xf7,
0xfa,
0x11,
0x06,
0x08,
0xf4,
0xfa,
0x07,
0x89,
0xfa,
0x00,
0xf0,
0xf2,
0x05,
0x00,
0xfe,
0x0b,
0x04,
0xf9,
0xfe,
0x0d,
0x13,
0x06,
0x05,
0xfd,
0x04,
0xfb,
0x0f,
0x01,
0x02,
0xf8,
0xf8,
0xf6,
0x00,
0x0d,
0xf9,
0xff,
0xf8,
0x04,
0xfa,
0x02,
0xfa,
0x0b,
0x03,
0xfd,
0x03,
0xfe,
0xf5,
0xfc,
0x02,
0x04,
0xfe,
0x03,
0xf5,
0xfe,
0x03,
0x05,
0x09,
0xfe,
0xf6,
0x02,
0xfc,
0x0e,
0x02,
0x02,
0x0e,
0x01,
0x09,
0xf9,
0x01,
0x05,
0x02,
0xff,
0xf7,
0x05,
0x02,
0xf4,
0xf3,
0x16,
0x06,
0x0a,
0x03,
0xf1,
0x04,
0xfe,
0x02,
0xfc,
0xfc,
0xf3,
0x03,
0xeb,
0xec,
0x03,
0xf7,
0xff,
0x02,
0xfd,
0x06,
0xfc,
0x08,
0xf4,
0xf0,
0x06,
0xfc,
0xfe,
0xf4,
0x0a,
0xf6,
0xfb,
0xf8,
0x02,
0xf9,
0x06,
0xfe,
0x05,
0x01,
0xfe,
0xf5,
0x05,
0xf7,
0xff,
0xf9,
0xfc,
0xfd,
0x00,
0xff,
0x01,
0x02,
0xf6,
0xf7,
0x02,
0x02,
0xf9,
0xeb,
0x05,
0x01,
0x06,
0x0a,
0x09,
0x04,
0x0d,
0xef,
0x00,
0x02,
0x09,
0x05,
0xf5,
0x01,
0x00,
0x02,
0xfc,
0x05,
0xfc,
0x07,
0x00,
0x08,
0xfc,
0xf6,
0xf8,
0x08,
0xfe,
0x03,
0xef,
0xfe,
0x03,
0xfe,
0xfb,
0x04,
0x0a,
0xf9,
0xf4,
0x01,
0x0a,
0x03,
0x06,
0x04,
0x01,
0x05,
0x02,
0x09,
0x1f,
0x07,
0x08,
0x0b,
0x00,
0xfe,
0x18,
0x0c,
0x12,
0xf2,
0xfc,
0x01,
0x0a,
0x08,
0xef,
0x07,
0x07,
0xfd,
0xf6,
0xf8,
0xf7,
0xfc,
0xf0,
0x0f,
0xf4,
0xf8,
0xf3,
0x0d,
0x11,
0x03,
0x03,
0xf7,
0x00,
0x08,
0x06,
0x03,
0x08,
0xfb,
0xf5,
0x07,
0x05,
0x0b,
0xf3,
0x0d,
0xec,
0x02,
0xf4,
0xf4,
0x01,
0xf0,
0x03,
0xfc,
0x19,
0x07,
0x02,
0x0a,
0xf1,
0xf0,
0xff,
0xfe,
0x06,
0x04,
0x04,
0x00,
0x09,
0x01,
0x01,
0xff,
0x06,
0xf8,
0xfd,
0x05,
0x02,
0xff,
0x03,
0xfb,
0x0c,
0xf5,
0xfb,
0xf3,
0x00,
0x09,
0x04,
0x04,
0xfd,
0x06,
0xfe,
0x13,
0xfd,
0xf4,
0xfe,
0x03,
0x0c,
0xfb,
0x00,
0xfe,
0xfb,
0xfc,
0x00,
0xfd,
0xf8,
0x08,
0x00,
0x07,
0x05,
0x05,
0xff,
0xfe,
0x01,
0xff,
0x02,
0x03,
0xfd,
0xfb,
0xfb,
0xff,
0xfc,
0x09,
0x02,
0x0c,
0x03,
0x01,
0xfc,
0x05,
0x02,
0x13,
0xfb,
0x01,
0x07,
0x0b,
0xff,
0x03,
0x00,
0x02,
0x05,
0x02,
0xf7,
0x02,
0x02,
0x04,
0x17,
0xff,
0xf9,
0xee,
0xf9,
0x0c,
0xfd,
0x03,
0xef,
0x02,
0x07,
0x0e,
0xf0,
0x07,
0xf4,
0x04,
0x10,
0xed,
0xf4,
0x0d,
0xe7,
0x04,
0xfa,
0x00,
0xfe,
0xf8,
0xf9,
0x08,
0xfa,
0x15,
0xf1,
0xea,
0x0b,
0xf1,
0xf1,
0xf7,
0x06,
0xf6,
0x06,
0xf6,
0x08,
0xf8,
0xff,
0xf2,
0x0a,
0xfc,
0x00,
0x0b,
0xf0,
0xfc,
0xf9,
0xf9,
0x04,
0xfa,
0x01,
0x08,
0x02,
0x10,
0x09,
0x05,
0x10,
0x0c,
0x05,
0x02,
0xfb,
0x02,
0x07,
0xfc,
0x09,
0xf6,
0x00,
0xfc,
0x0c,
0xff,
0x00,
0xfe,
0xfe,
0xff,
0x05,
0x0d,
0xfd,
0x00,
0x0a,
0xfd,
0x06,
0x09,
0x0e,
0x00,
0xf6,
0x08,
0xf9,
0x01,
0xf0,
0xff,
0xf8,
0x03,
0x04,
0x04,
0xf3,
0xf5,
0x0b,
0x00,
0x0e,
0xfd,
0xf7,
0x08,
0xfb,
0x09,
0x12,
0xfd,
0xfd,
0x03,
0x02,
0x08,
0xf9,
0xff,
0xf8,
0xfa,
0xfb,
0x03,
0xf5,
0x05,
0xfa,
0x0e,
0xfd,
0xfe,
0xff,
0x19,
0xf7,
0xf8,
0xea,
0x05,
0x05,
0xf3,
0xec,
0xf3,
0x05,
0xfe,
0x03,
0xf3,
0xfa,
0xf8,
0xfb,
0xf9,
0xe8,
0x00,
0x15,
0xf6,
0x13,
0xeb,
0x05,
0xf9,
0x08,
0x09,
0xfa,
0x05,
0xfd,
0xfe,
0x09,
0x10,
0xf7,
0x03,
0xf4,
0xf7,
0x0a,
0xfa,
0xfc,
0xf3,
0x0c,
0x1c,
0x00,
0xfd,
0xf8,
0xfd,
0x02,
0x03,
0xfa,
0xff,
0x09,
0xf4,
0x1a,
0xea,
0x0a,
0xf7,
0x00,
0x0f,
0x0a,
0xee,
0x15,
0x02,
0xfd,
0xf1,
0x09,
0x0b,
0x03,
0x0b,
0x00,
0xee,
0xf8,
0xfc,
0x05,
0xfc,
0x02,
0xe9,
0xf6,
0xfa,
0xff,
0x0c,
0x05,
0x00,
0xfa,
0x02,
0x04,
0x01,
0x08,
0x09,
0xf5,
0x1e,
0xfc,
0x07,
0x01,
0xfd,
0xf9,
0xed,
0xf4,
0x01,
0x05,
0xfb,
0x08,
0x12,
0xf7,
0x07,
0xfe,
0xfa,
0x0b,
0xfd,
0x03,
0xfa,
0x02,
0x02,
0xfb,
0xfb,
0x09,
0xf6,
0xfe,
0x04,
0xfb,
0x01,
0xfd,
0x06,
0xf6,
0x01,
0xfd,
0xf9,
0xe8,
0x05,
0x06,
0xf5,
0xf4,
0x05,
0xff,
0xf9,
0xf1,
0x05,
0xf9,
0x03,
0x14,
0xf6,
0xff,
0xf0,
0x01,
0xf7,
0x0c,
0x03,
0xff,
0x08,
0x12,
0xf4,
0xe6,
0xd1,
0x0a,
0xe6,
0x1c,
0x0e,
0x05,
0xdd,
0xfc,
0x2d,
0x27,
0x10,
0xed,
0x10,
0xf3,
0x0b,
0xf9,
0x1a,
0xf3,
0xf9,
0x0a,
0xf0,
0x01,
0x0f,
0x17,
0x00,
0x17,
0xe3,
0x1b,
0x0f,
0xff,
0xe9,
0xfa,
0x2b,
0x10,
0xec,
0x01,
0xf9,
0x07,
0xe9,
0x0d,
0x01,
0x1d,
0xdf,
0xe3,
0x01,
0x01,
0x06,
0x13,
0xdc,
0xf0,
0xfe,
0xf8,
0xf0,
0xe1,
0x0a,
0x15,
0x11,
0xed,
0x0d,
0xe3,
0x06,
0x07,
0x1e,
0x0e,
0xe4,
0xeb,
0xec,
0xe4,
0xd5,
0x18,
0x0d,
0x00,
0xed,
0xf3,
0x16,
0xef,
0x1c,
0xe8,
0x13,
0x07,
0x01,
0x02,
0x1c,
0x02,
0xfb,
0xec,
0xee,
0xfb,
0xe4,
0x07,
0x06,
0xf4,
0x02,
0x05,
0x17,
0x18,
0x05,
0xfe,
0x04,
0x0d,
0x03,
0x00,
0x2d,
0xea,
0xf4,
0xfa,
0xf0,
0x06,
0x06,
0xe7,
0x1c,
0x0a,
0xf7,
0xf9,
0x0a,
0x0a,
0xfd,
0xee,
0xf5,
0xf9,
0x19,
0x02,
0xea,
0x01,
0x13,
0x18,
0x1c,
0x13,
0x08,
0xfb,
0x1d,
0x0b,
0x1b,
0xeb,
0xfa,
0x0a,
0xff,
0x10,
0xe0,
0x11,
0x09,
0x1d,
0x0e,
0xf8,
0xf5,
0x06,
0x07,
0xd3,
0xda,
0x14,
0x0f,
0x0c,
0x0c,
0x15,
0xf4,
0x02,
0xff,
0x02,
0x18,
0x0d,
0x05,
0xff,
0x00,
0x15,
0xfb,
0xe1,
0xf5,
0xf2,
0xff,
0xf5,
0xea,
0x1e,
0xf8,
0xf6,
0x0b,
0x07,
0x01,
0x03,
0x06,
0x0a,
0x05,
0xd8,
0x13,
0xfa,
0x01,
0xf5,
0xeb,
0xf6,
0xfb,
0xed,
0xf7,
0x07,
0xff,
0xfe,
0x18,
0xf3,
0xf0,
0x02,
0x07,
0xea,
0x05,
0xfe,
0xd9,
0x07,
0x17,
0x08,
0x13,
0xee,
0xfc,
0x0a,
0x0c,
0xeb,
0xf7,
0xfb,
0x07,
0x1f,
0x07,
0x13,
0x0c,
0x0e,
0xf5,
0x0c,
0x14,
0xdf,
0xe1,
0xe2,
0x02,
0x0d,
0x1a,
0x0a,
0xff,
0x12,
0x2a,
0x44,
0xd9,
0x1a,
0xcf,
0xf7,
0xfc,
0x0d,
0x08,
0x08,
0x08,
0x0d,
0xdd,
0xc5,
0xff,
0xc0,
0xe3,
0x03,
0x2b,
0xfd,
0xba,
0xf4,
0xcc,
0xe4,
0x1d,
0x34,
0xdb,
0x13,
0xf9,
0x38,
0xfd};
