/* SPDX-License-Identifier: GPL-2.0 */
/*
 * Copyright (c) 2020 MediaTek Inc.
 *
 * Author: Ya-Wen Hsu <Ya-Wen.Hsu@mediatek.com>
 *
 */
char gender_kernel_bias_loop01_0_frame01[] = {
0xef,
0xf3,
0x01,
0xef,
0x1c,
0x25,
0x0b,
0x23,
0x13,
0x0a,
0xfd,
0xf6,
0x01,
0xec,
0xf9,
0x00,
0x06,
0x00,
0x15,
0x0d,
0xfa,
0xfe,
0x03,
0x02,
0xe9,
0x05,
0x09,
0xfd,
0x06,
0x08,
0x0c,
0x0e,
0x55,
0x3a,
0xf5,
0xed,
0xfe,
0xd9,
0x99,
0xc9,
0x08,
0xfe,
0x04,
0x02,
0xe9,
0x08,
0xfe,
0xf3,
0xfe,
0x12,
0xfa,
0xf5,
0xf9,
0xf6,
0xf9,
0x11,
0xf4,
0x01,
0x1e,
0x02,
0xfb,
0x0b,
0xfd,
0x10,
0x01,
0x0a,
0x00,
0xff,
0xfb,
0x09,
0xf6,
0xd5,
0xfd,
0x21,
0xd3,
0x0e,
0x38,
0xef,
0xf3,
0xf8,
0xf3,
0xf5,
0xf6,
0xf7,
0x02,
0x05,
0xf4,
0x05,
0x09,
0x14,
0xf7,
0x01,
0x03,
0xfd,
0xfb,
0xfe,
0x17,
0x11,
0x06,
0xf1,
0xe4,
0xfd,
0xf8,
0xf4,
0x04,
0xf2,
0xe3,
0xf3,
0xf8,
0xfb,
0x06,
0xf8,
0x15,
0xf5,
0xfd,
0xfd,
0x10,
0x0c,
0x0a,
0x24,
0x15,
0x0c,
0xfd,
0xe3,
0xe3,
0xea,
0xdf,
0x0c,
0x04,
0x0b,
0xee,
0xfd,
0xfd,
0x1c,
0x0f,
0xf4,
0xf2,
0x0a,
0xf0,
0xf2,
0xc8,
0xcc,
0x16,
0x12,
0xda,
0xfa,
0x0b,
0x06,
0xf6,
0xd5,
0xf5,
0x09,
0xec,
0x01,
0xea,
0xed,
0xf0,
0x0c,
0x06,
0xff,
0xfa,
0x0e,
0x0a,
0xf7,
0xef,
0xec,
0xfa,
0xf1,
0xc5,
0xf9,
0x00,
0xe2,
0xf2,
0xdf,
0xf4,
0x04,
0xfa,
0xfb,
0x0c,
0x08,
0xf0,
0xfb,
0x01,
0xf4,
0x0d,
0x08,
0x02,
0xe2,
0xf2,
0xfb,
0x00,
0xec,
0xeb,
0xfd,
0xe6,
0x17,
0x00,
0xf2,
0xf8,
0x1a,
0xfd,
0xed,
0xf2,
0x07,
0x02,
0xfc,
0x08,
0x0a,
0x05,
0xfe,
0x09,
0x18,
0x1f,
0x06,
0xf2,
0x19,
0xfc,
0xf6,
0x02,
0x01,
0x00,
0x09,
0x01,
0x07,
0xe3,
0xdf,
0x07,
0xfc,
0xf9,
0x03,
0xf5,
0x09,
0xec,
0x0d,
0x05,
0x13,
0x05,
0xfc,
0xf6,
0xe2,
0xe5,
0xf9,
0xf4,
0xf5,
0x02,
0x09,
0x15,
0x07,
0xf6,
0x03,
0xed,
0x1c,
0xfa,
0x1a,
0x15,
0xf9,
0x07,
0x1c,
0x2c,
0x2c,
0x2c,
0x17,
0x21,
0x28,
0x27,
0x09,
0xf9,
0xf7,
0xe3,
0x06,
0x0b,
0xe6,
0xfe,
0xf7,
0xf1,
0x03,
0x0e,
0x01,
0x0d,
0x0b,
0x00,
0x19,
0x08,
0xf5,
0xf3,
0x10,
0xfe,
0xdf,
0xe9,
0x1e,
0x19,
0x02,
0x3f,
0x40,
0xd6,
0xe0,
0xdf,
0x13,
0xff,
0xff,
0xf9,
0xf4,
0xfb,
0x15,
0x01,
0x17,
0x38,
0x2d,
0x03,
0x17,
0x02,
0x14,
0x19,
0x15,
0xff,
0x0f,
0x00,
0xfe,
0xe9,
0xfa,
0xf0,
0xf3,
0xf5,
0xfb,
0xf9,
0x07,
0x04,
0x0c,
0x09,
0x1d,
0x2d,
0xe0,
0xd3,
0x27,
0xf3,
0xe0,
0xff,
0x06,
0xf2,
0x07,
0xff,
0x15,
0x01,
0xf2,
0xfd,
0x0e,
0x27,
0x1c,
0xf7,
0x1e,
0xfc,
0x0e,
0x0d,
0x0b,
0xd8,
0xfc,
0x18,
0x38,
0x2a,
0x10,
0x12,
0x07,
0xf4,
0xf2,
0x0f,
0x11,
0xf8,
0x05,
0x0a,
0x04,
0xf0,
0xce,
0xfa,
0xf8,
0xe7,
0xf4,
0x19,
0x36,
0x1d,
0x0e,
0x01,
0x01,
0x02,
0xf0,
0xeb,
0xe9,
0xeb,
0xeb,
0xda,
0xea,
0xd1,
0xe0,
0x0a,
0xc8,
0xf3,
0x25,
0xf2,
0x29,
0x45,
0x13,
0x0b,
0xff,
0x01,
0x03,
0x0d,
0x06,
0xfb,
0xff,
0x05,
0xf6,
0x04,
0xfe,
0xf7,
0x07,
0xf1,
0x16,
0xe9,
0xf9,
0x0c,
0xfe,
0x0a,
0x0c,
0x1e,
0x26,
0xf7,
0xf8,
0x05,
0xff,
0x18,
0x09,
0x10,
0x26,
0xe7,
0xe1,
0xdd,
0xfd,
0xf2,
0x0a,
0x0c,
0x1a,
0x36,
0xf6,
0xfe,
0x03,
0x09,
0x0f,
0xf6,
0x0d,
0xf8,
0x02,
0x07,
0xff,
0xf6,
0xfe,
0xff,
0xff,
0xfe,
0x02,
0x04,
0x06,
0x05,
0x17,
0x0a,
0x05,
0xc3,
0xd8,
0xfc,
0xf9,
0xf9,
0x21,
0x39,
0x30,
0xeb,
0xef,
0xeb,
0x0b,
0x10,
0x06,
0x12,
0x0e,
0x05,
0x01,
0xf1,
0xf7,
0x03,
0xf7,
0xf6,
0x06,
0x13,
0xe9,
0x02,
0x13,
0x0c,
0xfc,
0x08,
0x02,
0x17,
0xf4,
0xf5,
0x0d,
0xe6,
0xfc,
0x0d,
0x29,
0x00,
0xd7,
0x4f,
0xf6,
0xa8,
0x42,
0xff,
0xaf,
0x1a,
0x0c,
0xfc,
0xe8,
0x04,
0xf3,
0x08,
0xf4,
0xf3,
0x05,
0xfd,
0xef,
0xfe,
0xf9,
0xfd,
0x00,
0xea,
0xf6,
0xe2,
0xe6,
0xe3,
0xec,
0xeb,
0x0d,
0x13,
0x03,
0xf2,
0x14,
0x0a,
0x0c,
0x0b,
0xfb,
0x16,
0x15,
0x0e,
0x12,
0x2b,
0xff,
0x17,
0x04,
0x05,
0xff,
0x2a,
0x0a,
0xe6,
0x1a,
0xf8,
0xed,
0x11,
0xfd,
0x01,
0x01,
0x05,
0xf8,
0x01,
0x09,
0xef,
0xff,
0x0a,
0x03,
0x02,
0x23,
0xfd,
0x18,
0xfd,
0xfb,
0xf1,
0xfb,
0xf7,
0xeb,
0xfe,
0xed,
0xe8,
0xff,
0x04,
0x07,
0x01,
0x00,
0x0c,
0xfa,
0x00,
0x01,
0x02,
0x03,
0x01,
0xff,
0xfb,
0xff,
0xfa,
0xfe,
0x06,
0x02,
0x01,
0xfc,
0x05,
0xfd,
0x03,
0xfa,
0x02,
0x06,
0x07,
0x0e,
0x02,
0x06,
0xff,
0xf7,
0xfc,
0x05,
0xff,
0x03,
0x03,
0x0c,
0xf0,
0x06,
0x0b,
0x03,
0x03,
0xf9,
0x03,
0x09,
0xfb,
0x04,
0x06,
0xfb,
0x00,
0xfb,
0xf6,
0xf3,
0xfc,
0xf9,
0xfb,
0xfa,
0xf3,
0xf6,
0xf8,
0x03,
0x01,
0xf8,
0xff,
0x01,
0xfe,
0x09,
0xfc,
0xf0,
0x07,
0x0d,
0xfe,
0xf6,
0x00,
0x00,
0x07,
0x04,
0x07,
0x12,
0x05,
0x02,
0x08,
0x0c,
0x07,
0xea,
0x0e,
0x19,
0x08,
0x03,
0x0b,
0xff,
0x03,
0x0b,
0x0b,
0xff,
0xfc,
0x07,
0xff,
0x0e,
0x01,
0x06,
0x00,
0xfd,
0xf6,
0xf5,
0x00,
0x08,
0xf9,
0xfe,
0xfd,
0x03,
0x05,
0xf8,
0xf5,
0x12,
0x05,
0xd1,
0x03,
0xf7,
0x06,
0xfd,
0xfc,
0x00,
0x18,
0x0d,
0xf1,
0x17,
0xfb,
0xf9,
0xf5,
0xf9,
0xf2,
0xff,
0xf6,
0x02,
0x0e,
0xd9,
0xf7,
0x13,
0xef,
0x13,
0x08,
0xfb,
0xf7,
0xfb,
0x01,
0x09,
0xef,
0xff,
0xfd,
0x03,
0x01,
0x0b,
0x0b,
0x07,
0xfe,
0xf8,
0xf3,
0xfb,
0xf8,
0xff,
0x04,
0x05,
0x15,
0x0e,
0x04,
0x0d,
0x03,
0xfc,
0x03,
0xfe,
0xff,
0xfd,
0x08,
0x06,
0x05,
0x09,
0xfe,
0xfc,
0xfd,
0x07,
0xfe,
0x05,
0xf2,
0xdd,
0xda,
0xeb,
0x01,
0x34,
0x09,
0xea,
0xfd,
0xe6,
0xfd,
0x08,
0xfb,
0xf2,
0xfb,
0xf4,
0x0f,
0xfc,
0xfb,
0xf4,
0x01,
0xf8,
0xf9,
0xfd,
0x06,
0x09,
0xfa,
0xff,
0xff,
0xff,
0x17,
0x0e,
0xef,
0xf5,
0x04,
0x09,
0xfd,
0x0a,
0x03,
0x1f,
0xf5,
0xfc,
0x0e,
0x14,
0x03,
0xf4,
0xfa,
0xf7,
0xea,
0x0e,
0xff,
0xf5,
0xff,
0xfc,
0x02,
0xfd,
0xf7,
0xfc,
0xf7,
0x14,
0xf9,
0x0f,
0xf2,
0xe0,
0xd9,
0xec,
0xd6,
0xe9,
0xdb,
0xe3,
0xe1,
0xed,
0x20,
0x02,
0x10,
0x11,
0x06,
0xef,
0x02,
0x05,
0x0e,
0xfd,
0xf2,
0xfe,
0x31,
0x06,
0x0f,
0x1b,
0x14,
0x28,
0x04,
0x00,
0x08,
0xe0,
0xf5,
0xf8,
0x0f,
0x08,
0xe8,
0xfa,
0xfb,
0xf9,
0xff,
0xf8,
0xe3,
0xed,
0xf3,
0x08,
0xf6,
0xff,
0x01,
0x02,
0x00,
0x01,
0x00,
0x04,
0x03,
0x05,
0xf2,
0x03,
0x11,
0xfc,
0xfc,
0x12,
0x17,
0x0f,
0x01,
0x00,
0x01,
0x0c,
0x00,
0x00,
0xf7,
0xf9,
0x01,
0xff,
0x06,
0xf8,
0xf7,
0xff,
0xfd,
0x03,
0x03,
0xfb,
0xf7,
0xfe,
0x06,
0xf5,
0xf7,
0x2b,
0xec,
0xe5,
0xfa,
0xfa,
0x04,
0xfc,
0x04,
0x0e,
0xf7,
0xf6,
0x13,
0x02,
0x06,
0xfb,
0xfa,
0x02,
0xfc,
0xf6,
0xfd,
0xfb,
0xfc,
0xf5,
0x0c,
0xfc,
0xf8,
0xf4,
0xed,
0xef,
0xf1,
0xfc,
0xf6,
0x02,
0x1a,
0x15,
0x11,
0x16,
0x0e,
0x02,
0x07,
0x07,
0x0a,
0xf9,
0xfa,
0x16,
0x0c,
0x08,
0x1e,
0x14,
0x02,
0x12,
0x00,
0xed,
0xf5,
0xee,
0xe5,
0xae,
0xdf,
0xf8,
0xfe,
0xed,
0x16,
0x07,
0xf1,
0x1a,
0x0c,
0xef,
0x0a,
0x02,
0x0a,
0xf8,
0x03,
0x19,
0xd6,
0x00,
0x05,
0x08,
0x11,
0xe1,
0xdb,
0xf8,
0xe1,
0xe4,
0x07,
0x1d,
0x27,
0x33,
0xd9,
0xe8,
0xdc,
0xfd,
0x00,
0x17,
0x46,
0x39,
0xf6,
0x01,
0x01,
0x27,
0x1a,
0x0f,
0x00,
0xf2,
0x04,
0x0e,
0x02,
0x12,
0x37,
0x30,
0x06,
0x1a,
0xf9,
0x13,
0x1b,
0x0f,
0x01,
0x10,
0x0d,
0xfc,
0xec,
0xf9,
0xe1,
0xec,
0xf4,
0x01,
0x03,
0x06,
0x0c,
0x13,
0x14,
0x23,
0x27,
0xdd,
0xe0,
0x22,
0xd8,
0xda,
0x1f,
0x28,
0x00,
0xf2,
0xf1,
0x0f,
0xfd,
0xf9,
0x08,
0x03,
0x0f,
0x07,
0xf3,
0x03,
0xf6,
0x16,
0x05,
0x0c,
0xdb,
0x0c,
0x25,
0x42,
0x2d,
0x09,
0x00,
0xf1,
0x02,
0x04,
0x0a,
0xff,
0xe3,
0xee,
0x08,
0x09,
0xd8,
0xac,
0xd7,
0xf8,
0xee,
0xf8,
0x31,
0x52,
0x2f,
0x2b,
0x0d,
0x06,
0x14,
0xfc,
0xee,
0xee,
0xed,
0xe8,
0xde,
0xea,
0xd3,
0xed,
0x23,
0xd9,
0xff,
0x29,
0xe2,
0x19,
0x2d,
0xf5,
0xf2,
0x00,
0x07,
0xfb,
0x1f,
0x0e,
0xf8,
0x0d,
0x13,
0xf0,
0x00,
0xfb,
0x0e,
0xf8,
0xee,
0x26,
0xeb,
0x02,
0x10,
0xff,
0x0f,
0xe5,
0xdb,
0xf0,
0xfa,
0xef,
0xff,
0x2d,
0x57,
0x33,
0x0d,
0x23,
0xdc,
0xfe,
0x12,
0x1b,
0xf2,
0x40,
0x09,
0x29,
0x08,
0x0a,
0xdf,
0xf9,
0xd5,
0xeb,
0xd5,
0x11};
