/* SPDX-License-Identifier: GPL-2.0 */
/*
 * Copyright (c) 2020 MediaTek Inc.
 *
 * Author: Ya-Wen Hsu <Ya-Wen.Hsu@mediatek.com>
 *
 */
char gender_kernel_bias_loop09_0_frame01[] = {
0xed,
0x04,
0xe8,
0xf7,
0x17,
0xf8,
0xfd,
0xfa,
0xf9,
0x10,
0xe8,
0xfc,
0x02,
0xfd,
0xe8,
0x02,
0xff,
0xe5,
0x12,
0x0a,
0x09,
0x22,
0xfd,
0x19,
0x19,
0xec,
0x22,
0x12,
0xf4,
0xd9,
0x04,
0xd5,
0xfa,
0xf4,
0x05,
0xf0,
0xd7,
0xf6,
0xe7,
0x0b,
0x27,
0xff,
0xd6,
0x08,
0x28,
0x0e,
0xf6,
0x06,
0xe3,
0x04,
0x03,
0x1c,
0x00,
0x0c,
0x02,
0xf3,
0xed,
0xe8,
0xed,
0xfd,
0xdd,
0xff,
0xfd,
0x04,
0xe2,
0xfd,
0x18,
0x1b,
0x02,
0x01,
0x01,
0x13,
0xf8,
0xf7,
0x0e,
0xef,
0xed,
0xef,
0xff,
0x04,
0xff,
0x18,
0x17,
0x1c,
0xfe,
0x16,
0xfe,
0xd8,
0x0d,
0xf1,
0x01,
0x18,
0xf2,
0x04,
0xf6,
0xf7,
0xda,
0xf3,
0x0f,
0x08,
0xf9,
0x0e,
0x0b,
0xee,
0x01,
0x21,
0x0c,
0x0e,
0x05,
0x10,
0xff,
0x02,
0x13,
0xe3,
0x06,
0x17,
0xff,
0x2f,
0x22,
0xff,
0x10,
0xd4,
0xea,
0x14,
0x09,
0xfd,
0xf9,
0xf8,
0xf5,
0xfe,
0x02,
0xe8,
0x04,
0x1e,
0xee,
0x0b,
0x09,
0xe3,
0x0b,
0xec,
0xf5,
0x0e,
0x1a,
0x07,
0x25,
0x00,
0x1c,
0xe4,
0xf4,
0x2b,
0x0d,
0x2c,
0x1f,
0x18,
0x00,
0x05,
0xec,
0xe8,
0x05,
0x20,
0x0d,
0xf5,
0x09,
0xe2,
0xfe,
0xee,
0x01,
0x1f,
0x03,
0x09,
0xe4,
0x0f,
0xf0,
0xff,
0x09,
0xe1,
0xe5,
0xef,
0x27,
0xf2,
0x0e,
0xfb,
0xf6,
0x02,
0x1b,
0x05,
0xf2,
0x14,
0x08,
0x0c,
0xf0,
0xfa,
0x12,
0x04,
0xf6,
0xf6,
0xf3,
0x02,
0xff,
0x02,
0xf0,
0xeb,
0x11,
0xf3,
0x02,
0xfb,
0x2e,
0xf2,
0xf7,
0xf4,
0xfc,
0xf9,
0x0b,
0xee,
0xf6,
0xe9,
0x0d,
0xe8,
0x0a,
0x0f,
0x08,
0x10,
0xf8,
0x0b,
0x35,
0xe7,
0xe8,
0x12,
0xee,
0x01,
0x04,
0x03,
0x2a,
0x1c,
0x08,
0xee,
0xf3,
0xfc,
0x1e,
0xf1,
0x0a,
0x05,
0xfb,
0x01,
0x09,
0x04,
0xf3,
0xff,
0xf7,
0x02,
0xf2,
0x21,
0x03,
0xff,
0x03,
0xfe,
0xe3,
0x1b,
0xf8,
0xdf,
0xe7,
0xfb,
0x06,
0xe7,
0xf0,
0xe9,
0x11,
0x1e,
0xee,
0xf6,
0x11,
0xfc,
0xfe,
0xf9,
0xe7,
0xfa,
0xec,
0xed,
0xe1,
0xf6,
0x04,
0x0b,
0x24,
0x16,
0xf7,
0x05,
0x07,
0x2f,
0xf1,
0xf0,
0x0e,
0x1d,
0x11,
0x1b,
0xf2,
0x09,
0x0b,
0xef,
0xeb,
0xe9,
0x19,
0xd9,
0x16,
0x38,
0xeb,
0xfb,
0x04,
0xfb,
0xe2,
0xfb,
0x0d,
0xf9,
0x15,
0xef,
0x04,
0x02,
0xf9,
0xed,
0x16,
0x0b,
0xfb,
0xee,
0x08,
0xf1,
0xed,
0xf9,
0xe7,
0x29,
0xd6,
0xf5,
0x0d,
0xf9,
0x08,
0xf8,
0x11,
0xdf,
0x07,
0x14,
0x16,
0x03,
0xfb,
0xec,
0x34,
0x14,
0xf4,
0xf2,
0xfc,
0x0a,
0xee,
0x01,
0x17,
0x01,
0xfe,
0x07,
0x1f,
0x31,
0xfc,
0x0d,
0x2e,
0x07,
0x02,
0xfd,
0x14,
0x0e,
0xea,
0x08,
0xed,
0xf1,
0x15,
0xfa,
0xf2,
0xfd,
0x05,
0xf9,
0xf3,
0x0b,
0xf7,
0xf0,
0xf7,
0x00,
0x06,
0xfb,
0x06,
0xf8,
0xf8,
0xef,
0xe9,
0x03,
0x07,
0x01,
0x05,
0x0f,
0x0e,
0x07,
0xf9,
0x05,
0x0b,
0xfd,
0xfb,
0xf7,
0xf4,
0xef,
0x0c,
0xf3,
0x13,
0x02,
0x1b,
0xfd,
0xfa,
0x07,
0x06,
0x0f,
0x18,
0xea,
0x1d,
0xf9,
0x03,
0x07,
0xea,
0x10,
0x09,
0xe3,
0xf7,
0x03,
0xf4,
0xe9,
0xe3,
0x09,
0xf2,
0xf4,
0xe7,
0xf7,
0xed,
0xf2,
0xff,
0xf5,
0x05,
0xfc,
0xff,
0xf2,
0x0b,
0x1b,
0xf1,
0xfe,
0xea,
0xeb,
0x10,
0x06,
0x02,
0xe8,
0x20,
0xeb,
0x08,
0x12,
0xf7,
0xef,
0xe9,
0xf8,
0x01,
0x00,
0xf8,
0xf8,
0x05,
0x21,
0x15,
0x01,
0xec,
0xe6,
0x0a,
0x06,
0x0a,
0xea,
0xf6,
0xef,
0xec,
0x0b,
0xe0,
0x04,
0xf7,
0x01,
0x01,
0xf7,
0x3d,
0x06,
0xf4,
0xd5,
0x07,
0xee,
0xf9,
0x05,
0xf5,
0x2c,
0x03,
0xf6,
0x1f,
0xff,
0x06,
0x15,
0x12,
0xfc,
0xfa,
0x14,
0x1a,
0x02,
0x02,
0x0a,
0xe2,
0xfa,
0xf6,
0xf7,
0x09,
0x06,
0x03,
0xf2,
0xf7,
0xe8,
0x08,
0xfb,
0x27,
0xf5,
0x0e,
0xf6,
0xff,
0xf7,
0xf5,
0xf8,
0x00,
0xed,
0xed,
0x18,
0xf5,
0x12,
0xe3,
0xf9,
0x0d,
0x18,
0xfe,
0xf9,
0x11,
0xf2,
0xf9,
0x0a,
0xe2,
0x1a,
0x38,
0x03,
0x19,
0x15,
0xfa,
0x0d,
0x10,
0x07,
0xf1,
0x04,
0xe8,
0x05,
0xf3,
0x21,
0xec,
0x0f,
0xfa,
0x2c,
0xf9,
0x22,
0x09,
0xeb,
0x1c,
0x16,
0xee,
0xf6,
0x0b,
0xee,
0x16,
0x17,
0xf5,
0xe2,
0xfa,
0x00,
0x17,
0xfc,
0xfc,
0x15,
0xe3,
0xe4,
0x08,
0x0c,
0x00,
0xf7,
0x07,
0x11,
0xd8,
0xfa,
0x11,
0xdf,
0xf7,
0x0a,
0x08,
0x03,
0x0e,
0xe7,
0x14,
0x08,
0x0b,
0xd7,
0x09,
0xfa,
0x1f,
0x1f,
0x06,
0xd7,
0xf8,
0x19,
0x0b,
0x0c,
0xfd,
0x0d,
0xf1,
0xd5,
0xe2,
0xee,
0x04,
0x02,
0x21,
0x08,
0x02,
0xfb,
0xf4,
0xfb,
0x03,
0x03,
0xf1,
0x1a,
0xe1,
0x0a,
0x00,
0xf8,
0xe1,
0x06,
0x0a,
0xde,
0x02,
0xf1,
0xf2,
0x02,
0x17,
0xf2,
0x1a,
0xeb,
0xf2,
0x2d,
0xfa,
0xf4,
0xde,
0xf9,
0xee,
0x02,
0x10,
0xff,
0xee,
0xe2,
0xf8,
0xfc,
0x05,
0xf8,
0x14,
0xe7,
0xd0,
0xe9,
0xf2,
0xea,
0x0d,
0xf9,
0x06,
0xf7,
0xf4,
0x03,
0x0a,
0xec,
0x0e,
0xf7,
0x01,
0x07,
0x01,
0xfa,
0xf9,
0x19,
0x37,
0x03,
0xff,
0xf9,
0xef,
0xf8,
0x04,
0x0d,
0xe7,
0x3b,
0xfb,
0xf7,
0xe4,
0x02,
0xf0,
0xc6,
0xec,
0xfa,
0x1f,
0xfe,
0x23,
0xf0,
0xf1,
0xfe,
0xfb,
0xfd,
0xea,
0xed,
0x0a,
0x02,
0x02,
0x03,
0x19,
0xf9,
0xf1,
0x14,
0xf6,
0xff,
0x1c,
0xf5,
0x00,
0x1b,
0xea,
0xf0,
0x0c,
0xf2,
0x06,
0x19,
0x0d,
0xea,
0x04,
0xfc,
0xfe,
0xfe,
0x1b,
0x07,
0xd8,
0x0c,
0xf5,
0xf8,
0x06,
0x04,
0xeb,
0x0e,
0x15,
0xf7,
0xfb,
0xeb,
0xed,
0xec,
0xf7,
0x0d,
0x31,
0xf8,
0xf4,
0x01,
0xfc,
0xf3,
0xf5,
0x14,
0x06,
0xfd,
0xf9,
0x0f,
0xea,
0xef,
0xd4,
0xf5,
0xbd,
0xfe,
0x04,
0xfb,
0x0a,
0xf5,
0xfe,
0x1c,
0x06,
0x07,
0x10,
0xd1,
0xee,
0x0d,
0x10,
0xec,
0xdc,
0x1d,
0x15,
0x0a,
0x0a,
0xfe,
0xf9,
0x19,
0xfa,
0x09,
0x2f,
0xfb,
0xef,
0x08,
0xf1,
0xe0,
0xf3,
0xe2,
0x0c,
0xd0,
0x12,
0x09,
0xd7,
0xfa,
0xfe,
0xfc,
0x15,
0x03,
0xf7,
0xfe,
0xfc,
0x03,
0xf8,
0x07,
0x0f,
0x0e,
0x00,
0x06,
0x06,
0xf3,
0xe9,
0x0f,
0x0f,
0xe2,
0xf7,
0x18,
0x26,
0x2d,
0x16,
0x13,
0x23,
0x07,
0x12,
0xf9,
0xeb,
0xf5,
0xf2,
0xe5,
0xfe,
0xfa,
0x09,
0x11,
0x08,
0xfb,
0x03,
0xff,
0x0a,
0xf7,
0xfd,
0xfd,
0xf4,
0xea,
0x07,
0x0f,
0x14,
0xff,
0x22,
0xef,
0x1f,
0xf8,
0x31,
0xfc,
0xe1,
0x01,
0xf1,
0x14,
0xe4,
0xe9,
0xe6,
0xff,
0xf4,
0x0a,
0xe9,
0x03,
0x2d,
0xf1,
0x19,
0xf4,
0xe4,
0xf4,
0xf9,
0xe7,
0x37,
0xe6,
0x0a,
0x1b,
0x0a,
0xfb,
0x00,
0xff,
0x0e,
0x2b,
0xf5,
0xfb,
0xfc,
0xf7,
0xe8,
0x05,
0xf7,
0xe7,
0x15,
0xef,
0x00,
0x20,
0xfd,
0xfc,
0x20,
0xfe,
0xf3,
0xf7,
0xfa,
0x20,
0xde,
0x08,
0x07,
0x12,
0xfb,
0xf6,
0x0a,
0xfd,
0x1e,
0xf3,
0x10,
0xf3,
0xfa,
0x06,
0x0f,
0x04,
0x00,
0xee,
0xf1,
0xe8,
0xf1,
0x09,
0xfa,
0x01,
0x1a,
0x02,
0x2d,
0x0c,
0xe8,
0x05,
0x1d,
0x01,
0x14,
0x09,
0xfb,
0x00,
0xed,
0x1c,
0xf3,
0xfd,
0x18,
0xf0,
0x07,
0x2c,
0x16,
0x1e,
0xf1,
0xfe,
0x0d,
0x08,
0x0b,
0x08,
0x02,
0x1b,
0xec,
0x02,
0x0d,
0x30,
0xed,
0xfa,
0x04,
0xf7,
0xe2,
0xe3,
0xfe,
0xe3,
0x03,
0x0a,
0xf8,
0x11,
0xf8,
0x0f,
0x1d,
0x20,
0x19,
0xef,
0x02,
0x10,
0x08,
0xf5,
0x0a,
0xf2,
0xf4,
0xe7,
0xfa,
0xdd,
0x05,
0x0a,
0xf3,
0x0e,
0x1d,
0xfc,
0x10,
0x10,
0x06,
0xf0,
0xe7,
0x12,
0xea,
0x26,
0x11,
0xef,
0x1f,
0x34,
0xd7,
0x18,
0x07,
0xe4,
0x20,
0xef,
0xf5,
0x28,
0x00,
0xd5,
0x06,
0x17,
0xed,
0x1b};
