/* SPDX-License-Identifier: GPL-2.0 */
/*
 * Copyright (c) 2020 MediaTek Inc.
 *
 * Author: Ya-Wen Hsu <Ya-Wen.Hsu@mediatek.com>
 *
 */
char gender_kernel_bias_loop02_0_frame01[] = {
0x02,
0x03,
0xf7,
0x02,
0x15,
0x0d,
0xf2,
0xf8,
0xf4,
0xf9,
0x0a,
0xe6,
0xf4,
0xfc,
0xfb,
0xff,
0xff,
0xff,
0x13,
0x00,
0x06,
0x0c,
0x05,
0x08,
0xef,
0xb8,
0x11,
0xe8,
0xf5,
0xfb,
0x1e,
0xf4,
0xe5,
0xf8,
0x01,
0x09,
0xa7,
0x25,
0x0f,
0x18,
0xda,
0x0c,
0xf9,
0xb8,
0x09,
0xf7,
0x05,
0x42,
0xed,
0xfb,
0x01,
0x0d,
0xfa,
0x0d,
0xe4,
0x05,
0xf5,
0x00,
0x04,
0x05,
0x02,
0x02,
0x00,
0x12,
0xf2,
0xfe,
0x09,
0x00,
0x0c,
0xed,
0xf0,
0x04,
0x20,
0xff,
0xf6,
0x0c,
0x06,
0xff,
0x07,
0xf9,
0x03,
0xf8,
0xff,
0x07,
0x09,
0x01,
0x00,
0xe2,
0x01,
0x07,
0x09,
0x08,
0xfb,
0x08,
0xca,
0xff,
0xf6,
0x0b,
0x03,
0x03,
0x02,
0x01,
0x06,
0xfd,
0xfb,
0xfe,
0x06,
0xfd,
0xf7,
0x03,
0x0b,
0x01,
0xe1,
0x07,
0xf7,
0xf0,
0xc2,
0x38,
0xe4,
0x14,
0xeb,
0xee,
0xf7,
0xcd,
0x07,
0xef,
0x03,
0x42,
0x04,
0xe7,
0x2a,
0xe3,
0x0e,
0x0a,
0xf2,
0x02,
0xe9,
0xfd,
0xeb,
0x07,
0xe9,
0xf5,
0x17,
0x38,
0xc2,
0x29,
0x1c,
0xff,
0x06,
0xd1,
0xf5,
0xfd,
0xf9,
0x05,
0xed,
0xff,
0xa9,
0x07,
0x00,
0xf8,
0x02,
0x20,
0x0b,
0xff,
0x24,
0x00,
0xfa,
0x05,
0xe6,
0x12,
0xc6,
0x43,
0x0b,
0x0e,
0x07,
0xf3,
0x00,
0x14,
0xd9,
0x1e,
0x09,
0xe4,
0xed,
0xfd,
0x09,
0x33,
0xe7,
0x03,
0xe3,
0xdb,
0xf9,
0xe1,
0x0f,
0x14,
0x10,
0xe6,
0x0a,
0x10,
0xe5,
0x03,
0xf7,
0xec,
0xde,
0xf2,
0xf5,
0x25,
0xf9,
0x96,
0x0e,
0xf4,
0xde,
0x25,
0x02,
0xef,
0x2d,
0x0f,
0xf8,
0xf6,
0xea,
0xf7,
0xe0,
0x18,
0x03,
0x2b,
0xfb,
0x05,
0x03,
0x0c,
0x27,
0x26,
0xf3,
0xf9,
0x04,
0xff,
0x04,
0xcd,
0x07,
0xf5,
0xf9,
0x2f,
0xeb,
0x06,
0xcf,
0xc8,
0x0f,
0xc8,
0x05,
0x04,
0x1c,
0x10,
0xe3,
0xda,
0x14,
0x05,
0x14,
0xd6,
0x36,
0x0c,
0x19,
0x1d,
0x0b,
0xf3,
0x32,
0x02,
0x01,
0x15,
0x05,
0x68,
0x0c,
0x1d,
0x0d,
0xe8};
