/* SPDX-License-Identifier: GPL-2.0 */
/*
 * Copyright (c) 2022 MediaTek Inc.
 *
 * Author: Yuan-Jung Kuo <Yuan-Jung.Kuo@mediatek.com>
 *
 */

char fdvt_fld_tree_forest13_cv_weight_7s[] = {
0x1c,
0x00,
0xa0,
0xff,
0x2f,
0x03,
0x80,
0x05,
0x00,
0xf9,
0xff,
0x17,
0x00,
0x00,
0x00,
0x00,
0xf4,
0xff,
0x5f,
0x00,
0xf0,
0x00,
0x80,
0xfc,
0xff,
0x25,
0x00,
0xd8,
0xff,
0x0f,
0x00,
0x00,
0xf2,
0xff,
0x23,
0x00,
0x10,
0x01,
0x80,
0x05,
0x00,
0xe4,
0xff,
0x07,
0x00,
0x00,
0x00,
0x00,
0x04,
0x00,
0xf4,
0xff,
0x1f,
0x02,
0xc0,
0xfc,
0xff,
0x06,
0x00,
0xd0,
0xff,
0x0f,
0x00,
0x00,
0xf5,
0xff,
0x1f,
0x00,
0xe0,
0xfd,
0x3f,
0xf8,
0xff,
0x10,
0x00,
0x18,
0x00,
0x00,
0x00,
0x00,
0xe9,
0xff,
0xab,
0xff,
0xff,
0xf9,
0x7f,
0xff,
0xff,
0x10,
0x00,
0x0c,
0x00,
0x00,
0x00,
0x00,
0xdf,
0xff,
0xf3,
0xff,
0x1f,
0x01,
0xc0,
0x03,
0x00,
0x17,
0x00,
0xcc,
0xff,
0x0f,
0x00,
0x00,
0x02,
0x00,
0x4c,
0x00,
0xc0,
0x00,
0xc0,
0xfc,
0xff,
0xe1,
0xff,
0x37,
0x00,
0x00,
0x00,
0x00,
0xdf,
0xff,
0xd3,
0xff,
0x4f,
0x00,
0x80,
0x00,
0x00,
0xfa,
0xff,
0xf7,
0xff,
0x0f,
0x00,
0x00,
0x19,
0x00,
0x34,
0x00,
0x10,
0xfc,
0x7f,
0xfc,
0xff,
0xcb,
0xff,
0x03,
0x00,
0x00,
0x00,
0x00,
0x0d,
0x00,
0xf0,
0xff,
0xbf,
0xff,
0x3f,
0xf8,
0xff,
0x0d,
0x00,
0xb0,
0xff,
0x0f,
0x00,
0x00,
0xbc,
0xff,
0xef,
0xff,
0x6f,
0xfd,
0x7f,
0x00,
0x00,
0xde,
0xff,
0xb3,
0xff,
0x0f,
0x00,
0x00,
0x82,
0x00,
0x68,
0xff,
0x5f,
0xfe,
0x3f,
0x01,
0x00,
0x24,
0x00,
0xd4,
0xff,
0x0f,
0x00,
0x00,
0x3b,
0x00,
0x8c,
0x00,
0x20,
0x01,
0x00,
0xfb,
0xff,
0x10,
0x00,
0x10,
0x00,
0x00,
0x00,
0x00,
0x00,
0x00,
0xec,
0xff,
0x8f,
0x02,
0x00,
0xff,
0xff,
0x2b,
0x00,
0x20,
0x00,
0x00,
0x00,
0x00,
0xf8,
0xff,
0xdb,
0xff,
0x3f,
0xfe,
0x3f,
0x01,
0x00,
0xe4,
0xff,
0x0b,
0x00,
0x00,
0x00,
0x00,
0xd0,
0xff,
0x1b,
0x00,
0x60,
0xff,
0x3f,
0x04,
0x00,
0xd6,
0xff,
0x0f,
0x00,
0x00,
0x00,
0x00,
0xe2,
0xff,
0x3b,
0x00,
0x50,
0xfe,
0xff,
0x04,
0x00,
0x30,
0x00,
0x2c,
0x00,
0x00,
0x00,
0x00,
0xfc,
0xff,
0x0b,
0x00,
0x20,
0x00,
0x40,
0x01,
0x00,
0xba,
0xff,
0x47,
0x00,
0x00,
0x00,
0x00,
0xca,
0xff,
0x03,
0x00,
0xf0,
0xfd,
0x7f,
0x00,
0x00,
0xe2,
0xff,
0xd7,
0xff,
0x0f,
0x00,
0x00,
0x1c,
0x00,
0x28,
0x00,
0x20,
0xfe,
0x7f,
0x00,
0x00,
0xf4,
0xff,
0xb3,
0xff,
0x0f,
0x00,
0x00,
0x08,
0x00,
0xbc,
0xff,
0x1f,
0x04,
0xc0,
0x00,
0x00,
0xdf,
0xff,
0x9f,
0xff,
0x0f,
0x00,
0x00,
0x26,
0x00,
0xd0,
0xff,
0x9f,
0xff,
0x3f,
0x01,
0x00,
0xfa,
0xff,
0xdf,
0xff,
0x0f,
0x00,
0x00,
0xef,
0xff,
0xd3,
0xff,
0x5f,
0x01,
0x80,
0xfa,
0xff,
0xfa,
0xff,
0xd3,
0xff,
0x0f,
0x00,
0x00,
0x06,
0x00,
0x54,
0x00,
0x40,
0x00,
0xc0,
0x04,
0x00,
0x16,
0x00,
0x14,
0x00,
0x00,
0x00,
0x00,
0xfb,
0xff,
0xf3,
0xff,
0x8f,
0x00,
0x40,
0x00,
0x00,
0xdd,
0xff,
0x27,
0x00,
0x00,
0x00,
0x00,
0xfd,
0xff,
0x17,
0x00,
0xc0,
0x05,
0x00,
0x03,
0x00,
0x05,
0x00,
0x60,
0x00,
0x00,
0x00,
0x00,
0x13,
0x00,
0xc8,
0xff,
0x0f,
0x06,
0xc0,
0xfb,
0xff,
0x00,
0x00,
0xf4,
0xff,
0x0f,
0x00,
0x00,
0xed,
0xff,
0xff,
0xff,
0x1f,
0x00,
0xc0,
0x05,
0x00,
0x01,
0x00,
0x1c,
0x00,
0x00,
0x00,
0x00,
0xcb,
0xff,
0x1b,
0x00,
0xe0,
0x01,
0xc0,
0xfb,
0xff,
0xe3,
0xff,
0xf7,
0xff,
0x0f,
0x00,
0x00,
0xf5,
0xff,
0x0f,
0x00,
0x20,
0x02,
0xc0,
0xfd,
0xff,
0xfd,
0xff,
0x9b,
0xff,
0x0f,
0x00,
0x00,
0xf6,
0xff,
0xdf,
0xff,
0x6f,
0xff,
0x7f,
0xff,
0xff,
0xc1,
0xff,
0x2f,
0x00,
0x00,
0x00,
0x00,
0x1d,
0x00,
0x24,
0x00,
0xf0,
0xff,
0x3f,
0x00,
0x00,
0xef,
0xff,
0x0f,
0x00,
0x00,
0x00,
0x00,
0xeb,
0xff,
0x4b,
0x00,
0xb0,
0xff,
0x7f,
0x00,
0x00,
0x38,
0x00,
0x20,
0x00,
0x00,
0x00,
0x00,
0xc7,
0xff,
0xdb,
0xff,
0xff,
0x01,
0xc0,
0xfe,
0xff,
0xe3,
0xff,
0xf7,
0xff,
0x0f,
0x00,
0x00,
0x03,
0x00,
0x38,
0x00,
0x40,
0xff,
0x7f,
0xfb,
0xff,
0x02,
0x00,
0x04,
0x00,
0x00,
0x00,
0x00,
0xda,
0xff,
0xe7,
0xff,
0x8f,
0x01,
0xc0,
0x07,
0x00,
0xe3,
0xff,
0x27,
0x00,
0x00,
0x00,
0x00,
0x1a,
0x00,
0x40,
0x00,
0xa0,
0xff,
0x3f,
0xff,
0xff,
0xf5,
0xff,
0x1b,
0x00,
0x00,
0x00,
0x00,
0xef,
0xff,
0xf3,
0xff,
0xff,
0xfe,
0xbf,
0x03,
0x00,
0xe4,
0xff,
0x13,
0x00,
0x00,
0x00,
0x00,
0xf8,
0xff,
0xd7,
0xff,
0xdf,
0xfe,
0x3f,
0x02,
0x00,
0xda,
0xff,
0xef,
0xff,
0x0f,
0x00,
0x00,
0xd6,
0xff,
0xf3,
0xff,
0x5f,
0x03,
0x80,
0xfd,
0xff,
0xe8,
0xff,
0x03,
0x00,
0x00,
0x00,
0x00,
0xf0,
0xff,
0x0b,
0x00,
0x60,
0xfd,
0xbf,
0x05,
0x00,
0x2a,
0x00,
0x2c,
0x00,
0x00,
0x00,
0x00,
0xfa,
0xff,
0xe3,
0xff,
0xef,
0x01,
0x80,
0x00,
0x00,
0x2d,
0x00,
0xd8,
0xff,
0x0f,
0x00,
0x00,
0xea,
0xff,
0xfb,
0xff,
0x1f,
0xff,
0x7f,
0xfd,
0xff,
0x16,
0x00,
0x0c,
0x00,
0x00,
0x00,
0x00,
0x17,
0x00,
0xdc,
0xff,
0xaf,
0xfd,
0xbf,
0x00,
0x00,
0xe2,
0xff,
0xe3,
0xff,
0x0f,
0x00,
0x00,
0x1b,
0x00,
0xf8,
0xff,
0xaf,
0xfb,
0xff,
0xfe,
0xff,
0xf2,
0xff,
0x43,
0x00,
0x00,
0x00,
0x00,
0xba,
0xff,
0xdb,
0xff,
0x8f,
0x00,
0x00,
0x00,
0x00,
0x15,
0x00,
0x88,
0x00,
0x00,
0x00,
0x00,
0xe6,
0xff,
0xa7,
0xff,
0xcf,
0xff,
0x3f,
0xfd,
0xff,
0x06,
0x00,
0xb4,
0xff,
0x0f,
0x00,
0x00,
0xf0,
0xff,
0x4f,
0x00,
0xd0,
0xfd,
0xbf,
0x02,
0x00,
0x0c,
0x00,
0x1c,
0x00,
0x00,
0x00,
0x00,
0x1a,
0x00,
0x10,
0x00,
0x80,
0xfe,
0xff,
0xfe,
0xff,
0xff,
0xff,
0x2f,
0x00,
0x00,
0x00,
0x00,
0xdc,
0xff,
0x63,
0x00,
0xd0,
0xfc,
0xff,
0xf6,
0xff,
0x0d,
0x00,
0x0c,
0x00,
0x00,
0x00,
0x00,
0x2a,
0x00,
0xb0,
0xff,
0x1f,
0xff,
0x7f,
0x01,
0x00,
0xd8,
0xff,
0x23,
0x00,
0x00,
0x00,
0x00,
0xcd,
0xff,
0xf7,
0xff,
0xff,
0xff,
0xbf,
0x01,
0x00,
0x14,
0x00,
0xf4,
0xff,
0x0f,
0x00,
0x00,
0x0b,
0x00,
0x0c,
0x00,
0xc0,
0xff,
0xbf,
0xf9,
0xff,
0x29,
0x00,
0xe4,
0xff,
0x0f,
0x00,
0x00,
0x29,
0x00,
0x30,
0x00,
0x50,
0xff,
0xbf,
0x00,
0x00,
0x08,
0x00,
0x04,
0x00,
0x00,
0x00,
0x00,
0x15,
0x00,
0xf0,
0xff,
0xbf,
0x00,
0xc0,
0xfc,
0xff,
0xd3,
0xff,
0x3f,
0x00,
0x00,
0x00,
0x00,
0x22,
0x00,
0xf4,
0xff,
0xef,
0xff,
0x7f,
0x03,
0x00,
0xe8,
0xff,
0x0b,
0x00,
0x00,
0x00,
0x00,
0xf4,
0xff,
0x17,
0x00,
0xc0,
0x00,
0x40,
0x00,
0x00,
0x3d,
0x00,
0xd4,
0xff,
0x0f,
0x00,
0x00,
0x16,
0x00,
0x54,
0x00,
0x40,
0xfe,
0x7f,
0xfb,
0xff,
0x9b,
0xff,
0x9f,
0xff,
0x0f,
0x00,
0x00,
0xe4,
0xff,
0xdb,
0xff,
0x9f,
0x01,
0xc0,
0xfe,
0xff,
0x08,
0x00,
0xf4,
0xff,
0x0f,
0x00,
0x00,
0x0d,
0x00,
0x00,
0x00,
0xf0,
0xfe,
0x3f,
0xfe,
0xff,
0xb0,
0xff,
0x0b,
0x00,
0x00,
0x00,
0x00,
0x10,
0x00,
0x0c,
0x00,
0x90,
0x02,
0x40,
0xfd,
0xff,
0xe9,
0xff,
0xd3,
0xff,
0x0f,
0x00,
0x00,
0xd4,
0xff,
0xbf,
0xff,
0x1f,
0x00,
0x40,
0xff,
0xff,
0x12,
0x00,
0xe4,
0xff,
0x0f,
0x00,
0x00,
0xfe,
0xff,
0x0f,
0x00,
0xa0,
0xff,
0xbf,
0xfe,
0xff,
0xce,
0xff,
0x4b,
0x00,
0x00,
0x00,
0x00,
0x0e,
0x00,
0xc8,
0xff,
0xff,
0xfc,
0x3f,
0xf6,
0xff,
0x00,
0x00,
0xe4,
0xff,
0x0f,
0x00,
0x00,
0xe0,
0xff,
0xcf,
0xff,
0xbf,
0xff,
0xff,
0xfc,
0xff,
0xed,
0xff,
0xff,
0xff,
0x0f,
0x00,
0x00,
0x0d,
0x00,
0x04,
0x00,
0xb0,
0xfe,
0xbf,
0x03,
0x00,
0x00,
0x00,
0x00,
0x00,
0x00,
0x00,
0x00};
