/* SPDX-License-Identifier: GPL-2.0 */
/*
 * Copyright (c) 2020 MediaTek Inc.
 *
 * Author: Ya-Wen Hsu <Ya-Wen.Hsu@mediatek.com>
 *
 */

char fdvt_kernel_bias_loop06_0_frame01[] = {
0x07,
0x12,
0xe5,
0xf0,
0xd2,
0x20,
0x14,
0x18,
0xf1,
0xe7,
0x0c,
0x1b,
0x16,
0x2e,
0xef,
0x12,
0x0a,
0x02,
0xf9,
0x0c,
0xc4,
0xf3,
0xff,
0x12,
0x04,
0x1d,
0x0d,
0xed,
0xde,
0x0c,
0x0c,
0x0d,
0x04,
0x38,
0xef,
0x03,
0xeb,
0x09,
0xd7,
0x01,
0x09,
0xea,
0x08,
0xea,
0xe4,
0x04,
0x26,
0xfa,
0xfb,
0xfa,
0xe5,
0x1c,
0xfa,
0x0a,
0xfd,
0x07,
0xfa,
0xee,
0xe6,
0x2c,
0x1b,
0x11,
0xf0,
0x1a,
0x05,
0xfc,
0x07,
0x0d,
0xe8,
0x02,
0xf4,
0x06,
0xe3,
0xe7,
0x22,
0x12,
0xff,
0x25,
0x25,
0x07,
0x14,
0xf2,
0x03,
0xf9,
0x18,
0x20,
0xff,
0xe9,
0x29,
0xf8,
0x15,
0xf0,
0xea,
0x1e,
0xd2,
0xba,
0x01,
0x35,
0xda,
0xcc,
0x07,
0x05,
0xea,
0x0e,
0xe6,
0x11,
0xea,
0xe6,
0x28,
0xfd,
0xf1,
0xf3,
0xe9,
0xef,
0xe0,
0xec,
0xfd,
0xdd,
0xfa,
0x14,
0xdc,
0xf7,
0xe3,
0x2a,
0xfb,
0x1b,
0x02,
0xfa,
0x1f,
0xe2,
0x00,
0x00,
0x03,
0x23,
0xed,
0xf8,
0xfd,
0x21,
0x04,
0xda,
0x02,
0xfc,
0xde,
0xfe,
0xfa,
0xeb,
0x0b,
0xf2,
0xec,
0xd8,
0x2d,
0xf0,
0xf2,
0xf1,
0x28,
0x00,
0xf1,
0xfb,
0xef,
0x01,
0xd7,
0xfd,
0x00,
0xfe,
0xec,
0x0b,
0x0f,
0xde,
0x00,
0x1c,
0x0f,
0xf2,
0xf8,
0xec,
0x1d,
0xf3,
0xf5,
0x03,
0xf7,
0x04,
0x04,
0xf7,
0xec,
0xf1,
0xd5,
0x06,
0xf8,
0x01,
0xf0,
0x04,
0xfd,
0xff,
0xd8,
0xf8,
0xf9,
0xc9,
0x11,
0xf5,
0xf5,
0xf1,
0xf5,
0xda,
0xca,
0x15,
0xd8,
0xf7,
0x02,
0xe8,
0xdc,
0xf5,
0x1d,
0x05,
0xf5,
0x0c,
0x17,
0x06,
0x06,
0x00,
0xf5,
0x08,
0x44,
0xfc,
0x04,
0xe5,
0xf7,
0x10,
0x20,
0xe7,
0x1a,
0xe8,
0xfc,
0xbf,
0xee,
0xe9,
0xee,
0xe7,
0xd1,
0xe8,
0x11,
0x05,
0x04,
0xf2,
0xf5,
0x25,
0xfe,
0xe1,
0xe4,
0xfc,
0xdb,
0x06,
0xf3,
0xfb,
0x03,
0xe2,
0x02,
0xfd,
0xe4,
0x0e,
0x1b,
0x09,
0xd3,
0x03,
0x32,
0xf4,
0x11,
0xf3,
0x11,
0x06,
0x24,
0xf5,
0x03,
0x00,
0xec,
0x01,
0x25,
0x1e,
0x0b,
0xf3,
0x00,
0xe7,
0x1a,
0x11,
0x17,
0x07,
0xfa,
0xfe,
0xf5,
0xfd,
0xea,
0x0e,
0xe6,
0xee,
0xd9,
0x22,
0x0a,
0x1e,
0x01,
0x0c,
0x06,
0xed,
0x31,
0xf8,
0xe9,
0x18,
0xfb,
0x11,
0xe7,
0xfe,
0xed,
0xe5,
0x06,
0xef,
0xf1,
0xe7,
0xef,
0xce,
0x02,
0x1b,
0x00,
0xfa,
0x19,
0xe6,
0xfd,
0xf3,
0x16,
0xfb,
0xf3,
0xe6,
0x1f,
0x0d,
0xd2,
0x24,
0xee,
0xf4,
0xfe,
0xf2,
0x1a,
0x2b,
0xf4,
0x0c,
0xf3,
0x07,
0xd8,
0x0d,
0x2a,
0x1d,
0x06,
0xf9,
0xf9,
0xf0,
0xfb,
0x43,
0x02,
0x01,
0xf9,
0x0b,
0xee,
0xe2,
0xd3,
0xf6,
0xe2,
0xf4,
0xc9,
0x17,
0x00,
0xe1,
0xf3,
0x0f,
0x06,
0x02,
0x01,
0xf0,
0xe1,
0xe0,
0x06,
0xde,
0xe9,
0xfa,
0xe7,
0x0e,
0x0c,
0x38,
0x05,
0xfc,
0xf6,
0xfe,
0xe9,
0x39,
0xf5,
0xe8,
0x02,
0xf0,
0xd7,
0xfc,
0x00,
0xdc,
0xf4,
0xf3,
0x08,
0x00,
0xe2,
0x0e,
0xeb,
0x22,
0xe3,
0x0a,
0xec,
0x09,
0xf8,
0xef,
0x0b,
0xec,
0xe5,
0x09,
0xf8,
0x14,
0x06,
0xe6,
0x05,
0xe4,
0xf7,
0x28,
0x0c,
0xdd,
0x04,
0x01,
0x1d,
0x00,
0x00,
0x11,
0x02,
0xea,
0xef,
0xf9,
0x03,
0xfc,
0xeb,
0xf8,
0xf8,
0xe9,
0xd2,
0x0a,
0xf5,
0x13,
0x23,
0xce,
0xfe,
0x06,
0xf3,
0xe8,
0xd5,
0xba,
0x2f,
0xf8,
0x36,
0x1f,
0xeb,
0xe9,
0x07,
0xd4,
0xee,
0xec,
0x2c,
0xb9,
0x16,
0x16,
0xfb,
0xe8,
0x0f,
0x0b,
0x1c,
0xe4,
0x04,
0x00,
0x12,
0x22,
0x01,
0xd5,
0xe1,
0xf9,
0xf5,
0x01,
0xeb,
0x10,
0xe8,
0xed,
0xe1,
0x02,
0xe3,
0x25,
0x32,
0x03,
0xf9,
0x0a,
0x1f,
0x1c,
0x05,
0x24,
0x0e,
0x0d,
0x0b,
0xfb,
0xf2,
0x04,
0xe4,
0x0e,
0x0b,
0x04,
0xe9,
0x0a,
0xe6,
0x0f,
0xd2,
0xfd,
0xc4,
0x30,
0x10,
0xf1,
0xfd,
0xe3,
0xf9,
0x26,
0xe9,
0x0d,
0x08,
0x0f,
0x07,
0x05,
0xf1,
0x11,
0xd4,
0x2c,
0xec,
0x00,
0x01,
0xe9,
0x1f,
0xfd,
0x17,
0xe7,
0x0d,
0x14,
0x24,
0x09,
0xe3,
0xff,
0xf0,
0x1a,
0xd5,
0xef,
0xfd,
0xb3,
0x02,
0xe8,
0xbd,
0x0a,
0x2d,
0x3a,
0x15,
0xe3,
0xd8,
0x12,
0x15,
0x09,
0xdc,
0xfd,
0x14,
0xdd,
0x33,
0xea,
0x09,
0xe8,
0x1e,
0xdb,
0xf8,
0xda,
0x16,
0x10,
0xf4,
0xee,
0x10,
0xfd,
0xf3,
0xfc,
0x06,
0xd8,
0x0b,
0x10,
0xf9,
0x09,
0xf5,
0xfe,
0xff,
0x07,
0x04,
0xdf,
0x06,
0x0e,
0xeb,
0xfa,
0x23,
0x19,
0x12,
0x0e,
0x0c,
0xf6,
0x16,
0x05,
0x1c,
0x09,
0xf0,
0xf0,
0xfd,
0xd9,
0x03,
0xae,
0xef,
0x15,
0xf8,
0x08,
0xfb,
0x30,
0x0f,
0x03,
0xfb,
0xf9,
0xf7,
0x08,
0xf2,
0x17,
0xcc,
0xed,
0xea,
0xdd,
0xf4,
0x00,
0x14,
0x13,
0x23,
0xff,
0x14,
0xfb,
0xf9,
0x00,
0x2b,
0x14,
0xdf,
0x2b,
0x0c,
0xf6,
0xfa,
0x14,
0xe6,
0xde,
0xf4,
0xe7,
0x15,
0x08,
0xfa,
0xe2,
0xdb,
0x01,
0x11,
0x08,
0xfc,
0xdc,
0x11,
0x11,
0x20,
0x0b,
0x16,
0xeb,
0xce,
0x04,
0xe5,
0x02,
0x39,
0xdc,
0xf7,
0xd9,
0x34,
0x3f,
0xf7,
0x0b,
0x19,
0xde,
0x10,
0x01,
0xed,
0xfd,
0x05,
0xfd,
0xec,
0xf0,
0xca,
0xe8,
0xf0,
0x2e,
0xf3,
0xfb,
0x0d,
0x12,
0xf9,
0x09,
0xe7,
0x0e,
0x00,
0xdd,
0xdc,
0xfa,
0xeb,
0xe5,
0x01,
0xea,
0xe7,
0xf9,
0xef,
0x29,
0x13,
0x1a,
0xe0,
0xf2,
0x04,
0xeb,
0xf5,
0x09,
0xe7,
0xe9,
0xef,
0xb5,
0xf0,
0x19,
0xe6,
0x40,
0x0c,
0x19,
0xe5,
0x08,
0x17,
0xf0,
0xec,
0xf4,
0xbe,
0xea,
0x32,
0xdd,
0xdc,
0xc2,
0x29,
0x26,
0x16,
0xff,
0x00,
0x0d,
0xef,
0xfe,
0xf8,
0x06,
0x3a,
0xdd,
0x09,
0xf8,
0xf8,
0xea,
0xf3,
0x00,
0x00,
0xed,
0xf7,
0xfd,
0x08,
0xf5,
0xe5,
0x18,
0x09,
0xe1,
0xdc,
0xcd,
0x05,
0x03,
0x24,
0x0b,
0x23,
0xf6,
0xf5,
0xff,
0x10,
0x0e,
0x03,
0xf7,
0xe1,
0xee,
0xe9,
0x0c,
0xf6,
0xed,
0x05,
0xf8,
0x16,
0xe4,
0xee,
0xea,
0xe9,
0xeb,
0xf9,
0x17,
0x0a,
0xe9,
0xf5,
0x02,
0xc3,
0x1c,
0xfd,
0xfe,
0x12,
0x0a,
0x13,
0x09,
0xff,
0x05,
0x01,
0x08,
0x31,
0x0c,
0xf2,
0x2f,
0x0b,
0x2e,
0x01,
0x24,
0xf4,
0x14,
0x18,
0x13,
0x02,
0xf2,
0x05,
0x1d,
0xed,
0xf2,
0x0a,
0xf7,
0xfc,
0xea,
0xf2,
0xf6,
0xff,
0xe8,
0xc6,
0xe3,
0xf1,
0x0e,
0xcd,
0xe5,
0x14,
0x0e,
0xe3,
0xfa,
0xff,
0x13,
0x2c,
0x10,
0xfe,
0xd5,
0xe9,
0xdc,
0xdb,
0xf8,
0xe7,
0x1f,
0x13,
0x06,
0xf0,
0xf2,
0xe4,
0xe9,
0xef,
0xef,
0xe8,
0xf6,
0xe7,
0xf9,
0x0b,
0x23,
0x04,
0xf0,
0xff,
0x12,
0xe4,
0xd0,
0xee,
0x04,
0xeb,
0x3a,
0x13,
0xfa,
0xf5,
0xfb,
0xe8,
0xf3,
0xe7,
0xfc,
0x2e,
0xe7,
0xfb,
0xef,
0xe3,
0xeb,
0xfd,
0x11,
0xe9,
0x03,
0x06,
0xfb,
0xf8,
0x0f,
0x21,
0xf7,
0xfc,
0xd3,
0x19,
0x07,
0x25,
0xed,
0x26,
0x03,
0x5b,
0xf3,
0xf2,
0x12,
0xf4,
0x24,
0xea,
0xeb,
0xeb,
0x0c,
0x1f,
0xed,
0xff,
0x3a,
0x17,
0x10,
0xff,
0xe6,
0xf8,
0x25,
0x08,
0xf5,
0x01,
0xf3,
0xdf,
0x17,
0xe9,
0xfc,
0xf6,
0x03,
0xf4,
0x04,
0x0a,
0x07,
0xd3,
0x00,
0xd8,
0x21,
0xcf,
0xf3,
0xf9,
0xad,
0xf1,
0xdb,
0xf5,
0x05,
0x19,
0x17,
0x20,
0xdb,
0x13,
0x0f,
0xea,
0xd9,
0xdc,
0xe6,
0xf0,
0xd0,
0xf2,
0xf9,
0x0b,
0xe8,
0x05,
0x30,
0x12,
0x1d,
0x21,
0xfe,
0x2e,
0x0d,
0xf0,
0x0a,
0xfd,
0xf0,
0xfa,
0x0a,
0x10,
0x0f,
0xeb,
0xee,
0xcd,
0xf8,
0xfe,
0x11,
0x1c,
0x24,
0xf6,
0xeb,
0x03,
0xf0,
0xf7,
0x11,
0xe4,
0xf1,
0xff,
0x21,
0x04,
0x18,
0x12,
0xed,
0x10,
0x4e,
0x1f,
0xfc,
0x28,
0x36,
0x07,
0x23,
0xf8,
0x3b,
0x1b,
0xf1,
0x03,
0x0c};
