/* SPDX-License-Identifier: GPL-2.0 */
/*
 * Copyright (c) 2020 MediaTek Inc.
 *
 * Author: Ya-Wen Hsu <Ya-Wen.Hsu@mediatek.com>
 *
 */
char fdvt_fld_blink_weight_forest14[] = {
0x03,
0x00,
0xfc,
0xff,
0xfa,
0xff,
0xfd,
0xff,
0x05,
0x00,
0x06,
0x00,
0xfe,
0xff,
0x03,
0x00,
0xfb,
0xff,
0x03,
0x00,
0x08,
0x00,
0xff,
0xff,
0xfe,
0xff,
0x09,
0x00,
0xff,
0xff,
0xf4,
0xff,
0xfb,
0xff,
0xfb,
0xff,
0xfb,
0xff,
0x00,
0x00,
0x0e,
0x00,
0x03,
0x00,
0xf6,
0xff,
0xfc,
0xff,
0xf1,
0xff,
0xfb,
0xff,
0x0c,
0x00,
0x09,
0x00,
0x07,
0x00,
0xff,
0xff,
0x05,
0x00,
0x00,
0x00,
0xe6,
0xff,
0x01,
0x00,
0x03,
0x00,
0xed,
0xff,
0x16,
0x00,
0xfd,
0xff,
0x09,
0x00,
0x1a,
0x00,
0xf2,
0xff,
0x02,
0x00,
0x01,
0x00,
0x17,
0x00,
0xff,
0xff,
0xed,
0xff,
0xfe,
0xff,
0xfe,
0xff,
0xfe,
0xff,
0xf0,
0xff,
0x05,
0x00,
0xfd,
0xff,
0x09,
0x00,
0xfd,
0xff,
0x03,
0x00,
0x06,
0x00,
0x17,
0x00,
0x02,
0x00,
0xff,
0xff,
0x01,
0x00,
0x01,
0x00,
0xf0,
0xff,
0x09,
0x00,
0xef,
0xff,
0x05,
0x00,
0x02,
0x00,
0x12,
0x00,
0x05,
0x00,
0xfd,
0xff,
0xfb,
0xff,
0xed,
0xff,
0xfb,
0xff,
0xec,
0xff,
0x05,
0x00,
0xfb,
0xff,
0x03,
0x00,
0x0c,
0x00,
0x02,
0x00,
0x03,
0x00,
0x04,
0x00,
0x01,
0x00,
0x00,
0x00,
0x09,
0x00,
0xf6,
0xff,
0x00,
0x00,
0x04,
0x00,
0x0a,
0x00,
0xff,
0xff,
0x04,
0x00,
0xf6,
0xff,
0x09,
0x00,
0xef,
0xff,
0x00,
0x00,
0xfd,
0xff,
0x03,
0x00,
0x03,
0x00,
0xfd,
0xff,
0x04,
0x00,
0x0b,
0x00,
0xea,
0xff,
0xfd,
0xff,
0x00,
0x00,
0xf5,
0xff,
0x08,
0x00,
0xfe,
0xff,
0x01,
0x00,
0x00,
0x00,
0x02,
0x00,
0x0c,
0x00,
0xff,
0xff,
0x00,
0x00,
0x05,
0x00,
0xff,
0xff,
0x04,
0x00,
0x0c,
0x00,
0x08,
0x00,
0x03,
0x00,
0x0d,
0x00,
0xfd,
0xff,
0x0e,
0x00,
0x06,
0x00,
0xfa,
0xff,
0xe4,
0xff,
0x07,
0x00,
0xfb,
0xff,
0xfb,
0xff,
0x00,
0x00,
0xf0,
0xff,
0x05,
0x00,
0x07,
0x00,
0x00,
0x00,
0x00,
0x00,
0x03,
0x00,
0x03,
0x00,
0xf5,
0xff,
0xfa,
0xff,
0xfb,
0xff,
0xf3,
0xff,
0xf9,
0xff,
0x01,
0x00,
0x02,
0x00,
0x04,
0x00,
0x05,
0x00,
0x0f,
0x00,
0xfa,
0xff,
0xf9,
0xff,
0x05,
0x00,
0xfc,
0xff,
0x05,
0x00,
0x00,
0x00,
0x02,
0x00,
0x04,
0x00,
0x04,
0x00,
0x17,
0x00,
0x07,
0x00,
0x13,
0x00,
0xde,
0xff,
0xec,
0xff,
0xf9,
0xff,
0x0a,
0x00,
0xfc,
0xff,
0x06,
0x00,
0xfc,
0xff,
0x03,
0x00,
0xf8,
0xff,
0xf6,
0xff,
0x1b,
0x00,
0xff,
0xff,
0x06,
0x00,
0xff,
0xff,
0x1e,
0x00,
0x07,
0x00,
0xed,
0xff,
0xf7,
0xff,
0xea,
0xff,
0xff,
0xff,
0x09,
0x00,
0xf8,
0xff,
0x05,
0x00,
0xfd,
0xff,
0xfd,
0xff,
0xfc,
0xff,
0x01,
0x00,
0xfc,
0xff,
0x06,
0x00,
0xfb,
0xff,
0x06,
0x00,
0x09,
0x00,
0xfa,
0xff,
0x00,
0x00,
0x10,
0x00,
0xec,
0xff,
0x02,
0x00,
0xf3,
0xff,
0x0a,
0x00,
0xf6,
0xff,
0x00,
0x00,
0xed,
0xff,
0xf6,
0xff,
0xf4,
0xff,
0x0b,
0x00,
0x04,
0x00,
0x05,
0x00,
0x18,
0x00,
0x03,
0x00,
0xfe,
0xff,
0x10,
0x00,
0xf6,
0xff,
0xff,
0xff,
0x15,
0x00,
0xf9,
0xff,
0x00,
0x00,
0xfc,
0xff,
0x03,
0x00,
0x01,
0x00,
0x00,
0x00,
0xfd,
0xff,
0x0a,
0x00,
0xf8,
0xff,
0xf6,
0xff,
0x00,
0x00,
0x02,
0x00,
0xef,
0xff,
0x0f,
0x00,
0xfc,
0xff,
0x00,
0x00,
0x04,
0x00,
0x02,
0x00,
0x07,
0x00,
0xfe,
0xff,
0x05,
0x00,
0xf6,
0xff,
0xfe,
0xff,
0x03,
0x00,
0xfc,
0xff,
0x06,
0x00,
0xfd,
0xff,
0x06,
0x00,
0xf7,
0xff,
0x03,
0x00,
0xff,
0xff,
0xf8,
0xff,
0xff,
0xff,
0x01,
0x00,
0x01,
0x00,
0x19,
0x00,
0x15,
0x00,
0x02,
0x00,
0xff,
0xff,
0x10,
0x00,
0xeb,
0xff,
0xf2,
0xff,
0xfd,
0xff,
0xfc,
0xff,
0xf9,
0xff,
0xfd,
0xff,
0x08,
0x00,
0x01,
0x00,
0xfb,
0xff,
0x08,
0x00,
0xf2,
0xff,
0x05,
0x00,
0xfc,
0xff,
0x02,
0x00,
0x04,
0x00,
0x05,
0x00,
0x02,
0x00,
0x03,
0x00,
0x0f,
0x00,
0xe5,
0xff,
0x02,
0x00,
0xfd,
0xff,
0xf7,
0xff,
0x02,
0x00,
0x04,
0x00,
0x0a,
0x00,
0x07,
0x00,
0xff,
0xff,
0x01,
0x00,
0x11,
0x00,
0xef,
0xff,
0xfe,
0xff,
0xfc,
0xff,
0x03,
0x00,
0xff,
0xff,
0xfd,
0xff,
0xfc,
0xff,
0xfe,
0xff,
0x02,
0x00,
0x15,
0x00,
0xfd,
0xff,
0x0d,
0x00,
0xf5,
0xff,
0x0e,
0x00,
0x08,
0x00,
0x02,
0x00,
0xff,
0xff,
0x01,
0x00,
0xf3,
0xff,
0xf9,
0xff,
0xf4,
0xff,
0x07,
0x00,
0xf4,
0xff,
0xfc,
0xff,
0xff,
0xff,
0x04,
0x00,
0xfc,
0xff,
0xf7,
0xff,
0x03,
0x00,
0xfe,
0xff,
0x0d,
0x00,
0x00,
0x00,
0xfe,
0xff,
0x02,
0x00,
0xf8,
0xff,
0x03,
0x00,
0xfe,
0xff,
0x09,
0x00,
0x00,
0x00,
0xfa,
0xff,
0xfc,
0xff,
0x08,
0x00,
0x09,
0x00,
0x08,
0x00,
0xf3,
0xff,
0xf1,
0xff,
0xe3,
0xff,
0x03,
0x00,
0xfb,
0xff,
0x07,
0x00,
0xff,
0xff,
0x0c,
0x00,
0x04,
0x00,
0x03,
0x00,
0x0b,
0x00,
0x05,
0x00,
0x02,
0x00,
0x0d,
0x00,
0xf5,
0xff,
0xe0,
0xff,
0x0a,
0x00,
0x01,
0x00,
0xd2,
0xff,
0xfa,
0xff,
0x0d,
0x00,
0x02,
0x00,
0x10,
0x00,
0x0e,
0x00,
0xfb,
0xff,
0x19,
0x00,
0x02,
0x00,
0x04,
0x00,
0xff,
0xff,
0x11,
0x00,
0xfd,
0xff,
0x06,
0x00,
0xff,
0xff,
0xf8,
0xff,
0xfe,
0xff,
0xf9,
0xff,
0x02,
0x00,
0xfc,
0xff,
0x00,
0x00,
0xfa,
0xff,
0x07,
0x00,
0x02,
0x00,
0xf9,
0xff,
0x05,
0x00,
0x03,
0x00,
0xf5,
0xff,
0x13,
0x00,
0xfe,
0xff,
0xff,
0xff,
0x02,
0x00,
0xfa,
0xff,
0xff,
0xff,
0x0f,
0x00,
0xf5,
0xff,
0xfc,
0xff,
0xfa,
0xff,
0x16,
0x00,
0xf3,
0xff,
0xfd,
0xff,
0xff,
0xff,
0xff,
0xff,
0x06,
0x00,
0xf5,
0xff,
0x08,
0x00,
0x00,
0x00,
0x00,
0x00,
0x04,
0x00,
0x05,
0x00,
0x09,
0x00,
0xfd,
0xff,
0x05,
0x00,
0x04,
0x00,
0xed,
0xff,
0x05,
0x00,
0xf8,
0xff,
0xfd,
0xff,
0x0b,
0x00,
0xdd,
0xff,
0xf2,
0xff,
0x0c,
0x00,
0x00,
0x00,
0x13,
0x00,
0xf4,
0xff,
0xe5,
0xff,
0x0e,
0x00,
0x05,
0x00,
0x13,
0x00,
0x07,
0x00,
0x0d,
0x00,
0xef,
0xff,
0x1c,
0x00,
0xec,
0xff,
0xf8,
0xff,
0xf9,
0xff,
0x03,
0x00,
0x09,
0x00,
0xf7,
0xff,
0xfb,
0xff,
0xfe,
0xff,
0xfc,
0xff,
0xff,
0xff,
0xfb,
0xff,
0xff,
0xff,
0x03,
0x00,
0x06,
0x00,
0x10,
0x00,
0x03,
0x00,
0x01,
0x00,
0x06,
0x00,
0xff,
0xff,
0xfc,
0xff,
0x02,
0x00,
0xfc,
0xff,
0x0a,
0x00,
0x04,
0x00,
0x01,
0x00,
0xf9,
0xff,
0xf9,
0xff,
0x00,
0x00,
0x09,
0x00,
0x06,
0x00,
0xfb,
0xff,
0xf5,
0xff,
0x02,
0x00,
0xff,
0xff,
0x00,
0x00,
0x03,
0x00,
0xfa,
0xff,
0x07,
0x00,
0x04,
0x00,
0xeb,
0xff,
0xfc,
0xff,
0x05,
0x00,
0x03,
0x00,
0x00,
0x00,
0xff,
0xff,
0x04,
0x00,
0x0d,
0x00,
0xf9,
0xff,
0x04,
0x00,
0x04,
0x00,
0x02,
0x00,
0xfc,
0xff,
0x02,
0x00,
0x05,
0x00,
0xfe,
0xff,
0xfe,
0xff,
0xfe,
0xff,
0xfd,
0xff,
0x01,
0x00,
0x08,
0x00,
0x07,
0x00,
0x01,
0x00,
0x04,
0x00,
0xef,
0xff,
0xfe,
0xff,
0x01,
0x00,
0x02,
0x00,
0x08,
0x00,
0xfb,
0xff,
0xf4,
0xff,
0xf8,
0xff,
0xfb,
0xff,
0xfe,
0xff,
0x02,
0x00,
0xf7,
0xff,
0xfe,
0xff,
0x08,
0x00,
0x03,
0x00,
0x0b,
0x00,
0x05,
0x00,
0x07,
0x00,
0x02,
0x00,
0x03,
0x00,
0x0c,
0x00,
0xfd,
0xff,
0x11,
0x00,
0x02,
0x00,
0xfa,
0xff,
0xf8,
0xff,
0xf2,
0xff,
0x10,
0x00,
0xf0,
0xff,
0x05,
0x00,
0xff,
0xff,
0xf8,
0xff,
0x03,
0x00,
0xff,
0xff,
0x00,
0x00,
0x10,
0x00,
0xdf,
0xff,
0x08,
0x00,
0x02,
0x00,
0xfa,
0xff,
0xf9,
0xff,
0xf9,
0xff,
0xfd,
0xff,
0x16,
0x00,
0x04,
0x00,
0xfe,
0xff,
0x00,
0x00,
0x0a,
0x00,
0xfb,
0xff,
0x02,
0x00,
0xfe,
0xff,
0x05,
0x00,
0x13,
0x00,
0xfd,
0xff,
0xfd,
0xff,
0xfe,
0xff,
0x04,
0x00,
0x0d,
0x00,
0xfc,
0xff,
0xf8,
0xff,
0xfb,
0xff,
0x00,
0x00,
0x02,
0x00,
0xfc,
0xff,
0xfc,
0xff,
0xfa,
0xff,
0x03,
0x00,
0xff,
0xff,
0x13,
0x00,
0xfd,
0xff,
0xf8,
0xff,
0x18,
0x00,
0x03,
0x00,
0x09,
0x00,
0x04,
0x00,
0xef,
0xff,
0xf0,
0xff,
0xfa,
0xff,
0xec,
0xff,
0xff,
0xff,
0x01,
0x00,
0x08,
0x00,
0xfa,
0xff,
0xfd,
0xff,
0x09,
0x00,
0xfd,
0xff,
0xfd,
0xff,
0x08,
0x00,
0xf6,
0xff,
0x01,
0x00,
0x08,
0x00,
0x01,
0x00,
0xfd,
0xff,
0xf8,
0xff,
0xf8,
0xff,
0x05,
0x00,
0x0e,
0x00,
0x00,
0x00,
0x01,
0x00,
0x0c,
0x00,
0xfe,
0xff,
0xff,
0xff,
0xf9,
0xff,
0xfd,
0xff,
0x04,
0x00,
0x02,
0x00,
0x0a,
0x00,
0x15,
0x00,
0x00,
0x00,
0x14,
0x00,
0xf3,
0xff,
0xf0,
0xff,
0xfe,
0xff,
0xe6,
0xff,
0x10,
0x00,
0x14,
0x00,
0x04,
0x00,
0x03,
0x00,
0x03,
0x00,
0xfa,
0xff,
0x01,
0x00,
0xfb,
0xff,
0x02,
0x00,
0xef,
0xff,
0x09,
0x00,
0xf6,
0xff,
0xfe,
0xff,
0xfc,
0xff,
0xfc,
0xff,
0xf7,
0xff,
0x05,
0x00,
0x05,
0x00,
0xf4,
0xff,
0xf7,
0xff,
0xfe,
0xff,
0xfc,
0xff,
0xf7,
0xff,
0x06,
0x00,
0x0b,
0x00,
0xf1,
0xff,
0x08,
0x00,
0xfd,
0xff,
0x03,
0x00,
0x0b,
0x00,
0x01,
0x00,
0x03,
0x00,
0xf6,
0xff,
0x05,
0x00,
0x09,
0x00,
0x0f,
0x00,
0xef,
0xff,
0xf0,
0xff,
0x05,
0x00,
0xf8,
0xff,
0x06,
0x00,
0x0b,
0x00,
0x0a,
0x00,
0x04,
0x00,
0x01,
0x00,
0xfd,
0xff,
0xfd,
0xff,
0xf8,
0xff,
0x04,
0x00,
0xf1,
0xff,
0x07,
0x00,
0x02,
0x00,
0x04,
0x00,
0x01,
0x00,
0xec,
0xff,
0x03,
0x00,
0x03,
0x00,
0xf7,
0xff,
0xfc,
0xff,
0xf7,
0xff,
0x04,
0x00,
0x0e,
0x00,
0x09,
0x00,
0x06,
0x00,
0x12,
0x00,
0x0b,
0x00,
0x0d,
0x00,
0xfe,
0xff,
0xf5,
0xff,
0x00,
0x00,
0x04,
0x00,
0xfc,
0xff,
0xf3,
0xff,
0xfe,
0xff,
0x06,
0x00,
0x06,
0x00,
0xf1,
0xff,
0xf7,
0xff,
0x08,
0x00,
0xf8,
0xff,
0x01,
0x00,
0xf8,
0xff,
0x0d,
0x00,
0xfd,
0xff,
0xfd,
0xff,
0xfb,
0xff,
0xfd,
0xff,
0x01,
0x00,
0xfd,
0xff,
0xfe,
0xff,
0x08,
0x00,
0x00,
0x00,
0x0f,
0x00,
0x13,
0x00,
0x05,
0x00,
0xde,
0xff,
0x05,
0x00,
0xfb,
0xff,
0xeb,
0xff,
0x01,
0x00,
0x02,
0x00,
0x02,
0x00,
0x06,
0x00,
0xfe,
0xff,
0x01,
0x00,
0x08,
0x00,
0x12,
0x00,
0xee,
0xff,
0x00,
0x00,
0x0c,
0x00,
0xf9,
0xff,
0xff,
0xff,
0x03,
0x00,
0x0a,
0x00,
0x03,
0x00,
0x06,
0x00,
0x02,
0x00,
0xf7,
0xff,
0xec,
0xff,
0xfc,
0xff,
0x04,
0x00,
0x08,
0x00,
0xfc,
0xff,
0xfb,
0xff,
0x08,
0x00,
0x0b,
0x00,
0x03,
0x00,
0xf4,
0xff,
0x05,
0x00,
0xfb,
0xff,
0x04,
0x00,
0x01,
0x00,
0xfa,
0xff,
0x00,
0x00,
0x00,
0x00,
0x02,
0x00,
0xf7,
0xff,
0xff,
0xff,
0xf8,
0xff,
0x01,
0x00,
0x0c,
0x00,
0x01,
0x00,
0x01,
0x00,
0x04,
0x00,
0xfa,
0xff,
0x01,
0x00,
0xfb,
0xff,
0xfd,
0xff,
0xf7,
0xff,
0xfa,
0xff,
0x16,
0x00,
0x08,
0x00,
0x12,
0x00,
0x01,
0x00,
0x02,
0x00,
0xfc,
0xff,
0x04,
0x00,
0xff,
0xff,
0xf8,
0xff,
0xf0,
0xff,
0x00,
0x00,
0xfd,
0xff,
0x03,
0x00,
0x17,
0x00,
0x06,
0x00,
0xf6,
0xff,
0x02,
0x00,
0xf8,
0xff,
0xff,
0xff,
0xf6,
0xff,
0x01,
0x00,
0xeb,
0xff,
0x0b,
0x00,
0x03,
0x00,
0x06,
0x00,
0x01,
0x00,
0x0b,
0x00,
0xf9,
0xff,
0xf4,
0xff,
0x00,
0x00,
0x07,
0x00,
0xfd,
0xff,
0xfc,
0xff,
0xfe,
0xff,
0xfd,
0xff,
0xfe,
0xff,
0xfc,
0xff,
0x14,
0x00,
0xff,
0xff,
0xf7,
0xff,
0x05,
0x00,
0x05,
0x00,
0xf7,
0xff,
0x02,
0x00,
0xf8,
0xff,
0x04,
0x00,
0xfa,
0xff,
0xf2,
0xff,
0xfc,
0xff,
0xfc,
0xff,
0xff,
0xff,
0x08,
0x00,
0xff,
0xff,
0x06,
0x00,
0x01,
0x00,
0xfb,
0xff,
0x0b,
0x00,
0x13,
0x00,
0xfa,
0xff,
0x02,
0x00,
0xff,
0xff,
0xfc,
0xff,
0x11,
0x00,
0xfd,
0xff,
0xfd,
0xff,
0xf8,
0xff,
0x01,
0x00,
0x00,
0x00,
0x00,
0x00,
0x04,
0x00,
0x0f,
0x00,
0xfc,
0xff,
0xfc,
0xff,
0xf9,
0xff,
0x09,
0x00,
0x04,
0x00,
0x01,
0x00,
0xfd,
0xff,
0xfe,
0xff,
0x03,
0x00,
0x01,
0x00,
0x04,
0x00,
0x04,
0x00,
0x07,
0x00,
0xfc,
0xff,
0xfc,
0xff,
0xfe,
0xff,
0x04,
0x00,
0xf8,
0xff,
0xf5,
0xff,
0xfc,
0xff,
0x12,
0x00,
0xff,
0xff,
0xd2,
0xff,
0x00,
0x00,
0xff,
0xff,
0x17,
0x00,
0x12,
0x00,
0x0e,
0x00,
0x06,
0x00,
0xf8,
0xff,
0x06,
0x00,
0xf9,
0xff,
0xf3,
0xff,
0x06,
0x00,
0xf6,
0xff,
0x01,
0x00,
0x01,
0x00,
0x07,
0x00,
0x0b,
0x00,
0xfd,
0xff,
0xfd,
0xff,
0xf3,
0xff,
0x05,
0x00,
0xfc,
0xff,
0x09,
0x00,
0xfe,
0xff,
0xf9,
0xff,
0x00,
0x00,
0x00,
0x00,
0x05,
0x00,
0xfb,
0xff,
0xf6,
0xff,
0xfa,
0xff,
0x03,
0x00,
0x0a,
0x00,
0xfc,
0xff,
0x0a,
0x00,
0x05,
0x00,
0x0a,
0x00,
0xfa,
0xff,
0x06,
0x00,
0x05,
0x00,
0x04,
0x00,
0xfa,
0xff,
0xff,
0xff,
0x00,
0x00,
0xee,
0xff,
0x09,
0x00,
0x01,
0x00,
0x0c,
0x00,
0x01,
0x00,
0xff,
0xff,
0x03,
0x00,
0x0b,
0x00,
0x08,
0x00,
0x0b,
0x00,
0xfd,
0xff,
0xf8,
0xff,
0xee,
0xff,
0xf8,
0xff,
0xf7,
0xff,
0xf9,
0xff,
0xff,
0xff,
0xf7,
0xff,
0x08,
0x00,
0xfa,
0xff,
0xf7,
0xff,
0x07,
0x00,
0x11,
0x00,
0x05,
0x00,
0x06,
0x00,
0xfc,
0xff,
0xfe,
0xff,
0x00,
0x00,
0xfb,
0xff,
0xf8,
0xff,
0xff,
0xff,
0x00,
0x00,
0x03,
0x00,
0x09,
0x00,
0x08,
0x00,
0xff,
0xff,
0x03,
0x00,
0xfc,
0xff,
0x03,
0x00,
0xfc,
0xff,
0xfc,
0xff,
0x08,
0x00,
0xfe,
0xff,
0x00,
0x00,
0xf2,
0xff,
0x05,
0x00,
0xfc,
0xff,
0x05,
0x00,
0xf9,
0xff,
0x01,
0x00,
0x01,
0x00,
0xf5,
0xff,
0x00,
0x00,
0x03,
0x00,
0xe5,
0xff,
0xfa,
0xff,
0xf3,
0xff,
0x1c,
0x00,
0x0c,
0x00,
0xf1,
0xff,
0x17,
0x00,
0x02,
0x00,
0xfe,
0xff,
0x07,
0x00,
0xfc,
0xff,
0x07,
0x00,
0xec,
0xff,
0xf5,
0xff,
0xfd,
0xff,
0xfa,
0xff,
0x0b,
0x00,
0xfa,
0xff,
0xf0,
0xff,
0x0f,
0x00,
0x0c,
0x00,
0x29,
0x00,
0x09,
0x00,
0xfc,
0xff,
0x01,
0x00,
0xf3,
0xff,
0xf0,
0xff,
0xf9,
0xff,
0xff,
0xff,
0x0e,
0x00,
0xff,
0xff,
0x02,
0x00,
0x07,
0x00,
0xf5,
0xff,
0xf9,
0xff,
0xf8,
0xff,
0x00,
0x00,
0xf9,
0xff,
0xfd,
0xff,
0x07,
0x00,
0x0d,
0x00,
0x04,
0x00,
0x00,
0x00,
0x02,
0x00,
0xf4,
0xff,
0xff,
0xff,
0x08,
0x00,
0x00,
0x00,
0xfd,
0xff,
0x07,
0x00,
0x01,
0x00,
0x00,
0x00,
0x00,
0x00,
0x09,
0x00,
0xf5,
0xff,
0xfe,
0xff,
0x02,
0x00,
0x02,
0x00,
0xff,
0xff,
0xfa,
0xff,
0xeb,
0xff,
0xfe,
0xff,
0x00,
0x00,
0xfa,
0xff,
0x09,
0x00,
0xfd,
0xff,
0x11,
0x00,
0x0c,
0x00,
0x04,
0x00,
0x00,
0x00,
0x00,
0x00,
0xfd,
0xff,
0xff,
0xff,
0xfc,
0xff,
0x07,
0x00,
0xf2,
0xff,
0x0e,
0x00,
0x07,
0x00,
0x02,
0x00,
0x18,
0x00,
0x00,
0x00,
0x01,
0x00,
0xf1,
0xff,
0xf5,
0xff,
0xfd,
0xff,
0xf2,
0xff,
0xff,
0xff,
0xfa,
0xff,
0x09,
0x00,
0x07,
0x00,
0x01,
0x00,
0x05,
0x00,
0xfc,
0xff,
0x08,
0x00,
0xfe,
0xff,
0xed,
0xff,
0xfa,
0xff,
0xf5,
0xff,
0xf2,
0xff,
0xff,
0xff,
0x05,
0x00,
0x0e,
0x00,
0xf5,
0xff,
0x16,
0x00,
0xff,
0xff,
0x0b,
0x00,
0x08,
0x00,
0x01,
0x00,
0xfa,
0xff,
0xff,
0xff,
0xf9,
0xff,
0xfa,
0xff,
0x01,
0x00,
0xfa,
0xff,
0xfb,
0xff,
0x10,
0x00,
0x0b,
0x00,
0xf6,
0xff,
0xfd,
0xff,
0xf5,
0xff,
0x04,
0x00,
0x07,
0x00,
0x10,
0x00,
0x13,
0x00,
0x16,
0x00,
0xf5,
0xff,
0x10,
0x00,
0xfc,
0xff,
0xfd,
0xff,
0x03,
0x00,
0xdb,
0xff,
0xf8,
0xff,
0x0a,
0x00,
0x04,
0x00,
0xff,
0xff,
0x0d,
0x00,
0xf3,
0xff,
0xff,
0xff,
0xfb,
0xff,
0xf7,
0xff,
0x08,
0x00,
0x00,
0x00,
0xf5,
0xff,
0x06,
0x00,
0x02,
0x00,
0xff,
0xff,
0xff,
0xff,
0x02,
0x00,
0x00,
0x00,
0xfe,
0xff,
0xfe,
0xff,
0x05,
0x00,
0x01,
0x00,
0x04,
0x00,
0x00,
0x00,
0xf7,
0xff,
0x03,
0x00,
0xfd,
0xff,
0xf0,
0xff,
0x08,
0x00,
0x05,
0x00,
0x00,
0x00,
0xfc,
0xff,
0xf2,
0xff,
0x01,
0x00,
0x17,
0x00,
0x19,
0x00,
0x02,
0x00,
0xee,
0xff,
0xfc,
0xff,
0x02,
0x00,
0x06,
0x00,
0xfb,
0xff,
0xfa,
0xff,
0x02,
0x00,
0xf1,
0xff,
0xe7,
0xff,
0x0c,
0x00,
0x0d,
0x00,
0xfd,
0xff,
0x02,
0x00,
0x03,
0x00,
0xf8,
0xff,
0xf9,
0xff,
0x00,
0x00,
0x0e,
0x00,
0x14,
0x00,
0x05,
0x00,
0x12,
0x00,
0x03,
0x00,
0xfd,
0xff,
0x04,
0x00,
0xfa,
0xff,
0xff,
0xff,
0x02,
0x00,
0x0d,
0x00,
0x00,
0x00,
0xf9,
0xff,
0xe3,
0xff,
0xf4,
0xff,
0x04,
0x00,
0x03,
0x00,
0x07,
0x00,
0xe8,
0xff,
0xf2,
0xff,
0xfd,
0xff,
0xf6,
0xff,
0x13,
0x00,
0x04,
0x00,
0xf6,
0xff,
0xfe,
0xff,
0x0c,
0x00,
0xfb,
0xff,
0xfb,
0xff,
0x03,
0x00,
0x08,
0x00,
0x04,
0x00,
0x06,
0x00,
0x12,
0x00,
0x0a,
0x00,
0x00,
0x00,
0xfd,
0xff,
0x04,
0x00,
0xfe,
0xff,
0xf3,
0xff,
0x04,
0x00,
0x01,
0x00,
0xff,
0xff,
0xfb,
0xff,
0x08,
0x00,
0xfd,
0xff,
0x00,
0x00,
0xfa,
0xff,
0x01,
0x00,
0x05,
0x00,
0xfd,
0xff,
0x0f,
0x00,
0x08,
0x00,
0xfb,
0xff,
0x0a,
0x00,
0x0d,
0x00,
0xfb,
0xff,
0xf7,
0xff,
0x00,
0x00,
0x07,
0x00,
0xfc,
0xff,
0x00,
0x00,
0xe6,
0xff,
0xfa,
0xff,
0xf7,
0xff,
0x0f,
0x00,
0x00,
0x00,
0x01,
0x00,
0xe6,
0xff,
0x02,
0x00,
0x03,
0x00,
0x09,
0x00,
0xf5,
0xff,
0x01,
0x00,
0x05,
0x00,
0x03,
0x00,
0xff,
0xff,
0x06,
0x00,
0x0a,
0x00,
0x04,
0x00,
0xfd,
0xff,
0x01,
0x00,
0xff,
0xff,
0x0b,
0x00,
0x00,
0x00,
0xfb,
0xff,
0xfd,
0xff,
0xf2,
0xff,
0x07,
0x00,
0xee,
0xff,
0x02,
0x00,
0x06,
0x00,
0xfe,
0xff,
0x06,
0x00,
0xee,
0xff,
0x10,
0x00,
0xfd,
0xff,
0x12,
0x00,
0xf6,
0xff,
0xfe,
0xff,
0x07,
0x00,
0xee,
0xff,
0x09,
0x00,
0x03,
0x00,
0x0b,
0x00,
0x28,
0x00,
0xf8,
0xff,
0xfe,
0xff,
0x05,
0x00,
0xf7,
0xff,
0x00,
0x00,
0xfe,
0xff,
0xf8,
0xff,
0xf0,
0xff,
0x0d,
0x00,
0x03,
0x00,
0xfa,
0xff,
0xf9,
0xff,
0x0b,
0x00,
0xfd,
0xff,
0xfc,
0xff,
0xfa,
0xff,
0x02,
0x00,
0x11,
0x00,
0x0c,
0x00,
0xf4,
0xff,
0xfa,
0xff,
0x03,
0x00,
0xfe,
0xff,
0xf5,
0xff,
0x08,
0x00,
0x00,
0x00,
0x0e,
0x00,
0xf4,
0xff,
0xff,
0xff,
0xfe,
0xff,
0x02,
0x00,
0x02,
0x00,
0x02,
0x00,
0x01,
0x00,
0xfa,
0xff,
0xf9,
0xff,
0xfe,
0xff,
0x01,
0x00,
0x04,
0x00,
0xfd,
0xff,
0xf2,
0xff,
0x02,
0x00,
0xfc,
0xff,
0x14,
0x00,
0x0d,
0x00,
0x01,
0x00,
0x01,
0x00,
0xfe,
0xff,
0xfa,
0xff,
0xf8,
0xff,
0x02,
0x00,
0xfe,
0xff,
0xf4,
0xff,
0x01,
0x00,
0x0b,
0x00,
0xfe,
0xff,
0xfe,
0xff,
0xfe,
0xff,
0x07,
0x00,
0x00,
0x00,
0x00,
0x00,
0xf0,
0xff,
0x08,
0x00,
0xf9,
0xff,
0x08,
0x00,
0xfa,
0xff,
0xff,
0xff,
0x11,
0x00,
0x04,
0x00,
0xf9,
0xff,
0x06,
0x00,
0xf6,
0xff,
0x0c,
0x00,
0x00,
0x00,
0x04,
0x00,
0xf4,
0xff,
0xf5,
0xff,
0xf7,
0xff,
0xf6,
0xff,
0x03,
0x00,
0xfb,
0xff,
0x03,
0x00,
0xfe,
0xff,
0xff,
0xff,
0x0c,
0x00,
0x03,
0x00,
0x07,
0x00,
0x09,
0x00,
0x0c,
0x00,
0xfb,
0xff,
0x0a,
0x00,
0xfc,
0xff,
0xed,
0xff,
0xfd,
0xff,
0x01,
0x00,
0x04,
0x00,
0x01,
0x00,
0x14,
0x00,
0xed,
0xff,
0x05,
0x00,
0x05,
0x00,
0xfa,
0xff,
0xfe,
0xff,
0xfe,
0xff,
0x01,
0x00,
0xff,
0xff,
0x0d,
0x00,
0x06,
0x00,
0x02,
0x00,
0x0d,
0x00,
0xfd,
0xff,
0xff,
0xff,
0xfb,
0xff,
0xfa,
0xff,
0xfe,
0xff,
0xfc,
0xff,
0x02,
0x00,
0xf9,
0xff,
0xfb,
0xff,
0xfd,
0xff,
0x08,
0x00,
0xf0,
0xff,
0x00,
0x00,
0x09,
0x00,
0x02,
0x00,
0xfb,
0xff,
0x04,
0x00,
0xf8,
0xff,
0xfd,
0xff,
0xf0,
0xff,
0x04,
0x00,
0x04,
0x00,
0x0c,
0x00,
0x03,
0x00,
0xf8,
0xff,
0x0b,
0x00,
0x14,
0x00,
0x0b,
0x00,
0x11,
0x00,
0x0d,
0x00,
0x08,
0x00,
0x05,
0x00,
0xfc,
0xff,
0xf9,
0xff,
0xff,
0xff,
0x02,
0x00,
0xf6,
0xff,
0xf5,
0xff,
0xe0,
0xff,
0xfe,
0xff,
0x01,
0x00,
0xf9,
0xff,
0x03,
0x00,
0x03,
0x00,
0x07,
0x00,
0x00,
0x00,
0xfe,
0xff,
0xfa,
0xff,
0x08,
0x00,
0x01,
0x00,
0xf2,
0xff,
0x06,
0x00,
0x01,
0x00,
0xf7,
0xff,
0x01,
0x00,
0x04,
0x00,
0xfc,
0xff,
0x01,
0x00,
0xff,
0xff,
0xff,
0xff,
0x04,
0x00,
0xf7,
0xff,
0xe9,
0xff,
0xff,
0xff,
0x0a,
0x00,
0xf4,
0xff,
0x07,
0x00,
0x0a,
0x00,
0x02,
0x00,
0x03,
0x00,
0x05,
0x00,
0x07,
0x00,
0xfe,
0xff,
0x02,
0x00,
0xf8,
0xff,
0x01,
0x00,
0x0a,
0x00,
0x01,
0x00,
0xf9,
0xff,
0xf9,
0xff,
0x08,
0x00,
0x07,
0x00,
0x03,
0x00,
0x03,
0x00,
0xf4,
0xff,
0xfd,
0xff,
0x04,
0x00,
0x06,
0x00,
0xff,
0xff,
0xfd,
0xff,
0xf7,
0xff,
0xfd,
0xff,
0x06,
0x00,
0x13,
0x00,
0xfc,
0xff,
0xfb,
0xff,
0xfc,
0xff,
0x09,
0x00,
0xf7,
0xff,
0xf8,
0xff,
0x04,
0x00,
0xf5,
0xff,
0x09,
0x00,
0x00,
0x00,
0x00,
0x00,
0x07,
0x00,
0xec,
0xff,
0xf9,
0xff,
0xfb,
0xff,
0x0b,
0x00,
0x04,
0x00,
0x05,
0x00,
0x10,
0x00,
0x06,
0x00,
0x05,
0x00,
0xf0,
0xff,
0xfd,
0xff,
0xf0,
0xff,
0x05,
0x00,
0x12,
0x00,
0x00,
0x00,
0xfe,
0xff,
0xfe,
0xff,
0xfd,
0xff,
0xfa,
0xff,
0xe4,
0xff,
0xf6,
0xff,
0xef,
0xff,
0xf4,
0xff,
0xf0,
0xff,
0x21,
0x00,
0x03,
0x00,
0x02,
0x00,
0xff,
0xff,
0x0b,
0x00,
0x1f,
0x00,
0xfc,
0xff,
0x11,
0x00,
0x03,
0x00,
0xff,
0xff,
0x03,
0x00,
0x11,
0x00,
0x03,
0x00,
0xf4,
0xff,
0x0a,
0x00,
0x03,
0x00,
0xfd,
0xff,
0xf8,
0xff,
0x06,
0x00,
0xf6,
0xff,
0xee,
0xff,
0xfe,
0xff,
0x03,
0x00,
0x08,
0x00,
0xfb,
0xff,
0xec,
0xff,
0x00,
0x00,
0x03,
0x00,
0xfe,
0xff,
0xf8,
0xff,
0x03,
0x00,
0x00,
0x00,
0xff,
0xff,
0x03,
0x00,
0x0a,
0x00,
0x06,
0x00,
0x00,
0x00,
0x03,
0x00,
0x0b,
0x00,
0x00,
0x00,
0xff,
0xff,
0x03,
0x00,
0x04,
0x00,
0x02,
0x00,
0xf3,
0xff,
0xf6,
0xff,
0x04,
0x00,
0x08,
0x00,
0xf2,
0xff,
0xfe,
0xff,
0x11,
0x00,
0x03,
0x00,
0xfa,
0xff,
0x02,
0x00,
0x06,
0x00,
0x01,
0x00,
0x12,
0x00,
0xff,
0xff,
0xfc,
0xff,
0xe3,
0xff,
0x01,
0x00,
0x03,
0x00,
0x0e,
0x00,
0xf4,
0xff,
0xf6,
0xff,
0xf7,
0xff,
0x0b,
0x00,
0x01,
0x00,
0xf5,
0xff,
0xfd,
0xff,
0x0d,
0x00,
0x11,
0x00,
0xf0,
0xff,
0x06,
0x00,
0xfc,
0xff,
0xf6,
0xff,
0x04,
0x00,
0x04,
0x00,
0x07,
0x00,
0x09,
0x00,
0x05,
0x00,
0x06,
0x00,
0xfa,
0xff,
0x01,
0x00,
0xf9,
0xff,
0xfd,
0xff,
0x06,
0x00,
0xff,
0xff,
0xf9,
0xff,
0xff,
0xff,
0xfc,
0xff,
0xf8,
0xff,
0x04,
0x00,
0xf9,
0xff,
0x08,
0x00,
0xf9,
0xff,
0xfa,
0xff,
0x05,
0x00,
0x05,
0x00,
0x04,
0x00,
0x05,
0x00,
0x06,
0x00,
0x05,
0x00,
0xfe,
0xff,
0xff,
0xff,
0xfb,
0xff,
0x02,
0x00,
0x09,
0x00,
0x09,
0x00,
0xf5,
0xff,
0xfe,
0xff,
0xf8,
0xff,
0x07,
0x00,
0x01,
0x00,
0xed,
0xff,
0x0e,
0x00,
0x01,
0x00,
0xf8,
0xff,
0xfc,
0xff,
0x10,
0x00,
0x06,
0x00,
0x08,
0x00,
0x04,
0x00,
0xfd,
0xff,
0xf8,
0xff,
0x05,
0x00,
0xf3,
0xff,
0x06,
0x00,
0x00,
0x00,
0xf6,
0xff,
0x01,
0x00,
0x03,
0x00,
0xfd,
0xff,
0x0a,
0x00,
0xfa,
0xff,
0x00,
0x00,
0x0b,
0x00,
0x07,
0x00,
0x02,
0x00,
0xfe,
0xff,
0xfb,
0xff,
0xfc,
0xff,
0xf5,
0xff,
0x07,
0x00,
0x09,
0x00,
0x0c,
0x00,
0xfe,
0xff,
0x05,
0x00,
0xf5,
0xff,
0xee,
0xff,
0x08,
0x00,
0xfb,
0xff,
0x03,
0x00,
0x00,
0x00,
0xf9,
0xff,
0x0a,
0x00,
0xfa,
0xff,
0xfe,
0xff,
0x07,
0x00,
0xfc,
0xff,
0x0a,
0x00,
0xec,
0xff,
0x06,
0x00,
0x04,
0x00,
0xfb,
0xff,
0xfb,
0xff,
0x05,
0x00,
0x05,
0x00,
0xfe,
0xff,
0x0f,
0x00,
0xf5,
0xff,
0xf1,
0xff,
0x0b,
0x00,
0xf5,
0xff,
0xfd,
0xff,
0x00,
0x00,
0x08,
0x00,
0x0c,
0x00,
0xfe,
0xff,
0x01,
0x00,
0x01,
0x00,
0xfd,
0xff,
0xff,
0xff,
0x01,
0x00,
0x02,
0x00,
0x09,
0x00,
0x08,
0x00,
0xfe,
0xff,
0xfa,
0xff,
0xfd,
0xff,
0xf9,
0xff,
0xf2,
0xff,
0x0b,
0x00,
0x01,
0x00,
0x0d,
0x00,
0xfc,
0xff,
0xff,
0xff,
0x03,
0x00,
0xf5,
0xff,
0x02,
0x00,
0xf2,
0xff,
0xfd,
0xff,
0xff,
0xff,
0xfc,
0xff,
0xfe,
0xff,
0x00,
0x00,
0x06,
0x00,
0x05,
0x00,
0x03,
0x00,
0xf4,
0xff,
0x01,
0x00,
0x04,
0x00,
0x02,
0x00,
0x01,
0x00,
0x07,
0x00,
0x08,
0x00,
0x09,
0x00,
0x09,
0x00,
0x07,
0x00,
0xfe,
0xff,
0x0b,
0x00,
0xfe,
0xff,
0xfe,
0xff,
0xf5,
0xff,
0x00,
0x00,
0xf7,
0xff,
0xfd,
0xff,
0x01,
0x00,
0x00,
0x00,
0xf8,
0xff,
0x09,
0x00,
0xf8,
0xff,
0xf5,
0xff,
0x00,
0x00,
0x02,
0x00,
0xfd,
0xff,
0xfc,
0xff,
0x09,
0x00,
0x02,
0x00,
0x03,
0x00,
0xfe,
0xff,
0x02,
0x00,
0x07,
0x00,
0x08,
0x00,
0xee,
0xff,
0xf3,
0xff,
0x0a,
0x00,
0x0a,
0x00,
0xf7,
0xff,
0xfd,
0xff,
0x09,
0x00,
0x0e,
0x00,
0x01,
0x00,
0xf7,
0xff,
0xf3,
0xff,
0x03,
0x00,
0x02,
0x00,
0x04,
0x00,
0x07,
0x00,
0x04,
0x00,
0x04,
0x00,
0xf8,
0xff,
0x0f,
0x00,
0xec,
0xff,
0xf7,
0xff,
0xfd,
0xff,
0xfc,
0xff,
0x11,
0x00,
0x05,
0x00,
0xfa,
0xff,
0x06,
0x00,
0x03,
0x00,
0x03,
0x00,
0x07,
0x00,
0xfa,
0xff,
0x0a,
0x00,
0x00,
0x00,
0xf3,
0xff,
0xf2,
0xff,
0x05,
0x00,
0x05,
0x00,
0x0b,
0x00,
0xf6,
0xff,
0x07,
0x00,
0xfb,
0xff,
0x12,
0x00,
0x01,
0x00,
0x17,
0x00,
0xea,
0xff,
0x1c,
0x00,
0xfc,
0xff,
0xfb,
0xff,
0x03,
0x00,
0xf4,
0xff,
0xf2,
0xff,
0xe8,
0xff,
0x10,
0x00,
0xf7,
0xff,
0xfb,
0xff,
0xfc,
0xff,
0xff,
0xff,
0x05,
0x00,
0xfc,
0xff,
0xfc,
0xff,
0xef,
0xff,
0x02,
0x00,
0x03,
0x00,
0x0b,
0x00,
0x06,
0x00,
0x01,
0x00,
0x02,
0x00,
0xfd,
0xff,
0xfa,
0xff,
0xfd,
0xff,
0x03,
0x00,
0xfd,
0xff,
0x00,
0x00,
0xf5,
0xff,
0xfa,
0xff,
0x06,
0x00,
0x06,
0x00,
0x0d,
0x00,
0x01,
0x00,
0x0b,
0x00,
0xff,
0xff,
0xff,
0xff,
0xff,
0xff,
0xfb,
0xff,
0x01,
0x00,
0x03,
0x00,
0x14,
0x00,
0x0e,
0x00,
0x21,
0x00,
0xfa,
0xff,
0x00,
0x00,
0x00,
0x00,
0xea,
0xff,
0x0a,
0x00,
0xde,
0xff,
0xf1,
0xff,
0xf5,
0xff,
0x03,
0x00,
0x04,
0x00,
0x03,
0x00,
0x14,
0x00,
0xfe,
0xff,
0xfc,
0xff,
0xf9,
0xff,
0x01,
0x00,
0x00,
0x00,
0xfc,
0xff,
0x01,
0x00,
0xfc,
0xff,
0x04,
0x00,
0x06,
0x00,
0x03,
0x00,
0xf7,
0xff,
0x00,
0x00,
0xff,
0xff,
0xfe,
0xff,
0xfb,
0xff,
0x06,
0x00,
0x01,
0x00,
0x06,
0x00,
0xfc,
0xff,
0x05,
0x00,
0xf1,
0xff,
0xfc,
0xff,
0xf7,
0xff,
0x07,
0x00,
0xfd,
0xff,
0x00,
0x00,
0xff,
0xff,
0x07,
0x00,
0x05,
0x00,
0x07,
0x00,
0x03,
0x00,
0xfe,
0xff,
0xff,
0xff,
0x03,
0x00,
0x03,
0x00,
0x00,
0x00,
0x04,
0x00,
0x00,
0x00,
0x0a,
0x00,
0xfb,
0xff,
0xfb,
0xff,
0x06,
0x00,
0xfd,
0xff,
0xff,
0xff,
0xf3,
0xff,
0x03,
0x00,
0xff,
0xff,
0xfb,
0xff,
0xfd,
0xff,
0x05,
0x00,
0x07,
0x00,
0x04,
0x00,
0xf4,
0xff,
0xfa,
0xff,
0x13,
0x00,
0xfe,
0xff,
0x01,
0x00,
0x01,
0x00,
0xfb,
0xff,
0x03,
0x00,
0xfd,
0xff,
0xfc,
0xff,
0x02,
0x00,
0x08,
0x00,
0xef,
0xff,
0xff,
0xff,
0xf8,
0xff,
0x06,
0x00,
0xf8,
0xff,
0xfc,
0xff,
0xfe,
0xff,
0x0a,
0x00,
0xfb,
0xff,
0x08,
0x00,
0x02,
0x00,
0x06,
0x00,
0xfc,
0xff,
0x06,
0x00,
0xfc,
0xff,
0x16,
0x00,
0x0e,
0x00,
0x19,
0x00,
0xff,
0xff,
0xf4,
0xff,
0x03,
0x00,
0x01,
0x00,
0xf2,
0xff,
0xf8,
0xff,
0xf8,
0xff,
0xf6,
0xff,
0x0e,
0x00,
0xf9,
0xff,
0xf7,
0xff,
0xfb,
0xff,
0x07,
0x00,
0x03,
0x00,
0x00,
0x00,
0xfd,
0xff,
0xfd,
0xff,
0xf7,
0xff,
0x05,
0x00,
0x01,
0x00,
0x03,
0x00,
0xfb,
0xff,
0xfb,
0xff,
0x04,
0x00,
0xfc,
0xff,
0x09,
0x00,
0x02,
0x00,
0xfd,
0xff,
0xf9,
0xff,
0x0d,
0x00,
0xfc,
0xff,
0xe8,
0xff,
0x03,
0x00,
0x0d,
0x00,
0x08,
0x00,
0xf4,
0xff,
0x13,
0x00,
0x01,
0x00,
0x03,
0x00,
0x03,
0x00,
0x08,
0x00,
0xf7,
0xff,
0xfb,
0xff,
0xfb,
0xff,
0xf9,
0xff,
0xfb,
0xff,
0x06,
0x00,
0xfb,
0xff,
0xf9,
0xff,
0x0b,
0x00,
0x05,
0x00,
0xfe,
0xff,
0x00,
0x00,
0x01,
0x00,
0x0d,
0x00,
0x06,
0x00,
0x02,
0x00,
0x03,
0x00,
0xfb,
0xff,
0xf2,
0xff,
0xff,
0xff,
0xfd,
0xff,
0x02,
0x00,
0xe5,
0xff,
0x09,
0x00,
0x08,
0x00,
0xf2,
0xff,
0xef,
0xff,
0x00,
0x00,
0x03,
0x00,
0x04,
0x00,
0x04,
0x00,
0x01,
0x00,
0x0d,
0x00,
0x07,
0x00,
0x0d,
0x00,
0xe0,
0xff,
0xf4,
0xff,
0xfe,
0xff,
0x04,
0x00,
0x04,
0x00,
0xf1,
0xff,
0xfa,
0xff,
0xea,
0xff,
0x16,
0x00,
0x1f,
0x00,
0xff,
0xff,
0x01,
0x00,
0x09,
0x00,
0x07,
0x00,
0xff,
0xff,
0x0f,
0x00,
0xfd,
0xff,
0x0e,
0x00,
0x01,
0x00,
0x00,
0x00,
0xfb,
0xff,
0xf6,
0xff,
0x05,
0x00,
0xf9,
0xff,
0xfc,
0xff,
0xff,
0xff,
0xfb,
0xff,
0x01,
0x00,
0x01,
0x00,
0x05,
0x00,
0x04,
0x00,
0x06,
0x00,
0x01,
0x00,
0x04,
0x00,
0x15,
0x00,
0x0b,
0x00,
0x12,
0x00,
0xfe,
0xff,
0xfe,
0xff,
0x12,
0x00,
0xfa,
0xff,
0xfc,
0xff,
0xf6,
0xff,
0xef,
0xff,
0xfd,
0xff,
0xfd,
0xff,
0xe9,
0xff,
0xfe,
0xff,
0xfa,
0xff,
0x06,
0x00,
0x06,
0x00,
0xf6,
0xff,
0xf3,
0xff,
0x00,
0x00,
0x09,
0x00,
0x00,
0x00,
0x09,
0x00,
0x0a,
0x00,
0x02,
0x00,
0xe9,
0xff,
0xfe,
0xff,
0x08,
0x00,
0x05,
0x00,
0x02,
0x00,
0xf7,
0xff,
0x00,
0x00,
0x02,
0x00,
0x03,
0x00,
0x02,
0x00,
0x04,
0x00,
0xfe,
0xff,
0xfa,
0xff,
0x0a,
0x00,
0x0d,
0x00,
0xfd,
0xff,
0x09,
0x00,
0x05,
0x00,
0xf8,
0xff,
0xf3,
0xff,
0xfc,
0xff,
0x0c,
0x00,
0x1b,
0x00,
0xfe,
0xff,
0x07,
0x00,
0x01,
0x00,
0xf1,
0xff,
0x0a,
0x00,
0xf2,
0xff,
0xf9,
0xff,
0xfa,
0xff,
0x02,
0x00,
0xf1,
0xff,
0xff,
0xff,
0x07,
0x00,
0xf8,
0xff,
0x02,
0x00,
0x01,
0x00,
0xf7,
0xff,
0xff,
0xff,
0x00,
0x00,
0x07,
0x00,
0x0d,
0x00,
0x02,
0x00,
0xee,
0xff,
0xfe,
0xff,
0xfa,
0xff,
0x06,
0x00,
0x09,
0x00,
0xff,
0xff,
0x0e,
0x00,
0xfd,
0xff,
0xf7,
0xff,
0xfb,
0xff,
0xf9,
0xff,
0x18,
0x00,
0x0c,
0x00,
0xf8,
0xff,
0xfb,
0xff,
0xfc,
0xff,
0xfe,
0xff,
0xfb,
0xff,
0xfe,
0xff,
0xff,
0xff,
0xe6,
0xff,
0x06,
0x00,
0x04,
0x00,
0x07,
0x00,
0x0b,
0x00,
0x05,
0x00,
0xfe,
0xff,
0x02,
0x00,
0x11,
0x00,
0xf8,
0xff,
0x02,
0x00,
0x08,
0x00,
0xf4,
0xff,
0x05,
0x00,
0xfb,
0xff,
0x06,
0x00,
0xfa,
0xff,
0xfe,
0xff,
0x05,
0x00,
0xfd,
0xff,
0xf7,
0xff,
0xfe,
0xff,
0x01,
0x00,
0xff,
0xff,
0xfe,
0xff,
0x09,
0x00,
0x15,
0x00,
0xf1,
0xff,
0xf2,
0xff,
0xfb,
0xff,
0xff,
0xff,
0x0c,
0x00,
0x02,
0x00,
0xfe,
0xff,
0x00,
0x00,
0xf9,
0xff,
0x04,
0x00,
0x01,
0x00,
0xf5,
0xff,
0x01,
0x00,
0x02,
0x00,
0x02,
0x00,
0x0a,
0x00,
0xfc,
0xff,
0xfe,
0xff,
0x05,
0x00,
0x09,
0x00,
0x05,
0x00,
0x05,
0x00,
0x06,
0x00,
0xfa,
0xff,
0xef,
0xff,
0xfb,
0xff,
0x04,
0x00,
0x02,
0x00,
0xfc,
0xff,
0x0a,
0x00,
0xfc,
0xff,
0xfc,
0xff,
0x00,
0x00,
0xf7,
0xff,
0x07,
0x00,
0xfd,
0xff,
0xfa,
0xff,
0x0e,
0x00,
0xf7,
0xff,
0x03,
0x00,
0x08,
0x00,
0xfb,
0xff,
0xfd,
0xff,
0xfe,
0xff,
0x04,
0x00,
0xff,
0xff,
0xf4,
0xff,
0xf6,
0xff,
0xfd,
0xff,
0x07,
0x00,
0x00,
0x00,
0xef,
0xff,
0xfd,
0xff,
0x0b,
0x00,
0x08,
0x00,
0x0c,
0x00,
0x10,
0x00,
0xf8,
0xff,
0xfe,
0xff,
0x0e,
0x00,
0xf9,
0xff,
0x00,
0x00,
0x13,
0x00,
0x09,
0x00,
0x01,
0x00,
0xf5,
0xff,
0xfe,
0xff,
0xfb,
0xff,
0xff,
0xff,
0xee,
0xff,
0x07,
0x00,
0x04,
0x00,
0xfa,
0xff,
0xff,
0xff,
0xf6,
0xff,
0x0b,
0x00,
0xfc,
0xff,
0xf9,
0xff,
0x00,
0x00,
0x06,
0x00,
0x02,
0x00,
0x04,
0x00,
0xfc,
0xff,
0x09,
0x00,
0xf8,
0xff,
0x04,
0x00,
0xf9,
0xff,
0xfb,
0xff,
0x01,
0x00,
0x0a,
0x00,
0x03,
0x00,
0x01,
0x00,
0xfd,
0xff,
0x08,
0x00,
0x07,
0x00,
0xf9,
0xff,
0xff,
0xff,
0xfe,
0xff,
0xfd,
0xff,
0xfe,
0xff,
0x06,
0x00,
0x02,
0x00,
0xfe,
0xff,
0x02,
0x00,
0xff,
0xff,
0xf9,
0xff,
0xf8,
0xff,
0xfd,
0xff,
0x02,
0x00,
0x18,
0x00,
0xee,
0xff,
0x01,
0x00,
0x09,
0x00,
0xf8,
0xff,
0xfe,
0xff,
0xf6,
0xff,
0xf9,
0xff,
0xfe,
0xff,
0x13,
0x00,
0x01,
0x00,
0xf0,
0xff,
0x12,
0x00,
0x04,
0x00,
0xfc,
0xff,
0x01,
0x00,
0xf8,
0xff,
0x00,
0x00,
0xfd,
0xff,
0x02,
0x00,
0xfe,
0xff,
0x0e,
0x00,
0xf1,
0xff,
0x06,
0x00,
0x05,
0x00,
0xf4,
0xff,
0x06,
0x00,
0xfd,
0xff,
0x0d,
0x00,
0x02,
0x00,
0xfd,
0xff,
0xfc,
0xff,
0xfb,
0xff,
0xfe,
0xff,
0x02,
0x00,
0x03,
0x00,
0x0b,
0x00,
0xfd,
0xff,
0x01,
0x00,
0x0a,
0x00,
0xf8,
0xff,
0x00,
0x00,
0xf8,
0xff,
0x0b,
0x00,
0xfc,
0xff,
0x08,
0x00,
0x0c,
0x00,
0xf8,
0xff,
0xfc,
0xff,
0x04,
0x00,
0xf4,
0xff,
0x05,
0x00,
0x00,
0x00,
0xfe,
0xff,
0x0d,
0x00,
0xfd,
0xff,
0xfa,
0xff,
0xfb,
0xff,
0xfc,
0xff,
0x09,
0x00,
0xfe,
0xff,
0x03,
0x00,
0xfd,
0xff,
0x06,
0x00,
0x08,
0x00,
0x01,
0x00,
0x09,
0x00,
0xf3,
0xff,
0xfb,
0xff,
0xfd,
0xff,
0x0e,
0x00,
0xfc,
0xff,
0xfd,
0xff,
0xf7,
0xff,
0x02,
0x00,
0x06,
0x00,
0xfb,
0xff,
0x02,
0x00,
0x04,
0x00,
0x04,
0x00,
0x05,
0x00,
0x03,
0x00,
0x00,
0x00,
0xfd,
0xff,
0xfa,
0xff,
0xf5,
0xff,
0x02,
0x00,
0xfd,
0xff,
0x00,
0x00,
0xf7,
0xff,
0xff,
0xff,
0x08,
0x00,
0x05,
0x00,
0x03,
0x00,
0xfa,
0xff,
0xf2,
0xff,
0xf5,
0xff,
0xf8,
0xff,
0xfb,
0xff,
0x02,
0x00,
0xfe,
0xff,
0x0d,
0x00,
0xf6,
0xff,
0x07,
0x00,
0x0e,
0x00,
0x09,
0x00,
0xfd,
0xff,
0x0a,
0x00,
0x03,
0x00,
0x06,
0x00,
0xfc,
0xff,
0x02,
0x00,
0x04,
0x00,
0x06,
0x00,
0xfe,
0xff,
0xfc,
0xff,
0x07,
0x00,
0xee,
0xff,
0xfc,
0xff,
0x06,
0x00,
0x01,
0x00,
0x06,
0x00,
0xfb,
0xff,
0xfe,
0xff,
0x02,
0x00,
0xf6,
0xff,
0x02,
0x00,
0xf0,
0xff,
0x01,
0x00,
0x0c,
0x00,
0x00,
0x00,
0x01,
0x00,
0xf9,
0xff,
0x00,
0x00,
0x00,
0x00,
0x0b,
0x00,
0x01,
0x00,
0xff,
0xff,
0x0c,
0x00,
0xff,
0xff,
0xfd,
0xff,
0xfe,
0xff,
0x03,
0x00,
0xfc,
0xff,
0xfb,
0xff,
0x05,
0x00,
0x03,
0x00,
0x09,
0x00,
0x00,
0x00,
0x05,
0x00,
0x06,
0x00,
0x00,
0x00,
0x03,
0x00,
0xfd,
0xff,
0xff,
0xff,
0xf6,
0xff,
0xf9,
0xff,
0x03,
0x00,
0xff,
0xff,
0xf6,
0xff,
0x03,
0x00,
0x05,
0x00,
0x05,
0x00,
0xe8,
0xff,
0xeb,
0xff,
0x01,
0x00,
0x03,
0x00,
0xfc,
0xff,
0x07,
0x00,
0x03,
0x00,
0x1f,
0x00,
0x0a,
0x00,
0xf8,
0xff,
0x0c,
0x00,
0x05,
0x00,
0xe5,
0xff,
0xfb,
0xff,
0xfb,
0xff,
0x03,
0x00,
0x0c,
0x00,
0xf9,
0xff,
0x05,
0x00,
0xff,
0xff,
0xf3,
0xff,
0x03,
0x00,
0x04,
0x00,
0x0c,
0x00,
0x01,
0x00,
0x06,
0x00,
0x05,
0x00,
0x07,
0x00,
0xfa,
0xff,
0xf9,
0xff,
0x07,
0x00,
0x12,
0x00,
0x06,
0x00,
0xfd,
0xff,
0xf7,
0xff,
0x00,
0x00,
0x06,
0x00,
0xf5,
0xff,
0xff,
0xff,
0x05,
0x00,
0xe7,
0xff,
0x09,
0x00,
0xfd,
0xff,
0x05,
0x00,
0x04,
0x00,
0xfb,
0xff,
0xfe,
0xff,
0x05,
0x00,
0xff,
0xff,
0xed,
0xff,
0x15,
0x00,
0xff,
0xff,
0xfe,
0xff,
0xfe,
0xff,
0xfa,
0xff,
0x07,
0x00,
0x03,
0x00,
0xfe,
0xff,
0x03,
0x00,
0x03,
0x00,
0x13,
0x00,
0x0f,
0x00,
0xfe,
0xff,
0x08,
0x00,
0x04,
0x00,
0x10,
0x00,
0xfe,
0xff,
0xfb,
0xff,
0xfc,
0xff,
0xfe,
0xff,
0xf7,
0xff,
0xfd,
0xff,
0xf9,
0xff,
0xe0,
0xff,
0xff,
0xff,
0xfd,
0xff,
0x00,
0x00,
0x01,
0x00,
0x08,
0x00,
0x0a,
0x00,
0xff,
0xff,
0xf6,
0xff,
0x00,
0x00,
0x01,
0x00,
0xfe,
0xff,
0x00,
0x00,
0x03,
0x00,
0x00,
0x00,
0x05,
0x00,
0xf5,
0xff,
0x05,
0x00,
0x01,
0x00,
0x00,
0x00,
0x03,
0x00,
0x11,
0x00,
0x02,
0x00,
0x01,
0x00,
0xf7,
0xff,
0x01,
0x00,
0xfe,
0xff,
0xfe,
0xff,
0xf6,
0xff,
0x04,
0x00,
0xff,
0xff,
0xf8,
0xff,
0xff,
0xff,
0x01,
0x00,
0x01,
0x00,
0x02,
0x00,
0x05,
0x00,
0x04,
0x00,
0xfa,
0xff,
0xff,
0xff,
0xf7,
0xff,
0xf3,
0xff,
0xfe,
0xff,
0x00,
0x00,
0x04,
0x00,
0x14,
0x00,
0xfc,
0xff,
0x03,
0x00,
0xfd,
0xff,
0xfa,
0xff,
0xed,
0xff,
0x16,
0x00,
0xed,
0xff,
0x01,
0x00,
0x01,
0x00,
0xf3,
0xff,
0x00,
0x00,
0xff,
0xff,
0xfa,
0xff,
0x1b,
0x00,
0x00,
0x00,
0x01,
0x00,
0x01,
0x00,
0xfe,
0xff,
0x0c,
0x00,
0x02,
0x00,
0x0a,
0x00,
0xff,
0xff,
0x06,
0x00,
0x06,
0x00,
0xf6,
0xff,
0xfc,
0xff,
0x00,
0x00,
0x08,
0x00,
0xfb,
0xff,
0x0a,
0x00,
0x06,
0x00,
0xfe,
0xff,
0xfa,
0xff,
0xf9,
0xff,
0xf7,
0xff,
0x05,
0x00,
0x05,
0x00,
0x00,
0x00,
0x05,
0x00,
0x01,
0x00,
0x01,
0x00,
0xff,
0xff,
0xf4,
0xff,
0x0d,
0x00,
0x09,
0x00,
0xfe,
0xff,
0x0a,
0x00,
0xf0,
0xff,
0x00,
0x00,
0xf2,
0xff,
0xfd,
0xff,
0x0e,
0x00,
0x05,
0x00,
0xf7,
0xff,
0x08,
0x00,
0x01,
0x00,
0x04,
0x00,
0x09,
0x00,
0x05,
0x00,
0x11,
0x00,
0x04,
0x00,
0xff,
0xff,
0xf6,
0xff,
0xfd,
0xff,
0xf2,
0xff,
0xfb,
0xff,
0xe9,
0xff,
0x04,
0x00,
0x04,
0x00,
0x02,
0x00,
0xf2,
0xff,
0x03,
0x00,
0x03,
0x00,
0xfc,
0xff,
0xf9,
0xff,
0x00,
0x00,
0x17,
0x00,
0x00,
0x00,
0xeb,
0xff,
0x02,
0x00,
0x04,
0x00,
0xfe,
0xff,
0x04,
0x00,
0xff,
0xff,
0xfb,
0xff,
0x0f,
0x00,
0xf6,
0xff,
0x02,
0x00,
0x00,
0x00,
0x06,
0x00,
0xfb,
0xff,
0x04,
0x00,
0x18,
0x00,
0x00,
0x00,
0x09,
0x00,
0x06,
0x00,
0x0d,
0x00,
0xcf,
0xff,
0xf9,
0xff,
0xfe,
0xff,
0x03,
0x00,
0xfb,
0xff,
0xf8,
0xff,
0x07,
0x00,
0xff,
0xff,
0xf8,
0xff,
0xfa,
0xff,
0x00,
0x00,
0x02,
0x00,
0xf8,
0xff,
0x04,
0x00,
0x02,
0x00,
0xff,
0xff,
0x06,
0x00,
0x0f,
0x00,
0xff,
0xff,
0xff,
0xff,
0xfa,
0xff,
0xfb,
0xff,
0x00,
0x00,
0x01,
0x00,
0xf1,
0xff,
0x07,
0x00,
0x0a,
0x00,
0x05,
0x00,
0x05,
0x00,
0x00,
0x00,
0x01,
0x00,
0x06,
0x00,
0xf6,
0xff,
0x05,
0x00,
0x01,
0x00,
0x04,
0x00,
0x08,
0x00,
0x0c,
0x00,
0xf0,
0xff,
0xeb,
0xff,
0xfc,
0xff,
0xfc,
0xff,
0x1c,
0x00,
0x0b,
0x00,
0xf9,
0xff,
0xff,
0xff,
0xe7,
0xff,
0x0d,
0x00,
0xfa,
0xff,
0x08,
0x00,
0x08,
0x00,
0x06,
0x00,
0x02,
0x00,
0xfa,
0xff,
0xf5,
0xff,
0x04,
0x00,
0x09,
0x00,
0x04,
0x00,
0x04,
0x00,
0x02,
0x00,
0xfe,
0xff,
0xfe,
0xff,
0xf1,
0xff,
0x02,
0x00,
0xff,
0xff,
0xfe,
0xff,
0x02,
0x00,
0xfd,
0xff,
0x01,
0x00,
0xf8,
0xff,
0x05,
0x00,
0x04,
0x00,
0x05,
0x00,
0x01,
0x00,
0x01,
0x00,
0xfc,
0xff,
0xfc,
0xff,
0x02,
0x00,
0xfd,
0xff,
0x03,
0x00,
0x03,
0x00,
0xfc,
0xff,
0xff,
0xff,
0xfc,
0xff,
0x0b,
0x00,
0x05,
0x00,
0x02,
0x00,
0xff,
0xff,
0xfd,
0xff,
0xf5,
0xff,
0x01,
0x00,
0x0a,
0x00,
0x05,
0x00,
0xf2,
0xff,
0xff,
0xff,
0x06,
0x00,
0xfd,
0xff,
0xfe,
0xff,
0x01,
0x00,
0x06,
0x00,
0xfc,
0xff,
0x03,
0x00,
0xf0,
0xff,
0x06,
0x00,
0x01,
0x00,
0x01,
0x00,
0xff,
0xff,
0x09,
0x00,
0xfc,
0xff,
0x0b,
0x00,
0x09,
0x00,
0x02,
0x00,
0xf8,
0xff,
0xf3,
0xff,
0x03,
0x00,
0xf2,
0xff,
0xf4,
0xff,
0x07,
0x00,
0xfd,
0xff,
0xfa,
0xff,
0x04,
0x00,
0x01,
0x00,
0xf2,
0xff,
0x02,
0x00,
0x00,
0x00,
0x14,
0x00,
0x12,
0x00,
0x04,
0x00,
0x01,
0x00,
0xf8,
0xff,
0xee,
0xff,
0xfa,
0xff,
0x21,
0x00,
0xff,
0xff,
0xdb,
0xff,
0x0f,
0x00,
0x00,
0x00,
0x0c,
0x00,
0x08,
0x00,
0xfd,
0xff,
0xf6,
0xff,
0x02,
0x00,
0x09,
0x00,
0xfc,
0xff,
0x00,
0x00,
0x04,
0x00,
0x04,
0x00,
0x06,
0x00,
0x00,
0x00,
0x00,
0x00,
0xf9,
0xff,
0xee,
0xff,
0xf4,
0xff,
0xfb,
0xff,
0x22,
0x00,
0xed,
0xff,
0x04,
0x00,
0x17,
0x00,
0x05,
0x00,
0xfd,
0xff,
0x01,
0x00,
0xf5,
0xff,
0x03,
0x00,
0x08,
0x00,
0xfd,
0xff,
0x03,
0x00,
0xf8,
0xff,
0xfb,
0xff,
0x0a,
0x00,
0xfa,
0xff,
0xf3,
0xff,
0xfe,
0xff,
0x0b,
0x00,
0x02,
0x00,
0xfd,
0xff,
0x05,
0x00,
0xfd,
0xff,
0x01,
0x00,
0x05,
0x00,
0x00,
0x00,
0x02,
0x00,
0x08,
0x00,
0xfd,
0xff,
0xfa,
0xff,
0x01,
0x00,
0xef,
0xff,
0xff,
0xff,
0xfe,
0xff,
0xf8,
0xff,
0x0f,
0x00,
0x06,
0x00,
0xf5,
0xff,
0x07,
0x00,
0x09,
0x00,
0x08,
0x00,
0x03,
0x00,
0x05,
0x00,
0x05,
0x00,
0x02,
0x00,
0x01,
0x00,
0x02,
0x00,
0xff,
0xff,
0x00,
0x00,
0x08,
0x00,
0xf9,
0xff,
0x04,
0x00,
0xf5,
0xff,
0xf9,
0xff,
0xfa,
0xff,
0xfc,
0xff,
0xf4,
0xff,
0x02,
0x00,
0x09,
0x00,
0xf7,
0xff,
0x04,
0x00,
0x01,
0x00,
0xf3,
0xff,
0x00,
0x00,
0x06,
0x00,
0xfe,
0xff,
0x00,
0x00,
0x08,
0x00,
0xfe,
0xff,
0x0a,
0x00,
0xfe,
0xff,
0x00,
0x00,
0xf8,
0xff,
0x04,
0x00,
0x11,
0x00,
0x09,
0x00,
0x00,
0x00,
0x04,
0x00,
0x01,
0x00,
0xe7,
0xff,
0x10,
0x00,
0x02,
0x00,
0xff,
0xff,
0x05,
0x00,
0xfd,
0xff,
0x09,
0x00,
0x05,
0x00,
0xdd,
0xff,
0xf5,
0xff,
0xf7,
0xff,
0x07,
0x00,
0xf2,
0xff,
0xfc,
0xff,
0x01,
0x00,
0x01,
0x00,
0x05,
0x00,
0x00,
0x00,
0xef,
0xff,
0x0e,
0x00,
0x05,
0x00,
0xfc,
0xff,
0x01,
0x00,
0x06,
0x00,
0x15,
0x00,
0x04,
0x00,
0xfc,
0xff,
0x01,
0x00,
0x01,
0x00,
0xfd,
0xff,
0xfd,
0xff,
0x03,
0x00,
0x0c,
0x00,
0x04,
0x00,
0x10,
0x00,
0x07,
0x00,
0xf7,
0xff,
0xfc,
0xff,
0xfb,
0xff,
0xf6,
0xff,
0xf8,
0xff,
0x00,
0x00,
0xfc,
0xff,
0x14,
0x00,
0x22,
0x00,
0xe4,
0xff,
0xdf,
0xff,
0xfb,
0xff,
0xfd,
0xff,
0xff,
0xff,
0x03,
0x00,
0x05,
0x00,
0x09,
0x00,
0x01,
0x00,
0x09,
0x00,
0xf8,
0xff,
0x02,
0x00,
0xf9,
0xff,
0x02,
0x00,
0x12,
0x00,
0x03,
0x00,
0xe7,
0xff,
0xfd,
0xff,
0x0e,
0x00,
0xfa,
0xff,
0xfe,
0xff,
0x00,
0x00,
0xfa,
0xff,
0xfd,
0xff,
0x06,
0x00,
0xf9,
0xff,
0x0f,
0x00,
0x05,
0x00,
0x00,
0x00,
0x0d,
0x00,
0xfc,
0xff,
0x00,
0x00,
0x01,
0x00,
0xf9,
0xff,
0xff,
0xff,
0x09,
0x00,
0xfd,
0xff,
0x00,
0x00,
0x03,
0x00,
0x02,
0x00,
0xff,
0xff,
0x05,
0x00,
0xf4,
0xff,
0xfd,
0xff,
0x0e,
0x00,
0x02,
0x00,
0xfc,
0xff,
0xf4,
0xff,
0x00,
0x00,
0x05,
0x00,
0x0c,
0x00,
0x00,
0x00,
0x05,
0x00,
0x02,
0x00,
0x00,
0x00,
0x04,
0x00,
0xf9,
0xff,
0xf4,
0xff,
0xfc,
0xff,
0xfb,
0xff,
0xf9,
0xff,
0xf8,
0xff,
0x00,
0x00,
0x0c,
0x00,
0x06,
0x00,
0xf4,
0xff,
0xfc,
0xff,
0x02,
0x00,
0xf1,
0xff,
0x08,
0x00,
0x00,
0x00,
0x11,
0x00,
0xff,
0xff,
0x06,
0x00,
0xfe,
0xff,
0xfe,
0xff,
0x09,
0x00,
0xf4,
0xff,
0x01,
0x00,
0x05,
0x00,
0x05,
0x00,
0xfb,
0xff,
0xf9,
0xff,
0xfa,
0xff,
0x01,
0x00,
0xfd,
0xff,
0x06,
0x00,
0xfd,
0xff,
0x00,
0x00,
0xff,
0xff,
0x04,
0x00,
0x06,
0x00,
0xfd,
0xff,
0x08,
0x00,
0xfe,
0xff,
0x03,
0x00,
0xf6,
0xff,
0x01,
0x00,
0x08,
0x00,
0xfe,
0xff,
0xfb,
0xff,
0x07,
0x00,
0xff,
0xff,
0xf8,
0xff,
0x03,
0x00,
0xfd,
0xff,
0x00,
0x00,
0x03,
0x00,
0xf0,
0xff,
0xf9,
0xff,
0x05,
0x00,
0x0b,
0x00,
0xfe,
0xff,
0x26,
0x00,
0xf3,
0xff,
0x0c,
0x00,
0xf7,
0xff,
0xf9,
0xff,
0x08,
0x00,
0x0a,
0x00,
0xf4,
0xff,
0x03,
0x00,
0xfd,
0xff,
0xef,
0xff,
0xff,
0xff,
0x04,
0x00,
0xf6,
0xff,
0x02,
0x00,
0x00,
0x00,
0x0d,
0x00,
0x08,
0x00,
0xfd,
0xff,
0xfd,
0xff,
0xfc,
0xff,
0x03,
0x00,
0xfe,
0xff,
0x09,
0x00,
0xfd,
0xff,
0xfe,
0xff,
0xf8,
0xff,
0xff,
0xff,
0x0e,
0x00,
0xf9,
0xff,
0x02,
0x00,
0x06,
0x00,
0x03,
0x00,
0xfb,
0xff,
0xff,
0xff,
0xf5,
0xff,
0xfe,
0xff,
0x07,
0x00,
0x07,
0x00,
0xea,
0xff,
0x01,
0x00,
0x07,
0x00,
0x03,
0x00,
0x04,
0x00,
0x08,
0x00,
0x07,
0x00,
0x12,
0x00,
0x07,
0x00,
0xf7,
0xff,
0x07,
0x00,
0x07,
0x00,
0xff,
0xff,
0x02,
0x00,
0xff,
0xff,
0x06,
0x00,
0x00,
0x00,
0xf4,
0xff,
0xe4,
0xff,
0xf5,
0xff,
0x11,
0x00,
0xf3,
0xff,
0xf9,
0xff,
0x02,
0x00,
0xfc,
0xff,
0x02,
0x00,
0xfe,
0xff,
0xfd,
0xff,
0x0a,
0x00,
0x04,
0x00,
0x03,
0x00,
0xfe,
0xff,
0x06,
0x00,
0xf7,
0xff,
0xfb,
0xff,
0x03,
0x00,
0x03,
0x00,
0x02,
0x00,
0x0c,
0x00,
0x00,
0x00,
0xfc,
0xff,
0x01,
0x00,
0xfc,
0xff,
0x00,
0x00,
0xf6,
0xff,
0x07,
0x00,
0x00,
0x00,
0xfb,
0xff,
0xfa,
0xff,
0xfb,
0xff,
0xfb,
0xff,
0x0e,
0x00,
0xff,
0xff,
0xff,
0xff,
0x02,
0x00,
0x05,
0x00,
0x08,
0x00,
0x05,
0x00,
0xfe,
0xff,
0xfc,
0xff,
0x00,
0x00,
0xee,
0xff,
0xfc,
0xff,
0x07,
0x00,
0xfd,
0xff,
0xfe,
0xff,
0x07,
0x00,
0x01,
0x00,
0x00,
0x00,
0x04,
0x00,
0xfb,
0xff,
0x08,
0x00,
0x16,
0x00,
0xf8,
0xff,
0x02,
0x00,
0xf4,
0xff,
0xfb,
0xff,
0x00,
0x00,
0x06,
0x00,
0xf1,
0xff,
0x09,
0x00,
0xfd,
0xff,
0x02,
0x00,
0xff,
0xff,
0x03,
0x00,
0xfd,
0xff,
0xf6,
0xff,
0xf2,
0xff,
0x00,
0x00,
0xf7,
0xff,
0x04,
0x00,
0x0b,
0x00,
0xfa,
0xff,
0x05,
0x00,
0x04,
0x00,
0x0a,
0x00,
0x02,
0x00,
0x02,
0x00,
0x00,
0x00,
0x03,
0x00,
0xfe,
0xff,
0x00,
0x00,
0x09,
0x00,
0x0d,
0x00,
0x0a,
0x00,
0x02,
0x00,
0x10,
0x00,
0xf6,
0xff,
0xec,
0xff,
0xfe,
0xff,
0x01,
0x00,
0x00,
0x00,
0xf1,
0xff,
0x05,
0x00,
0xf5,
0xff,
0x08,
0x00,
0xfc,
0xff,
0x03,
0x00,
0x03,
0x00,
0x00,
0x00,
0x03,
0x00,
0x07,
0x00,
0xfc,
0xff,
0xf6,
0xff,
0x0c,
0x00,
0xf2,
0xff,
0x0d,
0x00,
0x00,
0x00,
0x01,
0x00,
0xff,
0xff,
0x03,
0x00,
0xf5,
0xff,
0x07,
0x00,
0xfe,
0xff,
0xfb,
0xff,
0x00,
0x00,
0x06,
0x00,
0x00,
0x00,
0xf9,
0xff,
0x04,
0x00,
0xf9,
0xff,
0x04,
0x00,
0x01,
0x00,
0x09,
0x00,
0x03,
0x00,
0xf9,
0xff,
0xfe,
0xff,
0xfd,
0xff,
0xf9,
0xff,
0xea,
0xff,
0x06,
0x00,
0xfa,
0xff,
0x07,
0x00,
0x0d,
0x00,
0x07,
0x00,
0x0f,
0x00,
0xf0,
0xff,
0xf8,
0xff,
0x05,
0x00,
0x0c,
0x00,
0x03,
0x00,
0xfd,
0xff,
0x02,
0x00,
0xfd,
0xff,
0x01,
0x00,
0x00,
0x00,
0x00,
0x00,
0x00,
0x00,
0x00,
0x00,
0x00,
0x00,
0x00,
0x00,
0x00,
0x00};
