/* SPDX-License-Identifier: GPL-2.0 */
/*
 * Copyright (c) 2020 MediaTek Inc.
 *
 * Author: Ya-Wen Hsu <Ya-Wen.Hsu@mediatek.com>
 *
 */

char fdvt_kernel_bias_loop09_0_frame01[] = {
0xfa,
0x03,
0xfc,
0xeb,
0xf2,
0xf6,
0xf3,
0xf4,
0x01,
0xd4,
0xe6,
0xe7,
0xfc,
0x0f,
0xf8,
0x0f,
0x05,
0x0a,
0xfb,
0x06,
0x0a,
0xe5,
0xff,
0x03,
0xf1,
0xf4,
0x19,
0x02,
0x09,
0x12,
0xf8,
0xf3,
0xf9,
0x03,
0x08,
0x0c,
0xfd,
0xfc,
0xf3,
0x03,
0x0a,
0xf5,
0x09,
0x18,
0xfc,
0x14,
0x07,
0xf4,
0x0a,
0xfa,
0x03,
0xef,
0xe4,
0x01,
0x09,
0xff,
0x0f,
0x1c,
0x1b,
0x02,
0xef,
0xdc,
0xe3,
0x0e,
0xf4,
0x08,
0x02,
0x00,
0x00,
0x00,
0x08,
0x00,
0xf8,
0xea,
0x0c,
0x0e,
0x03,
0x09,
0xf7,
0x08,
0xf9,
0xfd,
0xf3,
0x00,
0xee,
0xf5,
0x01,
0x13,
0xf9,
0xf6,
0x1d,
0x10,
0x04,
0x05,
0x01,
0xfb,
0xfe,
0xf2,
0x08,
0xfa,
0xfe,
0x0d,
0x09,
0xed,
0xf1,
0x07,
0x01,
0x03,
0x0f,
0x0d,
0xf4,
0x01,
0x04,
0xf2,
0xe9,
0x1f,
0xf7,
0xfa,
0xfe,
0x02,
0x23,
0x06,
0xf5,
0x0a,
0x23,
0xff,
0x22,
0x0b,
0xea,
0xf3,
0xe5,
0x1e,
0x16,
0xef,
0xf7,
0x14,
0xe5,
0xe6,
0x14,
0xed,
0x15,
0x1c,
0x0e,
0x11,
0xf9,
0xef,
0xf7,
0xf6,
0x0c,
0xe3,
0x00,
0x01,
0xf0,
0xfa,
0xf7,
0xea,
0xf6,
0x02,
0xf1,
0xf5,
0xf2,
0x0e,
0x04,
0xfc,
0xfd,
0xfc,
0xfe,
0x06,
0xf8,
0xe8,
0x01,
0x12,
0xfd,
0x08,
0xf7,
0xf7,
0x02,
0x0f,
0xfd,
0x0c,
0x08,
0xf0,
0xf7,
0xfa,
0x00,
0xe7,
0x04,
0x00,
0xe7,
0x01,
0x03,
0x03,
0xf9,
0x01,
0x0d,
0xee,
0xea,
0xf6,
0xec,
0xfd,
0xf7,
0x0b,
0x09,
0xf4,
0xf3,
0xea,
0xf0,
0xfe,
0x04,
0x0d,
0x16,
0x15,
0x0f,
0x0c,
0xfb,
0x04,
0xf9,
0x0f,
0x01,
0x09,
0xe9,
0xfc,
0x19,
0x04,
0xfa,
0xfd,
0x09,
0xf1,
0xfa,
0xf9,
0xe6,
0x21,
0xf3,
0xf8,
0xe6,
0xf7,
0xfd,
0x09,
0x06,
0x01,
0x00,
0xee,
0xd9,
0x06,
0x0b,
0xf1,
0xf4,
0xf6,
0x19,
0x07,
0x1a,
0x13,
0xf7,
0x13,
0x33,
0xfd,
0xf6,
0xfd,
0x12,
0x06,
0xf4,
0x06,
0xfb,
0x06,
0xf6,
0xfb,
0xe6,
0xf7,
0xf5,
0xf5,
0xf4,
0xf1,
0xf4,
0x02,
0xfc,
0xec,
0xf8,
0x05,
0x00,
0xff,
0x00,
0xf0,
0xfa,
0x25,
0xfb,
0xf1,
0xf8,
0x0f,
0x07,
0x05,
0x04,
0x04,
0x00,
0x07,
0x00,
0xfe,
0x00,
0xfb,
0x03,
0x02,
0xff,
0xf4,
0x0e,
0x03,
0xff,
0x0e,
0x03,
0x04,
0xfa,
0xf0,
0xf6,
0x0e,
0xe7,
0xef,
0x18,
0xfe,
0xe1,
0x00,
0x02,
0x01,
0xf0,
0xf7,
0xf8,
0x00,
0x05,
0xf8,
0x07,
0x05,
0x03,
0xfd,
0x00,
0xfe,
0x01,
0x00,
0x00,
0xff,
0xfd,
0xfa,
0x0a,
0xff,
0x01,
0xf3,
0x07,
0x03,
0xfc,
0xfc,
0xf9,
0x02,
0xf9,
0x12,
0xfc,
0xf2,
0xf5,
0xfb,
0xf2,
0xfb,
0x0f,
0xf0,
0xfb,
0xf7,
0xf5,
0xfc,
0xf9,
0xf6,
0x01,
0x0e,
0x10,
0x25,
0xf8,
0x0f,
0xf6,
0x14,
0x32,
0xf5,
0x11,
0x08,
0xf9,
0xf0,
0xe7,
0x07,
0xf8,
0x06,
0xfc,
0x0f,
0xf0,
0x09,
0xf9,
0xeb,
0xf9,
0xf5,
0x25,
0x13,
0xec,
0xfa,
0xf6,
0xfa,
0xf1,
0xf6,
0xf2,
0x09,
0xf8,
0xf7,
0xf7,
0xfe,
0x00,
0x02,
0xff,
0xed,
0xfe,
0x02,
0xdc,
0x0c,
0x1a,
0xef,
0x0b,
0xf0,
0xe4,
0x00,
0x06,
0xfb,
0xfc,
0xfd,
0xfd,
0x01,
0xfd,
0xfa,
0xff,
0x05,
0x08,
0xf4,
0x14,
0x06,
0x1a,
0x0d,
0xfe,
0x0c,
0x25,
0xfe,
0x02,
0x06,
0xf8,
0x08,
0x0a,
0xf5,
0x03,
0xf8,
0xef,
0x0b,
0xf8,
0xf8,
0xee,
0x0b,
0xf7,
0xfb,
0x19,
0x02,
0x17,
0xf4,
0x04,
0x24,
0xfc,
0x01,
0x00,
0x03,
0xe8,
0xf4,
0x02,
0x04,
0x11,
0x09,
0xff,
0x1f,
0x19,
0xfc,
0xec,
0x0f,
0xf8,
0xf6,
0x0a,
0x0e,
0xef,
0x08,
0x06,
0x1b,
0x1b,
0xf9,
0x06,
0xe7,
0xfd,
0xfd,
0xe2,
0xf0,
0xfa,
0xfe,
0x08,
0xe9,
0x00,
0xfc,
0x07,
0xec,
0x00,
0x12,
0xde,
0x09,
0x05,
0xf5,
0x11,
0xf9,
0xe1,
0x0e,
0x10,
0x12,
0x04,
0xf7,
0x02,
0xf4,
0x02,
0xfc,
0xeb,
0x10,
0xfc,
0x00,
0x06,
0x09,
0x0e,
0xfd,
0xf4,
0x03,
0x0f,
0x07,
0x0e,
0x10,
0x0c,
0x0e,
0xf2,
0xe1,
0x07,
0x12,
0xea,
0x02,
0x0e,
0x08,
0xfc,
0x0c,
0x0b,
0xf1,
0x08,
0x0c,
0xf2,
0x0b,
0xfe,
0xeb,
0xf9,
0xf3,
0x1b,
0xff,
0xea,
0xf8,
0xf1,
0xf5,
0xf9,
0x10,
0xeb,
0x0d,
0xf2,
0xe7,
0xfe,
0x12,
0xf2,
0xf2,
0x0c,
0xfd,
0xf0,
0x08,
0xff,
0xee,
0xfe,
0xf7,
0xfc,
0x0a,
0x16,
0xfd,
0xff,
0x00,
0xfd,
0xfa,
0xe6,
0x01,
0x12,
0x10,
0x03,
0x1e,
0x02,
0xf3,
0x08,
0x07,
0xe8,
0x03,
0xf5,
0xf4,
0x04,
0xf1,
0x06,
0xf6,
0xf2,
0x01,
0xf6,
0xf5,
0xfe,
0x04,
0x11,
0xf9,
0xe8,
0xf1,
0xef,
0xfa,
0xea,
0xff,
0xfc,
0xed,
0xf5,
0x06,
0x03,
0x0d,
0xec,
0xed,
0x06,
0x03,
0xf6,
0xf6,
0xf9,
0x02,
0x0b,
0xf8,
0x03,
0xf1,
0x0a,
0x0a,
0x06,
0x0e,
0xfa,
0xf3,
0xfc,
0xf1,
0xf1,
0x0f,
0xfe,
0x00,
0xf2,
0xf2,
0xe9,
0xf0,
0xfc,
0x01,
0x0a,
0x08,
0x05,
0x08,
0x03,
0xf9,
0xf1,
0xea,
0x0f,
0x14,
0xfb,
0xff,
0xff,
0xf9,
0xe9,
0xfd,
0xec,
0xea,
0x08,
0x08,
0xfe,
0xf6,
0xf5,
0xf4,
0xff,
0x05,
0xfa,
0x01,
0x1c,
0xe3,
0x06,
0xfc,
0x01,
0x10,
0x00,
0xf4,
0xf0,
0x03,
0x0d,
0x01,
0xef,
0x02,
0x0c,
0xf2,
0x07,
0x1d,
0xef,
0xf3,
0xf1,
0x03,
0x21,
0xf4,
0x10,
0x14,
0x0f,
0x0e,
0x1b,
0x04,
0x11,
0x02,
0xf3,
0xfa,
0xeb,
0xff,
0xdd,
0xeb,
0x0f,
0xf0,
0x04,
0xf2,
0xf9,
0x00,
0x08,
0xfb,
0x0d,
0xf5,
0xf2,
0x00,
0xff,
0xf3,
0xfc,
0xfd,
0x12,
0xf4,
0x0d,
0x08,
0xfd,
0x07,
0x0d,
0xf2,
0xf1,
0x0d,
0xe9,
0x1b,
0x27,
0x02,
0xff,
0xfe,
0x09,
0x12,
0xf5,
0xe3,
0x01,
0x0d,
0x04,
0xfd,
0xf0,
0x00,
0x08,
0xef,
0xe7,
0x0c,
0xee,
0xef,
0x03,
0xf1,
0x03,
0x03,
0xf0,
0xef,
0x09,
0x03,
0x07,
0xed,
0x05,
0x05,
0x06,
0xf2,
0xf1,
0x07,
0x06,
0x07,
0x01,
0xfa,
0xf9,
0x0a,
0x01,
0x0b,
0xef,
0xf5,
0xf2,
0x11,
0x06,
0x07,
0x1e,
0x06,
0x00,
0x03,
0xf5,
0x11,
0xf8,
0xe8,
0x17,
0xfd,
0xe1,
0x01,
0x00,
0x09,
0x11,
0xfc,
0x12,
0xff,
0xf5,
0xfc,
0xf0,
0xf0,
0xf9,
0xf4,
0xef,
0xfc,
0xf1,
0xf2,
0x07,
0xff,
0xe4,
0xe9,
0xfb,
0xf6,
0xfe,
0x04,
0x06,
0xfe,
0x01,
0x00,
0xf0,
0x0a,
0x0c,
0xfb,
0x0d,
0x0a,
0xfd,
0xff,
0xf8,
0xef,
0x17,
0x02,
0x0c,
0xf6,
0xf2,
0x06,
0xe7,
0xfb,
0xf4,
0xf9,
0x10,
0xf9,
0x02,
0x00,
0x03,
0x02,
0x09,
0x01,
0x07,
0x07,
0xee,
0x06,
0x05,
0xfa,
0x16,
0xeb,
0xf3,
0xe9,
0x0a,
0x15,
0x06,
0xf7,
0x04,
0xfa,
0xf9,
0xfe,
0xea,
0x0a,
0x04,
0x07,
0x10,
0xf9,
0x0a,
0xfe,
0xef,
0x02,
0xfd,
0x13,
0x01,
0xf5,
0x0b,
0x0e,
0x0b,
0x04,
0xed,
0x0a,
0xfc,
0x0e,
0x02,
0xf9,
0xfe,
0x01,
0x01,
0xf8,
0xf7,
0x07,
0x11,
0xf9,
0x02,
0xf9,
0xfb,
0x02,
0x02,
0x08,
0xfb,
0xf5,
0xf9,
0xdd,
0x02,
0xff,
0x07,
0xe9,
0x01,
0xec,
0x07,
0xfe,
0x01,
0xf2,
0xf5,
0xf8,
0xee,
0x0b,
0x10,
0xfb,
0x00,
0xfc,
0x14,
0x09,
0x05,
0xf1,
0xf3,
0x05,
0xec,
0x01,
0xfe,
0xe8,
0xee,
0x0a,
0x03,
0xf1,
0x16,
0xf0,
0xf9,
0x02,
0x16,
0xfe,
0xeb,
0x04,
0xfd,
0xea,
0xf9,
0x15,
0xff,
0xf3,
0xfd,
0x0e,
0xff,
0x05,
0xf1,
0xfe,
0x02,
0x00,
0x02,
0xfc,
0xfc,
0x01,
0xfd,
0xf0,
0xfd,
0x08,
0x0d,
0xff,
0xfa,
0x02,
0xff,
0x01,
0xec,
0x10,
0xfd,
0xf7,
0xf5,
0xf9,
0xf5,
0x02,
0xfb,
0xfd,
0x02,
0x04,
0xfa,
0xf2,
0x14,
0x05,
0x07,
0x0f,
0x05,
0xfd,
0xfe,
0x04,
0x07,
0xf9,
0x06,
0x07,
0x06,
0x06,
0x05,
0x0f,
0x02,
0x03,
0xf4,
0xfe,
0x00,
0x0c,
0x06,
0xfb,
0xf5,
0x07,
0x07,
0x06,
0xf4,
0xf6,
0x02,
0x05,
0xf5,
0x10,
0x06,
0xf6,
0x18,
0x02,
0xfa,
0x13,
0xff,
0x0c,
0x08,
0xe9,
0xf0,
0xf8,
0xff,
0xfb,
0x04,
0x06,
0x0c,
0x12,
0x01,
0xf8,
0xf7,
0xfa,
0xe8,
0xfa,
0x01,
0x01,
0xff,
0xee,
0xd9,
0x0f,
0xf0,
0xe0,
0xf2,
0xf4,
0x03,
0xf5,
0xfa,
0xff,
0x14,
0x25,
0x12,
0x03,
0x0e,
0x13,
0xf3,
0xe1,
0x0a,
0xfa,
0xf5,
0xfb,
0x06,
0x06,
0xfb,
0x09,
0x03,
0xf8,
0xee,
0xff,
0x0c,
0xfc,
0xfa,
0x08,
0x00,
0x02,
0xf5,
0x02,
0x03,
0xfb,
0xf9,
0x05,
0xf8,
0x02,
0x0d,
0xf2,
0x08,
0xff,
0xfd,
0x03,
0x09,
0x13,
0x00,
0xfd,
0x03,
0xf7,
0xf6,
0x08,
0x04,
0x04,
0xf5,
0xf9,
0xf9,
0x02,
0x00,
0x05,
0x05,
0xe9,
0xff,
0x03,
0xe0,
0xf7,
0x08,
0x0f,
0x00,
0x01,
0x08,
0x12,
0x01,
0xed,
0xff,
0x06,
0x03,
0x03,
0x12,
0xf5,
0x09,
0x00,
0x03,
0x19,
0xff,
0x0c,
0x07,
0xf8,
0xf4,
0xf3,
0xfc,
0xec,
0xf7,
0x12,
0x13,
0x01,
0xf4,
0xec,
0x01,
0xfc,
0xee,
0xff,
0x03,
0xf7,
0xf1,
0xf4,
0xfe,
0x05,
0xfa,
0xfa,
0xf2,
0x02,
0x05,
0xfe,
0xfa,
0x0d,
0xf2,
0xff,
0x02,
0x14,
0x13,
0x03,
0xf5,
0xec,
0xf8,
0xf9,
0xed,
0xfb,
0x0d,
0x06,
0x11,
0x10,
0xfd,
0xed,
0xf3,
0xfb,
0x0f,
0x18,
0x10,
0xfc,
0x09,
0x07,
0xf3,
0x02,
0xe3,
0xfe,
0xfd,
0x0e,
0xf4,
0xf0,
0xf6,
0xf5,
0x11,
0xf6,
0xfe,
0x04,
0x05,
0x06,
0xf5,
0xee,
0x06,
0xf2,
0x09,
0x08,
0xfb,
0xf2,
0xde,
0x0c,
0x08,
0x0d,
0x0d,
0x06,
0x07,
0x05,
0x07,
0xf7,
0xe9,
0xe5,
0xfa,
0xfc,
0x11,
0xf9,
0xfe,
0xf6,
0x06,
0xfc,
0x0d,
0x00,
0x0d,
0x10,
0x01,
0x0b,
0x09,
0x01,
0xfe,
0x07,
0xfa,
0x0f,
0x01,
0x05,
0x06,
0xf8,
0xfa,
0x02,
0x04,
0x03,
0xfd,
0xfd,
0xf5,
0x05,
0x17,
0x16,
0xf2,
0xfd,
0x0d,
0xf5,
0xf0,
0xf9,
0xf5,
0xf6,
0x06,
0xfc,
0x05,
0x07,
0x06,
0xf7,
0x09,
0xf7,
0xff,
0xfa,
0x00,
0xfe,
0xfd,
0x03,
0xf8,
0xfc,
0xf1,
0xfb,
0x03,
0xf7,
0x06,
0xfe,
0xf5,
0xfd,
0x02,
0xf9,
0xde,
0xfb,
0xf9,
0xf6,
0x0b,
0x00,
0xfa,
0xf9,
0xfb,
0xf8,
0xfd,
0xfa,
0xff,
0xfd,
0xf0,
0x0c,
0xfc,
0xfd,
0x07,
0x01,
0xf0,
0x14,
0xfe,
0xfc,
0xf3,
0xf3,
0x00,
0xff,
0xff,
0xfe,
0x04,
0xf9,
0x10,
0xfa,
0x07,
0xf3,
0xec,
0xff,
0x0b,
0x0d,
0xff,
0x04,
0xfa,
0x05,
0x00,
0x00,
0xf6,
0xf4,
0xff,
0xf9,
0xee,
0xf0,
0xf2,
0xf2,
0xfb,
0xfa,
0x06,
0x01,
0xff,
0x19,
0x08,
0xff,
0x08,
0xfe,
0x08,
0x17,
0xf9,
0xf7,
0xff,
0xdf,
0xf1,
0xec,
0xff,
0x09,
0xff,
0x01,
0xf0,
0x03,
0x00,
0xfa,
0xf4,
0x01,
0xef,
0x06,
0xfc,
0xfa,
0xfe,
0xff,
0x01,
0xf9,
0x04,
0x08,
0xf6,
0x06,
0xf8,
0xff,
0x08,
0x0a,
0x06,
0x0b,
0x06,
0x07,
0x02,
0xf4,
0xfd,
0x04,
0x03,
0x0d,
0x06,
0x05,
0xfa,
0xf5,
0xf4,
0xf1,
0xf9,
0xe0,
0xfb,
0xfd,
0x07,
0xfe,
0xfc,
0x0f,
0x02,
0xfc,
0x10,
0x02,
0x05,
0xfa,
0x02,
0xff,
0xfc,
0x16,
0x11,
0x0f,
0x05,
0x18,
0x13,
0x00,
0xf6,
0xef,
0x04,
0xfb,
0xf8,
0x11,
0x0c,
0x0a,
0xfc,
0x0d,
0xfd,
0x06,
0x17,
0x14,
0xfb,
0xe0,
0xf8,
0x12,
0x00,
0xf4,
0x13,
0x07,
0x04,
0xfb,
0xfb,
0x05,
0xf9,
0x06,
0xf0,
0xfd,
0x0d,
0xf9,
0xf8,
0x0e,
0x08,
0xf8,
0x08,
0x11,
0xf9,
0x00,
0x02,
0xf8,
0x0c,
0x03,
0xf7,
0x10,
0x0f,
0x12,
0xeb,
0x10,
0xfa,
0x02,
0xf5,
0xfe,
0xf2,
0x0d,
0x05,
0x04,
0x12,
0xfb,
0x05,
0x00,
0xf8,
0xf0,
0xfc,
0xe7,
0xf6,
0x11,
0xf0,
0x0a,
0x02,
0x02,
0x11,
0xfd,
0x07,
0xff,
0xf8,
0xf3,
0x11,
0x07,
0x05,
0x2c,
0xf3,
0x09,
0x0c,
0xff,
0xe7,
0xf4,
0x1b,
0xf9,
0xec,
0x0f,
0xee,
0x05,
0xeb,
0xfb,
0x0c,
0xee,
0xf7,
0x17,
0x16,
0xf7,
0xf9,
0xfb,
0x12,
0xfa,
0x07,
0x1d,
0x09,
0x08,
0x13,
0xf6,
0xf2,
0x08,
0x1b,
0x08,
0xfe,
0xfc,
0x08,
0xf0,
0x05,
0xfb,
0xfc,
0x06,
0xed,
0xef,
0xf9,
0x04,
0xfd,
0x02,
0x08,
0xfe,
0xf1,
0x02,
0xf4,
0xfb,
0xf9,
0xea,
0xf2,
0x00,
0x11,
0x0b,
0x04,
0x11,
0xff,
0xf7,
0xf6,
0x03,
0x06,
0xfb,
0xfc,
0xfe,
0x25,
0x05,
0xf9,
0xf8,
0xf6,
0x07,
0x06,
0x03,
0x02,
0x00,
0x04,
0x00,
0xea,
0xf0,
0xff,
0xf8,
0x00,
0x0d,
0xfd,
0xf8,
0x04,
0xf1,
0x02,
0x04,
0xef,
0x01,
0xed,
0x02,
0xfb,
0xd8,
0xf2,
0x0c,
0xf3,
0x06,
0x06,
0x0b,
0xfe,
0x03,
0xf5,
0xf9,
0x0c,
0x04,
0x0a,
0x0e,
0x00,
0x08,
0xfe,
0xdc,
0x08,
0x0a,
0x01,
0x12,
0xf4,
0xee,
0xec,
0x0d,
0x07,
0xfe,
0x1a,
0x0a,
0xe2,
0x05,
0xfb,
0x03,
0xf4,
0xf6,
0xf7,
0xee,
0x0f,
0x08,
0x01,
0x0f,
0x07,
0xfa,
0xfd,
0x14,
0x0b,
0x0a,
0x07,
0xef,
0xfc,
0x00,
0xea,
0x06,
0x00,
0x09,
0xf3,
0x08,
0x08,
0xee,
0xed,
0x07,
0xf2,
0xe8,
0xfa,
0x04,
0x0e,
0xfd,
0xf7,
0xfe,
0x19,
0x01,
0xfb,
0x1c,
0xf4,
0x03,
0x0e,
0xf7,
0xf4,
0xf9,
0xf7,
0xff,
0x01,
0xdf,
0x02,
0x08,
0x00,
0xfe,
0x08,
0xfc,
0xff,
0xf8,
0x09,
0xef,
0xfd,
0xf1,
0x01,
0xfe,
0xf6,
0xfb,
0x00,
0xf5,
0xff,
0xed,
0xf2,
0xef,
0xf6,
0xfa,
0x12,
0x05,
0xf5,
0x0c,
0x02,
0x11,
0xff,
0x03,
0xf4,
0xf5,
0x04,
0xfa,
0xf3,
0x0c,
0x03,
0x00,
0x0c,
0x10,
0x17,
0x12,
0xfc,
0x05,
0xf9,
0x01,
0x06,
0x02,
0xfa,
0xf9,
0xf9,
0xf7,
0xe6,
0xf9,
0xec,
0x05,
0xf8,
0x03,
0xff,
0x0b,
0xf2,
0x0b,
0x02,
0x09,
0x00,
0xf3,
0x04,
0x0e,
0xf5,
0x09,
0xf8,
0xfa,
0xfe,
0x06,
0xf8,
0xfc,
0x17,
0xf8,
0xf7,
0x0a,
0x05,
0x03,
0xfa,
0xf5,
0xff,
0x04,
0xf8,
0x0f,
0x09,
0x11,
0x06,
0xfa,
0xf6,
0xf2,
0x07,
0x09,
0x15,
0x10,
0xf4,
0x0d,
0x03,
0xff,
0x0a,
0xf6,
0xf8,
0x0e,
0xfa,
0xf1,
0x00,
0x13,
0xfc,
0xf7,
0x0c,
0xf7,
0xff,
0x0e,
0x05,
0xfe,
0x0a,
0x1d,
0xfb,
0xe5,
0x00,
0x09,
0xea,
0xfa,
0xf5,
0xf4,
0xf7,
0xf8,
0xf9,
0xec,
0x01,
0xff,
0xf4,
0xff,
0x12,
0xf5,
0xf4,
0x12,
0xea,
0xe5,
0x04,
0xf1,
0x07,
0xf5,
0x04,
0x02,
0xf3,
0xfe,
0x0e,
0xf6,
0xf7,
0x06,
0x02,
0xff,
0x08,
0xfc,
0xf3,
0xfd,
0x0b,
0x16,
0x0a,
0x00,
0xfe,
0xfc,
0xf4,
0xf5,
0xf7,
0x06,
0x0c,
0x08,
0x09,
0xe7,
0xfc,
0xf3,
0xec,
0x02,
0x19,
0xf1,
0xf8,
0x00,
0x0b,
0xfe,
0xf5,
0xf4,
0xe9,
0x05,
0xed,
0xfe,
0xeb,
0xf4,
0x07,
0xfc,
0xfe,
0x16,
0x07,
0xf8,
0x0e,
0xf1,
0x02,
0xf0,
0x04,
0xfa,
0x08,
0xf9,
0xfb,
0xf2,
0xfa,
0xef,
0xe8,
0x00,
0xf5,
0xf7,
0x0a,
0xf9,
0x03,
0x0a,
0xfa,
0x07,
0x17,
0x05,
0x08,
0x0c,
0x0a,
0x0b,
0x01,
0x11,
0xf4,
0xfb,
0x01,
0x10,
0xf7,
0xeb,
0x04,
0x09,
0xed,
0xfa,
0x07,
0xf1,
0xed,
0xfc,
0x09,
0xe6,
0xe8,
0xe2,
0xf6,
0xfe,
0x18,
0x00,
0x0c,
0x06,
0xf5,
0xf5,
0x00,
0xe8,
0xf2,
0x03,
0x0c,
0x0a,
0x05,
0x08,
0x09,
0xf6,
0x03,
0x12,
0x1a,
0x0c,
0xf4,
0x06,
0x04,
0xf4,
0x04,
0x0c,
0xf8,
0xfe,
0x14,
0xf7,
0xe6,
0x05,
0x11,
0xf0,
0xf7,
0xf2,
0xf5,
0x14,
0xff,
0xef,
0x0e,
0xf9,
0xff,
0x01,
0xee,
0x04,
0xf8,
0xfd,
0x0a,
0x03,
0xfd,
0x01,
0x00,
0x09,
0x11,
0xfe,
0x18,
0x13,
0x1f,
0x18,
0x0b,
0xfc,
0xf9,
0xfc,
0x13,
0x0f,
0xfa,
0x05,
0x0e,
0x09,
0xff,
0x02,
0x0e,
0xf8,
0x14,
0x16,
0xfe,
0xf5,
0xec,
0xf1,
0xfb,
0x02,
0xf8,
0x09,
0x15,
0x05,
0x02,
0x06,
0xf2,
0x01,
0x0a,
0x00,
0x0b,
0x0e,
0x1d,
0xfe,
0xfe,
0x12,
0xfa,
0xfc,
0x02,
0x04,
0x19,
0xf5,
0xfc,
0xfc,
0xe7,
0xf3,
0xed,
0x13,
0x01,
0xf9,
0xf9,
0xf4,
0xf2,
0x04,
0x0a,
0xfc,
0x0a,
0x05,
0xf5,
0xfb,
0x04,
0xfb,
0xf9,
0xfc,
0x10,
0xfc,
0x00,
0x02,
0x01,
0xfa,
0xe7,
0xe5,
0xee,
0xda,
0xff,
0x05,
0x14,
0x0c,
0xf7,
0x03,
0xf6,
0xf5,
0xf9,
0x01,
0x1c,
0xff,
0xf7,
0xfb,
0x07,
0xf6,
0x01,
0xf5,
0x00,
0x00,
0x01,
0xf8,
0xfe,
0x06,
0x0f,
0xf4,
0x02,
0x04,
0xf8,
0x00,
0x08,
0x05,
0xf2,
0x02,
0x05,
0x06,
0x15,
0xfd,
0xfd,
0x01,
0x08,
0x09,
0xe8,
0x0a,
0x03,
0xed,
0xfc,
0xf5,
0xf9,
0xfd,
0x0a,
0xee,
0x03,
0x00,
0x02,
0x04,
0x03,
0x00,
0xff,
0x00,
0x02,
0xfe,
0xfd,
0x14,
0x0c,
0x0b,
0x09,
0xfe,
0x1c,
0x0b,
0x0a,
0xfc,
0xf8,
0xf5,
0xf6,
0x0e,
0x16,
0xf7,
0x09,
0xf7,
0x07,
0xf5,
0xfc,
0x07,
0xe8,
0x01,
0xd8,
0xfd,
0xfe,
0x15,
0x04,
0x0f,
0x0e,
0xfe,
0xff,
0xf4,
0xfb,
0x03,
0xff,
0x08,
0x09,
0xfd,
0x01,
0x03,
0xfc,
0xfc,
0x14,
0x0c,
0xf8,
0xfc,
0xfb,
0x03,
0xfb,
0x17,
0x08,
0xff,
0xf0,
0x0a,
0xff,
0x0c,
0x01,
0xfd,
0xf6,
0x00,
0x04,
0x00,
0x03,
0xf2,
0x10,
0x08,
0x08,
0xfb,
0x00,
0xfd,
0xfb,
0xf8,
0xfc,
0xf8,
0xff,
0xf0,
0xe4,
0xe6,
0x13,
0xf6,
0x11,
0x01,
0xf9,
0x02,
0xfc,
0xe9,
0x01,
0x02,
0xfc,
0x0d,
0x08,
0xff,
0x06,
0xf3,
0xec,
0xe9,
0x09,
0xee,
0xfa,
0xf8,
0xf5,
0x0e,
0x08,
0x03,
0x08,
0x0b,
0xfb,
0xfc,
0x01,
0xfa,
0x01,
0xfb,
0xe8,
0xf8,
0x19,
0xf8,
0xff,
0x27,
0xf1,
0xf6,
0x10,
0xee,
0xf8,
0xff,
0xff,
0xfa,
0xf2,
0xee,
0x4a,
0x3c,
0xe7,
0xd4,
0xde,
0xf2,
0x44,
0x01,
0x15,
0x07,
0x42,
0x36,
0xe8,
0xd9,
0x21,
0x13};
