/* SPDX-License-Identifier: GPL-2.0 */
/*
 * Copyright (c) 2020 MediaTek Inc.
 *
 * Author: Ya-Wen Hsu <Ya-Wen.Hsu@mediatek.com>
 *
 */

char fdvt_kernel_bias_loop21_0_frame01[] = {
0x06,
0xfe,
0xfc,
0xf3,
0x20,
0xf9,
0xe1,
0xcf,
0x09,
0x00,
0xfc,
0xf1,
0x1b,
0xfb,
0xe3,
0xd0,
0xfd,
0xfd,
0x0a,
0x09,
0x02,
0xfd,
0x15,
0x0e,
0xf4,
0x07,
0x07,
0x09,
0x03,
0x07,
0x0a,
0x0c,
0x14,
0x0a,
0xfe,
0x08,
0x00,
0x09,
0x0d,
0x1e,
0xfb,
0xfe,
0xc8,
0xe2,
0x07,
0xff,
0xe8,
0xf5,
0x05,
0x02,
0x0c,
0xf8,
0xfe,
0x00,
0x0b,
0xf8,
0x02,
0x03,
0x09,
0xfb,
0xfe,
0xff,
0x07,
0xfa,
0x03,
0x09,
0x03,
0x01,
0xfb,
0x06,
0x08,
0x02,
0xfe,
0xfb,
0x06,
0x02,
0xfa,
0xf4,
0x09,
0x00,
0xfd,
0xe7,
0x49,
0x43,
0xf3,
0xe8,
0x40,
0x3d,
0xfd,
0xd2,
0x37,
0x38,
0xf3,
0xd6,
0x31,
0x37,
0xf4,
0x0b,
0xfe,
0xf6,
0xfc,
0xff,
0x18,
0x02,
0xf7,
0xf2,
0xfb,
0xf4,
0xfd,
0xfd,
0x1b,
0x02,
0x10,
0x05,
0xed,
0xf0,
0xe3,
0x0b,
0xf7,
0xf4,
0x14,
0xea,
0xf1,
0xf5,
0xf5,
0xff,
0x00,
0xfe,
0x23,
0x01,
0x11,
0x0a,
0x2c,
0x08,
0x26,
0x24,
0x2c,
0x04,
0x17,
0x10,
0x30,
0x0d,
0x24,
0x24,
0xfb,
0x04,
0xf2,
0x02,
0x06,
0x00,
0xfb,
0x09,
0xfd,
0xfe,
0xf5,
0x04,
0x04,
0xff,
0xf8,
0x07,
0xfe,
0xfe,
0xd8,
0xcf,
0x00,
0xfc,
0xdb,
0xd8,
0x00,
0x00,
0xd9,
0xd2,
0x01,
0x02,
0xde,
0xdc,
0xfd,
0x0a,
0x08,
0xfe,
0xf4,
0x09,
0x0a,
0x00,
0xfa,
0x03,
0x0f,
0xfe,
0xf5,
0x07,
0x13,
0xfc,
0xff,
0xff,
0x09,
0x08,
0x02,
0x03,
0x05,
0x07,
0x00,
0xff,
0x0b,
0x04,
0x05,
0xfd,
0x04,
0x00,
0xf7,
0xf8,
0x10,
0x0a,
0x09,
0x09,
0x04,
0x09,
0xff,
0x0a,
0x0a,
0x0a,
0x06,
0x04,
0x08,
0x0a,
0xe0,
0xe5,
0x00,
0xfd,
0x03,
0x0b,
0x01,
0xff,
0x0c,
0xfc,
0x04,
0x00,
0x22,
0x19,
0xf6,
0xf5,
0x0a,
0xf6,
0xfd,
0x10,
0xf0,
0xff,
0xf2,
0x0a,
0x0e,
0xf5,
0x01,
0x12,
0xf7,
0xf2,
0xf3,
0x09,
0x02,
0x00,
0xee,
0x00,
0xfd,
0x07,
0xf6,
0x07,
0x04,
0xfd,
0xf9,
0x07,
0x03,
0x02,
0xf7,
0x06,
0xfc,
0x01,
0xf1,
0x03,
0xf9,
0x01,
0x04,
0x11,
0x02,
0xff,
0xf4,
0x05,
0xfc,
0x00,
0x05,
0x14,
0x0e,
0x08,
0xf2,
0xf8,
0xec,
0x09,
0xe3,
0xe4,
0x21,
0x02,
0xf6,
0xf9,
0xf7,
0x03,
0xd7,
0xe2,
0x02,
0x00,
0x07,
0xfb,
0xfa,
0x02,
0x0b,
0xfe,
0x01,
0x03,
0x03,
0xfd,
0x00,
0x04,
0x06,
0xff,
0xfb,
0xf2,
0x01,
0x23,
0xfe,
0xef,
0xff,
0x1f,
0xfc,
0xf0,
0x07,
0x1f,
0x04,
0xff,
0x03,
0x1d,
0xfd,
0x2e,
0x26,
0x21,
0xf0,
0x2f,
0x1e,
0x1d,
0x03,
0x27,
0x28,
0x1c,
0xeb,
0x22,
0x25,
0x1c,
0xfb,
0x0a,
0x06,
0x00,
0x03,
0x09,
0x0d,
0x02,
0xf1,
0xf8,
0xfb,
0xfd,
0x0b,
0xff,
0x00,
0xfd,
0xfd,
0xff,
0xff,
0xfd,
0xf5,
0x05,
0x13,
0x07,
0x06,
0xfa,
0xff,
0xfc,
0xf6,
0xfb,
0x0e,
0x04,
0x1a,
0xfa,
0xfe,
0x09,
0x11,
0xfa,
0xf4,
0x04,
0x15,
0xf4,
0x00,
0x0d,
0x14,
0xf1,
0xf7,
0x0b,
0x00,
0x00,
0x0f,
0x02,
0xff,
0x02,
0x0c,
0x01,
0x01,
0x00,
0x0b,
0x02,
0x02,
0x00,
0x0a,
0x01,
0xfc,
0x02,
0xfe,
0xfd,
0x02,
0xfd,
0x02,
0x00,
0xfd,
0xfd,
0x00,
0x00,
0x02,
0xfb,
0x02,
0x03,
0x01,
0xfe,
0x21,
0xeb,
0x04,
0xfd,
0x25,
0xe7,
0x00,
0x02,
0x27,
0xef,
0x01,
0x00,
0x29,
0xea,
0x05,
0x13,
0x01,
0x01,
0x03,
0x0b,
0x01,
0x04,
0x00,
0x0b,
0xfe,
0xf5,
0xf9,
0x07,
0xfe,
0xf8,
0x0c,
0x09,
0xe8,
0xd4,
0xfb,
0x07,
0xd6,
0xc8,
0x0e,
0xff,
0xdf,
0xcb,
0xf3,
0xf9,
0xcf,
0xc3,
0x04,
0xff,
0xec,
0xee,
0x07,
0xfe,
0xea,
0xef,
0xfb,
0x16,
0xe8,
0xfb,
0x13,
0x0f,
0xdf,
0xf5,
0x03,
0xeb,
0x06,
0xec,
0xfd,
0xf2,
0x0a,
0xf3,
0x0b,
0x09,
0x04,
0xed,
0x00,
0x12,
0x05,
0xf1,
0x05,
0x01,
0x48,
0x44,
0xf8,
0x01,
0x4a,
0x47,
0x04,
0xf9,
0x4e,
0x48,
0xf9,
0xfa,
0x4f,
0x49};
