/* SPDX-License-Identifier: GPL-2.0 */
/*
 * Copyright (c) 2020 MediaTek Inc.
 *
 * Author: Ya-Wen Hsu <Ya-Wen.Hsu@mediatek.com>
 *
 */

char fdvt_kernel_bias_loop19_0_frame01[] = {
0x0f,
0x02,
0x09,
0x00,
0x0f,
0x00,
0x05,
0x01,
0x0d,
0x03,
0x07,
0xfe,
0x0e,
0x01,
0x03,
0xff,
0xfe,
0x02,
0xfc,
0x05,
0xfe,
0x03,
0xfe,
0x03,
0x00,
0x03,
0xf9,
0x05,
0x00,
0x05,
0xfd,
0x04,
0x06,
0x03,
0xff,
0xfe,
0xfe,
0x04,
0xfd,
0xfe,
0x07,
0x00,
0x00,
0xfd,
0xfe,
0x00,
0xfd,
0xfd,
0xff,
0x00,
0x09,
0xff,
0x00,
0x00,
0x0a,
0x00,
0xff,
0x00,
0x09,
0xff,
0x00,
0x00,
0x0b,
0x00,
0x06,
0xfc,
0xfa,
0x00,
0x0d,
0xf2,
0xe4,
0xf7,
0x03,
0xfb,
0x00,
0x03,
0x0e,
0xff,
0xfc,
0xfe,
0xf9,
0xf4,
0xe8,
0xf0,
0xf6,
0xf3,
0xe6,
0xef,
0xf9,
0xf3,
0xe9,
0xf2,
0xf5,
0xf2,
0xe6,
0xf1,
0x39,
0x01,
0x25,
0xfc,
0x3a,
0x00,
0x29,
0xfd,
0x3a,
0xfe,
0x24,
0xf9,
0x3a,
0xfd,
0x29,
0xfc,
0x06,
0xfe,
0x03,
0x01,
0x0c,
0x05,
0xf9,
0xfd,
0x0b,
0x0a,
0xfc,
0xff,
0x10,
0x0a,
0xf6,
0xfc,
0x1c,
0xfe,
0xf5,
0xf8,
0x1b,
0x00,
0xf2,
0xf7,
0x1d,
0xfe,
0xf3,
0xf9,
0x1c,
0xfe,
0xf0,
0xf8,
0xfc,
0xff,
0x02,
0x08,
0xfd,
0x00,
0xff,
0x07,
0xfd,
0xfe,
0x03,
0x08,
0xfe,
0xff,
0xff,
0x06,
0xfe,
0xfe,
0x13,
0x0c,
0x07,
0xfd,
0x15,
0x0c,
0xfe,
0x03,
0x14,
0x0b,
0x07,
0x03,
0x15,
0x0c,
0xfb,
0xe5,
0x08,
0x1b,
0xf8,
0xe6,
0x0a,
0x1c,
0xfb,
0xe4,
0x03,
0x1b,
0xf8,
0xe4,
0x04,
0x1c,
0x09,
0xfe,
0x09,
0xff,
0x08,
0x00,
0x08,
0xff,
0x09,
0xff,
0x0a,
0xff,
0x09,
0x01,
0x07,
0xfe,
0x01,
0xff,
0xfb,
0xf7,
0xff,
0xfe,
0xfc,
0xfa,
0x02,
0xff,
0xfa,
0xf7,
0x00,
0xff,
0xfc,
0xfa,
0x01,
0xf6,
0xfc,
0xfc,
0x01,
0xfc,
0x02,
0x00,
0x07,
0xfa,
0xff,
0xff,
0x09,
0x02,
0xfd,
0x00,
0xfe,
0xfe,
0xf4,
0x07,
0xff,
0xfd,
0xf7,
0x07,
0xfd,
0x00,
0xf6,
0x0b,
0x00,
0xff,
0xfa,
0x0b,
0x02,
0x0a,
0x0b,
0x16,
0x03,
0x09,
0x07,
0x18,
0x05,
0x13,
0x07,
0x0e,
0x04,
0x12,
0x07,
0x12,
0xff,
0xff,
0xf8,
0x05,
0xff,
0xff,
0xf9,
0x06,
0xfe,
0xfd,
0xf9,
0x05,
0xff,
0xfd,
0xfa,
0x05,
0x00,
0xff,
0xfb,
0x02,
0xfa,
0x00,
0xf9,
0x00,
0xff,
0xfd,
0xfc,
0x03,
0xf8,
0xfe,
0xf8,
0x00,
0xff,
0x00,
0x04,
0xfb,
0xff,
0x00,
0x05,
0xfa,
0x01,
0x02,
0x04,
0xfc,
0xff,
0x02,
0x06,
0xfb,
0xfd,
0xf9,
0xf4,
0xff,
0xff,
0xf7,
0xf5,
0xff,
0xfa,
0xf5,
0xf2,
0x01,
0xfd,
0xf4,
0xf3,
0x01,
0xfb,
0x0f,
0xf1,
0xf6,
0xf8,
0x0f,
0xf3,
0xf6,
0xfc,
0x0c,
0xf4,
0xf7,
0xf9,
0x0c,
0xf6,
0xf8,
0x18,
0x01,
0xfb,
0xfa,
0x18,
0x00,
0xfb,
0xfc,
0x16,
0x01,
0xfa,
0xf9,
0x15,
0x00,
0xfb,
0xfd,
0xfe,
0xfe,
0xfd,
0x00,
0xff,
0xff,
0xfe,
0xfe,
0x00,
0xfe,
0xfe,
0x01,
0x00,
0xff,
0xfe,
0xff,
0x01,
0x04,
0xe2,
0xfb,
0xfe,
0x02,
0xe9,
0xfc,
0x00,
0x00,
0xe4,
0xfb,
0xfd,
0xff,
0xe9,
0xfb,
0xff,
0x00,
0x05,
0x01,
0x00,
0x00,
0x05,
0x01,
0xff,
0xff,
0x05,
0x01,
0x00,
0xff,
0x05,
0x01,
0xfa,
0xfb,
0xfd,
0xfe,
0xfb,
0xfc,
0xfb,
0xfb,
0xf9,
0xfa,
0xff,
0xfe,
0xfb,
0xfa,
0xfc,
0xfb,
0x01,
0x02,
0x15,
0xf5,
0xfe,
0x02,
0x16,
0xf7,
0x01,
0xff,
0x16,
0xf5,
0xfd,
0xff,
0x17,
0xf6,
0x10,
0x01,
0x03,
0x04,
0x14,
0x01,
0x06,
0x05,
0x12,
0xff,
0xff,
0x01,
0x14,
0xfe,
0x03,
0x02,
0x04,
0xf2,
0xf6,
0xf3,
0xfc,
0xf3,
0xfa,
0xf5,
0x07,
0xf7,
0xf4,
0xf2,
0xff,
0xf8,
0xf5,
0xf3,
0x06,
0x13,
0xf7,
0xf7,
0x03,
0x14,
0xf7,
0xf9,
0x09,
0x11,
0xfa,
0xf6,
0x03,
0x12,
0xfc,
0xf8,
0xfa,
0xef,
0x02,
0x01,
0xfa,
0xef,
0x00,
0x00,
0xfb,
0xf2,
0x03,
0x01,
0xfb,
0xf2,
0x01,
0x00,
0x0b,
0x01,
0x0a,
0x07,
0x09,
0xff,
0x08,
0x08,
0x0b,
0x01,
0x08,
0x04,
0x09,
0xff,
0x07,
0x06,
0xff,
0x03,
0xfb,
0x07,
0x00,
0x04,
0xfc,
0x08,
0xff,
0x04,
0xfa,
0x08,
0x01,
0x06,
0xfc,
0x09,
0x04,
0x02,
0xfc,
0xf4,
0x00,
0x02,
0xfb,
0xf6,
0x04,
0x00,
0xfc,
0xf5,
0x00,
0xff,
0xfb,
0xf6,
0xff,
0xff,
0x05,
0xfe,
0x00,
0x00,
0x06,
0xff,
0xff,
0xff,
0x05,
0xfe,
0x00,
0xff,
0x06,
0xff,
0xfa,
0xff,
0x01,
0x02,
0xfe,
0xfc,
0xff,
0x03,
0xf6,
0xfe,
0x01,
0x00,
0xf8,
0xfb,
0x02,
0x04,
0xfa,
0xf6,
0xed,
0xe7,
0xf8,
0xf3,
0xec,
0xe5,
0xfa,
0xfa,
0xf3,
0xed,
0xf9,
0xf8,
0xf0,
0xeb,
0x21,
0x02,
0x10,
0xef,
0x21,
0x02,
0x0d,
0xef,
0x21,
0xff,
0x11,
0xed,
0x21,
0xfd,
0x0e,
0xee,
0x02,
0x03,
0xfd,
0xfd,
0x0d,
0x07,
0xf7,
0xf9,
0x08,
0x08,
0xfc,
0xfc,
0x0d,
0x0a,
0xf7,
0xf7,
0x12,
0xfd,
0xef,
0xe9,
0x11,
0xfd,
0xee,
0xeb,
0x12,
0xfd,
0xef,
0xed,
0x12,
0xfc,
0xed,
0xed,
0xfd,
0xff,
0x01,
0x0a,
0xfe,
0xff,
0x00,
0x08,
0xfe,
0xfe,
0x02,
0x0a,
0xfe,
0xfe,
0x00,
0x08,
0xfc,
0xfc,
0x13,
0x16,
0x03,
0xfb,
0x12,
0x14,
0xfd,
0xfc,
0x13,
0x15,
0x04,
0xfd,
0x12,
0x15,
0xfe,
0xc9,
0x07,
0x27,
0xfa,
0xc8,
0x07,
0x26,
0xfe,
0xc3,
0x07,
0x27,
0xfb,
0xc2,
0x06,
0x26,
0x05,
0x03,
0x0c,
0x03,
0x03,
0x03,
0x09,
0x02,
0x04,
0x04,
0x0b,
0x04,
0x03,
0x03,
0x06,
0x02,
0x00,
0xff,
0xfc,
0xf2,
0xff,
0xfd,
0xfc,
0xf8,
0x01,
0xfe,
0xfb,
0xf2,
0x00,
0xfc,
0xfc,
0xf8,
0x02,
0xf8,
0x04,
0x01,
0x02,
0x01,
0x03,
0x03,
0x06,
0xfa,
0x04,
0x08,
0x0b,
0x02,
0x01,
0x07,
0x00,
0xff,
0xf7,
0x08,
0x02,
0xff,
0xfa,
0x08,
0xfe,
0x00,
0xf7,
0x0f,
0x02,
0x01,
0xfb,
0x0d,
0x02,
0x11,
0x0d,
0x26,
0x01,
0x11,
0x0a,
0x25,
0x02,
0x1a,
0x0a,
0x1f,
0x02,
0x18,
0x08,
0x20,
0x00,
0xff,
0xfb,
0x06,
0x00,
0xff,
0xfc,
0x07,
0xff,
0xfe,
0xfc,
0x06,
0x00,
0xfe,
0xfd,
0x07,
0xfd,
0xff,
0xf9,
0x00,
0xfb,
0x00,
0xf8,
0xfc,
0xfd,
0xfd,
0xf9,
0x00,
0xfb,
0xfe,
0xf9,
0xfd,
0x00,
0xfe,
0x05,
0xfa,
0x00,
0xfe,
0x07,
0xf9,
0x01,
0x00,
0x05,
0xfc,
0x00,
0x00,
0x08,
0xfc,
0xff,
0xf9,
0xf4,
0xf8,
0xfe,
0xf9,
0xf6,
0xf9,
0xfd,
0xfa,
0xf5,
0xfc,
0xfe,
0xf8,
0xf6,
0xfd,
0xfd,
0x0d,
0xfb,
0xf7,
0xf9,
0x0d,
0xfb,
0xf6,
0xfd,
0x0e,
0xf8,
0xf1,
0xfa,
0x0e,
0xf8,
0xf0,
0x0f,
0xf9,
0x02,
0xfb,
0x11,
0xfa,
0x02,
0x00,
0x0e,
0xfb,
0x01,
0xfa,
0x0f,
0xfb,
0x02,
0x00,
0x05,
0xfe,
0xf9,
0xfd,
0xff,
0xff,
0xf8,
0xfc,
0x06,
0xfc,
0xf9,
0xfd,
0x00,
0xfd,
0xf9,
0xfd,
0xfa,
0x02,
0xf5,
0xfc,
0x00,
0x01,
0xf8,
0xfe,
0xfc,
0xfe,
0xf6,
0xfb,
0xff,
0xfe,
0xf9,
0xfd,
0x00,
0x00,
0x02,
0x00,
0x01,
0x00,
0x03,
0x00,
0x01,
0xff,
0x02,
0xff,
0x00,
0xff,
0x02,
0xff,
0xfc,
0xec,
0x03,
0x09,
0xfd,
0xed,
0x03,
0x08,
0xfd,
0xf3,
0x01,
0x01,
0xfd,
0xf4,
0x01,
0xff,
0x02,
0x04,
0x0c,
0xf1,
0xff,
0x04,
0x0d,
0xf2,
0x02,
0x00,
0x0c,
0xf1,
0xff,
0x00,
0x0e,
0xf1,
0x09,
0xfd,
0xfc,
0xf7,
0x0c,
0xfc,
0x00,
0xfb,
0x0a,
0xfb,
0xfb,
0xf6,
0x0c,
0xfa,
0xff,
0xfa,
0x00,
0xf3,
0xfc,
0xf8,
0xfa,
0xf3,
0x00,
0xf9,
0x00,
0xf8,
0xff,
0xf9,
0xfb,
0xfa,
0x04,
0xfc,
0x05,
0x17,
0xf7,
0xf3,
0x04,
0x18,
0xf8,
0xf5,
0x06,
0x14,
0xf4,
0xed,
0x03,
0x16,
0xf5,
0xef,
0xfb,
0xec,
0x04,
0x05,
0xfb,
0xee,
0x02,
0x02,
0xfc,
0xf0,
0x04,
0x07,
0xfd,
0xf1,
0x03,
0x04,
0x07,
0x04,
0x42,
0x2b,
0x01,
0x03,
0x40,
0x2a,
0x07,
0x01,
0x40,
0x2a,
0x00,
0x00,
0x40,
0x2a};
