/* SPDX-License-Identifier: GPL-2.0 */
/*
 * Copyright (c) 2020 MediaTek Inc.
 *
 * Author: Ya-Wen Hsu <Ya-Wen.Hsu@mediatek.com>
 *
 */

char fdvt_kernel_bias_loop10_0_frame01[] = {
0x02,
0x0b,
0x07,
0x04,
0x11,
0x0f,
0x03,
0x0c,
0x07,
0xff,
0x02,
0x03,
0x02,
0x0c,
0x0b,
0xfb,
0x09,
0x0c,
0x05,
0x02,
0x02,
0x07,
0x0a,
0xf9,
0x09,
0x10,
0xf8,
0xed,
0xf1,
0xfa,
0xf4,
0xf3,
0x02,
0x06,
0x00,
0x02,
0x09,
0xff,
0x07,
0x08,
0xfd,
0x02,
0xfa,
0xfa,
0xfc,
0xfe,
0xfa,
0xf9,
0xfc,
0xf5,
0xf8,
0xfe,
0xf5,
0xfc,
0x00,
0x03,
0xfb,
0x03,
0x14,
0x03,
0xf9,
0xfa,
0xfa,
0xfc,
0xfc,
0xfc,
0xfb,
0x10,
0xfa,
0xf9,
0x19,
0x07,
0x03,
0xf9,
0x06,
0x03,
0x04,
0x02,
0xfa,
0x0a,
0x06,
0x0a,
0xf7,
0xf5,
0xfa,
0xfa,
0xf2,
0xf6,
0xfd,
0xf3,
0xfa,
0x00,
0xfc,
0xfa,
0xfd,
0x00,
0x03,
0x03,
0x00,
0x01,
0xfe,
0x03,
0xef,
0xf2,
0xfa,
0xea,
0xe9,
0xfd,
0xec,
0xf6,
0x01,
0xf8,
0xf6,
0xfc,
0x03,
0x05,
0xfb,
0xff,
0x03,
0xfb,
0x01,
0xff,
0x08,
0x0c,
0xfe,
0x0b,
0x0c,
0x00,
0x10,
0x0e,
0x05,
0x08,
0x00,
0x0c,
0x11,
0x08,
0x0d,
0x15,
0x0e,
0x05,
0x0e,
0x05,
0x01,
0x00,
0xfe,
0xfe,
0xfd,
0x07,
0xfe,
0xfb,
0x00,
0xfe,
0xfd,
0x01,
0xff,
0x00,
0x06,
0x04,
0x04,
0x02,
0xfd,
0xf4,
0xf2,
0xf7,
0x15,
0x1d,
0x18,
0x07,
0x1a,
0x18,
0xf9,
0xfa,
0xfd,
0xff,
0xfc,
0xf9,
0x11,
0x13,
0x07,
0x21,
0x23,
0x05,
0x19,
0x14,
0x07,
0x09,
0x03,
0x05,
0x02,
0x05,
0x03,
0x02,
0x03,
0xfd,
0xf6,
0x06,
0x08,
0x02,
0x0d,
0x08,
0xfd,
0x16,
0x09,
0xfe,
0x0d,
0x11,
0x05,
0x0c,
0xf7,
0x04,
0x0d,
0xfe,
0x01,
0x0e,
0xfc,
0xfd,
0xfc,
0x00,
0xf1,
0xf3,
0x05,
0xf0,
0xf9,
0x06,
0xfe,
0xfd,
0xfe,
0xf6,
0xf9,
0x00,
0xf8,
0xff,
0x03,
0xf8,
0x00,
0xf0,
0xf0,
0xf2,
0xf7,
0xf5,
0x09,
0x03,
0x08,
0x04,
0x06,
0x0c,
0xfc,
0xf7,
0xf8,
0xf9,
0xfa,
0xfa,
0xf2,
0xf9,
0xfd,
0xfe,
0x0a,
0xfc,
0xf7,
0xf8,
0xfb,
0xf6,
0xf6,
0xfc,
0xfc,
0xfb,
0xff,
0xfe,
0xf8,
0x01,
0xf8,
0xf3,
0x09,
0x0d,
0x03,
0x09,
0x0a,
0x00,
0xf7,
0xf5,
0x01,
0xfd,
0xf7,
0xfb,
0xfe,
0xff,
0x07,
0x05,
0x05,
0x0d,
0x04,
0x15,
0x1e,
0x0b,
0x10,
0x20,
0x09,
0x05,
0x05,
0xfa,
0x02,
0xfe,
0xf8,
0xf9,
0xea,
0xed,
0xed,
0xfc,
0x08,
0x13,
0x11,
0xf7,
0xfa,
0xfd,
0xff,
0xf7,
0xf0,
0x03,
0x09,
0x06,
0x07,
0x02,
0x06,
0xfc,
0xf6,
0x06,
0xfb,
0xf2,
0xf8,
0xed,
0xf2,
0xf4,
0xe3,
0xed,
0xf4,
0xf5,
0xf7,
0xfe,
0x01,
0xf6,
0xf2,
0xf4,
0xf3,
0xf2,
0xf0,
0xfd,
0x05,
0x01,
0xf9,
0xfc,
0xfa,
0xf9,
0x14,
0xf5,
0x1f,
0x3a,
0xec,
0x0e,
0x27,
0x03,
0xf8,
0xf0,
0x07,
0xf6,
0xf3,
0x01,
0x00,
0x00,
0x0f,
0x0b,
0x06,
0x09,
0x0a,
0x08,
0x04,
0x00,
0xfc,
0xfb,
0xf9,
0x0a,
0x08,
0x04,
0x0a,
0xfe,
0xf8,
0xfb,
0xf7,
0xf1,
0xf1,
0xf5,
0xf4,
0xf8,
0x02,
0xf8,
0xff,
0x04,
0xff,
0x04,
0xff,
0xf9,
0xf9,
0xfd,
0xf6,
0xf5,
0xf7,
0xf9,
0xf5,
0xf8,
0xf4,
0xf5,
0xfd,
0xfa,
0xf6,
0xf7,
0xf7,
0xff,
0x0a,
0x08,
0x0b,
0x0b,
0x01,
0xfb,
0xfe,
0x01,
0x05,
0x07,
0x06,
0x02,
0x01,
0x08,
0x0c,
0x06,
0xfb,
0xf8,
0x00,
0xf4,
0xef,
0xf7,
0xf7,
0xee,
0xf5,
0x00,
0x03,
0x09,
0x05,
0x06,
0x09,
0x09,
0xff,
0x00,
0xfc,
0xf9,
0x03,
0x08,
0x07,
0x09,
0x10,
0x0d,
0xfd,
0x05,
0x07,
0xfa,
0xf8,
0xfe,
0xfa,
0x06,
0x01,
0xff,
0x07,
0x05,
0x07,
0x05,
0xfe,
0xfc,
0xfb,
0x02,
0xff,
0x01,
0x04,
0x03,
0x07,
0x01,
0xf8,
0xfd,
0x04,
0x04,
0xfe,
0x05,
0x01,
0xfe,
0x01,
0xfd,
0x00,
0x01,
0x03,
0xfe,
0xfd,
0x04,
0x01,
0x04,
0x07,
0x09,
0x09,
0x02,
0x05,
0x07,
0x09,
0x09,
0x11,
0xff,
0x02,
0x0d,
0x11,
0x0e,
0xfa,
0xf0,
0xf0,
0xf9,
0xef,
0xf6,
0xff,
0xff,
0x00,
0xf1,
0xe9,
0xf4,
0xef,
0xeb,
0xed,
0xe2,
0xeb,
0xf3,
0xe9,
0xec,
0xfc,
0x00,
0xfa,
0xf8,
0x08,
0x06,
0xf6,
0x08,
0x15,
0xf6,
0x10,
0x07,
0x02,
0x00,
0xf8,
0xf2,
0xfc,
0xf3,
0xf3,
0xf8,
0x0c,
0x1e,
0x0d,
0x18,
0x26,
0x10,
0xde,
0xec,
0xf6,
0xf2,
0xf8,
0xfa,
0xfd,
0x00,
0x00,
0xfc,
0xfc,
0x05,
0x03,
0xfa,
0xfd,
0xf8,
0x17,
0x1c,
0x05,
0x11,
0x15,
0x08,
0xfe,
0x00,
0xfd,
0x02,
0x03,
0xfc,
0x06,
0x02,
0x00,
0x03,
0x0c,
0x04,
0x07,
0x07,
0xf0,
0xf9,
0xfe,
0xf6,
0xf9,
0xf6,
0x03,
0x03,
0x00,
0xf8,
0xfc,
0xfd,
0xf5,
0x03,
0xf4,
0xea,
0xf8,
0xf9,
0xf3,
0xff,
0x09,
0x07,
0xfb,
0x12,
0x0f,
0xfe,
0x04,
0x05,
0xf6,
0xf4,
0xf7,
0xf7,
0x04,
0x04,
0x02,
0x16,
0x0c,
0x05,
0x12,
0x08,
0xfd,
0x03,
0xfd,
0x05,
0x14,
0xf8,
0x03,
0x10,
0x02,
0x00,
0x03,
0x0a,
0xfd,
0x01,
0x0f,
0xfd,
0xfd,
0x05,
0xff,
0x06,
0x0a,
0x08,
0x01,
0x09,
0x05,
0x0b,
0x0d,
0x06,
0x0c,
0x0d,
0x01,
0xfd,
0xfe,
0xfe,
0x00,
0xf5,
0x09,
0x10,
0x06,
0x09,
0x0f,
0x0b,
0x05,
0x03,
0x08,
0x01,
0x11,
0x11,
0x13,
0x12,
0x16,
0x03,
0xf7,
0xfb,
0xfc,
0x02,
0xfb,
0x04,
0x01,
0xfa,
0xf9,
0xfb,
0x02,
0xff,
0x00,
0xff,
0xfb,
0xff,
0xf8,
0xfc,
0xfc,
0xf7,
0xff,
0xf8,
0xfb,
0x00,
0xfd,
0xfc,
0xfd,
0x03,
0xfa,
0xf8,
0xfc,
0xfc,
0xfc,
0xfc,
0x00,
0xf9,
0xfd,
0x00,
0xfc,
0xfd,
0x00,
0xf1,
0xf7,
0xf7,
0xf6,
0xf5,
0xf3,
0xf6,
0x04,
0x01,
0xfa,
0xff,
0xf9,
0xf5,
0xfa,
0x00,
0xfe,
0x02,
0x00,
0xfd,
0xf4,
0x0a,
0x04,
0x02,
0xfa,
0xf9,
0x02,
0xf4,
0xf5,
0xff,
0xfd,
0x00,
0x06,
0x0a,
0x06,
0x0d,
0x0e,
0x09,
0x03,
0x04,
0x05,
0x09,
0x01,
0xfe,
0xfc,
0x03,
0xf3,
0xf5,
0xfd,
0xf2,
0xf6,
0xf6,
0xfe,
0xfe,
0xff,
0x03,
0x06,
0x0b,
0xff,
0x09,
0x0e,
0x03,
0x11,
0xef,
0xf3,
0xfc,
0xf9,
0xf7,
0xfb,
0xfa,
0xf5,
0x00,
0x04,
0x0b,
0x00,
0x05,
0x0e,
0xfd,
0x03,
0x0b,
0xf7,
0x02,
0xfa,
0xef,
0xf5,
0xfd,
0xf7,
0xf2,
0xfe,
0xff,
0x01,
0xfe,
0x08,
0x0a,
0x0c,
0x05,
0x05,
0x10,
0x0d,
0x08,
0x11,
0x05,
0xfe,
0x02,
0x00,
0x06,
0x06,
0x07,
0x06,
0x0e,
0x0a,
0x01,
0x01,
0x05,
0x0b,
0x14,
0x0b,
0x09,
0x09,
0x09,
0x12,
0x06,
0x04,
0x06,
0x04,
0x07,
0x01,
0x02,
0xfe,
0xf9,
0xfc,
0xfb,
0xf9,
0xf9,
0x09,
0x07,
0xff,
0x06,
0x02,
0xf5,
0xed,
0xf6,
0x01,
0xf1,
0xf5,
0x03,
0x07,
0x05,
0xfc,
0xfe,
0xfe,
0xf8,
0xff,
0x05,
0xfa,
0xf7,
0x11,
0x0f,
0x0a,
0x05,
0xfc,
0xfe,
0x0a,
0x00,
0xf4,
0xf8,
0xf0,
0xef,
0xf6,
0xf2,
0x11,
0x04,
0x06,
0x0d,
0x13,
0x0f,
0x04,
0x01,
0xfd,
0xf8,
0xf6,
0xfe,
0xfd,
0xf3,
0xfa,
0xfb,
0x04,
0xf4,
0x05,
0x08,
0xfc,
0x09,
0x0c,
0xf9,
0xfc,
0xf8,
0x01,
0x08,
0x0a,
0xf7,
0x0c,
0x0d,
0x0f,
0x02,
0x0e,
0x01,
0xf6,
0x12,
0x1e,
0x23,
0x07,
0x24,
0x27,
0xfc,
0x02,
0x0a,
0xf7,
0x03,
0x06,
0x0a,
0xf5,
0x08,
0x02,
0xec,
0x09,
0xfc,
0xea,
0xfc,
0xf6,
0xff,
0xfa,
0xf3,
0x01,
0x06,
0x06,
0x01,
0x08,
0x03,
0x1c,
0x27,
0x1e,
0x2e,
0x33,
0x20,
0x14,
0x1a,
0x0d,
0xfd,
0xf5,
0xfd,
0xf8,
0xf4,
0xfa,
0xf6,
0xfd,
0xf3,
0xfa,
0xfe,
0xfb,
0xfa,
0xfc,
0x0b,
0x0d,
0x02,
0xee,
0xf6,
0xfe,
0x02,
0x06,
0x03,
0xfe,
0xfa,
0xfa,
0xf6,
0xfa,
0xfa,
0xf4,
0xf2,
0xf8,
0xe4,
0x02,
0x1a,
0x0c,
0x0e,
0x15,
0xfe,
0xfc,
0xef,
0xeb,
0xf9,
0x06,
0xfe,
0xf3,
0xfe,
0xf8,
0xf7,
0x1c,
0x0f,
0x0b,
0x03,
0x01,
0x1d,
0x29,
0x04,
0x0d,
0x0e,
0xfa,
0xef,
0xf1,
0x0b,
0x0a,
0x0a,
0xec,
0xfc,
0xfd,
0xeb,
0xfb,
0x07,
0x0a,
0x0c,
0xfd,
0xf5,
0x00,
0x01,
0xf3,
0xfd,
0x02,
0xfe,
0xf9,
0xde,
0xe8,
0x03,
0xfb,
0xf9,
0x02,
0x2a,
0x0c,
0xf8,
0x29,
0x07,
0xf5,
0x06,
0x08,
0xff,
0x0f,
0xdd,
0x01,
0x45,
0xfa,
0x08,
0x1d,
0x1f,
0x0d,
0x08,
0x1b,
0x0c,
0x0e,
0x06,
0x04,
0x1d,
0xf5,
0xfb,
0x08,
0x06,
0xff,
0x0a,
0x0c,
0xfe,
0x08,
0x0d,
0xfb,
0xfb,
0xff,
0x0a,
0xff,
0x01,
0xfb,
0xf7,
0xf5,
0xf7,
0xf7,
0xf6,
0x09,
0x09,
0x0d,
0x07,
0x06,
0x05,
0x00,
0xf5,
0xf1,
0xff,
0x06,
0x02,
0xfe,
0xf7,
0xfb,
0xfd,
0xfa,
0xfb,
0xfd,
0x01,
0xff,
0x07,
0x11,
0x0a,
0x14,
0x0c,
0x0b,
0x01,
0x0c,
0x08,
0x01,
0x0b,
0x09,
0x03,
0x08,
0x0e,
0x0b,
0xfd,
0x04,
0x08,
0xfc,
0x0d,
0x26,
0x05,
0xfa,
0x3c,
0x1f,
0x0a,
0x01,
0x4b,
0x58,
0x2e,
0x17,
0x48,
0x0c,
0x21,
0xfc,
0x27};
