/* SPDX-License-Identifier: GPL-2.0 */
/*
 * Copyright (c) 2020 MediaTek Inc.
 *
 * Author: Ya-Wen Hsu <Ya-Wen.Hsu@mediatek.com>
 *
 */

char fdvt_kernel_bias_loop02_0_frame01[] = {
0xfc,
0xe6,
0xf3,
0xff,
0xfa,
0x02,
0xff,
0xfe,
0xf2,
0xf2,
0xfc,
0x00,
0x01,
0xfd,
0x01,
0xf7,
0x06,
0x00,
0x04,
0x05,
0x03,
0x0d,
0x0a,
0xec,
0x03,
0x0c,
0xf8,
0x05,
0x09,
0xf3,
0xfd,
0xfe,
0x06,
0x09,
0xf1,
0xfe,
0x00,
0xfc,
0x00,
0xfa,
0xee,
0xf3,
0x02,
0xee,
0xe4,
0x04,
0xf5,
0xf3,
0x03,
0xee,
0xf3,
0xfd,
0xf8,
0x0f,
0xf0,
0xf4,
0x12,
0xef,
0xfa,
0x14,
0x0e,
0x01,
0x0a,
0xee,
0xf3,
0xef,
0xfe,
0x02,
0x00,
0xf7,
0x05,
0xeb,
0x06,
0xfb,
0xea,
0x18,
0xfc,
0xf3,
0x13,
0xf5,
0x00,
0x09,
0xf7,
0xf9,
0x0f,
0x04,
0x06,
0x02,
0x07,
0x13,
0x0e,
0xe9,
0xee,
0xf2,
0xee,
0x07,
0x07,
0xee,
0x05,
0x0b,
0xf3,
0xfa,
0x0b,
0xfd,
0xf4,
0x0b,
0xff,
0x01,
0x05,
0xfb,
0x04,
0xe7,
0x04,
0x01,
0x04,
0xfa,
0xf5,
0x04,
0x0b,
0xef,
0x07,
0x15,
0xec,
0xfa,
0xf6,
0x05,
0x12,
0x04,
0xfc,
0xf9,
0x04,
0xe6,
0xf9,
0x0c,
0x0b,
0xe9,
0xf8,
0x00,
0xec,
0xf7,
0x06,
0xfe,
0xf2,
0xf4,
0xf8,
0xfc,
0xfd,
0x09,
0xfe,
0xfe,
0x0e,
0x0a,
0xfe,
0x02,
0x01,
0x0c,
0xfb,
0x0c,
0x07,
0xf8,
0xfb,
0x00,
0x05,
0x01,
0x10,
0xf7,
0xf9,
0x0b,
0x04,
0x0a,
0xfa,
0xfa,
0x00,
0xf8,
0x05,
0x09,
0x15,
0x09,
0x0e,
0x03,
0x06,
0x0d,
0x0d,
0x06,
0xf2,
0xf5,
0xf8,
0xf3,
0xfe,
0x01,
0x08,
0x11,
0x05,
0x03,
0x0e,
0x01,
0xff,
0x05,
0x0e,
0x01,
0x0c,
0x15,
0x11,
0x07,
0x0f,
0x03,
0x01,
0xf9,
0xfc,
0x0e,
0x07,
0x05,
0xf2,
0xfa,
0x0b,
0x03,
0xff,
0xf9,
0x07,
0x08,
0xf7,
0x0a,
0x09,
0x00,
0xf4,
0x0b,
0x03,
0x02,
0x00,
0x03,
0x00,
0x03,
0xf8,
0x0e,
0xfc,
0x10,
0x04,
0x01,
0x0d,
0xfa,
0x20,
0xf3,
0xdb,
0x12,
0x03,
0xf5,
0x0c,
0x09,
0x07,
0xf7,
0xfd,
0xfe,
0x08,
0xf5,
0x0e,
0x01,
0x00,
0xff,
0x0a,
0x0f,
0x07,
0x0e,
0xff,
0x00,
0x0f,
0xfc,
0x05,
0x10,
0x03,
0x07,
0xf9,
0xfe,
0xee,
0x09,
0xe5,
0x1b,
0x05,
0xf3,
0xf7,
0x05,
0xfc,
0x05,
0x00,
0xff,
0x09,
0x00,
0xec,
0xfc,
0x05,
0xff,
0xfe,
0xfc,
0xf2,
0xfa,
0x10,
0x00,
0xfb,
0xfa,
0x0e,
0x0d,
0x01,
0xf1,
0xfa,
0x18,
0x08,
0xfe,
0xfd,
0x01,
0xfe,
0x01,
0x07,
0x08,
0x15,
0x08,
0x06,
0x0a,
0xef,
0x04,
0x0b,
0x0a,
0xe3,
0xfc,
0xe3,
0xfb,
0xfc,
0xfd,
0x00,
0xfd,
0xfb,
0x04,
0x06,
0xf5,
0x05,
0x07,
0xe9,
0xf5,
0x14,
0x08,
0xf0,
0xf4,
0xf7,
0xfe,
0xfa,
0x03,
0x07,
0x00,
0xf8,
0x05,
0xfa,
0xf5,
0x07,
0x02,
0xfe,
0x0c,
0x04,
0xf1,
0x04,
0x0f,
0xff,
0xfe,
0xf3,
0x01,
0x0e,
0xf0,
0xfc,
0x11,
0x20,
0x0e,
0xfd,
0xfe,
0xfd,
0xf6,
0xf1,
0x0a,
0xfc,
0xf3,
0x0f,
0x0e,
0x0c,
0xff,
0xfc,
0x0b,
0xfc,
0xf2,
0x04,
0x03,
0xfa,
0xf8,
0x01,
0x04,
0x10,
0x0b,
0xff,
0xfe,
0xfb,
0x05,
0xf8,
0x02,
0x06,
0x04,
0xfd,
0xe9,
0xfc,
0xfc,
0x07,
0x17,
0xe5,
0x0b,
0x03,
0xeb,
0x09,
0xf7,
0xeb,
0xff,
0xf4,
0x02,
0x04,
0x07,
0xec,
0xe3,
0x04,
0xe7,
0xf2,
0xfe,
0xf0,
0x06,
0x0a,
0x07,
0x0d,
0xfa,
0xf2,
0x03,
0x00,
0x02,
0x1b,
0xf6,
0xea,
0xf2,
0xf1,
0xeb,
0xee,
0xfc,
0xea,
0xf7,
0x09,
0xf5,
0x0e,
0x05,
0xfd,
0x09,
0x02,
0x09,
0xf5,
0xf2,
0xfd,
0xf4,
0xfa,
0xfc,
0x05,
0x03,
0xf3,
0x0b,
0x04,
0xfb,
0x06,
0x0b,
0xf5,
0xf9,
0x03,
0x10,
0x07,
0x08,
0xf8,
0xfd,
0x0e,
0x01,
0xfd,
0x05,
0xfe,
0xfd,
0xf9,
0xfa,
0x28,
0x03,
0x06,
0x09,
0x08,
0xfc,
0xf7,
0x03,
0x11,
0xf9,
0x1d,
0x23,
0x07,
0x13,
0x18,
0xe6,
0xf5,
0x03,
0xe9,
0x0b,
0x10,
0xfa,
0x11,
0x06,
0xf1,
0x06,
0xfd,
0x0a,
0x12,
0xfb,
0x03,
0x06,
0x00,
0x06,
0x09,
0xf8,
0x01,
0x0b,
0xf5,
0x0f,
0x08,
0x07,
0x0a,
0x02,
0x02,
0xfc,
0x12,
0xf8,
0xe4,
0x0f,
0xf1,
0xe5,
0x03,
0x05,
0x0a,
0xfb,
0x03,
0x04,
0x05,
0xf4,
0x06,
0xf4,
0x06,
0x09,
0xfe,
0xfb,
0xf0,
0x06,
0x0c,
0xfa,
0x04,
0x06,
0xfa,
0xff,
0x07,
0xf2,
0xee,
0x05,
0x07,
0x05,
0x08,
0xf8,
0xf4,
0x09,
0xfc,
0xf7,
0xf6,
0x04,
0xf7,
0xfe,
0x0b,
0x0b,
0xf0,
0xec,
0x3a,
0x31,
0x3b,
0xfc,
0xf6,
0xf6,
0xcb,
0xb8,
0xbe,
0xfb,
0x03,
0xfa,
0xfd,
0x09,
0x08,
0x00,
0xf9,
0x08,
0xfe,
0x06,
0x1b,
0x05,
0xf2,
0x14,
0x09,
0xed,
0x06,
0x00,
0xee,
0x15,
0x03,
0x0b,
0x0b,
0x08,
0x04,
0x03,
0x04,
0x00,
0xf5,
0xf0,
0xff,
0xff,
0x02,
0xfc,
0xf8,
0xff,
0xfe,
0xfd,
0xf8,
0x0b,
0x04,
0x2e,
0x11,
0xe7,
0x14,
0xf8,
0xde,
0x0c,
0xfd,
0xf6,
0x09,
0x13,
0x0b,
0x01,
0x04,
0x01,
0x09,
0xfb,
0xfd,
0x04,
0xec,
0x08,
0xec,
0xeb,
0x14,
0xf4,
0xf0,
0x1f,
0x10,
0x0c,
0x10,
0x0e,
0x08,
0x02,
0xf4,
0xff,
0xfe,
0x00,
0xf8,
0xfb,
0x07,
0x10,
0xfa,
0x07,
0xf6,
0xfd,
0xfe,
0xfe,
0x1b,
0xfc,
0x15,
0x0c,
0x0d,
0x00,
0xff,
0xfc,
0xee,
0xf7,
0x00,
0x02,
0xf5,
0x1a,
0xef,
0xec,
0xea,
0xf6,
0x0a,
0xfb,
0xef,
0x03,
0x04,
0xfc,
0x07,
0x01,
0xf3,
0xff,
0x09,
0xfa,
0xef,
0x0e,
0x01,
0x04,
0x15,
0xf6,
0xfc,
0xf4,
0xf6,
0x19,
0xfc,
0xfe,
0x00,
0xf7,
0xf8,
0xfe,
0x0b,
0xfa,
0xf3,
0xee,
0xce,
0xde,
0x02,
0x12,
0x25,
0xfd,
0xff,
0x01,
0x04,
0x04,
0x04,
0xfc,
0x00,
0xfb,
0xf9,
0x04,
0xf0,
0xf5,
0xff,
0xfd,
0x0b,
0x04,
0xfc,
0x00,
0x02,
0xf9,
0xf7,
0xfc,
0x00,
0xf9,
0x07,
0xfe,
0xff,
0x02,
0x01,
0x07,
0x00,
0xff,
0x0a,
0xfe,
0xfd,
0x04,
0x02,
0x03,
0xf5,
0xec,
0xf7,
0xf7,
0x00,
0xff,
0x07,
0x04,
0x04,
0x00,
0x04,
0x0d,
0x0c,
0xf7,
0x03,
0xfa,
0xfc,
0xfd,
0xfb,
0xf8,
0xf8,
0xf4,
0x01,
0xff,
0x10,
0x08,
0xf2,
0x07,
0x02,
0xf1,
0xff,
0x03,
0xe8,
0xf1,
0x08,
0x27,
0x27,
0xf1,
0xfc,
0x12,
0xf4,
0x15,
0x11,
0x0c,
0x05,
0xf6,
0x11,
0xfe,
0x12,
0xfc,
0xed,
0x1a,
0x03,
0xef,
0x05,
0xf2,
0xf7,
0x0c,
0xfd,
0x0a,
0x0b,
0x05,
0x13,
0x01,
0xfd,
0xf7,
0x00,
0x03,
0xf6,
0x0d,
0x0c,
0xf1,
0x05,
0x04,
0x08,
0x17,
0x0c,
0x21,
0x16,
0x16,
0xed,
0x08,
0x1f,
0x29,
0x10,
0xf1,
0xe9,
0xf9,
0x00,
0x06,
0xfc,
0x08,
0x17,
0xff,
0xf8,
0x0c,
0x0f,
0x11,
0x00,
0xfa,
0xf1,
0xec,
0x08,
0x0d,
0xf5,
0x01,
0x09,
0xfb,
0xfa,
0xf9,
0xf9,
0x0d,
0x05,
0xf8,
0xf8,
0xfb,
0xf8,
0xf7,
0xec,
0xf5,
0x00,
0xf0,
0xf1,
0xfc,
0xf0,
0x0a,
0x05,
0x04,
0x07,
0x06,
0x01,
0x03,
0x02,
0x05,
0x01,
0x00,
0x0b,
0x0d,
0x07,
0x03,
0xfe,
0xfe,
0x00,
0x05,
0x0c,
0x18,
0x04,
0xfc,
0xec,
0xf4,
0xfc,
0xef,
0xf2,
0x00,
0xf9,
0xfe,
0x05,
0xfd,
0x06,
0x0f,
0x0b,
0xf9,
0xf6,
0x03,
0x09,
0x06,
0x07,
0xf7,
0x05,
0xf7,
0x02,
0x0d,
0xfc,
0xf7,
0x0a,
0x0c,
0xf6,
0x08,
0xff,
0xfc,
0xf7,
0x04,
0x06,
0xfc,
0xfc,
0x02,
0xf8,
0x10,
0xfc,
0x03,
0x0a,
0xfd,
0x10,
0xfa,
0xe9,
0x10,
0x01,
0xf8,
0xf8,
0xfd,
0xf3,
0xfd,
0xf8,
0x01,
0xfc,
0xef,
0xf3,
0xf7,
0xf5,
0xfe,
0xed,
0xf4,
0x08,
0x12,
0xea,
0xfd,
0x10,
0xff,
0x00,
0x06,
0x03,
0x03,
0x02,
0x04,
0xf5,
0xfc,
0x0b,
0x1a,
0xfb,
0xf5,
0xf3,
0xf8,
0xff,
0x09,
0x04,
0xff,
0x07,
0x03,
0xf4,
0xf7,
0x10,
0xf4,
0x00,
0xf0,
0xff,
0xf1,
0x06,
0x19,
0x11,
0x0b,
0x0f,
0x16,
0x04,
0xfa,
0x12,
0x01,
0xfe,
0xfc,
0xf7,
0x05,
0xf8,
0x07,
0x03,
0x11,
0x1f,
0x0e,
0xfb,
0xf3,
0xe4,
0x11,
0x03,
0x02,
0xf0,
0xfc,
0xf8,
0xfe,
0x03,
0xfe,
0xff,
0x02,
0xfe,
0xeb,
0x0a,
0xff,
0xf8,
0xff,
0x09,
0x0d,
0x12,
0x03,
0x0b,
0x0c,
0x0e,
0x0f,
0x05,
0xf6,
0x04,
0x10,
0x15,
0x04,
0x0a,
0x0b,
0x08,
0x11,
0x02,
0x13,
0x01,
0x05,
0x06,
0xff,
0xfc,
0x01,
0xf8,
0xfb,
0x02,
0xf7,
0xfc,
0x0d,
0x17,
0xfe,
0x03,
0xfd,
0xfa,
0xf4,
0xf1,
0x0c,
0xff,
0x03,
0x01,
0x05,
0x05,
0xf9,
0xf8,
0x0e,
0xf1,
0xf0,
0x09,
0xf3,
0xf2,
0x04,
0xe7,
0xfb,
0x0c,
0x11,
0x0e,
0xf9,
0xfb,
0x01,
0xff,
0x00,
0xf5,
0xe8,
0xfe,
0x0d,
0xfa,
0xfd,
0x05,
0x10,
0xfe,
0xf9,
0xff,
0x05,
0xfc,
0xfb,
0x04,
0x02,
0x0b,
0x00,
0x01,
0x04,
0x00,
0xd1,
0xf8,
0xf6,
0xf5,
0xf5,
0x01,
0x0d,
0x0b,
0x03,
0x0a,
0x11,
0xf4,
0xe7,
0x3e,
0x1f,
0xee,
0x3c,
0x46,
0x1e,
0x3b,
0x4c,
0x6c,
0x58,
0xfe,
0xf1,
0xe9,
0x49,
0x25,
0xfb};
