/* SPDX-License-Identifier: GPL-2.0 */
/*
 * Copyright (c) 2020 MediaTek Inc.
 *
 * Author: Ya-Wen Hsu <Ya-Wen.Hsu@mediatek.com>
 *
 */

char fdvt_kernel_bias_loop14_0_frame01[] = {
0x05,
0x08,
0x0c,
0x09,
0x1e,
0x1d,
0x16,
0x06,
0xfa,
0xf3,
0xee,
0x07,
0xe9,
0x13,
0x23,
0xf4,
0x0d,
0x17,
0x07,
0xfe,
0xfc,
0xff,
0xff,
0xed,
0xfc,
0x0a,
0xea,
0xf8,
0x11,
0xf1,
0xf0,
0xe5,
0x03,
0x0c,
0x01,
0x07,
0xfc,
0xfb,
0xfc,
0xfd,
0x0e,
0x07,
0x0f,
0x0d,
0xe8,
0xf9,
0x16,
0x0b,
0x07,
0xf5,
0x06,
0x02,
0xea,
0xf6,
0x06,
0x07,
0x0c,
0xff,
0x09,
0xf1,
0x01,
0xff,
0x05,
0x11,
0x05,
0x0d,
0xf2,
0x02,
0x0d,
0x07,
0x1c,
0x01,
0x04,
0xfa,
0xfc,
0xf9,
0xf3,
0xf8,
0xfa,
0xf8,
0x0c,
0xf6,
0x09,
0x03,
0xe9,
0x04,
0x09,
0xf8,
0xfc,
0xfb,
0xf0,
0xee,
0x08,
0xf8,
0xfa,
0xfc,
0xfc,
0x00,
0x01,
0x0a,
0xfe,
0xfc,
0x00,
0x00,
0x05,
0x04,
0xf7,
0xfe,
0x06,
0xf7,
0xfb,
0xfc,
0xeb,
0x20,
0x17,
0x27,
0x0c,
0x02,
0x11,
0xf4,
0xef,
0xf5,
0xe7,
0x0e,
0x1e,
0xf1,
0x0d,
0x0e,
0x04,
0x0a,
0x0f,
0x0d,
0x12,
0xf1,
0xfd,
0x0a,
0xfb,
0xfa,
0xf6,
0xfd,
0xec,
0xf9,
0x06,
0xfc,
0x15,
0xf9,
0x0e,
0x0f,
0x08,
0xf9,
0x15,
0x23,
0x08,
0x09,
0x03,
0x15,
0xfe,
0xf0,
0x0a,
0x10,
0x06,
0xfb,
0xf9,
0x02,
0xfb,
0xfc,
0xff,
0xff,
0x02,
0x06,
0xf3,
0xee,
0x00,
0x15,
0x03,
0x15,
0x01,
0x00,
0xfa,
0xfa,
0xf9,
0x02,
0x00,
0x01,
0x09,
0x0a,
0xff,
0x05,
0xf8,
0xf9,
0x08,
0x18,
0x10,
0x1d,
0x14,
0xfe,
0xfe,
0xf2,
0x05,
0x07,
0x04,
0xfa,
0x03,
0xfb,
0xe9,
0xf8,
0xfc,
0x00,
0xf0,
0xf8,
0x00,
0x05,
0x05,
0xf7,
0xf9,
0xfe,
0x02,
0x07,
0xfa,
0x09,
0x04,
0xf7,
0xfd,
0xfb,
0x05,
0x03,
0x02,
0x07,
0xf8,
0xfb,
0xff,
0xfc,
0x05,
0xef,
0xf5,
0xfa,
0x00,
0x11,
0xee,
0xf3,
0x05,
0x0f,
0x0c,
0xf6,
0xfc,
0xfd,
0x03,
0xf8,
0x03,
0x01,
0xf4,
0x06,
0xfd,
0x04,
0x14,
0xfc,
0xf1,
0x18,
0x1b,
0x17,
0x13,
0xfc,
0x14,
0x0f,
0x03,
0x14,
0xde,
0x1b,
0x01,
0xf5,
0x42,
0x06,
0x08,
0x02,
0x04,
0x08,
0x09,
0xe6,
0xf0,
0xf6,
0xf9,
0xfa,
0xe3,
0xfd,
0xf2,
0xf4,
0x04,
0xfb,
0xf1,
0xf3,
0x00,
0x05,
0x0f,
0x01,
0xf6,
0x00,
0xfb,
0x05,
0xfb,
0xfb,
0x11,
0x12,
0xf2,
0x05,
0x03,
0x06,
0xfd,
0x05,
0x05,
0x03,
0xfe,
0xf9,
0xfb,
0x0c,
0xf7,
0xf5,
0xf7,
0xf9,
0xfc,
0xf2,
0x06,
0x09,
0xfb,
0xff,
0x01,
0x02,
0xfa,
0xff,
0xf3,
0x07,
0xfd,
0xf5,
0x07,
0x02,
0x0f,
0xef,
0xee,
0xf9,
0xf5,
0xff,
0x09,
0xfc,
0xfe,
0x01,
0x02,
0xff,
0xee,
0xfb,
0x10,
0x08,
0xf6,
0xfd,
0x00,
0xff,
0xfa,
0xf4,
0x0e,
0x0e,
0x03,
0x0b,
0x09,
0x00,
0x02,
0xf3,
0xf0,
0xff,
0xe7,
0xf5,
0x00,
0x05,
0x0a,
0xff,
0x01,
0x06,
0x07,
0x06,
0xfd,
0xf6,
0x03,
0xec,
0xef,
0xee,
0xff,
0x04,
0x01,
0x08,
0x03,
0xfa,
0x02,
0x05,
0x02,
0x03,
0x04,
0xff,
0xfd,
0x06,
0x02,
0x01,
0x04,
0x02,
0xef,
0x0a,
0x0b,
0xfb,
0xff,
0x03,
0x08,
0xf6,
0x03,
0x12,
0xee,
0x08,
0xfe,
0xea,
0x00,
0x14,
0xee,
0xea,
0x06,
0x06,
0xf1,
0xfb,
0xfa,
0xf9,
0xf4,
0xfa,
0x02,
0x00,
0x19,
0xfc,
0x21,
0x12,
0x2e,
0x1d,
0x06,
0x1e,
0x21,
0xfb,
0xfe,
0x0f,
0x02,
0xdb,
0xc9,
0xdf,
0xe6,
0xe7,
0xf0,
0xf5,
0x1d,
0xfd,
0x05,
0x00,
0x06,
0x0a,
0xfd,
0x2d,
0x30,
0x28,
0x01,
0x01,
0x0c,
0xc2,
0xe9,
0xc1,
0x01,
0x04,
0x3a,
0x32,
0x35,
0x06,
0x07,
0x05,
0xfb,
0xfc,
0x04,
0xe1,
0x0c,
0xff,
0x09,
0x0c,
0xfa,
0x19,
0x02,
0xfc,
0xed,
0x04,
0xf6,
0xeb,
0xf7,
0xfd,
0x02,
0x0c,
0xfd,
0xf0,
0xe1,
0xf6,
0xfc,
0x12,
0x02,
0x0b,
0xee,
0xfa,
0xf3,
0x0c,
0x15,
0x17,
0x21,
0x22,
0x20,
0xf5,
0xf5,
0xed,
0xf7,
0x12,
0x14,
0xfd,
0x11,
0x00,
0xf8,
0x18,
0xf5,
0x00,
0x01,
0x1c,
0x11,
0x14,
0x15,
0x0f,
0x03,
0x06,
0x0c,
0x0f,
0x05,
0x0b,
0xf8,
0xf8,
0xee,
0x03,
0x08,
0xf9,
0xf1,
0xfd,
0xf6,
0xfe,
0x10,
0x00,
0xfd,
0xf9,
0x05,
0xee,
0xee,
0xfe,
0xee,
0x01,
0xf1,
0xff,
0x00,
0x0b,
0xfb,
0xf4,
0xf4,
0xf3,
0x03,
0xf6,
0xe0,
0xf9,
0xf1,
0x06,
0xf8,
0x01,
0x0c,
0x06,
0x09,
0x0e,
0x07,
0xff,
0x08,
0x0c,
0xff,
0xff,
0x0a,
0xfb,
0xef,
0x08,
0xf6,
0x08,
0x08,
0x0a,
0x02,
0xf2,
0x14,
0x05,
0x06,
0x09,
0x02,
0x01,
0x01,
0x10,
0xff,
0x07,
0x28,
0xff,
0x1b,
0x10,
0xfd,
0xf0,
0xee,
0xfc,
0xfe,
0x02,
0xfb,
0xf8,
0xfd,
0x04,
0x03,
0x04,
0x00,
0xf0,
0xf6,
0xfd,
0x04,
0x0a,
0x0a,
0xfa,
0xfe,
0xf0,
0xf8,
0x03,
0xf5,
0x01,
0xfc,
0xdc,
0xfd,
0xf9,
0xf0,
0xdf,
0x06,
0xfa,
0x02,
0x0e,
0xf8,
0xfe,
0xf1,
0x00,
0x01,
0x05,
0xfa,
0xed,
0xf9,
0xf3,
0xfe,
0xf8,
0xfb,
0x04,
0x08,
0x01,
0xf9,
0x06,
0x11,
0x01,
0x07,
0x04,
0xf9,
0x09,
0x0b,
0x15,
0x1f,
0xf5,
0xf9,
0x0f,
0xff,
0xfa,
0xff,
0x00,
0x0f,
0x09,
0x03,
0x12,
0xfa,
0xf2,
0xfa,
0xf9,
0xf2,
0xeb,
0xf8,
0xfa,
0xe7,
0xfc,
0xff,
0x21,
0x0c,
0xf4,
0xfc,
0xed,
0xed,
0xf4,
0xfa,
0xfd,
0xfb,
0x0d,
0xfb,
0xe0,
0x22,
0x08,
0x1c,
0x05,
0x04,
0x06,
0x02,
0x04,
0x0f,
0x0f,
0x07,
0x15,
0x0d,
0x0f,
0x1a,
0x18,
0x07,
0xfd,
0x02,
0x18,
0x08,
0xf9,
0x2d,
0x04,
0x11,
0x26,
0x0e,
0x0a,
0x0a,
0xf8,
0xfb,
0x06,
0xf3,
0xec,
0x19,
0x0a,
0x0b,
0x13,
0xf8,
0xfd,
0xfb,
0xf7,
0xf8,
0xfb,
0xf4,
0xf6,
0x01,
0x18,
0x0f,
0x09,
0x0f,
0x00,
0xfa,
0xf4,
0x04,
0xf3,
0xfa,
0xff,
0xea,
0xf3,
0x00,
0xf8,
0xe1,
0x00,
0x1c,
0xf3,
0x12,
0xfa,
0x03,
0x04,
0x00,
0x0a,
0x06,
0xf8,
0x0a,
0x04,
0xff,
0x0b,
0x08,
0xfe,
0x12,
0x02,
0x0e,
0x0c,
0x01,
0x07,
0xfb,
0xed,
0x0f,
0xf6,
0x04,
0x03,
0xf2,
0xf7,
0x08,
0xf3,
0xf0,
0xf5,
0xf3,
0xeb,
0xed,
0x02,
0xf5,
0xe9,
0xfa,
0xfd,
0xf5,
0xf9,
0xf8,
0xf9,
0xfd,
0xfc,
0x00,
0xf9,
0x03,
0xfe,
0x02,
0x0c,
0x09,
0x04,
0x0b,
0x01,
0xfe,
0xfd,
0x09,
0x0f,
0xfb,
0xfd,
0xfd,
0xff,
0xfe,
0x14,
0x17,
0x27,
0xf9,
0xf8,
0x14,
0x05,
0xf5,
0x0b,
0xe2,
0xe5,
0xf3,
0x05,
0x0f,
0x03,
0x0d,
0x21,
0x09,
0x03,
0x11,
0xf6,
0x0c,
0x14,
0x00,
0xfe,
0x10,
0x11,
0x13,
0x04,
0xff,
0x09,
0x21,
0x04,
0x02,
0x29,
0xee,
0xf6,
0x1c,
0xef,
0xfa,
0xff,
0x08,
0x0a,
0x04,
0xfc,
0xf1,
0xfa,
0xfa,
0x0b,
0xf8,
0xfa,
0xfc,
0xf6,
0xf4,
0xf7,
0xe2,
0xfe,
0xea,
0xfa,
0xfc,
0x07,
0x06,
0xfc,
0xfa,
0xf7,
0xf6,
0xfa,
0xf9,
0xfe,
0xf3,
0xfc,
0x00,
0x01,
0xf2,
0x02,
0x17,
0xf2,
0x02,
0x0f,
0x08,
0x17,
0x22,
0x02,
0x0b,
0x01,
0x1a,
0x29,
0x09,
0x09,
0x23,
0x18,
0x1c,
0xdf,
0xe1,
0x10,
0xf6,
0xf7,
0xf4,
0x05,
0x06,
0xeb,
0xee,
0xfd,
0xf6,
0x12,
0xf6,
0x03,
0x0b,
0xef,
0x02,
0x04,
0xe9,
0x05,
0xf9,
0xf7,
0x05,
0xe8,
0xf3,
0xf9,
0xfc,
0x03,
0x02,
0x05,
0xf8,
0xf6,
0xfd,
0x00,
0x09,
0x01,
0x01,
0xf9,
0x00,
0xf9,
0x07,
0x02,
0x05,
0x0e,
0xfe,
0xf9,
0xff,
0xf9,
0xe9,
0x01,
0x0a,
0xfd,
0x08,
0x16,
0xfd,
0xf8,
0xf0,
0xfa,
0xf6,
0xf1,
0x0f,
0xf9,
0xee,
0x03,
0x0d,
0xff,
0xfd,
0x06,
0x00,
0x16,
0x06,
0x09,
0x16,
0xf8,
0x00,
0x08,
0x10,
0xf5,
0xf1,
0xf7,
0x04,
0x09,
0x03,
0x09,
0x09,
0xf2,
0x06,
0x0e,
0x04,
0x06,
0x11,
0x08,
0x09,
0x07,
0x14,
0x23,
0x1c,
0x06,
0xf1,
0xfe,
0xea,
0xf5,
0xf6,
0x01,
0xff,
0xff,
0xf2,
0xfa,
0x08,
0x01,
0xf2,
0xfd,
0xff,
0xf2,
0xf9,
0xfe,
0xf9,
0xfb,
0xfb,
0xf7,
0x01,
0xff,
0x11,
0x05,
0x0f,
0xf9,
0xf5,
0xff,
0x13,
0xfc,
0x07,
0xe4,
0xeb,
0x00,
0x03,
0x14,
0x15,
0x11,
0x1e,
0x18,
0x04,
0x24,
0xf2,
0xf2,
0xf7,
0x09,
0xfe,
0xf8,
0x00,
0xfb,
0xfc,
0x06,
0x09,
0xfc,
0x03,
0xfc,
0xfe,
0x0f,
0x11,
0x02,
0x10,
0x15,
0x0b,
0xea,
0xfa,
0x04,
0xff,
0xff,
0x05,
0x0c,
0xf1,
0xf1,
0x09,
0xe2,
0xfd,
0x00,
0xec,
0xf9,
0xfe,
0x02,
0xf5,
0xfe,
0x03,
0x0d,
0xff,
0x00,
0x0c,
0xf8,
0x0c,
0xf8,
0x0b,
0x17,
0xf2,
0xff,
0xf6,
0x10,
0xfe,
0xf5,
0x0a,
0xff,
0x08,
0x1e,
0x10,
0x12,
0xf7,
0x14,
0x14,
0xf4,
0x06,
0xf1,
0xf5,
0x0b,
0xfd,
0x09,
0xfc,
0x1b,
0x0e,
0x0d,
0x0c,
0xfd,
0x0c,
0x10,
0x16,
0x10,
0x00,
0xfc,
0xff,
0x38,
0x2e,
0x23,
0xe6,
0x48,
0x1e,
0x19,
0xf5,
0xe9,
0xe0,
0x27,
0x20,
0xe6,
0x2c,
0xf1};
