/* SPDX-License-Identifier: GPL-2.0 */
/*
 * Copyright (c) 2020 MediaTek Inc.
 *
 * Author: Ya-Wen Hsu <Ya-Wen.Hsu@mediatek.com>
 *
 */

char fdvt_kernel_bias_loop00_0_frame01[] = {
0x02,
0x01,
0x06,
0x01,
0xfa,
0x02,
0x03,
0xfc,
0x00,
0x0c,
0x04,
0x0c,
0x07,
0xfb,
0x0f,
0xf7,
0xf4,
0x06,
0xfd,
0x13,
0x1b,
0x14,
0x03,
0x0d,
0x0a,
0xf4,
0xfb,
0xe9,
0xdd,
0xe5,
0xe8,
0xfd,
0xff,
0x01,
0xf3,
0xf9,
0xfb,
0xf2,
0xf8,
0xf9,
0xfa,
0x0c,
0x16,
0xe3,
0xfa,
0x10,
0xed,
0xfe,
0xf9,
0x03,
0x0b,
0x02,
0x03,
0xfb,
0x07,
0x03,
0x00,
0x09,
0x09,
0x01,
0x05,
0x1f,
0x18,
0xfc,
0x06,
0xfe,
0xf6,
0xff,
0xff,
0xeb,
0xff,
0xfa,
0xf6,
0xfb,
0xf8,
0xf8,
0xf9,
0xf9,
0xf7,
0xf9,
0xe2,
0x07,
0x04,
0xfe,
0xf0,
0x0f,
0x0c,
0xfc,
0x08,
0x17,
0x07,
0x07,
0x04,
0x01,
0x02,
0xc7,
0xf8,
0x01,
0x08,
0x05,
0x0b,
0x0c,
0x09,
0x03,
0xfb,
0x0b,
0xfc,
0xe3,
0x11,
0x07,
0xf7,
0x04,
0x0e,
0xfb,
0xe8,
0xf4,
0x05,
0xff,
0xfe,
0x0c,
0x0f,
0x0b,
0x10,
0x0b,
0x0e,
0x09,
0x09,
0x0c,
0x0a,
0xfc,
0xf2,
0xfc,
0xf9,
0xf9,
0xf3,
0xf6,
0x04,
0xfe,
0x01,
0x0c,
0x15,
0x0a,
0xff,
0xfe,
0xfc,
0xfd,
0xfc,
0xfc,
0xfe,
0x00,
0xfe,
0xff,
0xff,
0xfe,
0xfe,
0x0f,
0x02,
0xf9,
0x0f,
0xfe,
0x02,
0x05,
0x10,
0x0e,
0xfa,
0x01,
0xfc,
0x02,
0x0f,
0x03,
0xff,
0xfa,
0xfb,
0xfd,
0xf9,
0x02,
0xfc,
0xf6,
0xfa,
0x02,
0xfa,
0xf6,
0xfe,
0xf5,
0xfa,
0x02,
0x02,
0xf1,
0xfb,
0x06,
0x03,
0x06,
0xfd,
0xfc,
0xf8,
0x08,
0x08,
0x0b,
0x07,
0x09,
0x0a,
0x06,
0x09,
0x09,
0xfc,
0xf7,
0xea,
0x03,
0xfc,
0x00,
0x00,
0xff,
0x04,
0x01,
0x05,
0xff,
0x01,
0x01,
0x02,
0x08,
0x03,
0xff,
0xff,
0xfd,
0xc0,
0x27,
0xf9,
0x14,
0x17,
0x25,
0x27,
0x45,
0x24,
0x2b,
0xf9,
0x00,
0x0d,
0xd6,
0xb9,
0x2d};
