/* SPDX-License-Identifier: GPL-2.0 */
/*
 * Copyright (c) 2020 MediaTek Inc.
 *
 * Author: Ya-Wen Hsu <Ya-Wen.Hsu@mediatek.com>
 *
 */

char fdvt_kernel_bias_loop08_1_frame01[] = {
0x02,
0x0f,
0x09,
0xfe,
0x0e,
0xfb,
0xf1,
0xf7,
0x04,
0xf6,
0x16,
0xfd,
0xfd,
0xf2,
0xf5,
0x0c,
0x03,
0xfe,
0x0a,
0xfd,
0x04,
0x0e,
0x0b,
0x03,
0x0a,
0xf5,
0xff,
0x07,
0x00,
0x0f,
0x02,
0xf6,
0xfe,
0x02,
0x00,
0x01,
0xf7,
0xf3,
0x03,
0x03,
0xf2,
0xe9,
0xf3,
0x02,
0x03,
0xf5,
0x10,
0x13,
0xff,
0x12,
0xf9,
0x16,
0x07,
0x02,
0xf9,
0x02,
0x0b,
0x00,
0x03,
0xfd,
0x0e,
0xf0,
0xf3,
0x0f,
0x0e,
0x0d,
0x04,
0x06,
0xff,
0x01,
0xf3,
0x06,
0xfc,
0x04,
0x03,
0x00,
0x01,
0x04,
0x10,
0xfa,
0xfb,
0xf5,
0x00,
0xfc,
0xfd,
0xfe,
0x06,
0xf1,
0x05,
0xf5,
0xf4,
0xfc,
0x08,
0x02,
0xf7,
0xfe,
0x05,
0x04,
0x1b,
0xff,
0xec,
0xf0,
0x0f,
0x14,
0x04,
0xf3,
0x02,
0xea,
0x10,
0x08,
0x04,
0x13,
0xf3,
0xe8,
0xf3,
0xf5,
0x07,
0xfe,
0xed,
0x11,
0xf2,
0x0c,
0x08,
0x13,
0xf4,
0xeb,
0x02,
0x16,
0x09,
0x00,
0x00,
0x02,
0x0e,
0xee,
0xe9,
0x02,
0xf9,
0x0b,
0xed,
0xf8,
0x09,
0x03,
0x03,
0xf8,
0x12,
0xf8,
0x0a,
0xf8,
0x07,
0xe7,
0xf9,
0xf2,
0xfd,
0xf3,
0x11,
0x10,
0xe4,
0x09,
0x05,
0x01,
0xf3,
0x0a,
0x0a,
0xfd,
0xea,
0xfc,
0xf9,
0x09,
0xfa,
0xec,
0xfa,
0x04,
0xfc,
0x02,
0xea,
0x10,
0x06,
0x03,
0x0b,
0x04,
0x06,
0xff,
0x16,
0xed,
0x07,
0x15,
0xf5,
0x18,
0xff,
0xfb,
0x05,
0x0d,
0xf2,
0x00,
0x16,
0xf7,
0xf3,
0xff,
0x10,
0xe7,
0xee,
0x05,
0xf9,
0x05,
0xf5,
0x00,
0x07,
0x0a,
0xf3,
0xf6,
0xf8,
0x00,
0x13,
0x06,
0xe4,
0xff,
0xf6,
0x06,
0x05,
0xf9,
0x04,
0x0e,
0xff,
0x04,
0x04,
0x19,
0x18,
0xf8,
0x07,
0x0d,
0x0c,
0x05,
0x08,
0x08,
0x01,
0xfb,
0xf7,
0xf9,
0xeb,
0xfa,
0x01,
0xf8,
0xeb,
0x08,
0x05,
0xf0,
0x0e,
0xe9,
0x10,
0xff,
0xfb,
0xf1,
0xf4,
0x02,
0x03,
0xfa,
0x02,
0x02,
0xfb,
0xf4,
0xf6,
0x0e,
0xea,
0x0c,
0xff,
0xfb,
0xf2,
0xfd,
0xd5,
0xf9,
0xfc,
0xfc,
0xf7,
0x15,
0x05,
0xf5,
0xfb,
0xfa,
0xfc,
0xde,
0xfe,
0xf7,
0x14,
0xfa,
0x13,
0x01,
0x1a,
0xf7,
0x01,
0xf8,
0xfa,
0x0a,
0x00,
0x16,
0xf0,
0xf1,
0xd6,
0xf4,
0xfd,
0x00,
0x05,
0xfa,
0xe3,
0x0b,
0xfb,
0xf8,
0xe0,
0xf7,
0xe8,
0x19,
0xf1,
0xfa,
0x0c,
0xf8,
0xe9,
0x04,
0xf2,
0xf9,
0xf7,
0x02,
0x0a,
0xf5,
0xf2,
0xf0,
0xff,
0x07,
0xfd,
0x03,
0xf7,
0x10,
0xf2,
0x0e,
0xf5,
0x05,
0x03,
0xfc,
0xef,
0xf6,
0x0b,
0xe2,
0x05,
0xed,
0x01,
0x10,
0xfb,
0xf7,
0xf5,
0x12,
0x08,
0xf6,
0x1e,
0x1d,
0xfa,
0x18,
0xf3,
0x14,
0x00,
0xef,
0xfa,
0x04,
0xf1,
0xf5,
0xea,
0xfd,
0xeb,
0x0c,
0x01,
0xf7,
0x01,
0x01,
0x2b,
0x03,
0xf2,
0xcd,
0xf8,
0x0d,
0xf6,
0xf0,
0xfa,
0xf6,
0x04,
0xf6,
0xf3,
0xef,
0xfa,
0x04,
0xfb,
0x1a,
0xeb,
0x1c,
0xfe,
0x00,
0xf4,
0xff,
0xf5,
0xf9,
0x12,
0xfb,
0x0c,
0xeb,
0xf8,
0xf6,
0x03,
0xf2,
0x0a,
0x08,
0xf3,
0x11,
0x08,
0xf2,
0xff,
0x04,
0x05,
0x07,
0xf7,
0x03,
0x07,
0x0f,
0x06,
0x0c,
0xf1,
0x08,
0x03,
0xfc,
0xff,
0x0b,
0xf3,
0xf9,
0xf3,
0xe4,
0x0a,
0xf5,
0xfc,
0x0a,
0xf9,
0xfd,
0x01,
0x08,
0xf8,
0x19,
0x06,
0x15,
0xf7,
0xf8,
0xff,
0x04,
0xf7,
0xef,
0xfa,
0x0f,
0xf6,
0xfe,
0x0b,
0xf7,
0xf8,
0x00,
0xfa,
0x1a,
0xfe,
0xff,
0x03,
0x00,
0x01,
0xf6,
0xff,
0x0c,
0x03,
0x10,
0xee,
0x09,
0x06,
0xfd,
0xf9,
0xf6,
0x05,
0xfc,
0xfe,
0xfb,
0xe3,
0x16,
0xf9,
0xfc,
0x02,
0xfe,
0xfc,
0xfc,
0x10,
0x03,
0x07,
0x06,
0xe5,
0x15,
0xf7,
0xed,
0x10,
0xfe,
0xfc,
0xf6,
0xfc,
0xfc,
0xfc,
0xf9,
0x06,
0x05,
0x0c,
0xf1,
0xf3,
0x02,
0x0a,
0x06,
0x0f,
0xfd,
0x01,
0x04,
0x01,
0x01,
0x02,
0xf7,
0x03,
0xf8,
0x05,
0xee,
0xeb,
0x11,
0x02,
0x03,
0xfd,
0xf6,
0xf3,
0xff,
0xe7,
0xf7,
0x0c,
0x0a,
0xf5,
0x10,
0xf9,
0xfe,
0x08,
0x09,
0xf2,
0xf4,
0xf4,
0xf3,
0x01,
0x0d,
0x0f,
0x06,
0x00,
0x00,
0x13,
0x11,
0x0c,
0xec,
0xfd,
0x08,
0xfd,
0x08,
0x0b,
0x16,
0x09,
0x09,
0xf9,
0xf4,
0x09,
0x02,
0xed,
0x0b,
0xf9,
0xee,
0xf9,
0xef,
0xf6,
0xfe,
0xee,
0xea,
0xf7,
0x02,
0x05,
0x15,
0xe0,
0x01,
0x0f,
0xf7,
0x02,
0xee,
0xec,
0x07,
0xe1,
0xf1,
0x07,
0xee,
0x0e,
0xf7,
0x08,
0x05,
0x05,
0x06,
0x08,
0x04,
0xf8,
0x04,
0x03,
0x0d,
0x10,
0xea,
0xf7,
0x0d,
0x12,
0xf1,
0xfd,
0xed,
0x06,
0x0c,
0x0b,
0xe3,
0x06,
0x0c,
0xf8,
0x01,
0xfe,
0x00,
0x0a,
0x10,
0x03,
0x00,
0x04,
0x09,
0xf2,
0x04,
0xfc,
0x06,
0xff,
0xfe,
0xfb,
0xf9,
0x08,
0xe8,
0x04,
0x0f,
0xf7,
0x04,
0x18,
0x02,
0x0d,
0x01,
0x0b,
0xf5,
0xe9,
0x07,
0x04,
0x05,
0x01,
0xf7,
0xf6,
0xe5,
0x18,
0xf4,
0x16,
0x02,
0x22,
0x09,
0x0b,
0x0c,
0x03,
0x0f,
0xed,
0x14,
0x17,
0x14,
0x1e,
0xd0,
0xf8,
0xf2,
0x05,
0x04,
0x13,
0xf9,
0x0b,
0xf0,
0xef,
0xff,
0x17,
0x0c,
0xd8,
0xf2,
0xf2,
0x07,
0x08,
0xec,
0x03,
0x23,
0xf1,
0x0a,
0xea,
0x0b,
0xfa,
0xee,
0x04,
0x0e,
0x04,
0xf0,
0x02,
0xff,
0xf1,
0x0e,
0xf7,
0xff,
0xfe,
0x00,
0xfb,
0xfb,
0x05,
0x00,
0xfe,
0x07,
0x04,
0xfe,
0xf0,
0xe6,
0x26,
0x16,
0xfc,
0xf3,
0xf4,
0xf8,
0xfc,
0x0e,
0xed,
0x03,
0xee,
0x07,
0x05,
0xfd,
0xf6,
0x0d,
0x00,
0xfa,
0xfb,
0x12,
0xf7,
0x1a,
0x2a,
0x01,
0xf3,
0x0f,
0xe5,
0x0d,
0xea,
0xf5,
0x02,
0xfd,
0xeb,
0x10,
0x0e,
0x14,
0xfc,
0x2a,
0xf9,
0x13,
0x10,
0xfb,
0xf0,
0xff,
0x10,
0xf4,
0x07,
0xf9,
0x10,
0xe5,
0xd1,
0xee,
0x37,
0xc4,
0xf2,
0xfb,
0x45,
0x19,
0x33,
0xd0,
0x1f,
0x17,
0x24,
0x02};
