/* SPDX-License-Identifier: GPL-2.0 */
/*
 * Copyright (c) 2020 MediaTek Inc.
 *
 * Author: Ya-Wen Hsu <Ya-Wen.Hsu@mediatek.com>
 *
 */

char fdvt_kernel_bias_loop05_0_frame01[] = {
0xd8,
0xff,
0xdb,
0xeb,
0x0f,
0xfd,
0x1f,
0xe8,
0xfa,
0xe8,
0x0b,
0xfa,
0xea,
0xfb,
0xed,
0x02,
0xfc,
0xfe,
0xe4,
0x0e,
0xf6,
0xf6,
0x06,
0x2c,
0x17,
0x03,
0x10,
0x0c,
0x0e,
0xec,
0xf5,
0x09,
0x0b,
0xf1,
0x16,
0xfc,
0x09,
0xf2,
0xdc,
0x39,
0xf4,
0x0a,
0xe4,
0xf7,
0xfc,
0x16,
0x0e,
0xf8,
0xfc,
0xfd,
0xf3,
0xd7,
0xe2,
0xe0,
0xe9,
0xd8,
0xe7,
0xea,
0x16,
0x00,
0xe6,
0xf3,
0xea,
0xfd,
0xed,
0x18,
0x0c,
0x3e,
0xf3,
0x12,
0xfd,
0x14,
0xf3,
0xf9,
0x0f,
0x1d,
0x57,
0x03,
0x26,
0x04,
0x0f,
0x00,
0x16,
0xfd,
0xe6,
0xfd,
0xf7,
0x14,
0x0d,
0x0a,
0x0a,
0xf6,
0xfc,
0xec,
0xe2,
0x07,
0x01,
0x00,
0x03,
0x01,
0x05,
0x14,
0xf1,
0x0d,
0x0a,
0xe0,
0xf2,
0xdb,
0x02,
0xfc,
0x05,
0xe6,
0x0e,
0xff,
0x14,
0x21,
0x07,
0xf0,
0xe4,
0x06,
0x01,
0x08,
0x05,
0x06,
0x06,
0xf1,
0xfc,
0xee,
0x0b,
0x10,
0x06,
0xdd,
0x16,
0x18,
0xf4,
0x17,
0x06,
0xdd,
0x03,
0xeb,
0x17,
0x03,
0xed,
0xfb,
0xfe,
0xf1,
0xde,
0xde,
0x08,
0xf2,
0x04,
0xd4,
0xf2,
0x21,
0xed,
0xfe,
0x23,
0xf3,
0xf7,
0x16,
0xea,
0xfd,
0x02,
0x2d,
0x2e,
0xe9,
0x1c,
0x0d,
0xf5,
0xd4,
0xec,
0xf2,
0xff,
0x2b,
0xe0,
0x04,
0x05,
0xf6,
0xe4,
0xf6,
0x0b,
0xf2,
0x25,
0xc4,
0xef,
0xf4,
0xfb,
0xff,
0x20,
0xe6,
0xd1,
0x11,
0xff,
0xf7,
0x16,
0x11,
0x02,
0x04,
0x13,
0x09,
0x0c,
0xee,
0x18,
0xfc,
0xe8,
0xe3,
0x00,
0xfe,
0x06,
0xf3,
0xef,
0x32,
0xda,
0x0b,
0x1d,
0x13,
0x08,
0x08,
0x0d,
0xf8,
0x09,
0xf8,
0x09,
0x05,
0x05,
0x05,
0x11,
0xfa,
0x11,
0x03,
0xdc,
0x19,
0x06,
0xef,
0x0f,
0xeb,
0x26,
0x11,
0xf8,
0xe8,
0x15,
0x05,
0xe4,
0x10,
0xf7,
0xf3,
0xee,
0xfd,
0xf0,
0x17,
0xde,
0x05,
0xfd,
0x2d,
0x00,
0x06,
0x06,
0xe9,
0x0b,
0x00,
0x0b,
0xf5,
0x0a,
0x1d,
0xee,
0x1f,
0xd9,
0x0b,
0xf8,
0x19,
0xf6,
0xf2,
0xf2,
0xe3,
0xd9,
0xff,
0x0b,
0xf1,
0x0e,
0xfb,
0x1e,
0xdf,
0x06,
0xe0,
0x0a,
0xec,
0xeb,
0x43,
0x3e,
0xe8,
0xff,
0x04,
0xff,
0x03,
0x0c,
0xe3,
0xda,
0x02,
0xeb,
0x06,
0x20,
0x28,
0x42,
0xf6,
0xfd,
0xcd,
0x14,
0x16,
0x32,
0xf9,
0x02,
0xfa,
0x08,
0xdd,
0x28,
0x40,
0x05,
0xf9,
0xd9,
0xf0,
0xfb,
0x41,
0xe5,
0xe9,
0x42,
0xfe,
0x03,
0xe5,
0xf5,
0x01,
0x1f,
0xee,
0x26,
0xf6,
0xf5,
0xf0,
0x07,
0xe5,
0x01,
0xec,
0x1a,
0x09,
0x2b,
0x09,
0xf2,
0x17,
0xbe,
0x15,
0xf7,
0x10,
0x15,
0xfd,
0x0b,
0xf8,
0x14,
0xfd,
0x1b,
0xeb,
0x0e,
0xf7,
0x22,
0xff,
0xff,
0xe9,
0xfe,
0x01,
0x0f,
0x18,
0xf7,
0xfa,
0xfb,
0x0f,
0xdd,
0x15,
0x06,
0xfd,
0x07,
0x42,
0xf0,
0x24,
0xf9,
0xf6,
0xde,
0xf4,
0xfc,
0x00,
0x0c,
0x0b,
0xed,
0x00,
0xf5,
0xff,
0x19,
0xf1,
0x06,
0x17,
0x04,
0xe5,
0xe9,
0xe5,
0x12,
0xe9,
0x07,
0x4b,
0xfb,
0x02,
0xf1,
0x0d,
0x04,
0xf8,
0x05,
0xfc,
0xf8,
0xd7,
0x04,
0x1b,
0xdc,
0x0b,
0xe2,
0xef,
0x0c,
0x12,
0xfc,
0xf2,
0x03,
0xf4,
0x0d,
0x2b,
0x01,
0xfd,
0x0c,
0x08,
0xf2,
0xe7,
0x05,
0xd2,
0x02,
0xfc,
0xff,
0x19,
0x1a,
0xf1,
0xf3,
0xe8,
0x06,
0xdf,
0xf7,
0xe2,
0xee,
0xf7,
0x31,
0xe8,
0x11,
0xfe,
0x07,
0xec,
0x60,
0x09,
0x2c,
0x09,
0x1b,
0x1c,
0x0e,
0xfb,
0x08,
0xfc,
0xf4,
0x06,
0xed,
0x0a,
0x04,
0xff,
0x01,
0x0a,
0x1c,
0xf2,
0xec,
0xe3,
0x09,
0x20,
0xe5,
0x0b,
0x14,
0xfd,
0xf8,
0x02,
0xe3,
0xf0,
0xfd,
0x09,
0x0c,
0x07,
0x08,
0x10,
0x05,
0xf8,
0x06,
0x00,
0xf3,
0x0f,
0x11,
0xe7,
0x01,
0xeb,
0x01,
0xea,
0xf8,
0x0a,
0x08,
0x05,
0x15,
0x17,
0xe6,
0xfb,
0x01,
0xfa,
0x10,
0x01,
0xf5,
0x01,
0xf9,
0xfa,
0x24,
0x16,
0xf2,
0x01,
0xee,
0x07,
0x01,
0x13,
0xf9,
0xf7,
0x1b,
0xfa,
0x11,
0x02,
0x14,
0xf8,
0xec,
0x2c,
0x0c,
0x11,
0xf3,
0xec,
0x0e,
0x0b,
0xf6,
0xf3,
0x06,
0xf7,
0xfd,
0x11,
0xf3,
0x0f,
0x1d,
0x1e,
0x05,
0xff,
0x0e,
0xf9,
0x12,
0xf7,
0x2c,
0x07,
0xf8,
0x11,
0x06,
0xda,
0x14,
0x0a,
0xec,
0xee,
0xfa,
0xf3,
0x13,
0x36,
0xeb,
0xf8,
0x0b,
0x0b,
0x0b,
0xee,
0xf8,
0xf7,
0xf8,
0x05,
0xed,
0x16,
0xfa,
0xf8,
0x09,
0x0b,
0x13,
0xf4,
0xfc,
0x28,
0x1d,
0x0e,
0x00,
0xff,
0x13,
0x05,
0xea,
0x0e,
0x1a,
0xe9,
0x04,
0x1f,
0xe3,
0xe8,
0x22,
0xe4,
0x01,
0x05,
0x07,
0xfa,
0x19,
0x03,
0xe2,
0xe8,
0x0c,
0x18,
0xfa,
0x1c,
0x1f,
0xf6,
0xdb,
0xfe,
0x18,
0xec,
0xf6,
0xf9,
0x06,
0xff,
0x21,
0xfb,
0x23,
0x07,
0xfa,
0xf5,
0xf1,
0x0a,
0xfe,
0xd1,
0x26,
0x0e,
0xd0,
0xed,
0xfc,
0xdb,
0xf8,
0x1e,
0x0c,
0x2d,
0x0d,
0x3e,
0xda,
0x0b,
0xe0,
0xe8,
0xba,
0x12,
0x03,
0x23,
0x08,
0x37,
0xc7,
0xdb,
0x06,
0x07,
0xe2,
0x1e,
0x23,
0xf7,
0x12,
0x0d,
0xdf,
0xfa,
0xf3,
0x0d,
0xe3,
0x06,
0xbc,
0xd7,
0xd3,
0xef,
0x04,
0xf7,
0x0e,
0x0f,
0xef,
0xee,
0xca,
0x18,
0x20,
0x19,
0xe0,
0x00,
0xf4,
0x11,
0x0f,
0xef,
0xfe,
0x00,
0x14,
0xeb,
0xe0,
0xde,
0xf2,
0xec,
0xf6,
0xfa,
0xf7,
0x13,
0x08,
0x2f,
0xe7,
0x02,
0xee,
0x11,
0x05,
0x0c,
0x03,
0xc8,
0x0c,
0xf3,
0xd9,
0xe1,
0x06,
0xf5,
0x11,
0x0b,
0x06,
0x18,
0x09,
0x2a,
0xf7,
0x00,
0xf6,
0xec,
0x43,
0xdf,
0x07,
0x45,
0x05,
0xf3,
0xfc,
0xf8,
0x04,
0xf8,
0xf7,
0x0a,
0x05,
0xfd,
0x13,
0x14,
0xf2,
0xdd,
0xf2,
0x22,
0x10,
0xe2,
0x0e,
0xf1,
0x0e,
0x0e,
0xe5,
0x12,
0xf1,
0x29,
0xed,
0x46,
0xf4,
0xfc,
0x07,
0x01,
0x4d,
0x3a,
0x18,
0x28,
0xe9,
0xfe,
0x63,
0x06};
