/* SPDX-License-Identifier: GPL-2.0 */
/*
 * Copyright (c) 2020 MediaTek Inc.
 *
 * Author: Ya-Wen Hsu <Ya-Wen.Hsu@mediatek.com>
 *
 */

char fdvt_kernel_bias_loop04_1_frame01[] = {
0x04,
0x13,
0xf9,
0x01,
0xef,
0xf3,
0x02,
0xee,
0xf2,
0xf5,
0xf0,
0x03,
0x0a,
0xfb,
0x00,
0x05,
0x08,
0x0c,
0xfb,
0x17,
0x13,
0x0c,
0x09,
0x08,
0x0a,
0x03,
0xfb,
0x06,
0xfa,
0xf4,
0xff,
0x00,
0xe8,
0x0d,
0x02,
0x0a,
0x08,
0xf7,
0x0c,
0x08,
0x0d,
0x0d,
0x08,
0x05,
0xf5,
0x08,
0x13,
0xf1,
0xfa,
0xfa,
0xea,
0xed,
0xdd,
0x03,
0xe8,
0xeb,
0xf7,
0xf5,
0xfb,
0x03,
0x07,
0x0f,
0x0e,
0x03,
0x01,
0x02,
0x0c,
0xff,
0xf9,
0xff,
0x01,
0x01,
0x02,
0xff,
0x00,
0xfb,
0x02,
0x02,
0xfd,
0xfd,
0xee,
0xed,
0xed,
0xe3,
0x05,
0x0b,
0xff,
0x0b,
0x0d,
0x02,
0x0a,
0x05,
0x02,
0x12,
0x16,
0x0d,
0x03,
0xf1,
0x0b,
0x0a,
0xfa,
0x04,
0x05,
0x08,
0x0c,
0x0a,
0xf6,
0xfb,
0xf7,
0xf9,
0xf6,
0xf6,
0x06,
0xfe,
0xfc,
0x06,
0x0f,
0xfd,
0x08,
0x08,
0x0e,
0x0a,
0x08,
0x10,
0x08,
0xf8,
0xf0,
0xfe,
0x04,
0x09,
0x01,
0x04,
0x0c,
0x0a,
0xf7,
0xfe,
0x04,
0x01,
0x0a,
0x01,
0x06,
0x11,
0x0a,
0x09,
0x0e,
0x03,
0xfe,
0x03,
0x02,
0xff,
0xf9,
0x00,
0x02,
0x08,
0x00,
0x01,
0x0e,
0x13,
0x05,
0x03,
0xf8,
0xfe,
0xfa,
0x07,
0x03,
0xfc,
0xfc,
0x0b,
0x0e,
0xf7,
0x03,
0x0e,
0xfb,
0x02,
0x07,
0x1c,
0xef,
0xee,
0xf1,
0xfc,
0xf2,
0xf9,
0x09,
0xfb,
0x03,
0x1b,
0x02,
0x0f,
0xfe,
0xf0,
0x0d,
0x05,
0xfd,
0xef,
0xfd,
0x04,
0x0e,
0x01,
0xef,
0xf8,
0x02,
0xf5,
0xee,
0xfd,
0xf5,
0x05,
0xdf,
0x08,
0x07,
0x18,
0xdb,
0xff,
0x29,
0xf6,
0xe4,
0x0a,
0x13,
0xea,
0xe4,
0xf2,
0xe8,
0xd2,
0xd7,
0x01,
0xfd,
0xf7,
0xf9,
0xfa,
0xff,
0xf7,
0xf9,
0x02,
0xf2,
0xf2,
0x0c,
0xf8,
0xf4,
0xff,
0xfd,
0x00,
0xec,
0x08,
0xf9,
0xf2,
0x0e,
0xfe,
0x01,
0x0b,
0xfe,
0xfe,
0xfc,
0xee,
0xf2,
0xfb,
0x0b,
0x16,
0x12,
0x28,
0xe4,
0xfc,
0xf5,
0xf3,
0xfc,
0x04,
0x09,
0xf3,
0xeb,
0xf5,
0xff,
0xf1,
0xfc,
0x05,
0xdb,
0x36,
0x2a,
0xb5,
0x22,
0x03,
0xc4,
0x0a,
0xff,
0xfb,
0x2e,
0x1c,
0x14,
0x1e,
0x21,
0x1a,
0x00,
0xfc,
0xff,
0x02,
0xfe,
0x09,
0x06,
0x08,
0x09,
0x18,
0x0c,
0xf4,
0xfd,
0xff,
0xf9,
0x09,
0xf5,
0xeb,
0xec,
0x05,
0xf2,
0xf4,
0xfb,
0xf9,
0x01,
0xff,
0xf0,
0xfe,
0xfa,
0xfe,
0x09,
0x11,
0x0b,
0xf7,
0xf6,
0x03,
0xf3,
0xec,
0xfc,
0xf2,
0xf1,
0xfc,
0xff,
0x02,
0xfd,
0xf9,
0x15,
0xfb,
0xf3,
0x04,
0xfc,
0xf9,
0x02,
0x09,
0x01,
0xfa,
0x17,
0x12,
0x02,
0x15,
0x08,
0xfd,
0xf8,
0x0c,
0x00,
0xfe,
0xea,
0x05,
0x13,
0xec,
0x03,
0x16,
0xfe,
0x0a,
0x08,
0x0a,
0x08,
0x16,
0x0f,
0xe5,
0xe2,
0xe8,
0xdc,
0xe1,
0xfe,
0x06,
0x0a,
0xee,
0xef,
0x00,
0x00,
0xf1,
0xf5,
0x00,
0x05,
0x05,
0x07,
0x01,
0x03,
0xf9,
0xf5,
0xf8,
0xf2,
0x06,
0x02,
0xf6,
0xfa,
0xfb,
0xfd,
0xfc,
0xec,
0xf0,
0x1b,
0x04,
0xe2,
0x0a,
0x07,
0x03,
0x08,
0x0b,
0x07,
0x09,
0x0f,
0x19,
0xec,
0xef,
0xe6,
0xfb,
0xf6,
0x09,
0xf8,
0xf2,
0xfc,
0xf2,
0xf3,
0x09,
0x05,
0x09,
0x10,
0x0e,
0x08,
0x13,
0x07,
0x06,
0xeb,
0xf3,
0x00,
0xfe,
0xfb,
0x07,
0xf4,
0xff,
0x10,
0x04,
0x0d,
0xf8,
0x14,
0x19,
0xf6,
0x09,
0x0b,
0x0d,
0x10,
0x04,
0x08,
0xfd,
0x07,
0x05,
0xf8,
0x15,
0x0f,
0x15,
0x11,
0x15,
0x0e,
0x00,
0x0c,
0x07,
0x0f,
0xfc,
0x25,
0x1a,
0xfa,
0x16,
0x07,
0xf5,
0x02,
0xf6,
0x04,
0x0e,
0x08,
0xf7,
0xfd,
0xf9,
0x06,
0xf6,
0xe3,
0x06,
0x18,
0x14,
0x01,
0xf6,
0x13,
0xe8,
0xee,
0xfd,
0xfe,
0xff,
0xea,
0x01,
0x18,
0xf6,
0x00,
0x07,
0xff,
0xed,
0xfa,
0x07,
0x16,
0x0c,
0xf5,
0x09,
0xf8,
0x08,
0xfe,
0xfc,
0xff,
0x00,
0x04,
0xf3,
0xf7,
0x0d,
0xf5,
0xfe,
0x11,
0x0d,
0x06,
0xfc,
0x0d,
0x19,
0xe0,
0xed,
0xe7,
0xea,
0xe8,
0xf5,
0xef,
0xfc,
0xe9,
0xf5,
0x02,
0xf9,
0x03,
0x0b,
0x0d,
0x13,
0xef,
0x07,
0xff,
0xd7,
0xe8,
0xf3,
0xd7,
0xf1,
0xf6,
0xf1,
0xf9,
0xf6,
0x08,
0x1e,
0x19,
0x04,
0x07,
0xf0,
0xf0,
0x15,
0xfa,
0xfc,
0x18,
0xf3,
0xf6,
0xf1,
0x01,
0x0b,
0xfa,
0x09,
0x03,
0x09,
0x0c,
0x01,
0x02,
0x00,
0xfe,
0xfb,
0x03,
0xfb,
0xfd,
0x04,
0xfd,
0x03,
0xfe,
0xfd,
0xff,
0xfb,
0x15,
0x08,
0x08,
0x05,
0x00,
0x08,
0x02,
0x04,
0x08,
0x0a,
0xf9,
0xfb,
0x00,
0xee,
0xf4,
0x06,
0x03,
0xec,
0xf8,
0x08,
0xf3,
0x08,
0x05,
0xfa,
0x06,
0x07,
0xf5,
0x08,
0x03,
0xf3,
0x05,
0x0b,
0xff,
0xf2,
0x00,
0x02,
0x02,
0xe8,
0xdb,
0xec,
0xea,
0xec,
0xee,
0xea,
0xea,
0xfc,
0xfb,
0xf7,
0x09,
0x02,
0xe3,
0xf7,
0x03,
0xf5,
0x09,
0x00,
0x03,
0xf7,
0x0c,
0x0b,
0xfe,
0xfe,
0xfd,
0x0a,
0xf8,
0xdc,
0xf6,
0xf0,
0xf1,
0xfd,
0x02,
0xed,
0xfe,
0x05,
0xf3,
0xf7,
0xfa,
0xed,
0xfe,
0x0e,
0x06,
0x08,
0x01,
0xff,
0x0d,
0xf3,
0xfe,
0x16,
0x09,
0x02,
0xe8,
0xf6,
0xfd,
0xf9,
0xf8,
0x05,
0x13,
0x08,
0xf7,
0x00,
0x04,
0xf5,
0xf5,
0xf3,
0xee,
0xef,
0xf5,
0xf7,
0x03,
0x14,
0x12,
0xf3,
0xfc,
0x0a,
0xf8,
0x02,
0x04,
0xed,
0x01,
0xf5,
0x05,
0xf7,
0xf0,
0xfc,
0x00,
0x09,
0x1a,
0x10,
0xf5,
0xf5,
0x00,
0xff,
0xf8,
0xfc,
0xf9,
0xf6,
0xfa,
0xf6,
0x00,
0x00,
0x00,
0x07,
0xff,
0xf7,
0x18,
0x0d,
0xf9,
0x07,
0x04,
0xef,
0xfc,
0xff,
0xf6,
0xee,
0xe7,
0xf0,
0xf1,
0xe0,
0xea,
0x0d,
0x0b,
0xe5,
0xfa,
0x0b,
0xde,
0xfc,
0xfc,
0xe7,
0xf8,
0xf7,
0x0e,
0x11,
0xda,
0xfb,
0x31,
0xf0,
0xfd,
0xf3,
0xf3,
0xdc,
0xe7,
0x11,
0x12,
0x02,
0x13,
0x06,
0x0b,
0x03,
0xf9,
0xfa,
0xfa,
0x19,
0x09,
0x09,
0x0f,
0x06,
0xec,
0x07,
0x07,
0x03,
0x01,
0xf6,
0x00,
0xf5,
0xf9,
0xfe,
0xf1,
0x03,
0x0e,
0xfe,
0xff,
0x10,
0xfd,
0xff,
0xfc,
0xfb,
0xfe,
0xf9,
0x03,
0x02,
0xfb,
0x03,
0x06,
0xf5,
0xfd,
0xf5,
0x03,
0xf8,
0xff,
0x03,
0x09,
0x00,
0xf9,
0xf5,
0x00,
0xfb,
0x04,
0x13,
0x05,
0x11,
0x04,
0x02,
0x17,
0x00,
0xf7,
0xf9,
0xf7,
0xfa,
0xf8,
0x04,
0x03,
0x07,
0x04,
0x02,
0xee,
0x06,
0x0f,
0x07,
0x09,
0x06,
0x0b,
0x0c,
0x03,
0x02,
0x03,
0x00,
0xfe,
0xfb,
0x00,
0xfa,
0xf8,
0xf7,
0x06,
0x00,
0xec,
0xf5,
0xf6,
0xfe,
0x0a,
0x02,
0x04,
0x07,
0xfb,
0x01,
0xfd,
0xf9,
0x07,
0xfc,
0x05,
0xf3,
0xfa,
0x0a,
0x01,
0xf9,
0xfe,
0xf9,
0xf8,
0xf7,
0xfd,
0xfc,
0xfd,
0xff,
0xff,
0xfa,
0xdc,
0xe9,
0xf8,
0xed,
0xf1,
0xfc,
0x00,
0xf8,
0x0c,
0x12,
0xe7,
0x06,
0x11,
0xf1,
0xfd,
0x1f,
0xfa,
0xff,
0xed,
0x0b,
0x15,
0xf3,
0xed,
0xfe,
0xff,
0xfa,
0x02,
0x00,
0x07,
0x03,
0x0f,
0xfa,
0x09,
0x0c,
0xf2,
0xfb,
0x19,
0x02,
0xf4,
0xfe,
0x0b,
0x03,
0x10,
0x0d,
0x11,
0x0f,
0x04,
0x1a,
0xf7,
0xf5,
0x00,
0x13,
0xf7,
0xf5,
0xf4,
0xf3,
0xea,
0xf3,
0xf7,
0xf4,
0xfb,
0xf7,
0x03,
0x0b,
0x03,
0x05,
0x02,
0xfc,
0x01,
0x09,
0xfa,
0xf1,
0xfc,
0xfc,
0xfe,
0xfe,
0x04,
0x13,
0x1b,
0x1e,
0x03,
0x18,
0xf6,
0xc1,
0xc8,
0xea,
0xb5,
0xab,
0xca,
0xd4,
0xbd,
0xcd,
0xf5,
0x05,
0x0c,
0xeb,
0x0c,
0xf0,
0x07,
0x12,
0x08,
0x09,
0x01,
0xfe,
0xf9,
0x02,
0xf0,
0xfd,
0x04,
0xf8,
0xf9,
0xf5,
0xfd,
0x07,
0xfc,
0xfc,
0x05,
0xf1,
0xf9,
0xf9,
0xfe,
0xf9,
0xf9,
0xf7,
0xe9,
0xfa,
0xfe,
0xf7,
0xfa,
0xff,
0x01,
0xf0,
0xfd,
0xff,
0xe9,
0xdd,
0xfb,
0xea,
0xe5,
0xeb,
0xea,
0xe9,
0xfe,
0xfd,
0x0b,
0x0e,
0x0e,
0x13,
0x07,
0x12,
0x0b,
0xf9,
0xf5,
0xfd,
0xf7,
0x05,
0x13,
0xfd,
0xf5,
0x0c,
0x00,
0x01,
0x01,
0xf0,
0xea,
0xff,
0xf6,
0x10,
0xf9,
0xfe,
0x19,
0xfe,
0x09,
0x11,
0x0b,
0xfb,
0xf9,
0x08,
0x18,
0x09,
0xf5,
0x02,
0x10,
0x04,
0xec,
0xf3,
0xf8,
0xfc,
0xf2,
0xf0,
0xfe,
0xff,
0xf7,
0x0e,
0xfe,
0xde,
0x10,
0x18,
0x12,
0x0f,
0x0c,
0x17,
0x04,
0x07,
0x01,
0x10,
0x0c,
0x08,
0xf2,
0xfa,
0xf6,
0x00,
0xfb,
0xf6,
0xf5,
0x07,
0x07,
0xfc,
0xf5,
0x0b,
0xff,
0xf4,
0xf4,
0xeb,
0x12,
0xfb,
0xf8,
0x04,
0x02,
0xfb,
0x0a,
0xf7,
0x09,
0x06,
0x17,
0x1c,
0xe5,
0xf3,
0x03,
0xec,
0xf3,
0x03,
0x01,
0xe9,
0x00,
0xf4,
0xf9,
0xfa,
0xfd,
0x05,
0x06,
0x00,
0x01,
0x04,
0x04,
0x0a,
0x00,
0x00,
0x00,
0x00,
0x00,
0x00,
0x00,
0x00,
0x00,
0x00,
0x00,
0x00,
0x00,
0x00,
0x00,
0x00};
