/* SPDX-License-Identifier: GPL-2.0 */
/*
 * Copyright (c) 2020 MediaTek Inc.
 *
 * Author: Ya-Wen Hsu <Ya-Wen.Hsu@mediatek.com>
 *
 */

char fdvt_kernel_bias_loop08_0_frame01[] = {
0x00,
0x0f,
0x15,
0xf3,
0x00,
0xe7,
0xfb,
0x12,
0x03,
0x06,
0xf2,
0xf5,
0xf4,
0xf7,
0x02,
0xed,
0xf9,
0xf5,
0xf0,
0xff,
0x0d,
0x0a,
0x03,
0x00,
0x16,
0xfb,
0x0f,
0x10,
0xef,
0xf7,
0xff,
0xeb,
0xf5,
0x05,
0x02,
0xf5,
0x0b,
0x0b,
0xff,
0x06,
0xfb,
0x01,
0xfc,
0x01,
0x0a,
0x01,
0xfc,
0xf5,
0xfd,
0xf4,
0xf4,
0x09,
0x14,
0x05,
0xf9,
0xfe,
0xfe,
0x04,
0xfb,
0xf9,
0x03,
0x00,
0xfb,
0xff,
0x02,
0x07,
0x0a,
0xe7,
0xe9,
0x0d,
0xfc,
0x0f,
0xf8,
0x14,
0xfb,
0x08,
0x03,
0x10,
0xf2,
0x00,
0xe7,
0x00,
0xf9,
0xfa,
0x05,
0x06,
0xe3,
0xff,
0xf4,
0xe8,
0xee,
0x11,
0xf5,
0x04,
0x01,
0x12,
0xff,
0xf7,
0x00,
0xf5,
0x0d,
0xfa,
0xff,
0x05,
0x01,
0xee,
0x03,
0x09,
0x07,
0x01,
0x06,
0xfd,
0xf4,
0xe9,
0xef,
0xf9,
0xf5,
0xf6,
0xf9,
0xfb,
0xf5,
0x11,
0x06,
0xfe,
0x19,
0xe9,
0x14,
0xff,
0xf4,
0xfa,
0x0e,
0xf4,
0xf4,
0xf7,
0x06,
0xfe,
0xfd,
0xf7,
0xf7,
0x12,
0x0d,
0x14,
0xf7,
0x0d,
0x15,
0x01,
0x16,
0xff,
0xe9,
0xfc,
0x07,
0xfe,
0x06,
0xe8,
0xdd,
0xff,
0x05,
0xfc,
0xfb,
0xf1,
0xfe,
0xeb,
0xfc,
0xfe,
0xf9,
0x06,
0xf2,
0x04,
0x02,
0x0a,
0x03,
0x0c,
0x09,
0xfb,
0x04,
0xff,
0xff,
0x04,
0x0a,
0xfe,
0xf6,
0xf3,
0xf1,
0xfd,
0x14,
0x06,
0x07,
0x0b,
0xff,
0x03,
0xfc,
0x04,
0xfe,
0x0d,
0xf9,
0x05,
0x08,
0x0a,
0x0f,
0x0a,
0xfb,
0x17,
0x0a,
0x06,
0x04,
0xfe,
0x03,
0x03,
0x08,
0xf8,
0xf5,
0x10,
0x01,
0xfd,
0xfa,
0xf0,
0xf0,
0xfd,
0x10,
0x04,
0x00,
0xe7,
0xf2,
0xed,
0xfc,
0xe7,
0xff,
0xfe,
0xea,
0xef,
0xfc,
0xf3,
0x03,
0x0b,
0x00,
0xf3,
0xf8,
0x00,
0xea,
0x02,
0x16,
0x0a,
0xf7,
0x01,
0xe6,
0xe6,
0xf5,
0xfc,
0x0f,
0xfd,
0x0e,
0xf9,
0x14,
0x0d,
0x02,
0xf2,
0xff,
0xf7,
0x1b,
0xf4,
0xeb,
0x14,
0x18,
0xf2,
0x0e,
0x14,
0xf4,
0x07,
0x01,
0xfc,
0xf9,
0x00,
0xe8,
0x0f,
0xfd,
0x03,
0x0c,
0xfd,
0xe9,
0xe6,
0xf1,
0x0e,
0xfe,
0x0f,
0xfd,
0x22,
0xfb,
0x04,
0x0b,
0x0a,
0x04,
0xfd,
0xf7,
0x06,
0x0f,
0x18,
0xf7,
0x00,
0xec,
0x0b,
0x01,
0x13,
0x15,
0xea,
0xf1,
0xff,
0x04,
0xf8,
0x07,
0xf3,
0xf8,
0xfa,
0x02,
0x1a,
0xf3,
0xf0,
0x0a,
0x01,
0xf9,
0x17,
0xf4,
0x1c,
0xf3,
0xfb,
0x05,
0xfb,
0x00,
0x08,
0xf7,
0x13,
0x1a,
0xfa,
0xf0,
0xf9,
0x0a,
0x00,
0xfe,
0x03,
0x0a,
0xee,
0xf2,
0xda,
0xf3,
0x04,
0x05,
0xfe,
0x0d,
0x09,
0x0c,
0x0b,
0x05,
0xff,
0xf7,
0xee,
0xe2,
0x0d,
0x21,
0x14,
0x0d,
0x00,
0xf9,
0x00,
0x05,
0xf0,
0xf8,
0x14,
0x01,
0x03,
0xe0,
0xf8,
0xf1,
0x2c,
0xfc,
0xe9,
0xec,
0x00,
0xf9,
0xf5,
0x08,
0xf4,
0xea,
0x02,
0x0f,
0xf8,
0x0e,
0x05,
0x14,
0xf3,
0xf3,
0xee,
0xfe,
0x15,
0xf5,
0xf6,
0xee,
0x06,
0xfb,
0xf9,
0xf2,
0x10,
0x0e,
0x07,
0xfd,
0x17,
0xfe,
0xfc,
0x01,
0xf5,
0xfc,
0x00,
0x1b,
0x02,
0xed,
0xeb,
0x00,
0xf5,
0x02,
0xfd,
0x0a,
0x08,
0xf0,
0x07,
0x09,
0x0b,
0x0b,
0x08,
0xf5,
0xe2,
0xeb,
0x01,
0x01,
0xfd,
0x0a,
0x10,
0x0a,
0xfa,
0x00,
0xfd,
0x00,
0x0f,
0x01,
0x0d,
0xfd,
0x00,
0x05,
0xf6,
0x01,
0x08,
0x01,
0x08,
0xf6,
0xf4,
0xf0,
0x13,
0x00,
0x03,
0x08,
0xea,
0x0b,
0x07,
0x0e,
0x0e,
0xff,
0x0d,
0xfe,
0xf3,
0x0d,
0xf5,
0xfa,
0x0b,
0xeb,
0xf0,
0x09,
0xe4,
0xfd,
0xf2,
0x00,
0xfb,
0x02,
0xf4,
0x0c,
0x0e,
0x02,
0xf4,
0x01,
0xff,
0xfc,
0xee,
0x03,
0xff,
0xfe,
0xff,
0x0e,
0x0f,
0x01,
0xf8,
0x09,
0xfb,
0xfd,
0xfd,
0x14,
0xfd,
0x0f,
0xfd,
0x06,
0xf6,
0xfe,
0x01,
0xee,
0xf1,
0x0a,
0x02,
0xfe,
0x07,
0x08,
0x13,
0x05,
0xff,
0x05,
0xe7,
0xf4,
0x05,
0xef,
0x05,
0xf4,
0xfe,
0xf9,
0x0f,
0x08,
0x05,
0x16,
0xe6,
0xe0,
0x00,
0xf3,
0x0b,
0x07,
0xff,
0x0e,
0x0c,
0xfa,
0xf8,
0xfe,
0xfa,
0x02,
0xf5,
0x02,
0x00,
0xfd,
0xed,
0xf1,
0x19,
0xf9,
0xfe,
0x03,
0xf9,
0x0f,
0xe2,
0x15,
0xf5,
0x00,
0xf6,
0xfd,
0x00,
0xef,
0xe6,
0xf7,
0x0a,
0xf9,
0x12,
0xf7,
0x03,
0xeb,
0x19,
0x01,
0xea,
0xfb,
0x06,
0x02,
0xf2,
0x02,
0xff,
0x00,
0x0b,
0x09,
0xfd,
0x12,
0xed,
0xf6,
0x0f,
0xff,
0x04,
0xf8,
0xf3,
0x0a,
0x03,
0xe0,
0xeb,
0x05,
0xfa,
0x01,
0xfe,
0x13,
0x04,
0xef,
0x00,
0xf5,
0xff,
0xf3,
0xed,
0xfd,
0x04,
0xff,
0xfd,
0x00,
0xfa,
0x01,
0x03,
0x00,
0xf6,
0x0c,
0x18,
0x04,
0xe3,
0xe7,
0x09,
0xf7,
0xf3,
0xf6,
0xf0,
0xfe,
0xf0,
0x09,
0xf4,
0xf9,
0xfd,
0x00,
0xfe,
0x04,
0xf6,
0xfb,
0xef,
0x24,
0x0b,
0x01,
0xfd,
0x00,
0xff,
0x0a,
0x09,
0xf3,
0xe1,
0xfc,
0x11,
0xff,
0x4d,
0x05,
0x05,
0x11,
0xf9,
0xf9,
0xf7,
0xfc,
0xee,
0xfa,
0xe0,
0x07,
0xf0,
0xf9,
0xf2,
0x0f,
0xfe,
0xf2,
0xf1,
0xfb,
0x0c,
0x18,
0xfd,
0xee,
0x0b,
0xd9,
0x15,
0x00,
0xf1,
0x11,
0x02,
0x0d,
0xfc,
0x05,
0x08,
0xfd,
0x02,
0xf5,
0xfb,
0x08,
0xf9,
0x01,
0xff,
0xfc,
0x22,
0xfa,
0x0e,
0xfa,
0x17,
0x02,
0x0f,
0x08,
0xf7,
0x02,
0x03,
0xff,
0xf8,
0x0d,
0xfe,
0x0b,
0xf3,
0xfc,
0x02,
0xfa,
0x14,
0xef,
0xfe,
0x1c,
0xeb,
0xe1,
0x1c,
0x22,
0xf4,
0xe9,
0x04,
0x03,
0xfe,
0xe7,
0x11,
0x01,
0xfc,
0xf3,
0x02,
0x27,
0xf4,
0xf3,
0x0f,
0xf2,
0xfa,
0xea,
0x02,
0xfb,
0xf7,
0x07,
0xec,
0xf8,
0xef,
0x01,
0x07,
0x16,
0xf0,
0x01,
0x0c,
0xf9,
0x01,
0xf6,
0xe9,
0x01,
0x07,
0xf5,
0xfb,
0xfb,
0xef,
0x21,
0xe5,
0x11,
0x31,
0x2d,
0x11,
0x2f,
0x02,
0x53,
0xe9,
0x48,
0xd7,
0x29,
0xdf,
0x00,
0x03};
