/* SPDX-License-Identifier: GPL-2.0 */
/*
 * Copyright (c) 2020 MediaTek Inc.
 *
 * Author: Ya-Wen Hsu <Ya-Wen.Hsu@mediatek.com>
 *
 */

char fdvt_kernel_bias_loop26_1_frame01[] = {
0xdf,
0x1d,
0xf0,
0x01,
0xe5,
0xf7,
0xff,
0x01,
0xe0,
0x1e,
0xf2,
0x03,
0xed,
0xf2,
0x04,
0xf7,
0x11,
0x28,
0x0c,
0x1e,
0xe3,
0xec,
0xd1,
0xe4,
0x11,
0x28,
0x0a,
0x1c,
0xe8,
0xeb,
0xd7,
0xe6,
0xdd,
0x00,
0x00,
0x00,
0x00,
0x01,
0x00,
0x00,
0xd9,
0x00,
0xff,
0x00,
0x00,
0x00,
0x00,
0x00,
0x00,
0x01,
0x16,
0x01,
0x02,
0xf7,
0xf2,
0xfa,
0x08,
0x04,
0x0f,
0x05,
0x03,
0xf7,
0xf1,
0x00,
0x02,
0xf5,
0xeb,
0x07,
0xfc,
0x0b,
0x07,
0x08,
0x00,
0xf2,
0xec,
0x02,
0xfd,
0x0b,
0x09,
0x0b,
0xee,
0x04,
0x06,
0xf9,
0xf9,
0xfd,
0xf9,
0x05,
0xcb,
0x09,
0x05,
0xfc,
0xfb,
0xf2,
0xfa,
0x0d,
0xfc,
0x0f,
0x06,
0x09,
0xf0,
0xf9,
0xfd,
0xfc,
0x11,
0x14,
0x0a,
0x06,
0xef,
0xfc,
0xfd,
0xf8,
0xdf,
0xe5,
0xf4,
0xf6,
0x08,
0xfe,
0x13,
0xfd,
0xdd,
0xe6,
0xf4,
0xfa,
0x06,
0x03,
0x12,
0xfb,
0xe0,
0x24,
0x05,
0x0b,
0xf4,
0xea,
0xf6,
0xea,
0xea,
0x22,
0x03,
0x0e,
0xf2,
0xea,
0xfc,
0xe6,
0x05,
0xf0,
0x07,
0xf3,
0x09,
0x04,
0xfa,
0x0a,
0xfc,
0xf2,
0x0a,
0xf1,
0x09,
0x01,
0xf8,
0x09,
0x05,
0xf6,
0x05,
0x06,
0x04,
0x04,
0xf9,
0xf9,
0x05,
0xf5,
0x03,
0x08,
0x07,
0x03,
0xfb,
0xf6,
0xdd,
0xfd,
0xfc,
0xf3,
0x09,
0x02,
0xff,
0x01,
0xe1,
0x01,
0xfd,
0xf6,
0x00,
0x00,
0xff,
0x04,
0xf1,
0xe9,
0x06,
0xf7,
0x13,
0x0d,
0xf7,
0xf9,
0xeb,
0xe9,
0x09,
0xef,
0x16,
0x0a,
0xff,
0xf9,
0x2a,
0x2c,
0x0a,
0x05,
0xe2,
0xdf,
0xfe,
0xef,
0x2a,
0x2b,
0x09,
0x05,
0xe2,
0xe5,
0xff,
0xf6,
0xef,
0xf5,
0x06,
0x08,
0xfe,
0x08,
0xf4,
0xfe,
0xdb,
0x00,
0x01,
0x02,
0xfe,
0x00,
0xf9,
0x00,
0x03,
0x18,
0x02,
0x09,
0xf2,
0xf8,
0xeb,
0x04,
0xfe,
0x08,
0x02,
0x05,
0xf3,
0xfc,
0xf4,
0x03,
0xf6,
0xfb,
0xf0,
0xfc,
0x06,
0xfc,
0x01,
0x09,
0xed,
0xfd,
0xf3,
0x00,
0x08,
0xfa,
0x02,
0x03,
0x0d,
0x02,
0xfe,
0x05,
0xfb,
0x06,
0x01,
0xfa,
0xbf,
0x0b,
0x0b,
0x0a,
0xf6,
0xfb,
0x00,
0xf0,
0xe9,
0xfd,
0xff,
0xff,
0xfe,
0x03,
0xf6,
0x09,
0xee,
0xfb,
0xf8,
0xf7,
0xff,
0x02,
0xfd,
0x12,
0xfd,
0x08,
0x00,
0x06,
0xfe,
0xff,
0xf6,
0xff,
0xfe,
0x05,
0xfd,
0x0a,
0xf9,
0x07,
0xf5,
0x02,
0x12,
0x00,
0xfc,
0x00,
0x02,
0xfe,
0xfa,
0x08,
0x1b,
0xff,
0xf7,
0xfe,
0x05,
0xfc,
0xf9,
0x0a,
0xfe,
0xfc,
0xf9,
0x06,
0xf9,
0xff,
0x05,
0xfd,
0xf9,
0xf8,
0xf9,
0x08,
0xfa,
0xfe,
0x01,
0x05,
0xec,
0x0d,
0x0c,
0x04,
0xfb,
0xf4,
0xf1,
0xfb,
0xe6,
0x09,
0x0e,
0xfb,
0x00,
0xf4,
0xf6,
0xfa,
0xd7,
0xe5,
0xf3,
0xf1,
0x09,
0x0d,
0x07,
0x13,
0xf7,
0xe6,
0xf0,
0xf4,
0x05,
0x14,
0xff,
0x1c,
0x05,
0x16,
0x06,
0x08,
0xef,
0xf1,
0xfd,
0xf4,
0x05,
0x19,
0x0d,
0x05,
0xf3,
0xef,
0xfc,
0xec,
0xf5,
0xe8,
0xef,
0xeb,
0x09,
0x0c,
0x12,
0x0a,
0xf5,
0xec,
0xed,
0xea,
0x0b,
0x08,
0x18,
0x09,
0x12,
0x10,
0x09,
0x0c,
0xf0,
0xf5,
0xf5,
0xfb,
0x13,
0x12,
0x0b,
0x08,
0xf2,
0xf3,
0xfc,
0xf5,
0x11,
0x02,
0x06,
0x02,
0x04,
0xf3,
0xfe,
0xff,
0xe9,
0x02,
0x00,
0x04,
0x01,
0xfa,
0xfc,
0x00,
0xe0,
0x05,
0xee,
0x03,
0xf2,
0x0c,
0x0c,
0x04,
0xdf,
0x02,
0xee,
0x02,
0xf3,
0x0b,
0x10,
0x06,
0xe2,
0xe6,
0xe9,
0xff,
0x01,
0x0c,
0x10,
0x0f,
0xe4,
0xe1,
0xea,
0xfa,
0x05,
0x0c,
0x12,
0x12,
0xe4,
0xf4,
0x04,
0xfe,
0x05,
0x02,
0xf6,
0x03,
0xe2,
0xf9,
0x09,
0xff,
0x01,
0x01,
0xf3,
0x03,
0xfc,
0xf6,
0xfb,
0xf8,
0x03,
0xfd,
0x0e,
0x01,
0xf6,
0xfb,
0xfe,
0xf9,
0x03,
0xfc,
0x03,
0x05,
0xdd,
0x12,
0xe0,
0xf8,
0xef,
0xf9,
0x0f,
0x0b,
0xdf,
0x15,
0xe5,
0xfc,
0xf6,
0xf4,
0x0e,
0xff,
0x10,
0x24,
0x0c,
0x1d,
0xe1,
0xec,
0xcf,
0xe3,
0x12,
0x24,
0x0c,
0x1d,
0xe6,
0xec,
0xd0,
0xe5,
0xdf,
0x00,
0xff,
0x00,
0x01,
0x01,
0xff,
0xff,
0xd8,
0x00,
0x00,
0x00,
0x00,
0x00,
0x00,
0x00,
0xf1,
0x01,
0x19,
0xf5,
0x09,
0xf4,
0xf9,
0xfc,
0xda,
0x03,
0x1b,
0x03,
0x05,
0xfb,
0xe7,
0xf9,
0xe2,
0xf5,
0xf1,
0x00,
0x02,
0x05,
0x06,
0x06,
0xe7,
0xf2,
0xec,
0x05,
0x00,
0x05,
0x08,
0x08,
0xf3,
0xfd,
0xf9,
0xef,
0x00,
0xf7,
0x0d,
0x0e,
0xcf,
0x01,
0x00,
0xf7,
0xfe,
0xf3,
0x08,
0x0d,
0xf3,
0x0d,
0x02,
0x0d,
0xef,
0xfb,
0xfa,
0x03,
0x04,
0x10,
0x07,
0x0a,
0xf1,
0xfa,
0xf7,
0xfe,
0xe0,
0xea,
0xf9,
0xf5,
0x0a,
0xfb,
0x10,
0xfc,
0xdd,
0xeb,
0xf7,
0xf7,
0x07,
0xfd,
0x12,
0xfb,
0xd9,
0x23,
0x05,
0x0b,
0xf2,
0xee,
0xf1,
0xef,
0xe8,
0x20,
0x00,
0x0c,
0xf3,
0xef,
0xfa,
0xec,
0x06,
0xf4,
0x0b,
0xef,
0x0c,
0x00,
0xfc,
0x06,
0x00,
0xf6,
0x0e,
0xf1,
0x0a,
0x00,
0xf7,
0x04,
0xe1,
0xf4,
0x0c,
0x06,
0x07,
0x04,
0xf1,
0xf6,
0xe8,
0xf5,
0x0c,
0x07,
0x0a,
0x01,
0xf3,
0xf3,
0x14,
0x09,
0x0d,
0x06,
0xfe,
0x05,
0xf3,
0xf0,
0x12,
0x0b,
0x11,
0xfa,
0x04,
0x00,
0xf4,
0xf7,
0xf9,
0xe8,
0xfd,
0xf9,
0x13,
0x0e,
0xfa,
0x00,
0xf4,
0xe8,
0x02,
0xf2,
0x14,
0x0b,
0xfb,
0x05,
0x28,
0x2a,
0x07,
0x01,
0xe1,
0xdc,
0x0a,
0xfa,
0x2a,
0x29,
0x06,
0x01,
0xe1,
0xdf,
0x08,
0xff,
0xed,
0xf8,
0x09,
0x0c,
0xfa,
0x09,
0xf2,
0xf9,
0xdd,
0xf4,
0x04,
0x00,
0x02,
0x0d,
0xf9,
0xfb,
0xfd,
0x11,
0x01,
0x0d,
0xef,
0xfc,
0xe6,
0x08,
0xf8,
0x08,
0xfe,
0x09,
0xea,
0x02,
0xf2,
0x0b,
0x04,
0xf8,
0xf2,
0x04,
0xf9,
0xfa,
0x07,
0x10,
0xfb,
0xf9,
0xf7,
0x01,
0x00,
0xf6,
0x01,
0x11,
0x09,
0x01,
0xf8,
0xff,
0xfc,
0x09,
0x0b,
0xfe,
0xbf,
0xff,
0xfa,
0xfa,
0xfd,
0xfe,
0x0f,
0x00,
0xea,
0xf9,
0x00,
0xfb,
0x04,
0x06,
0xf8,
0x05,
0xeb,
0xf4,
0xf7,
0xfa,
0x02,
0x0c,
0xfb,
0x0d,
0xee,
0x0a,
0x04,
0x04,
0xfd,
0xff,
0xf4,
0xff,
0xef,
0x05,
0xff,
0x04,
0xfd,
0xff,
0xfb,
0x00,
0x13,
0xfb,
0xf9,
0x01,
0x00,
0xfe,
0xfd,
0x0b,
0x19,
0xfa,
0xf7,
0xfc,
0x04,
0xfb,
0xfd,
0x10,
0xf6,
0xf4,
0xf6,
0x03,
0x00,
0xff,
0x06,
0x04,
0xf3,
0xf4,
0xf3,
0x07,
0xff,
0x01,
0x09,
0x02,
0xe9,
0x11,
0x0e,
0x07,
0xfc,
0xf5,
0xf0,
0xf3,
0xee,
0x16,
0x0e,
0x03,
0xfa,
0xf6,
0xed,
0xf5,
0xd8,
0xec,
0xff,
0xf6,
0x05,
0x0c,
0x04,
0x05,
0xec,
0xea,
0xfe,
0xf5,
0x09,
0x0d,
0xfb,
0x0e,
0x14,
0x16,
0x04,
0x08,
0xef,
0xf4,
0xf9,
0xf0,
0x11,
0x17,
0x07,
0x07,
0xf0,
0xf1,
0xfc,
0xed,
0xf6,
0xe4,
0xe6,
0xe5,
0x09,
0x10,
0x14,
0x16,
0xf7,
0xe9,
0xe6,
0xe2,
0x08,
0x0d,
0x17,
0x13,
0xfe,
0x04,
0x0c,
0x07,
0xfa,
0xf4,
0xf9,
0xfc,
0xfb,
0x08,
0x0c,
0x0b,
0xf1,
0xf9,
0xfb,
0xf7,
0x15,
0x08,
0x0c,
0x06,
0x03,
0xf2,
0xf7,
0xf7,
0xe9,
0x07,
0x07,
0x07,
0x00,
0xf7,
0xf8,
0xf7,
0xe3,
0x04,
0xeb,
0x02,
0xfa,
0x0c,
0x0c,
0xff,
0xe1,
0x02,
0xeb,
0x02,
0xfa,
0x09,
0x12,
0x00,
0xf8,
0xcf,
0xe5,
0x01,
0x08,
0x12,
0x13,
0x13,
0xf5,
0xcd,
0xe6,
0x05,
0x08,
0x13,
0x11,
0x11,
0xdb,
0xf3,
0x04,
0x02,
0x03,
0x02,
0xf2,
0x01,
0xde,
0xf7,
0x07,
0x00,
0xff,
0x01,
0xf3,
0x03,
0xfc,
0xf9,
0xff,
0xf8,
0xff,
0xf8,
0x12,
0x02,
0xf3,
0xfd,
0x01,
0xfa,
0xfe,
0xf9,
0x05,
0x07,
0xd3,
0x1e,
0xee,
0xfe,
0xe7,
0xf7,
0x00,
0x03,
0xda,
0x14,
0xeb,
0xfd,
0xee,
0x01,
0x04,
0xfc,
0x15,
0x29,
0x0a,
0x1c,
0xe1,
0xeb,
0xce,
0xe6,
0x16,
0x2a,
0x07,
0x1c,
0xe5,
0xeb,
0xd1,
0xe3,
0x10,
0x00,
0x00,
0x00,
0x01,
0x01,
0xff,
0xfe,
0x08,
0x00,
0x01,
0x00,
0x02,
0x00,
0xfe,
0xfd,
0xea,
0xfe,
0x10,
0x00,
0x03,
0xf9,
0xf6,
0xfd,
0xe7,
0x09,
0x0e,
0x04,
0x00,
0xf1,
0xf2,
0x01,
0xe7,
0xf6,
0xec,
0x06,
0xfd,
0x09,
0x06,
0x08,
0xe8,
0xee,
0xec,
0x06,
0xfb,
0x0f,
0x07,
0x0a,
0xe0,
0x04,
0x05,
0xf7,
0xfa,
0xfc,
0xfb,
0x08,
0x09,
0x03,
0x0c,
0x08,
0x02,
0x09,
0xee,
0xec,
0xcd,
0x0e,
0x06,
0x0a,
0xf1,
0xfa,
0xfd,
0xf9,
0x0d,
0x18,
0x09,
0x02,
0xef,
0xf1,
0x06,
0xfc,
0xe0,
0xe6,
0xf4,
0xf4,
0x0a,
0xfd,
0x16,
0xff,
0xe0,
0xe4,
0xf3,
0xfa,
0x0b,
0x06,
0x11,
0xf9,
0xec,
0x22,
0x07,
0x0b,
0xf5,
0xec,
0xf3,
0xeb,
0xec,
0x23,
0x03,
0x0e,
0xef,
0xee,
0xf6,
0xe7,
0x0b,
0xef,
0x06,
0xf1,
0x08,
0x04,
0xfd,
0x0c,
0xfa,
0xf8,
0x0b,
0xef,
0x0a,
0xff,
0xf9,
0x06,
0xf2,
0xf5,
0x05,
0x06,
0x06,
0x04,
0xf9,
0xfb,
0xf3,
0xf6,
0x05,
0x07,
0x06,
0x02,
0xfb,
0xf9,
0xe5,
0xfc,
0xfb,
0xf3,
0x08,
0x04,
0x02,
0xfe,
0xd5,
0x06,
0xfe,
0xf6,
0x01,
0xfe,
0xfb,
0x03,
0xeb,
0xe4,
0x04,
0xfa,
0x12,
0x0e,
0xfb,
0xfb,
0xe4,
0xe8,
0x05,
0xef,
0x13,
0x03,
0x08,
0x00,
0x22,
0x2b,
0x0a,
0x06,
0xe2,
0xe2,
0xfe,
0xf1,
0x20,
0x2a,
0x09,
0x04,
0xe0,
0xe2,
0x01,
0xfc,
0x15,
0xf5,
0x08,
0x0a,
0xfe,
0x09,
0xf3,
0xfb,
0xec,
0x04,
0x07,
0x04,
0xfc,
0xff,
0xf5,
0xfd,
0xf6,
0x1c,
0x02,
0x0b,
0xf1,
0xf7,
0xeb,
0x01,
0xf8,
0x07,
0x01,
0x06,
0xf7,
0xfe,
0xf4,
0x04,
0xf4,
0xf6,
0xf0,
0x01,
0xfd,
0x01,
0x06,
0x0d,
0xec,
0xfc,
0xf4,
0x04,
0x00,
0xfa,
0x02,
0x09,
0xfa,
0xfe,
0xf9,
0x03,
0x00,
0x0b,
0x03,
0xfe,
0xff,
0x07,
0x04,
0x07,
0xf9,
0x01,
0x05,
0xf2,
0xe2,
0xfc,
0xfe,
0x00,
0xff,
0x04,
0xf5,
0x08,
0xe6,
0xf4,
0xf7,
0xfe,
0x00,
0x0b,
0xfb,
0x0b,
0xf4,
0x07,
0x00,
0x03,
0xfc,
0x00,
0xfa,
0x03,
0xf5,
0x08,
0xfe,
0x06,
0xf9,
0x03,
0xf9,
0x02,
0x0e,
0xfe,
0xff,
0x00,
0x02,
0xfe,
0xfd,
0x04,
0x13,
0xfb,
0xfb,
0xfd,
0x04,
0xfe,
0xfc,
0x08,
0xf8,
0xf8,
0xf6,
0x02,
0xfa,
0x03,
0x0c,
0xff,
0xf8,
0xf0,
0xf4,
0x00,
0xfb,
0xfc,
0x0f,
0x0f,
0xf3,
0x0e,
0x0c,
0x07,
0xf7,
0xf5,
0xf0,
0x00,
0xf3,
0x07,
0x08,
0xfc,
0xfe,
0xf2,
0xfd,
0x03,
0xe6,
0xe8,
0xf5,
0xf3,
0x05,
0x0e,
0x06,
0x12,
0x09,
0xe2,
0xef,
0xfa,
0x05,
0x18,
0xfe,
0x18,
0xca,
0x14,
0x05,
0x06,
0xf4,
0xf2,
0xfd,
0xf6,
0xca,
0x15,
0x0a,
0x00,
0xf3,
0xf2,
0x00,
0xf3,
0xf3,
0xef,
0xec,
0xeb,
0x08,
0x0c,
0x10,
0x0c,
0xf3,
0xed,
0xec,
0xec,
0x08,
0x0b,
0x13,
0x0b,
0x16,
0x0e,
0x0b,
0x0a,
0xf0,
0xf6,
0xf5,
0xfb,
0x18,
0x11,
0x0c,
0x05,
0xf6,
0xf3,
0xfd,
0xf6,
0x06,
0x07,
0x08,
0x02,
0x04,
0xf0,
0xfd,
0xfd,
0x04,
0x06,
0x05,
0x06,
0x04,
0xf9,
0xf8,
0xfb,
0xda,
0x04,
0xed,
0x03,
0xf3,
0x0b,
0x0c,
0x05,
0xd9,
0xfb,
0xec,
0x05,
0xf4,
0x0b,
0x14,
0x07,
0xe5,
0xe5,
0xeb,
0xfd,
0x04,
0x0b,
0x0f,
0x0f,
0xe6,
0xe1,
0xe9,
0xfb,
0x06,
0x0f,
0x10,
0x12,
0xdc,
0xf6,
0x0a,
0x00,
0x06,
0x03,
0xf2,
0xfe,
0xe2,
0xf7,
0x0f,
0xfe,
0x02,
0x04,
0xef,
0xff,
0x00,
0xf3,
0xff,
0xf8,
0x05,
0xf7,
0x13,
0x04,
0x00,
0xfd,
0x02,
0xf9,
0x02,
0xf4,
0x08,
0x04,
0xd1,
0x1b,
0xee,
0xfa,
0xee,
0xf4,
0x05,
0x05,
0xd6,
0x12,
0xea,
0xf8,
0xf1,
0x00,
0x07,
0x03,
0x19,
0x26,
0x0c,
0x1d,
0xe0,
0xeb,
0xcd,
0xe7,
0x1b,
0x26,
0x0b,
0x1e,
0xe6,
0xec,
0xcd,
0xe6,
0x0f,
0x00,
0xfe,
0xff,
0x02,
0x00,
0x00,
0xfe,
0x06,
0x00,
0xff,
0x00,
0x03,
0xff,
0x00,
0xfe,
0xea,
0xfa,
0x08,
0xf9,
0x06,
0xf8,
0x04,
0x00,
0xd2,
0x08,
0x0e,
0xff,
0x05,
0xec,
0xf6,
0x01,
0xe2,
0xfa,
0xf1,
0x04,
0xfe,
0x07,
0x04,
0x05,
0xdf,
0xeb,
0xef,
0x0b,
0xfa,
0x16,
0xfa,
0x0c,
0xe7,
0x05,
0x03,
0xfa,
0xfc,
0xf7,
0xfc,
0x08,
0x0c,
0x07,
0x0c,
0x07,
0x02,
0x09,
0xec,
0xea,
0xca,
0x0d,
0x07,
0x0e,
0xee,
0xfa,
0xff,
0xfa,
0x0f,
0x16,
0x0a,
0x07,
0xee,
0xef,
0x05,
0xfb,
0xdf,
0xe9,
0xf8,
0xf6,
0x0a,
0xfd,
0x13,
0xfe,
0xde,
0xe4,
0xf5,
0xfb,
0x0b,
0x07,
0x0f,
0xf8,
0xeb,
0x1e,
0x07,
0x0b,
0xf6,
0xef,
0xf2,
0xef,
0xef,
0x21,
0x02,
0x0d,
0xf2,
0xf1,
0xf5,
0xec,
0x06,
0xf3,
0x05,
0xef,
0x0b,
0x03,
0x00,
0x0b,
0xf5,
0xfb,
0x0a,
0xf0,
0x0a,
0xff,
0xfa,
0x04,
0xf7,
0xf6,
0x09,
0x07,
0x04,
0x05,
0xf6,
0xf8,
0xf8,
0xf6,
0x09,
0x07,
0x05,
0x05,
0xf4,
0xf8,
0xd8,
0x03,
0xfc,
0xf9,
0x02,
0x06,
0xfc,
0xfd,
0xd2,
0x0a,
0x03,
0xf7,
0xff,
0xfb,
0xfa,
0xfe,
0xe4,
0xe5,
0xff,
0xfa,
0x12,
0x11,
0xfb,
0xfe,
0xdf,
0xea,
0x03,
0xf2,
0x11,
0x06,
0x03,
0x03,
0x24,
0x2b,
0x09,
0x06,
0xe2,
0xe5,
0x02,
0xf4,
0x22,
0x2c,
0x0b,
0x05,
0xdc,
0xdc,
0x03,
0xfd,
0x15,
0xfa,
0x09,
0x0d,
0xfd,
0x06,
0xef,
0xfb,
0xeb,
0xff,
0x0e,
0x0a,
0xfb,
0xfe,
0xf1,
0xf7,
0xf7,
0x17,
0x04,
0x0c,
0xf0,
0xf9,
0xe6,
0x05,
0xfb,
0x0a,
0xfb,
0x02,
0xf2,
0x04,
0xf9,
0x06,
0xff,
0xf6,
0xf0,
0x04,
0xf8,
0x05,
0x09,
0x0c,
0xfa,
0xfe,
0xf7,
0x03,
0xfe,
0xfe,
0xfe,
0x09,
0xf9,
0x01,
0xf8,
0x03,
0xfe,
0x0c,
0x06,
0xfc,
0x0c,
0x03,
0xfa,
0x05,
0xfb,
0x06,
0x08,
0xf5,
0xee,
0xfc,
0x01,
0xfd,
0x02,
0x05,
0xf6,
0x05,
0xf6,
0xf3,
0xf7,
0xfd,
0x02,
0x0d,
0xfc,
0x09,
0xee,
0x07,
0x03,
0x03,
0xfe,
0x03,
0xf5,
0x00,
0xf0,
0x08,
0x02,
0x01,
0xfe,
0x01,
0xfa,
0xfe,
0x11,
0xfb,
0xfd,
0xff,
0x04,
0xfc,
0xff,
0x09,
0x13,
0xf8,
0xfa,
0xfd,
0x06,
0xfd,
0xfe,
0x0d,
0xf7,
0xf7,
0xf7,
0x01,
0xfd,
0x02,
0x0f,
0xff,
0xf9,
0xef,
0xef,
0x03,
0xff,
0x00,
0x13,
0x08,
0xfb,
0x11,
0x0f,
0x07,
0xf0,
0xf8,
0xee,
0xfe,
0x00,
0x0f,
0x0c,
0x04,
0xf2,
0xf6,
0xf5,
0x03,
0xe0,
0xed,
0xfc,
0xf5,
0x01,
0x0b,
0x05,
0x0e,
0xfb,
0xde,
0xf6,
0xff,
0x07,
0x17,
0xff,
0x0f,
0x0d,
0x12,
0x03,
0x06,
0xf6,
0xf4,
0xfc,
0xf6,
0x0c,
0x12,
0x05,
0xff,
0xf4,
0xf2,
0xff,
0xf8,
0xf2,
0xf2,
0xef,
0xeb,
0x0a,
0x0b,
0x0e,
0x0c,
0xf3,
0xee,
0xee,
0xef,
0x0a,
0x0b,
0x0f,
0x0a,
0xcb,
0x09,
0x08,
0x03,
0xf6,
0xf4,
0xfe,
0x01,
0xc9,
0x0c,
0x06,
0xfd,
0xf5,
0xef,
0x0d,
0xfe,
0x06,
0x08,
0x0b,
0x04,
0x02,
0xf2,
0xfa,
0xfa,
0xfb,
0x06,
0x09,
0x07,
0x05,
0xfa,
0xf5,
0xf8,
0xd3,
0x04,
0xec,
0x01,
0xf5,
0x0b,
0x0c,
0x05,
0xd4,
0xff,
0xe9,
0x05,
0xf5,
0x0d,
0x13,
0x04,
0xf6,
0xde,
0xed,
0xf9,
0x08,
0x0e,
0x12,
0x15,
0xf3,
0xdf,
0xea,
0xfa,
0x08,
0x12,
0x0f,
0x13,
0xdd,
0xf4,
0x0c,
0x01,
0x06,
0x02,
0xf1,
0xfd,
0xe8,
0xf6,
0x11,
0xfc,
0x02,
0x05,
0xef,
0xff,
0xfe,
0xf4,
0x00,
0xf8,
0x03,
0xf8,
0x15,
0x01,
0xfc,
0xfd,
0x00,
0xf9,
0xfd,
0xf3,
0x10,
0x03,
0xc2,
0xd0,
0xd8,
0x40,
0xf4,
0x3c,
0xca,
0x00,
0xc0,
0xe1,
0xcc,
0x4f,
0xf8,
0x47,
0xb4,
0xeb,
0xc0,
0xcf,
0xec,
0x3d,
0x02,
0x36,
0xc4,
0xf3,
0xbc,
0xe2,
0xe2,
0x4c,
0xf2,
0x39,
0xb0,
0xf7};
