/* SPDX-License-Identifier: GPL-2.0 */
/*
 * Copyright (c) 2020 MediaTek Inc.
 *
 * Author: Ya-Wen Hsu <Ya-Wen.Hsu@mediatek.com>
 *
 */

char fdvt_kernel_bias_loop14_1_frame01[] = {
0x12,
0x0d,
0xff,
0x0a,
0x01,
0x11,
0xfd,
0xfa,
0x05,
0xfb,
0xf4,
0x10,
0xf3,
0xfb,
0x16,
0x01,
0xf0,
0x0d,
0xf4,
0xf0,
0xfc,
0xe8,
0xfa,
0xf9,
0xf4,
0xf5,
0xef,
0xf7,
0xfc,
0xf9,
0x00,
0x01,
0xf2,
0xf6,
0xf8,
0x01,
0xf6,
0xff,
0xf8,
0x02,
0x09,
0x0a,
0x0b,
0xf5,
0xfc,
0xfa,
0x00,
0x0e,
0xfb,
0x05,
0x09,
0x0a,
0x1d,
0xfe,
0xfa,
0x01,
0x02,
0xfd,
0xfd,
0xfb,
0x09,
0x03,
0xf9,
0xf5,
0xfc,
0xe8,
0xfe,
0xf7,
0xe8,
0xfd,
0xf3,
0xf3,
0xfd,
0x04,
0x00,
0x01,
0x0a,
0x13,
0x06,
0x12,
0xfd,
0xef,
0xf8,
0xf3,
0xfb,
0xfd,
0xf5,
0x0c,
0x08,
0xfd,
0x08,
0x0c,
0xff,
0xec,
0xf4,
0xe7,
0xff,
0x01,
0xfe,
0x02,
0x05,
0x03,
0x01,
0x04,
0x0c,
0xea,
0xf2,
0xfe,
0xf3,
0xf6,
0x01,
0x00,
0xeb,
0x00,
0x12,
0xff,
0x18,
0x22,
0x02,
0xfe,
0x04,
0x15,
0x09,
0xf0,
0xf8,
0xf0,
0xe8,
0x03,
0x01,
0xfa,
0xfd,
0xfe,
0xf5,
0x03,
0xfc,
0x1c,
0x0b,
0x15,
0x1f,
0x1d,
0x20,
0xff,
0xfd,
0x0a,
0xf6,
0x1a,
0x00,
0xfb,
0xee,
0xf9,
0x11,
0x13,
0xf9,
0xff,
0xec,
0xf0,
0x10,
0x01,
0xfd,
0x07,
0x07,
0xfb,
0x04,
0xfb,
0xee,
0x02,
0x04,
0x00,
0x08,
0xf8,
0xf4,
0xf1,
0xfa,
0xf0,
0xfe,
0xfe,
0xff,
0xf8,
0xe1,
0xf4,
0xf1,
0x17,
0x01,
0xec,
0xf8,
0xef,
0xf9,
0x09,
0xfa,
0xfb,
0xf9,
0x04,
0xfe,
0xf8,
0x13,
0xf0,
0xf9,
0xf5,
0x06,
0x03,
0xf6,
0xff,
0x0d,
0x02,
0xfc,
0x09,
0xe6,
0xf9,
0xf5,
0x07,
0xfb,
0xfc,
0x07,
0x02,
0xfd,
0xff,
0xfe,
0x07,
0xfd,
0xf7,
0x0d,
0x12,
0x09,
0x0a,
0x10,
0xf7,
0xf8,
0xfe,
0xfd,
0x05,
0x01,
0x0b,
0x05,
0xfd,
0xf9,
0xf5,
0x05,
0xfc,
0xfb,
0xf5,
0x00,
0x01,
0xff,
0xf6,
0xff,
0xfe,
0xfc,
0xfd,
0xf9,
0xee,
0xfe,
0x06,
0xf1,
0xeb,
0xfc,
0x16,
0xe5,
0x0c,
0xee,
0x0d,
0x06,
0x12,
0xff,
0x06,
0x26,
0x05,
0x06,
0x12,
0x08,
0xf6,
0x06,
0x02,
0x09,
0xf9,
0xfb,
0x05,
0xfc,
0xfb,
0x03,
0x03,
0xfc,
0x03,
0xfb,
0xff,
0xf6,
0xff,
0xfc,
0xf9,
0x01,
0xfa,
0x02,
0xe5,
0xee,
0x15,
0xf7,
0xfb,
0x0c,
0x0c,
0x0a,
0x0e,
0x04,
0xff,
0x02,
0x05,
0xf6,
0x05,
0xfe,
0xea,
0xea,
0xed,
0xf5,
0x04,
0xfe,
0xfb,
0xf4,
0x07,
0xf1,
0x01,
0x0b,
0x00,
0xec,
0xf7,
0x07,
0x00,
0xf7,
0xfb,
0x05,
0xfa,
0xf6,
0xff,
0xf7,
0xff,
0xf8,
0xf2,
0xe2,
0xf8,
0x03,
0xf4,
0x21,
0x1f,
0x16,
0xfc,
0x00,
0x0e,
0x04,
0x0e,
0x0e,
0x22,
0x38,
0x1e,
0xf4,
0xf4,
0xfe,
0x0a,
0x03,
0x10,
0xe6,
0x04,
0x0b,
0xea,
0x05,
0xf1,
0x0b,
0xfa,
0xf9,
0x0a,
0xfd,
0x0a,
0xf9,
0xf1,
0x01,
0xfa,
0x02,
0xef,
0x13,
0xfd,
0x13,
0x0f,
0xfc,
0x09,
0x02,
0x0b,
0x16,
0x0b,
0x08,
0xfd,
0x02,
0x03,
0x01,
0x00,
0x02,
0x00,
0xee,
0xe9,
0x00,
0x13,
0xfb,
0xea,
0x17,
0x0d,
0x0c,
0xf3,
0xff,
0xf8,
0x00,
0xfc,
0x03,
0xf9,
0xf0,
0xf5,
0x07,
0xfe,
0xff,
0x07,
0xf4,
0x13,
0x03,
0x13,
0x1e,
0x0a,
0x19,
0x1e,
0x13,
0x04,
0x07,
0x06,
0x02,
0x05,
0x12,
0x11,
0x06,
0x0b,
0xf8,
0xfe,
0xfe,
0x0d,
0xfa,
0x18,
0x26,
0x22,
0xfb,
0x03,
0x01,
0xd9,
0xe0,
0xfa,
0x25,
0x21,
0xe2,
0xe9,
0xe4,
0xf3,
0xf1,
0xf0,
0xf6,
0xf5,
0x0b,
0x27,
0x33,
0x27,
0x08,
0x07,
0xfc,
0x09,
0x0c,
0xe5,
0xd0,
0xe7,
0x0e,
0xf9,
0x02,
0xfd,
0xf8,
0x02,
0xdd,
0xf6,
0xf0,
0x04,
0xe8,
0xd0,
0xed,
0xf2,
0xf6,
0x03,
0x0f,
0x34,
0x16,
0x22,
0x06,
0x13,
0x18,
0xe1,
0xf2,
0xfe,
0x16,
0xf2,
0x03,
0xf9,
0xf1,
0xfe,
0xe9,
0xf1,
0xf9,
0x08,
0xf7,
0xf8,
0xf8,
0x07,
0xed,
0xf6,
0x07,
0x05,
0xfb,
0xf9,
0xfa,
0xfb,
0xf5,
0x00,
0x06,
0xfa,
0xfe,
0xfa,
0x09,
0x06,
0x00,
0x07,
0x0a,
0x0d,
0xfd,
0xf8,
0x02,
0x01,
0xfa,
0x04,
0x01,
0xfc,
0x04,
0x00,
0xfb,
0x03,
0x11,
0x03,
0x00,
0x0d,
0x10,
0xf5,
0xff,
0xfd,
0xfc,
0x12,
0xee,
0xec,
0xfe,
0xd4,
0xf5,
0x15,
0x0d,
0x0b,
0xfc,
0xf7,
0x08,
0x02,
0x01,
0xfe,
0xfb,
0xf1,
0xf6,
0xed,
0xec,
0xe6,
0xf8,
0x01,
0xf9,
0xfc,
0xf6,
0xf9,
0x02,
0x07,
0xf8,
0x00,
0xfd,
0x08,
0xfc,
0xfd,
0xfc,
0x04,
0xef,
0x0a,
0x02,
0x06,
0x0c,
0xfe,
0xfb,
0xf3,
0xf8,
0xf4,
0xf5,
0xfc,
0xfc,
0xfd,
0x00,
0xf4,
0x02,
0xf8,
0xfb,
0xfa,
0xf1,
0x03,
0x25,
0x00,
0x05,
0xfc,
0x01,
0x01,
0xf9,
0x06,
0x05,
0xeb,
0xfc,
0x0d,
0x09,
0x08,
0x20,
0xf7,
0xed,
0xf7,
0x14,
0x12,
0x08,
0xfa,
0x0e,
0xfb,
0xf7,
0xfb,
0xfa,
0xf2,
0xf3,
0xeb,
0xfa,
0xee,
0x08,
0x11,
0x09,
0xfb,
0xf7,
0xff,
0xfb,
0xf9,
0x06,
0x06,
0xfe,
0x13,
0x02,
0x18,
0x13,
0x05,
0xfd,
0x01,
0x04,
0xfd,
0x07,
0xf4,
0xf3,
0x19,
0xf5,
0xf0,
0x02,
0xfb,
0x05,
0xfc,
0x12,
0x17,
0xff,
0xff,
0xfc,
0xfc,
0xfe,
0xfd,
0x00,
0xff,
0x0f,
0x00,
0xf9,
0x1b,
0x22,
0xfb,
0x0f,
0x07,
0xef,
0xdc,
0x01,
0x00,
0x10,
0x0d,
0xff,
0x00,
0x0b,
0x04,
0x0f,
0x14,
0x09,
0x06,
0x00,
0x01,
0x03,
0xfa,
0x05,
0x07,
0xf5,
0xf4,
0xef,
0xfd,
0xf4,
0xf2,
0xf6,
0xee,
0xf9,
0x06,
0x03,
0x0c,
0xe7,
0x08,
0xe9,
0xf1,
0x1c,
0xe7,
0xeb,
0xf8,
0xfc,
0x04,
0x0d,
0x0d,
0x15,
0x17,
0x0c,
0x16,
0x0a,
0x07,
0x0e,
0x0a,
0x18,
0xff,
0x04,
0x0d,
0x01,
0xff,
0xfc,
0xfc,
0x0e,
0xf1,
0xf4,
0x0a,
0x08,
0x02,
0x01,
0xf7,
0x07,
0xfe,
0xf3,
0xf4,
0xee,
0xfb,
0x12,
0xf3,
0x17,
0x1e,
0x15,
0x01,
0xe9,
0xf7,
0x11,
0x0f,
0xf1,
0x01,
0x09,
0xea,
0xfd,
0xf5,
0xe3,
0x04,
0xfd,
0xf5,
0xfc,
0xf9,
0x01,
0xf1,
0xff,
0xff,
0x01,
0xfe,
0xfd,
0x04,
0xfb,
0x05,
0xff,
0xfb,
0x01,
0x05,
0xff,
0xef,
0xf3,
0x0b,
0x01,
0x06,
0x03,
0xfd,
0xe6,
0x0d,
0xf0,
0xfa,
0x09,
0xf0,
0xf8,
0x07,
0x12,
0x0b,
0xff,
0xfe,
0xfe,
0xfe,
0xf9,
0xfe,
0xf7,
0xfb,
0x11,
0xfe,
0xf4,
0x18,
0x04,
0xf3,
0x1a,
0x0c,
0x03,
0x12,
0x09,
0xeb,
0xf0,
0x04,
0xe6,
0xf7,
0xff,
0xf4,
0xf8,
0xfb,
0xe7,
0x09,
0x0e,
0x01,
0xfb,
0x03,
0x07,
0xfc,
0xf7,
0xf5,
0x01,
0x01,
0xee,
0x01,
0x09,
0xf2,
0x01,
0xfa,
0x06,
0x06,
0xfa,
0xeb,
0x0c,
0xfc,
0x01,
0x05,
0xed,
0xfc,
0x0e,
0xec,
0xe7,
0x1c,
0x02,
0x01,
0xf4,
0xf5,
0x0e,
0x02,
0xea,
0x05,
0x13,
0x0a,
0x0e,
0x02,
0xf8,
0x0f,
0x0a,
0xfc,
0xfe,
0x08,
0x05,
0xf6,
0xf9,
0x15,
0xfc,
0xec,
0x13,
0x09,
0x17,
0x0d,
0x05,
0x1c,
0x11,
0xe6,
0x0a,
0x05,
0xf8,
0x1b,
0xfe,
0xdf,
0x0d,
0xfd,
0x08,
0xf9,
0xf2,
0x30,
0x04,
0xde,
0x1c,
0x0f,
0xf4,
0x24,
0xfb,
0xfd,
0xf1,
0xf2,
0x04,
0xfd,
0x05,
0x0f,
0xf6,
0x14,
0x0e,
0xfe,
0x00,
0xf7,
0xfc,
0xf4,
0x02,
0xdc,
0xfc,
0x06,
0xfb,
0x04,
0x02,
0xfa,
0x16,
0xea,
0xf7,
0x09,
0xe8,
0x0d,
0xfd,
0x01,
0x08,
0xff,
0x02,
0x01,
0xfe,
0x00,
0x01,
0xfc,
0xfd,
0xfb,
0x0c,
0xf6,
0xfc,
0x16,
0xff,
0xf3,
0x07,
0x10,
0x05,
0x05,
0xff,
0x12,
0x03,
0x07,
0x0c,
0x04,
0x03,
0x0b,
0x08,
0x1f,
0xf2,
0x04,
0x04,
0xf1,
0x10,
0xee,
0x01,
0x05,
0x08,
0x06,
0x12,
0x01,
0x04,
0xfd,
0x04,
0x06,
0xf1,
0xf8,
0xf5,
0xe6,
0x1f,
0x1d,
0x1c,
0x01,
0xf6,
0x16,
0x17,
0xf6,
0x2c,
0x15,
0xf8,
0xf8,
0xe2,
0xf5,
0xe3,
0xed,
0x06,
0x01,
0xfb,
0xf6,
0xfd,
0xe8,
0x13,
0x12,
0xfc,
0x14,
0x0b,
0xfe,
0x00,
0xef,
0xeb,
0xf4,
0xee,
0xf1,
0xfd,
0xfe,
0x06,
0xfa,
0xf9,
0xf0,
0xfd,
0xfe,
0x07,
0xfe,
0xf3,
0xf3,
0xe0,
0xe7,
0xf5,
0x00,
0x03,
0x14,
0x04,
0xf5,
0xf8,
0x03,
0xf7,
0x16,
0x0c,
0x0d,
0x08,
0x11,
0xf6,
0xf5,
0x02,
0xf5,
0x11,
0xfa,
0xf4,
0x05,
0xf4,
0xfd,
0x09,
0x03,
0xf9,
0x05,
0x02,
0x10,
0xfc,
0x14,
0xf7,
0x0c,
0xfd,
0xf7,
0xff,
0xfa,
0xfa,
0x03,
0xf9,
0x0b,
0xfd,
0xf0,
0x11,
0x01,
0x0d,
0x05,
0x00,
0xff,
0x03,
0x04,
0x05,
0x02,
0x03,
0xff,
0xfa,
0xf0,
0xfa,
0xfc,
0xf9,
0xf7,
0xfa,
0xeb,
0xe3,
0xff,
0xf8,
0xf3,
0xf6,
0xf6,
0xfc,
0xfd,
0x08,
0x04,
0x0f,
0xfb,
0xdc,
0xf9,
0x17,
0xeb,
0xf3,
0xf5,
0xff,
0xf1,
0x06,
0x02,
0xee,
0x12,
0xf6,
0x07,
0x07,
0xe9,
0xfc,
0x1c,
0x0f,
0x08,
0x00,
0x00,
0x00,
0x00,
0x00,
0x00,
0x00,
0x00,
0x00,
0x00,
0x00,
0x00,
0x00,
0x00,
0x00,
0x00};
